e </w>
n </w>
a </w>
s </w>
r </w>
i </w>
t </w>
a n
o </w>
e r
l </w>
i n
e n
h </w>
a r
g </w>
a n</w>
k </w>
e n</w>
d </w>
u </w>
a l
o n
s t
a t
m </w>
c h
e l
e s</w>
o r
d e</w>
e r</w>
и </w>
y </w>
ا ل
а </w>
u n
े </w>
a m
a r</w>
a s
e s
d i
r o
о </w>
i t
я </w>
ा </w>
е </w>
ी </w>
с т
c o
e m
i l
e t
a d
i c
w </w>
a p
u k</w>
i t</w>
a c
р о
t h
o l
е н
t r
й </w>
в </w>
र </w>
u r
a k
ं </w>
t i
a s</w>
r e
o n</w>
р а
к о
i s
ن </w>
i n</w>
l e
n g</w>
an g</w>
j a</w>
ة </w>
s e
п о
у </w>
b a
ا </w>
c </w>
o t
p </w>
е р
h i</w>
н о
in g</w>
a t</w>
l i
v i</w>
e l</w>
a l</w>
m s</w>
і </w>
z h
q u
ת </w>
p t</w>
r u</w>
o r</w>
p l</w>
t r</w>
n l</w>
k o</w>
н а
f r</w>
i d</w>
t w</w>
z h</w>
zh -
zh- tw</w>
l e</w>
t h</w>
u s
н и
h e</w>
r i
a b
u l
m en
ь </w>
a g
м </w>
p er
i r
ง </w>
ה </w>
u t
น </w>
l o
в а
ي </w>
ם </w>
e t</w>
p o
an d
e c
ى </w>
s i
л ь
т о
o m
d i</w>
t er
a h</w>
क े</w>
b i
в о
p ar
an g
х </w>
в и
f </w>
i s</w>
t e</w>
b e
н а</w>
o s</w>
न </w>
i a</w>
p r
u m
b er
p h
к а
d e
р е
ह ै
з а
k an</w>
p l
z </w>
a m</w>
р и
н ы
m o
d an</w>
b o
g i
h o
י </w>
t o
b r
е т
l a</w>
् र
en g
p ro
ो </w>
a k</w>
v er
д о
u r</w>
י ם</w>
in g
ت </w>
м о
x </w>
म े
л а
t o</w>
л о
y ang</w>
à </w>
c h</w>
a v
к </w>
न े</w>
on e</w>
г о</w>
л и
n i
b u
a h
ы </w>
e st
d o
s u
ر </w>
a y
h i
। </w>
в і
an t
м а
т а
क </w>
at i
a u
م </w>
، </w>
d a</w>
ר </w>
d o</w>
k e
ل </w>
п ро
र ्
k a</w>
a i
v i
en t
मे ं</w>
้ า
г о
s p
ال م
c i
z i
c on
त </w>
l u
т и
ל </w>
a i</w>
un t
ี ่
क ी</w>
ก </w>
e g
an d</w>
u s</w>
m a
д а
b </w>
d u
с </w>
т е
к и
u n</w>
т ь</w>
н </w>
с о
g r
c ar
ad a</w>
e d
ю </w>
к и</w>
i m
т </w>
स े</w>
ो ं</w>
a w
स ्
क ि
e m</w>
к а</w>
s o
р у
า ร
с я</w>
د </w>
ї </w>
з </w>
n h
co m
л е
unt uk</w>
д и
ו ת</w>
ल </w>
s ch
ด </w>
л я</w>
n o
un g</w>
ี </w>
p i
ı </w>
б о
้ อ
e k
n a</w>
p en
v o
의 </w>
n h</w>
् य
ك </w>
ן </w>
บ </w>
in t
л и</w>
n e
in i</w>
ท ี่
a f
th e</w>
e d</w>
า ย
w i
स </w>
ст а
ي ة</w>
ен и
m em
ม </w>
н я</w>
क ा
d r
н е
h ot
м и</w>
п а
k o
์ </w>
है </w>
i k</w>
in e</w>
д е
f or
s e</w>
i g
d er</w>
p or
s h
ا ن
a u</w>
ا ر
y a</w>
m u
ل ى
c u
н і
म </w>
क ा</w>
j </w>
v e</w>
b l
st r
k i</w>
т и</w>
н е</w>
k h
ч а
ه </w>
д ля</w>
อ ง
k i
m e
qu e</w>
य ा</w>
d ar
m e</w>
par a</w>
m ar
y o
त ा</w>
u m</w>
व ा
eng an</w>
ic </w>
с и
은 </w>
б у
m an
า </w>
m i
ف ي</w>
म ा
н о</w>
i l</w>
n g
h e
м і
a y</w>
г а
औ र</w>
с ь
w e
다 </w>
ch e</w>
ak an</w>
क ो</w>
в е
g a</w>
ع ل
t e
ا ت</w>
ल ि
s er
d engan</w>
д </w>
j e</w>
х о
c e</w>
л і
f or</w>
प ्र
о б
ц і
п ри
ер е
ए </w>
m er
a st
g e
t el
a d</w>
ц и
hot el</w>
co m</w>
ก าร
ร ะ
क ्
m as
р і
는 </w>
ق </w>
ч е
f r
co l
b el
d al
j u
c z
ó </w>
н і</w>
d er
p ada</w>
ч и
b ar
en t</w>
on g</w>
p er</w>
t u
é </w>
un g
u g</w>
ר ו
ว </w>
स ा
ह </w>
י נ
men g
c am
ร ั
व ि
o f</w>
il i
n e</w>
한 </w>
and a</w>
p e
a z
ر ا
c as
in a</w>
م ن</w>
с у
א ו
в ы
d en</w>
h ar
es s
f i
р </w>
이 </w>
क र
ส ่
p u
k e</w>
ph one</w>
ل ا
t a</w>
을 </w>
м и
न ा</w>
es s</w>
am a</w>
el l
т о</w>
g u
ब ा
c or
v </w>
s i</w>
ज ा
i e</w>
п і
ال ت
ap </w>
อ </w>
м е
с е
к ра
ет </w>
с а
ã o</w>
es t</w>
ô ng</w>
al i
л я
k er
к у
б а
an t</w>
ד </w>
a an</w>
т а</w>
ال أ
ड ़
o w
v er</w>
o p
л </w>
a j
ع </w>
스 </w>
ba h
a ut
र ा
s en
t em
ag e</w>
e x
ст о
k u
f l
dal am</w>
ל ו
ە </w>
le d</w>
ب </w>
к у</w>
n o</w>
н и</w>
b al
д у
ई </w>
un d</w>
ны й</w>
k l
و ل
ا ن</w>
भ ी</w>
ê n</w>
yo u</w>
ग </w>
ст в
니 다</w>
m at
м у</w>
ba g
л а</w>
s el
י ת</w>
g e</w>
ו נ
त ्
و </w>
에 </w>
m et
न ि
ב </w>
z e</w>
g h
ati on</w>
m in
ו ר
ны е</w>
จ ั
ח </w>
o o
س ت
l es</w>
ن ى
ื ่
त ि
าย </w>
ه ا</w>
м ен
п ре
ק </w>
al e</w>
з о
द </w>
w ar
ห น
e k</w>
؟ </w>
á </w>
co n</w>
प र</w>
ш и
कि </w>
v an</w>
л ю
e f
т у
อ ง</w>
ट </w>
s a
am p
t er</w>
t s</w>
أ ن
m a</w>
้ </w>
त े</w>
ल ा
к і
ang an</w>
ะ </w>
ن ا
ạ n</w>
c ó</w>
it e</w>
ह ा
ห ม
т ь
b il
م ا
क र</w>
ol e
b y</w>
є </w>
่ </w>
s z
้า </w>
מ ש
ह ी</w>
w it
. </w>
ن ى</w>
но го</w>
c á
ו ל
เ ส
e p
п и
ي ن</w>
л у
v à</w>
l a
य </w>
เ ป
p an
d el
c r
t i</w>
б е
al ah</w>
트 </w>
s k
s em
ت ى
п ра
ж и
द े
أ ن</w>
ค ร
ay a</w>
แ ล
dar i</w>
e u
ur e</w>
i m</w>
ấ t</w>
p el
m on
s on
م ا</w>
द ि
u t</w>
i d
公 司
о р
प ा
ह ी
д і
न ्
k ar
ни й</w>
p eng
ह ो
п е
di e</w>
ab le</w>
it a</w>
д а</w>
ô i</w>
c o</w>
b at
er a</w>
k on
s ho
่ า
as i</w>
है ।</w>
ี ย
ớ i</w>
s il
ر ي
j o
기 </w>
s am
ส ำ
e v
ể </w>
ст и
를 </w>
b ạn</w>
c ủ
ڭ </w>
d es
र ी</w>
p ol
ch o</w>
h u
ки й</w>
н у
củ a</w>
л ен
ق ى
g o
g l
ac k</w>
z a</w>
s a</w>
r u
c a</w>
r e</w>
an a</w>
ไ ม
य ा
m ot
न ा
드 </w>
в ер
จั ด
al l
er s</w>
t a
щ о</w>
e en</w>
at a</w>
ฟ ร
m el
ي ا
b e</w>
f f
ch i
ف </w>
लि ए</w>
ส ี
b er</w>
w h
ar i
r o</w>
щ и
w at
t ro
d ap
t en
il l
in ter
ole h</w>
ж ен
า ม
ư ợ
ห รั
i phone</w>
ذ ا</w>
지 </w>
з а</w>
ए क</w>
ж а
ic a</w>
מ ו
ar e</w>
ห ล
w om
ל י
k am
व </w>
ही ं</w>
п ере
r es
ti d
ก ร
r a
स ं
д о</w>
ו ר</w>
ic h</w>
สำ หรั
or e</w>
p em
ब </w>
त ा
र ि
ก ั
с і
จัด ส่
س ا
و ن</w>
al l</w>
ad o</w>
ش </w>
เ ล
ai r</w>
f il
b es
n ya</w>
d ec
t ôi</w>
l ar
ء </w>
но й</w>
ві д
عل ى</w>
p ri
w an
ह ु
ल े
อ ร
ً </w>
б и
ำ </w>
з и
ad alah</w>
ئ ى
in d
운 </w>
en te</w>
س ى
о т
리 </w>
o c
g ar
s o</w>
в а</w>
س </w>
d el</w>
m ak
с по
ل ا</w>
on s</w>
ạ i</w>
н ня</w>
wit h</w>
ल े</w>
w y
ण </w>
่ น</w>
z e
료 </w>
ل ل
न ी</w>
د ا
เ ท
o k</w>
t en</w>
ic o</w>
di s
ช ั
ст ь</w>
b an
भ ा
a ç
ть ся</w>
ز </w>
ж е</w>
c an
t ah
ו ן</w>
च ा
ени я</w>
ู ้
k an
s ol
म ि
м у
ช ุ
б і
с ко
di a</w>
公司 </w>
न हीं</w>
g o</w>
s t</w>
c i</w>
ף </w>
ื ้อ
п р
ar a</w>
้ น</w>
ห ญ
प </w>
з на
in o</w>
م ە
है ं</w>
ฟร ี</w>
л ь</w>
ค ว
k el
c l
g en
เ ก
a ir
tid ak</w>
h er
ب ا
ค ุ
p as
at e</w>
성 </w>
ны х</w>
i st
نى ڭ</w>
ì nh</w>
as a</w>
د ة</w>
s y
п ла
k at</w>
ס י
ט </w>
ع ا
ۇ </w>
h et</w>
म ु
d es</w>
ข น
л о</w>
ך </w>
c k
د ى
g er
п у
h om
на я</w>
ac i
ย </w>
u p
ac k
g i</w>
o m</w>
a o</w>
ב י
ac e</w>
ב ו
پ </w>
า ว</w>
w or
п ер
ב ע
t ur
ר י
त ी</w>
ко н
кра ї
s at
र ह
ผ ู้
f er
ر ى
p a
us b</w>
ни х</w>
有 限
al i</w>
т ер
ג </w>
เ ด
ต ่
at an</w>
ل ي
로 </w>
i r</w>
g un
c ar</w>
ti on</w>
d s</w>
m en</w>
ic e</w>
و ا
م ى
p re
т е</w>
c ap
d an
ن ا</w>
cá c</w>
m á
ข อง
פ נ
श </w>
w er
ज </w>
o d
د ي
st a
d as</w>
क् ष
מ י
송 </w>
i an</w>
ह ि
m an</w>
at o</w>
i z
ก ระ
l à</w>
แ บ
se t</w>
무 료</w>
ế t</w>
अ प
p e</w>
ก ล
w e</w>
ch t</w>
j e
v e
en tr
po ur</w>
ต ิ
pro du
p ul
す </w>
g el
स ी</w>
年 </w>
ת י
ق ا
t am
ả n</w>
ст и</w>
u y
ế n</w>
k et
त ो</w>
จัดส่ ง
к о</w>
r a</w>
לו ח</w>
ро з
д ен
b as
р а</w>
c er
ó n</w>
ल ी</w>
н я
คุ ณ
ที่ </w>
m us
ب ى
배 송</w>
ال ا
a in</w>
us e</w>
k em
어 </w>
c k</w>
t an
ل ى</w>
ра з
r en
t or
เ คร
f o
ल ्
인 </w>
ệ n</w>
ש </w>
m i</w>
m ul
ו ל</w>
ज ि
有限 公司</w>
e in
sh ir
an h</w>
b a</w>
ม า
b en
or t</w>
ờ i</w>
ו </w>
g ro
z y
र े</w>
т і
g ol
s et
s it
v ol
เ ร
ak i</w>
ال </w>
ภ า
m ag
г и
v est
ー </w>
н у</w>
เส ื้อ
k om
г ра
h ol
ิ ง</w>
h er</w>
l am
г </w>
ı n
сь ко
w o
ิ น
س ي
er i
ื อ</w>
у краї
ل ك</w>
b ro
ac c
cas e</w>
f ü
ल ा</w>
k or
p s</w>
נ ש
נ י
ac h</w>
t on</w>
et a</w>
و ر
ं ग
g al
мо ж
l i</w>
о го</w>
l in
li gh
д у</w>
b lu
f re
k ol
수 </w>
k le
ل ە
ę </w>
ch en</w>
tr an
h al
o p</w>
สำหรั บ</w>
k r
ж </w>
ต ร
h a</w>
ت ح
เคร ื่
p al
स ि
đ i
ą </w>
ộ t</w>
m et</w>
a di
ป ระ
е й</w>
고 </w>
s c
s ung</w>
v ới</w>
b or
จัดส่ง ฟรี</w>
थ </w>
à ng</w>
ח ינ
er e</w>
ื อ
п о</w>
ר ה</w>
מש לוח</w>
ภา พ
א י
с ка
ति </w>
or i
ch ar
n y</w>
ượ c</w>
w a</w>
้ น
kh ông</w>
il e</w>
с ь</w>
un i
חינ ם</w>
м ер
er i</w>
к ла
с ки
ล </w>
ئ ا
र ा</w>
ล ิ
द ्
น ้
t y</w>
ッ ト
מ ל
ap a</w>
ס </w>
า น</w>
ć </w>
vo or</w>
d on
st e
a zi
p a</w>
b ur
แล ะ</w>
i ç
ai l</w>
מ כ
f em
v en
ด ู
ש י
द ा
m ini</w>
स म
ad or</w>
ใ หม
इ स</w>
ени е</w>
c al
و ي
as s
d u</w>
р ы
dec or
đ ược</w>
о д
pl us</w>
า ง
a ch
ร ้อ
ب ي
과 </w>
자 </w>
à y</w>
st ic
s al
tr ong</w>
م ة</w>
av e</w>
ста в
is t</w>
k ap
ه ذا</w>
і н
tel ah</w>
ש ל</w>
ba by</w>
m ột</w>
b le</w>
tr i
ग ा
k er</w>
l er</w>
m al
p p
b ol
l et
क ु
p ap
การ </w>
f in
ม ี
gi á</w>
n ec
्य </w>
ह ो</w>
ส ั
g an
р я
च </w>
หญ ิง</w>
d zi
ال ح
ко м
bag ai</w>
습 니다</w>
b ri
แ ฟ
d ing</w>
ال إ
f un
เ ต
ầ n</w>
m er</w>
ं ।</w>
v a</w>
ц е
ع م
p ant
h and
т ы</w>
ar d</w>
wom en</w>
an c
ル </w>
un a</w>
א </w>
bu t</w>
h at</w>
x y</w>
f e
k al
f t</w>
r el
v o</w>
إ لى</w>
ت ق
k en
d am
tr e</w>
คว าม
it y</w>
v is
dap at</w>
ט י
็ ก</w>
צ ו
d en
ส ู
ต ั
re c
ü r
ni e</w>
t or</w>
at au</w>
b on
д и</w>
c lo
shir t</w>
k as
ч то</w>
ф ор
त ्र
ن ي</w>
al s</w>
k ul
tah un</w>
य ों</w>
्य ा
б ы
b and
k s</w>
м ы</w>
m it</w>
श ा
ф о
ц і</w>
bes ar</w>
an te</w>
و ل</w>
य ह</w>
ны </w>
g am
as an</w>
p at
ۇ ر
थ ा</w>
的 </w>
매 </w>
th ể</w>
क ो
ba ik</w>
ت ە
ở </w>
k at
p o</w>
en to</w>
או פנ
д ер
ف ي
м а</w>
с во
h an</w>
ing s</w>
ц е</w>
sam sung</w>
เครื่ อง
ş </w>
in c
ba g</w>
ш а
ע י
ch il
т ра
es i
an ya</w>
b ar</w>
ч ен
送 料
ш е
b ul
i o</w>
ال د
ш е</w>
מ ק
u p</w>
כ ו
u k
ใหม ่</w>
те ль
ر ة</w>
g ir
र ू
स ु
ri st
य े</w>
em ent</w>
i j
ac </w>
d a
st ri
г і
д е</w>
b lo
े ं</w>
r y</w>
ल ो
t y
อ ก
n eg
но в
b ot
t et
и н
का र</w>
서 </w>
m es
ड </w>
ב ר
ar an</w>
х а
ó w</w>
ま す</w>
tel ef
fü r</w>
션 </w>
و ق
b is
k in
ッ ク
è </w>
men t</w>
ไ ฟ
т у</w>
t ừ
ال ج
s u</w>
ir a</w>
v on</w>
br e</w>
ั ง
ス </w>
ל י</w>
l ine</w>
s in
は </w>
an o</w>
le bi
u c
do w
p on
c el
ни я</w>
k ing</w>
נש ים</w>
bar u</w>
प ू
wan ita</w>
л е</w>
و ن
or ang</w>
it u</w>
ur a</w>
â n</w>
م ك
p un
แฟ ชั
t ab
a us
ว ั
ст ра
u h</w>
ar t
u a</w>
f ic
ap p
b u</w>
on al</w>
lebi h</w>
ं ग</w>
ці ї</w>
ח ו
w il
ال ق
m ic
c y
pl ast
ци и</w>
ст у
ư ớ
но ї</w>
श ि
men y
ı n</w>
đ ể</w>
et te</w>
n y
ล ู
l o</w>
ขน า
a is</w>
प ु
로 운</w>
or i</w>
t ec
च ्
k en</w>
пі д
ị </w>
е к
מ ת
а в
o b
r et
ק י
es e</w>
و م
dr ess</w>
по д
а ль
u i</w>
ế </w>
í nh</w>
l ar</w>
un e</w>
w el
п </w>
n a
ال ب
ח ד
w al
เ พ
터 </w>
an ti
ad i</w>
as s</w>
ت ا
vo us</w>
ฤ ดู
ả i</w>
ц ен
bo x</w>
з у
w er</w>
가 </w>
द ी</w>
k ab
m o</w>
ั ง</w>
c at
ס ו
in for
ン </w>
ни е</w>
từ </w>
ти в
ي ا</w>
ช ิ
” </w>
m il
h o</w>
bl ack</w>
má y</w>
เ ข
ir e</w>
p ak
в у
í </w>
ח י
p et
ผ ้า
f u
し て
ộ </w>
ष ्
म ै
ل ك
장 </w>
ot o</w>
an s</w>
d ah</w>
on es</w>
г у
b oleh</w>
ф і
새 로운</w>
le t</w>
pro d
ध ि
ю ть</w>
o s
ề </w>
o l</w>
пр о</w>
n at
e c</w>
を </w>
ध ा
無 料
пре д
र ो
it o</w>
produ c
el s</w>
e ar
ס פ
z z
r am
ชุ ด</w>
ì </w>
s m
o g
ال س
j i
um a</w>
x i
co ver</w>
ф и
it i</w>
ة ،</w>
aut o</w>
u kan</w>
por t
ข อง</w>
w in
月 </w>
di l
в о</w>
r em
c ul
por t</w>
ü n
ק ו
แ ต่
ề u</w>
ст і</w>
se bagai</w>
в с
s aya</w>
и з</w>
à i</w>
있 습니다</w>
อ า
в ы</w>
ả </w>
่ ว
o f
th e
w a
lo s</w>
ج </w>
si e</w>
и з
b ut
n et
ي ى
k un
เป ็
सा थ</w>
ра с
an an</w>
ئ ە
r i</w>
ג ד
ذ لك</w>
ш о
م ي
à o</w>
n en</w>
e ka</w>
ל ה
à n</w>
p in
pr es
er o</w>
c ur
t ar
sat u</w>
g re
to p</w>
ผู้ หญิง</w>
e ur</w>
ส ี</w>
â y</w>
일 </w>
р и</w>
on i</w>
ı l
i p
s es
c an</w>
е м</w>
用 </w>
oo d</w>
at i</w>
v el
ã </w>
di o</w>
ö r
ك ى
in t</w>
ส </w>
k a
ự c</w>
す る
d é
ג ו
क ्र
kh á
ץ </w>
t ing
د ا</w>
ق د</w>
क ह
кі в</w>
श ्
품 질
s ản</w>
s pr
कर ने</w>
ч </w>
l an
ô </w>
เ ซ
م ن
с лу
ل ة</w>
บ ร
on a</w>
h r
k u</w>
چ ى
o u</w>
및 </w>
ש מל
is h</w>
ي ر</w>
h àng</w>
थ ा
то м</w>
р ен
d ụ
s um
st er
ơ i</w>
st e</w>
к і</w>
c ro
送料 無料
ش ى
है ं।</w>
ال ف
ar t</w>
k es
x e</w>
ư </w>
し た
f as
k ur
s hi
в і</w>
อร ์</w>
ка р
ब ि
am an</w>
gi o</w>
v al
z u</w>
इ स
f lo
а к
ว น
j i</w>
k ec
와 </w>
ü </w>
ส ุ
색 </w>
or a</w>
l en
สู ง</w>
d ro
g es
क े
s en</w>
в ет
o u
ت ع
л і</w>
ч ер
ju ga</w>
n hi
ت ى</w>
ле к
n ot
c e
p u</w>
h ab
कि या</w>
о с
ँ </w>
ب ع
่ น
on g
n um
di g
t ak
st u
d y</w>
p at</w>
st er</w>
t ing</w>
ال ن
ự </w>
gun akan</w>
ể n</w>
á o</w>
ต </w>
ро ва
ẽ </w>
패 션</w>
f i</w>
แฟชั ่น</w>
할 </w>
d et
ال ع
n er</w>
s on</w>
ligh t</w>
y e</w>
n on</w>
त ु
ー ト
ne w</w>
ant i</w>
l y</w>
dar i
aç ão</w>
n u
ป </w>
iç in</w>
k it</w>
ы й</w>
ств а</w>
c li
il le</w>
ه م</w>
m y</w>
с ер
mer eka</w>
ướ c</w>
n et</w>
le g
त र
па р
น ิ
า ง</w>
men j
tran s
p es
b un
dari pada</w>
но е</w>
ц ь
ी न</w>
ав то
ar i</w>
จ </w>
i on</w>
و ج
c ab
ê </w>
or es</w>
el ec
ใ น
ר ת</w>
к ри
उ स
bi r</w>
ה ו
ت ك
го ло
т ри
ร อง
בע </w>
е м
แล ะ
po s
do or</w>
м ет
้ ว
ح </w>
अ न
đ ồ
ap i</w>
i k
म ्
ใ น</w>
я к</w>
c entr
d ol
n or
ע </w>
ज ा</w>
har ga</w>
wom an</w>
б ы</w>
ป ร
ر ى</w>
д ет
ม ั
đ ến</w>
人 </w>
ر و
า น
ف ا
c ia</w>
ม ี</w>
th i
य ो
ẻ </w>
c re
car a</w>
क ्य
k it
l and</w>
r ic
br ac
но м</w>
tr a</w>
p or</w>
ậ t</w>
ки х</w>
ओ ं</w>
ค ล
d la</w>
د ى</w>
เป ๋
치 </w>
г ру
ج ا
กระ เป๋
م ع
wat ch</w>
mu j
ậ n</w>
d in
स क
p le
品 </w>
ض </w>
is e</w>
dụ ng</w>
ẩ m</w>
e di
и ли</w>
ه ا
स् ट
vi de
उ न
พ ิ
ни к</w>
sil ic
t v</w>
y el
n i</w>
ah an</w>
an ce</w>
ств о</w>
y i</w>
с ло
e i</w>
ч о
and o</w>
du a</w>
st or
eu ro
а н
ッ プ
อร ์
अप ने</w>
m ol
่า ง
여 성</w>
à nh</w>
н ен
प ि
ع ن</w>
v ề</w>
ti ế
p as</w>
크 </w>
י ל
ot h</w>
รอง เท
ặ t</w>
ש ה</w>
b en</w>
च ि
】 </w>
ò </w>
m ac
אופנ ה</w>
aw a</w>
д ру
o ut
l em
s w
ี่ </w>
ق ة</w>
el e</w>
b et
子 </w>
ל ב
า ม</w>
l at
레 스</w>
int l</w>
l ang
प ्
न े
फ ि
к е</w>
ă ng</w>
้อ ง
b and</w>
t u</w>
ва ння</w>
c m</w>
по ві
l ag
م ۇ
a in
ड ि
f ro
กร ณ
є ться</w>
إ ن
사 용
시 </w>
s ẽ</w>
пра в
й о
ell o</w>
ơ n</w>
ữ </w>
ज ़
ۇر ۇ
ı k</w>
ски е</w>
คุณ ภาพ
ử </w>
ng ư
ố </w>
et e</w>
b re
b ir
i kan</w>
נ ה</w>
с кий</w>
al an</w>
ст е
kam i</w>
ố i</w>
h ình</w>
ke pada</w>
الأ م
ư ờ
ه ذ
त् र</w>
s li
ấ p</w>
ھ ە
u al</w>
h or
에 서</w>
도 </w>
ка к</w>
ت ر
e a</w>
on line</w>
ढ ़
ी य</w>
pro f
co s</w>
at her</w>
قى لى
d ri
ı r
s ur</w>
те ле
d at
е с
el le</w>
д ж
ت م
ת ח
ко то
per son
ל ה</w>
เ ม
물 </w>
n ày</w>
б ли
ชุ ด
r ing</w>
б </w>
स े
in st
ב ה</w>
ط </w>
et s</w>
x x
é s</w>
ầ u</w>
ट ी</w>
est a</w>
ที่ มี
s ur
ر ە
ไ ด
n am
ู </w>
wh ite</w>
ज ी</w>
m as</w>
bah an</w>
ال ش
ט י</w>
צ י
к ре
ph ẩm</w>
ố ng</w>
c le</w>
日 本
ak e</w>
الت ي</w>
ลู ก
b ang
ט ו
ет ся</w>
ш ен
ar ti
छ </w>
ư ơ
d ur
d os</w>
то го</w>
ال خ
e j
t ut
ي ە
á n</w>
ग ु
ت و
ur s</w>
k m</w>
de kat</w>
m ad
z en
b li
gr at
่ ง
di c
ki e</w>
per l
u an</w>
シ ョ
ai an</w>
th at</w>
ज ो</w>
c d</w>
מ ה</w>
ngư ời</w>
bal l</w>
ườ ng</w>
cz y
a de</w>
j es</w>
st a</w>
h ave</w>
l el
m is
n am</w>
s ang
l ong</w>
per ti</w>
ві д</w>
ม ือ</w>
d ge</w>
l amp
st y
k aw
ban y
ス ト
ни ц
or gan
แบ บ</w>
ห ร
au x</w>
eg o</w>
j ar
f le
ung an</w>
ال و
ны м</w>
a ł
็ ก
ma ch
u e</w>
f ac
à m</w>
ร้อ น</w>
gol d</w>
г и</w>
bi l</w>
но сти</w>
女 性
mot or
y or
g er</w>
ра н
ी ।</w>
as e</w>
c ông</w>
ق و
อ ย
р ы</w>
ד י
sp or
ك ى</w>
zi one</w>
a z</w>
z u
о т</w>
b o</w>
레 이
ال ذ
स ी
מ ע
di am
א רו
ラ イ
프 </w>
gal a
न ों</w>
합 니다</w>
으 로</w>
แ ส
g h</w>
了 </w>
pr o</w>
at kan</w>
ç a</w>
ý </w>
נ ע
ד ו
ú ng</w>
j n</w>
품 </w>
м о</w>
h it
ữ ng</w>
ch uy
ग ा</w>
ใ ช
la in</w>
प ह
ध </w>
muj er</w>
ut e</w>
t ek
в я
เด ็ก</w>
ươ ng</w>
ั บ</w>
게 </w>
र ु
l àm</w>
s le
ज ी
면 </w>
с я
ผ ลิ
น้ ำ</w>
nh ất</w>
ख ा
อ ก</w>
на ль
av ec</w>
日 </w>
д ы</w>
н ь
פ י
т ро
щ е
в се
้ ง</w>
nh ững</w>
ệ u</w>
т і</w>
व र्
m ur
स ा</w>
p ad
a qu
א ח
f e</w>
t at
d om
कु छ</w>
o t</w>
v it
ỉ </w>
l s</w>
p ut
it s</w>
s we
ề n</w>
man a</w>
ch es</w>
ad os</w>
방 </w>
b in
uni ver
f ol
ва ти</w>
st o
un d
bel i
di y</w>
ل م</w>
ת ו
ง าน</w>
si st
k ad
ض ا
상 </w>
gr af
um in
l ap
gala xy</w>
غ ا</w>
ệ t</w>
s and
r é
ป ล
ร ถ
أن ا</w>
द ू
m it
pl at
उ न्
nh à</w>
ấ y</w>
ال ص
elec tr
त क</w>
th is</w>
ê u</w>
هذ ه</w>
se perti</w>
ไม ้
우 리
א נ
ث </w>
sp ort</w>
h el
ン グ
ख </w>
at or</w>
j ap
ك ا
t as
ไม ้</w>
ab </w>
อ ุ
h in
ك ە
h on
air e</w>
an im
מ ס
ร า
ни м</w>
ke y</w>
ע ם</w>
א ת</w>
د ۇ</w>
ك ل</w>
mus im</w>
ф у
ва н
des ig
lel aki</w>
ic i</w>
g en</w>
ส่ ง</w>
bu at</w>
gir l</w>
an e</w>
g ö
au f</w>
ص </w>
s es</w>
ar y</w>
ro om</w>
ग या</w>
계 </w>
h y
ब ्
女 </w>
ả m</w>
sho es</w>
con tro
n aj
cam era</w>
פ ר
f ab
מ נ
a j</w>
t angan</w>
र े
ri o</w>
z o
ชิ ้น</w>
ي ت
น้ ำ
מ ג
l on
re d</w>
ti n</w>
aut om
с а</w>
бо ль
el ek
ро д
v in
f on
p en</w>
au s</w>
in an</w>
er en</w>
and ro
ser v
i f</w>
ar kan</w>
s or
t ent
p ot
h air</w>
clo th
acc ess
met al</w>
z en</w>
t in
ви й</w>
פ ו
r um
ك ان</w>
в и</w>
co t
화 </w>
ч и</w>
ה י
di es</w>
kan ak</w>
ब े
aci ón</w>
จ ำ
si ę</w>
m m</w>
хо ди
ế u</w>
ma is</w>
म ं
х і
ド </w>
- </w>
ר כ
p c
is che</w>
tr ên</w>
s mar
ра бо
ز ى
ك ې
brac el
i do</w>
ượ ng</w>
ro s</w>
ù ng</w>
ن ة</w>
p ag
sp i
ж е
و ت
т ре
in s</w>
र ी
d y
e z</w>
ال ر
สำหรั บ
вы й</w>
h r</w>
en d</w>
silic one</w>
ื่ อ
k et</w>
ç ão</w>
tr ang</w>
ju al</w>
ting gi</w>
ро ку</w>
ก า
war na</w>
а р
o d</w>
p ur
ộ ng</w>
é e</w>
pr z
ч у
व े
श न</w>
ट ि
т ся</w>
ch i</w>
на й
sang at</w>
s ar
a ba
s ama</w>
드 레스</w>
ット </w>
d ah
vide o</w>
om i</w>
d em
то в</w>
hom e</w>
מ ט
н сь
ب ة</w>
د و
ali z
케 이
ئ ۇ
f ig
ec i
เ อ
ใ บ
in di
en a</w>
et o
د ە
вс е</w>
h am
украї ни</w>
gr an
מ ח
ro u
ข าย
n as
दे श</w>
ั น
ậ p</w>
õ es</w>
f ar
q </w>
ор га
prod uk</w>
ม พ
o k
ไม ่
ệ </w>
व ह</w>
đ ã</w>
ِ </w>
h a
lo w</w>
ni k</w>
ق ي
ng h
ム </w>
л ет
ứ c</w>
रह े</w>
kec il</w>
beli au</w>
le ather</w>
w as</w>
i er</w>
พ ล
ग ्र
v el</w>
ot a</w>
int er</w>
न ी
сто я
k hi</w>
ко м</w>
มา ก</w>
ท ำ
e in</w>
대 한</w>
yo ur</w>
ст ро
ท ร
ष </w>
l as</w>
th u
f ir
l ı</w>
ب ول
ố c</w>
t es</w>
ถ ุ
e w
ذ </w>
us h</w>
д я
al it
щ а
вы е</w>
ing en</w>
e j</w>
andro id</w>
แต่ ง
र ों</w>
pro tec
спо р
w ir
j en
ві н</w>
m or
sem ua</w>
di ri</w>
रा ज
о н</w>
ح س
j ang</w>
c le
sp e
द ु
ג י
해 </w>
ว ิ
ро б
я в
ti on
る </w>
p ic
ย าว</w>
h t
is i</w>
ow e</w>
बा द</w>
ств ен
ổ </w>
ผ ้า</w>
su p
ù </w>
azi one</w>
أ خ
si ze</w>
on t
ro l
لى ق</w>
ш а</w>
식 </w>
ब ै
si on</w>
ер </w>
ố t</w>
telef on</w>
ไฟ </w>
g em
の </w>
w ed
ส าม
س ى</w>
أ ع
츠 </w>
r y
ec e</w>
ặ c</w>
á ng</w>
wil l</w>
br and</w>
े ।</w>
do u
ר ים</w>
t ại</w>
ap k</w>
k t
่ า</w>
к лю
デ ィ
เ หล
bah awa</w>
か ら
आ </w>
ả o</w>
бі ль
s s</w>
ab il
mu dah</w>
ي ن
hit am</w>
f a
т т
l as
ั ก
s ul
ئ ۆ
gh t</w>
ד ה</w>
گ ە</w>
م ع</w>
リ ー
bo ok</w>
h d</w>
อ น</w>
ak u</w>
в ре
y ü
â m</w>
ช าย</w>
높 은</w>
та к
ш </w>
لى ك</w>
í ch</w>
ั ก</w>
j am
ổ i</w>
to m</w>
เสื้อ </w>
א י</w>
ò ng</w>
प ी
라 </w>
ี ้</w>
צ בע</w>
ג בו
k asi</w>
발 </w>
an ia</w>
י ו
器 </w>
по с
عل ي
ג בר
म ो
бе з
bu ah</w>
ени й</w>
กั น
c ep
ू </w>
во з
て い
sta ur
w all</w>
eu x</w>
ขนา ด
ت ص
द ा</w>
b i</w>
y s</w>
t as</w>
k no
ד י</w>
re staur
d z
रह ा</w>
c ao</w>
го ро
h ọ
เ จ
б ра
ิ น</w>
色 </w>
م و
kul it</w>
s po
та ко
ю т</w>
מ ים</w>
mo d
さ れ
bany ak</w>
per i
को ई</w>
फ </w>
כ ות</w>
용 </w>
ủ </w>
сько го</w>
v int
س و
उ प
eto oth</w>
э то</w>
ट ्र
ー ル
ch úng</w>
p il
dan s</w>
ad ap
ang g
жен щи
h anya</w>
p c</w>
ś ci
l is
blu etooth</w>
n it
то р</w>
f ri
입 니다</w>
р у</w>
д і</w>
ع ن
d or
ụ </w>
का र्
श ु
ji ka</w>
и с
เ บ
ме ж
ні й</w>
b ic
co st
t ap
ac a</w>
g lo
d ay</w>
ด ี</w>
bri dge</w>
nh ư</w>
e e</w>
tiế ng</w>
g ü
ter baik</w>
แ ข
j ack
g ri
ร ู
o ut</w>
b us
j am</w>
가 방</w>
당 신
b y
工 作
per t
bat ter
आ प</w>
ש ו
pp ing</w>
qu i
ड़ े</w>
תי ק</w>
कह ा</w>
ker s</w>
ใ ห
แ ด
bil e</w>
ap ar
ۈ ر
chil dr
ch er</w>
ش ا
v en</w>
р о</w>
in f
on d</w>
ol o
pun y
ст </w>
c ri
во го</w>
ब ी
та к</w>
дер жа
s an
del la</w>
lar ı</w>
c ina</w>
ड़ </w>
m and
d at</w>
si g
childr en</w>
ب ر
с ві
ch t
कि न</w>
d on</w>
र त</w>
j er
í a</w>
с ы</w>
ונ ה</w>
ח ול
ז ה</w>
غ ان</w>
대 </w>
ch o
г ла
ー ジ
dap atkan</w>
ö n
โ ล
й ого</w>
s an</w>
ati e</w>
au f
с пе
b ad
م ج
ı ş
ح ا
зо ва
กั น</w>
차 </w>
s om
ข ้อ
vint age</w>
ש רו
आ प
ве ли
по л
ه ل</w>
blu e</w>
f ot
า ส
ch ina</w>
fro m</w>
ั ด</w>
ch ất</w>
मै ं</w>
ड़ ी</w>
me di
il s</w>
ent s</w>
こ と
щ е</w>
گ ى
mach ine</w>
puny ai</w>
่ ง</w>
e z
อ บ</w>
ch er
r ings</w>
ल ग
s er</w>
sil ver</w>
ط ا
pen y
ע ור</w>
о н
mem punyai</w>
b ent
ứ ng</w>
c ir
y en</w>
br u
l it
o ff
أ ي
र ण</w>
col or</w>
se l</w>
ent es</w>
да р
أ ك
ال عا
구 </w>
t ag
it al</w>
ค </w>
u l</w>
до л
am eri
ati ons</w>
he ad
к ры
um e</w>
th o
ש ח
פ ל
ह र</w>
ले किन</w>
버 </w>
g ia</w>
ع ة</w>
イ ン
ch ơi</w>
t le</w>
про да
าร ถ
in du
á i</w>
ش ى</w>
cam is
디 자
de m</w>
g el</w>
en s</w>
ד ל</w>
i ş
t ac
a ja</w>
ק ה</w>
w as
ס ט
menj adi</w>
가 격
g et
pro gr
प रि
ब हु
к ру
но му</w>
い </w>
st i
stic ker</w>
г ен
अ धि
p ay
в ро
ю щи
या ।</w>
v or
ті в</w>
har i</w>
se k
กั บ</w>
b ant
il la</w>
품질 </w>
s n
bah ag
t ic
ـ ـ
สาม ารถ
ק ס
pan jang</w>
หน ้า
च ु
อ อก
u it
อ น
ư ng</w>
bah asa</w>
ي د</w>
si m
अ ं
г а</w>
ho use</w>
ing an</w>
rum ah</w>
ч то
h ing
am ento</w>
l ượng</w>
th ông</w>
as ı</w>
ר י</w>
то в
व ा</w>
fem in
se xy</w>
hu aw
s ử</w>
f am
кото ры
ال ل
s ố</w>
ко в</w>
ं ने</w>
bo ard</w>
tem pat</w>
자 동
l ü
đi ện</w>
is h
an ak</w>
ti m
і в</w>
ses u
сько ї</w>
су м
ро м</w>
e i
м е</w>
k es</w>
b am
во й</w>
r is
ขนา ด</w>
ด ้ว
l av
t it
ب و
p in</w>
st and
i h
פ ה</w>
men s</w>
ch rist
во ло
x u
ס ג
a g</w>
об ла
в ся</w>
an al</w>
mat eri
送料無料 </w>
ma inan</w>
เป็ น
ش ي
러 </w>
า ก
l cd</w>
ant es</w>
ุ </w>
ż </w>
mic ro
स् त
ב ת</w>
ко но
в ла
पू र्
श ्र
c ad
כ י
ل قد</w>
ك ن
pr ze
أ و</w>
د ي</w>
ı m</w>
ह म</w>
ע ל</w>
ز ا
형 </w>
w ood</w>
am i</w>
เ ว
स ू
lo go</w>
จ ะ
bracel et</w>
wi fi</w>
थ ि
پ ى
ent i</w>
इ न</w>
व ्य
f it
j u</w>
าง เก
फ ़
st re
pen d
म ा</w>
ئ ې
ag en</w>
ar ab
â u</w>
ๆ </w>
t ốt</w>
huaw ei</w>
ج ل</w>
ч і</w>
स र
b on</w>
khá ch</w>
द ो
าร ์
w ah</w>
ก างเก
тт я</w>
cam bridge</w>
เ ช
מו ת
н к
j est</w>
้ ง
рі в</w>
خ ا
」 </w>
ска я</w>
ant s</w>
pl ay</w>
ду к
i es</w>
ור ה</w>
об ра
ใบ ไม้
c ấp</w>
elek tr
ằ ng</w>
st at
h as
s un
ฤดู ใบไม้
א ל
th er
dow n
ר ות</w>
c es</w>
то му</w>
zi jn</w>
ด ี
ۋ ە</w>
ك و
l ess</w>
м ы
w o</w>
c ut
ể u</w>
j ur
ol a</w>
ي ج
कि सी</w>
lam p</w>
lo t</w>
l eri</w>
к ро
الذ ي</w>
t ính</w>
k il
ic z
об </w>
o ver
с вя
ت ن
ф а
с си
l ad
tet api</w>
o y
b ang</w>
до став
ста н
b ili
thi ết</w>
अन ु
gl ass</w>
о наль
о бо
t ar</w>
но ю</w>
r as
ст ру
दे ख
k um
म ी
fem me</w>
ă n</w>
что бы</w>
管 理
دى ن</w>
م ر
ه و</w>
ско й</w>
i um</w>
фор ма
i z</w>
g li
مە ن</w>
म ी</w>
ba y
โ ปร
вы со
ст а</w>
bl an
k in</w>
ด ำ</w>
ل ار
h an
w inter</w>
до ро
정 </w>
cas a</w>
es i</w>
nec kl
เ น
p ar</w>
li k</w>
er ke
ari o</w>
ว น</w>
체 </w>
ắ t</w>
ци я</w>
ni ñ
ب ە
ị ch</w>
n ữ</w>
ke y
grat is</w>
ק ט
p an</w>
i i</w>
el l</w>
ameri ka</w>
ф е
wat er
더 </w>
про дук
e ine</w>
d v
ม ิ
mas uk</w>
h ang
ak ukan</w>
ड़ ा</w>
т я
p i</w>
ق د
wat er</w>
lu x
xi a
גבר ים</w>
ç </w>
した </w>
да н
lo c
ै से</w>
व े</w>
b ộ</w>
е го</w>
क्य ा</w>
b int
al a</w>
हु ए</w>
อ บ
pro j
то р
ul a</w>
חול צ
го во
ل ي</w>
bo u
נ סי
б о</w>
든 </w>
mas a</w>
รองเท ้า</w>
中 国
하 는</w>
s s
لا ر</w>
件 </w>
ו י
ب ۇ</w>
co u
ي و
женщи н</w>
đ ộng</w>
z ap
उ त्
ant a</w>
अप नी</w>
ś ci</w>
נ ות</w>
रू प</w>
w n</w>
но ви
му ж
ci o</w>
i de
at as</w>
men to</w>
m un
sc re
ั บ
จัดส่ ง</w>
то ч
द र्
e de</w>
ơ </w>
el la</w>
מ צ
ố n</w>
प ो
an ie</w>
मा न
d ü
ch ain</w>
k t</w>
で す</w>
son o</w>
חד ש</w>
可 以
จำ น
أ ح
se g
ang e</w>
ग र</w>
스 타
ả nh</w>
sz y
م ية</w>
swe at
t al
行 </w>
no t</w>
n ati
à u</w>
se cara</w>
p us
s ili
c able</w>
ни ки</w>
el d</w>
प े
l en</w>
ка н
k ü
gi an</w>
bi g</w>
גו דל</w>
研 究
w en
स ो
p v
o v
ब ं
г ро
b ack
р ю
s qu
ul l</w>
ot e</w>
ห ั
bahag ian</w>
ма р
as h</w>
ber apa</w>
ร ิ
ال ك
b ak
ed en</w>
ट र</w>
г у</w>
hi gh</w>
те ль</w>
wed ding</w>
x l</w>
中 </w>
दि या</w>
름 </w>
ir o</w>
c et
ح ة</w>
mu a</w>
m ình</w>
ко й</w>
ك ۆ
v ào</w>
bint ang</w>
ет е</w>
b an</w>
por te</w>
ur o</w>
á c</w>
नि र्
ro n</w>
ка за
ภ ั
en e</w>
don na</w>
बहु त</w>
티 </w>
م ت
ма н
ho t</w>
ê m</w>
ст во
ส ิ
app le</w>
pl ay
n is
y cz
mot or</w>
e u</w>
बा त</w>
하 고</w>
or ig
br a</w>
위 한</w>
ี่ ย
в ен
th ời</w>
ب د
f a</w>
ق ان
om et
п ло
л ения</w>
nhi ều</w>
เป็ น</w>
प्र ा
ติ </w>
g or
ज ्
แ ก
แ ต
авто мо
v ar
้า น
많 은</w>
li hat</w>
ที่มี คุณภาพ
ча с</w>
e x</w>
र ही</w>
đồ </w>
bent uk</w>
n av
t able</w>
num ber</w>
al es</w>
แบ บ
؛ </w>
s ự</w>
د ە</w>
ці я</w>
ق ا</w>
kem u
su it</w>
थ ी</w>
ch ỉ</w>
g et</w>
ال ط
व ी
сту п
n ia</w>
по р
e ve</w>
pin k</w>
k re
式 </w>
e au</w>
ย ื
é r
щ ен
mot o</w>
ễ n</w>
ונ י</w>
k ho
пові до
ч а</w>
ا ست
라 이
со б
ラ ン
é t
h as</w>
니 </w>
ज ब</w>
ic k</w>
で </w>
мі ні
in vest
ho u
خ ى
z er
ни ми</w>
po d
ُ </w>
e o</w>
กระเป๋ า</w>
decor ation</w>
तर ह</w>
k on</w>
ori es</w>
ste el</w>
re g
ili ke
โ ร
ilike you</w>
ти ся</w>
mo del</w>
즈 </w>
l er
عم ل</w>
가 죽
l ab
ро сі
者 </w>
अ ब</w>
รา ค
i er
так же</w>
то й</w>
по мо
้า ย</w>
ти ч
ес ли</w>
b ị</w>
а ле</w>
с пі
ズ </w>
ể m</w>
ت ي</w>
h d
xia omi</w>
ẹ p</w>
ung en</w>
म हि
m ặt</w>
us t</w>
т ру
เก ็
сь кий</w>
s ki</w>
ت ې
с у</w>
u x</w>
j ep
ק צ
nat ur
st ar
있 는</w>
ch in
ख ि
á t</w>
lo ại</w>
ม ือ
ag o
đ ị
वा र</w>
פ ון</w>
الم تح
ح ي
es si
f oto</w>
an i</w>
ph í</w>
เ ย
ス タ
e p</w>
ّ </w>
an al
य ु
料 </w>
ст о</w>
ah r
an y</w>
גבו ה
но сть</w>
พิ มพ
k el</w>
f t
l al
ש ל
가죽 </w>
אי כות</w>
ال آ
ell i</w>
ap par
n ing</w>
mul ti
и спо
min i
ני י
上 </w>
l ama</w>
р е</w>
en ce</w>
st ar</w>
คุณ </w>
ẫ n</w>
ש ת</w>
u ar</w>
m es</w>
на род
hi on</w>
전 </w>
en de</w>
ف ة</w>
и х</w>
ó ng</w>
ur an</w>
ト </w>
tr as
ब ना
s ah
क ृ
д не
mem ber
qu i</w>
ن س
бу д
le c
َ </w>
f al
ك ي
น า
n el</w>
plast ic</w>
ва я</w>
gran de</w>
テ ィ
j um
я кі</w>
erke k</w>
đ ộ</w>
금 </w>
j o</w>
ker ja</w>
k ı
y ap
स ब
ฟ ้า</w>
sen s
원 </w>
ग ों</w>
бе с
o ch
ك ۈ
d c</w>
प ै
남 성</w>
do g</w>
đ ó</w>
p ili
ang k
bo y</w>
лен ня</w>
lu b</w>
vi e
fr an
่ ม</w>
इ ं
tr av
en ti
й н</w>
h ơn</w>
с ере
จำน วน
bi ke</w>
desig n</w>
שמל ת</w>
ch e
ac ti
be b
v es</w>
ba h</w>
г да</w>
p is
t ü
o per
sy st
หน ัง</w>
נ ו
แ จ
j ak
ка че
ci on
y e
่า ง</w>
ка ми</w>
тер и
ow y</w>
ي ې
เ ง
hot els</w>
도 매</w>
cep at</w>
w y</w>
d un
ô n</w>
우 </w>
пр и</w>
ก ำ
c int
ı r</w>
men t
y ar
제 </w>
o ver</w>
l and
っ た
ч ере
qu an</w>
su per</w>
ro se</w>
ọ n</w>
中 國
性 </w>
الد ول
во ди
d ata</w>
f et
हा ं</w>
ki ds</w>
ค อ</w>
ко р
be berapa</w>
im a</w>
wi e</w>
b ack</w>
ass es</w>
り </w>
m ới</w>
до в
di gunakan</w>
s ab
वा ले</w>
ни и</w>
тако ж</w>
ва р
au t</w>
á rio</w>
rel o
ع د
tent ang</w>
ba l</w>
kas ut</w>
ग ी</w>
ar m
c in
h ä
석 </w>
ตร </w>
گ ە
오 </w>
жен ня</w>
pr ess
đ ầu</w>
on t</w>
ב גד
о п
по ло
b ản</w>
cá ch</w>
ส น
स मा
ط ة</w>
ي مك
on o</w>
a an
bu d
m al</w>
フ ァ
ad as</w>
br an
ת י</w>
נע לי</w>
ิ ส
ic i
ag em</w>
u ch
ट ा
ז י
ท ั
ד ת</w>
л у</w>
ck s</w>
ă m</w>
ắ c</w>
使 用
ใ หญ
pr zy
l ace</w>
be d</w>
友 </w>
b le
ż e</w>
m ü
h il
ag a</w>
ب ش
c it
च् छ
ار ة</w>
m àu</w>
pl a
car i</w>
aut o
á nh</w>
b ü
第 </w>
ขาย ส่ง</w>
ت ت
ब ु
ط ي
s co
כ ת</w>
p ing</w>
h al</w>
מ ר</w>
ر ف</w>
ल ों</w>
ส ะ
ー タ
jack et</w>
hing ga</w>
개 </w>
k ini</w>
z ak
ע ר</w>
мер </w>
l ại</w>
s l
r as</w>
pant al
с ен
แ ม
be z
pak aian</w>
be ach</w>
be i</w>
el eg
for d</w>
col or
k li
đ ẹp</w>
k ay
류 </w>
по лі
ợ p</w>
कर ते</w>
ho st
on der
re d
s ing
ap art
ต ล
ب ې
bi j</w>
क ों</w>
n ail</w>
ۋ ا
ال ث
소 매</w>
pap er</w>
c ả</w>
อุ ป
tr ung</w>
bag i</w>
po st
down lo
ak ti
é ri
ي ر
아 </w>
ห ย
ब ो
ट ्
m at</w>
am ente</w>
ट े
ni cht</w>
ba o</w>
ig e</w>
中 心
le y</w>
so u
ह ू
入 </w>
ком па
ר ך</w>
ف ق
d re
w oo
จำนวน มาก</w>
пла т
pr ess</w>
u it</w>
ข าว</w>
ва ли</w>
te ch
b it
ж у
ch ính</w>
r ap
đồ ng</w>
h ợp</w>
ri j
as i
부 </w>
я ви
ś wi
提 供
mo der
pv c</w>
po u
pant s</w>
우리 는</w>
ह ें</w>
po m
lo g
ข าย</w>
al le</w>
ni et</w>
้ ว</w>
acc es
د ر
l um
sum mer</w>
מ ן</w>
ко го</w>
신 발</w>
w i</w>
具 </w>
у ча
ك ان
ش ت
र ख
di sp
d as
ці й
n ão</w>
ın da</w>
of f</w>
qu es</w>
ה מ
chil d</w>
m ir
चा र</w>
è re</w>
t ure</w>
af t</w>
j ak</w>
c am</w>
ch u
infor m
อ ด
ل ت
w is
e ira</w>
th ành</w>
di t</w>
ро в</w>
gam e</w>
trans par
n om
生 </w>
ي ك
sho p</w>
s car
م ث
bo dy</w>
bo o
christ mas</w>
ỏ </w>
u j
т ы
ל א</w>
es p
neckl ace</w>
c y</w>
ени и</w>
ت ما
r on
be g</w>
sy ari
х и
า ก</w>
tu y
k hi
n ak
c ity</w>
ग ि
โ ค
lu ar</w>
se buah</w>
mur ah</w>
v as</w>
c ũ
년 </w>
ナ ル
s us
v ent
с ле
r an
com o</w>
ż y
с и</w>
ั น</w>
ह मा
con tr
em p
الم ن
た め
力 </w>
ла н
і з</w>
ال ى
до м</w>
เต อร์</w>
st and</w>
co s
른 </w>
wh at</w>
โ ด
ز ي
er o
meng gunakan</w>
ۈر ۈ
т ен
ינ ו
h t</w>
r ẻ</w>
्र े
r us
स् था
ma in</w>
ה ע
est e</w>
access ories</w>
a ğ
я х</w>
em e</w>
is ch</w>
っ て
ק י</w>
l t
สี ดำ</w>
แ ท
ap an</w>
jap an
ת ה</w>
पह ले</w>
испо ль
א ב
пр я
syari kat</w>
ł </w>
b m
ינ י</w>
li g
k ro
bu s</w>
com e</w>
ś ć</w>
vie w</w>
orig in
ши х</w>
pert ama</w>
f es
新 </w>
ما ذا</w>
ं ड
ки м</w>
ä n
좋 은</w>
hol der</w>
हो ने</w>
z el
id os</w>
gl i</w>
я ми</w>
้อ ง</w>
t an</w>
la dies</w>
кі ль
n is</w>
ว ก</w>
ва в</w>
सम य</w>
з ь
л ы
or o</w>
до б
sh ort</w>
ш у
h l</w>
ny ch</w>
อุป กรณ
ul d</w>
li s</w>
з ы
di rec
ا ت
stic kers</w>
المتح دة</w>
ה ח
n ăng</w>
ه نا
mel i
च् च
ска за
j a
פ ס
बा र</w>
r at
vest ido</w>
ต ์</w>
ờ </w>
по да
بى ر</w>
t om
l ing</w>
p ack</w>
a ş
ז </w>
ش ر
定 </w>
p eg
เร า</w>
t ay</w>
ear rings</w>
го д
ख ु
en d
g ar</w>
st ell
ק ר
أن ت</w>
ีย ว</w>
khá c</w>
cy cle</w>
जा ता</w>
כ פ
пра ви
ter a</w>
or g
ศ </w>
फ ्
p ing
ن و
b it</w>
bis a</w>
أ م
per c
ti k</w>
่ว ง</w>
г е
m y
fre e</w>
par ty</w>
สุ ด</w>
ー ド
p et</w>
зи ден
त र</w>
שי ער</w>
ש ר
p and
ส ร้อ
ul ar</w>
the o</w>
क् त</w>
en i
ati r</w>
х у
ل م
ד ים</w>
organ iz
mu ốn</w>
선 </w>
с кла
ก ว
hom bre</w>
फ ै
l ay
ل و
ó w
ed es</w>
it al
ви х</w>
כ ה</w>
包 </w>
ผ ม</w>
s ap
c ần</w>
bel i</w>
غ ير</w>
as t</w>
ค ่า
ụ c</w>
ب ل</w>
th er</w>
合 </w>
pa int
ل د
par k</w>
a il
ng hi
ั พ
g s</w>
un ter
p ast
ئى ش
n ó</w>
bil ik</w>
бу ло</w>
б ле
ט ל
su per
li v
ỗ </w>
з і
on y</w>
क र्
ร ร
工 程
동 </w>
m ang
ประ ด
po wer</w>
一 個
đi ều</w>
p ent
סי ט
н ер
w r
ли н
א ר
ง าน
था ।</w>
명 </w>
el o</w>
p ed
ст ви
al ar
pi er
di se
er ia</w>
dar a</w>
진 </w>
st en</w>
b ằng</w>
긴 </w>
ท </w>
ज ू
ซ ิ
أ ف
מ י</w>
ق ى</w>
пі д</w>
dig ital</w>
com pl
пі с
th ế</w>
ago da</w>
ц </w>
v n</w>
可 能
ко ро
m à</w>
п а</w>
em a</w>
ку р
hi ện</w>
ти че
je wel
ви ко
판 매</w>
ut ama</w>
je ans</w>
브 </w>
ส ว
่ าย
し </w>
ва ть</w>
थ े</w>
ba t</w>
k ir
un an</w>
i ch
ка х</w>
שרו ול</w>
i v
ж а</w>
пре зиден
ны ми</w>
in n</w>
ні сть</w>
meng en
am atir</w>
מ </w>
ч ки</w>
cloth es</w>
ì m</w>
яв ля
自 己
भ ि
a f</w>
ắ n</w>
ні в</w>
y ch</w>
物 </w>
ئ ي
w an</w>
แ ผ
ب ين</w>
ע ה</w>
t ul
z o</w>
ả ng</w>
mag net
j aw
лу ч
qu ốc</w>
set i
но сті</w>
si a</w>
am er
폰 </w>
c at</w>
рі я</w>
n ếu</w>
ษ </w>
ti e</w>
ti me</w>
фу т
motor cycle</w>
n er
am e</w>
hi r</w>
ค ้า</w>
h ồ
h ã
ภาพ </w>
็ ม
ส ์</w>
s kie</w>
peng gun
ה ר
v ic
ส ิน
פ י</w>
univer sit
が </w>
tr ò</w>
แ ขน
ф </w>
ł o
к ли
an i
ל ח
ви н
็ก ซ
fes yen</w>
kor ea</w>
па ль
ц я</w>
n ar
나 </w>
min ut
공 </w>
downlo ad</w>
ב י</w>
ec z
w ol
pc s</w>
we ar</w>
ạ t</w>
ه ي</w>
الم ا
c ap</w>
б а</w>
… </w>
in es</w>
vo c
w ak
प्र ति
मा न</w>
사 </w>
ณ ฑ
ti s
ur y</w>
gre en</w>
हो ंने</w>
ق ت
ู ่</w>
ba y</w>
का री</w>
i de</w>
त्र ी</w>
後 </w>
색 상</w>
nh ưng</w>
ng ày</w>
फि र</w>
ow a</w>
ter se
โ ทร
度 </w>
हो ता</w>
b án</w>
디자 인</w>
أن ه</w>
무 </w>
es a</w>
n ess</w>
כ ל</w>
d ad
au ch</w>
we b</w>
en f
ba wah</w>
qu est
e er
ві й
pro of</w>
ang kan</w>
ه نا</w>
我 們
mem buat</w>
el ess</w>
ни ка</w>
mas i</w>
ver si</w>
cũ ng</w>
dzi ec
в ет</w>
en en</w>
מ ז
ски х</w>
ۋ ە
g ps</w>
x i</w>
t ìm</w>
ใหญ ่</w>
น ่
ot s</w>
но к</w>
po sit
мі с
元 </w>
з і</w>
ph ải</w>
o i</w>
소 </w>
о ди
po pul
लो गों</w>
t eng
ช ี
jo ur</w>
ба н
או ר</w>
द ो</w>
to u
di an</w>
h um
ti h</w>
el ast
ли ся</w>
j al
ва ми</w>
f en
ж д
รองเท ้า
pe dia</w>
so ci
m ah
ش ك
ur uh</w>
케이 스</w>
ij k</w>
or y</w>
サ イ
dou ble</w>
조 </w>
ch en
де ла
機 </w>
ה א
พิมพ ์</w>
л ы</w>
he el</w>
श े
s au</w>
m in</w>
s cr
al umin
p un</w>
so ft</w>
ב ק
li a</w>
ור ת</w>
pr in
ho w</w>
б ер
מ עי
t ot
on i
mo bil</w>
ر ب
г ля
ter masuk</w>
e b
จั กร
비 </w>
đ ang</w>
द् वा
ati k</w>
ต ก
хо ро
bel um</w>
met er</w>
ط ل
s ai
p ir
m ore</w>
ра ль
ت ف
m é
во д
p int
ת ינו
ค อ
บ ั
ю ться</w>
ญ </w>
ج نة</w>
ת ר</w>
б и</w>
信 息
法 </w>
v et
ва м</w>
m ess
k ıl
教 育
р і</w>
per mainan</w>
รู ป
ну ю</w>
ड ा
า ว
כו ת
си сте
ш и</w>
mo bile</w>
גבוה ה</w>
ско го</w>
크 기</w>
で き
not e</w>
è s</w>
r es</w>
j ed
ử a</w>
オ ー
و الم
h av
st oc
pu tih</w>
ถ ือ</w>
un ic
ль ко</w>
ci ón</w>
t el</w>
п ле
н ь</w>
모 든</w>
ع م</w>
y at
з е
fil e</w>
electr ic</w>
a ju
ñ o</w>
meli hat</w>
छ ो
de k</w>
ep as</w>
و ب
m ak</w>
ạ nh</w>
j alan</w>
ro s
ấ n</w>
ल ी
pan as</w>
qu a</w>
o or
p per</w>
đ i</w>
دى كى</w>
ิ ด</w>
mem ili
пи та
企 業
↑ </w>
ड ी</w>
ма ши
ใช ้</w>
衣 </w>
те х
g il
ज् ञ
автомо би
h ai</w>
ł u
ट ी
に </w>
ста ви
g b</w>
خ ە
s ich</w>
店 </w>
下 </w>
ส าย</w>
b ảo</w>
ं ड</w>
ip ad</w>
es z
l ah</w>
ー ス
ה ג
us a</w>
자동 차</w>
ва ж
ı m
g oo
मु झ
д во
ban k</w>
ได ้</w>
g ab
in o
pr en
ผู้ ชาย</w>
خ ل
pr ice</w>
g aya</w>
mer c
sel epas</w>
ро в
מכ נסי
пи са
سى ز</w>
ạ o</w>
th ì</w>
รั บ
م ل</w>
vo or
ro z
ed er
म ू
ま した</w>
qu al
सक ता</w>
g as</w>
mi ễn</w>
क्ष ा</w>
neg ara</w>
x em</w>
מכנסי ים</w>
สั ้น</w>
ма є</w>
لي س</w>
cor e</w>
ма й
qu e
ג ל</w>
bi en</w>
ื่ อ</w>
ic al</w>
del l</w>
س ة</w>
キ ャ
أ س
i p</w>
ben ar</w>
ย ์</w>
สร้อ ย
mas cul
pi ù</w>
ש ע
ל ת</w>
cer am
к е
n ào</w>
ret ro</w>
भ ू
ch a
ự a</w>
ج ل
dr a
c af
ò n</w>
い て
ส ด
ком п
r ac
c n
ру ка
เส ีย
ul t</w>
分 析
装 </w>
л ка</w>
di per
т ки</w>
รถ </w>
по в
aj ar</w>
cu st
u z
il l</w>
as ia</w>
ф ер
jen is</w>
आ ज</w>
f ull</w>
чере з</w>
जि स
ня м</w>
מכ ונ
ज न</w>
n ước</w>
tur a</w>
el et
di t
คร ิส
м я</w>
ア ナル
с ла
o ur</w>
it en</w>
car d</w>
چ ە</w>
son y</w>
l es
бо р
seti ap</w>
プ レ
dr ess
in as</w>
tr ad
те ли</w>
論 </w>
đ ây</w>
sk ir
उन के</w>
ệ c</w>
mat a</w>
服 務
g al</w>
indu stri
в у</w>
pl an
סיט ונ
บร ิ
แด ง</w>
co ur
ста нов
블 </w>
ج ي
na ar</w>
e y</w>
अ च्छ
fot o
ı c
ب ر</w>
व र</w>
적 </w>
رە ك</w>
त ी
at s</w>
เย ็
in de</w>
걸 이</w>
ं ब
ح د
して い
ne ed</w>
h n
gen er
ฟร ี
se x</w>
v ia</w>
ch a</w>
大 </w>
f li
da de</w>
크 리
be be</w>
ma x</w>
l on</w>
p ad</w>
و ر</w>
re gi
ה ד
c us
un der
و د</w>
נ י</w>
про ек
ú p</w>
با ش
력 </w>
l u</w>
ส บ
pr em
str u
व ी</w>
व न</w>
का म</w>
هنا ك</w>
bag ai
ne w
إ ن</w>
ภั ณฑ
to y</w>
t ari
ۇ ن
ch ọn</w>
c a
이 트</w>
sm all</w>
ול ה</w>
i h</w>
ก า</w>
ti ga</w>
p le</w>
g est
c en
उ स</w>
f lu
xu ất</w>
문 </w>
tr u
h kan</w>
ó i</w>
men te</w>
ل ۇ
smar t</w>
c ung</w>
бес плат
מ פ
ธ ิ
국 </w>
l ich</w>
हा ँ</w>
u w</w>
스 트
t ự</w>
או </w>
่ าย</w>
ת כ
在 </w>
w ant</w>
שח ור</w>
h em
ộ c</w>
japan ese</w>
sen do</w>
दि न</w>
ฝ ้าย</w>
ầ m</w>
be k</w>
fas hion</w>
v os</w>
z i</w>
diam ond</w>
по ль
wor k</w>
el a</w>
є ю</w>
m ung
fil m</w>
с лі
हु आ</w>
กล ่
com pan
k ita</w>
бе з</w>
di ff
売 </w>
ci e</w>
t p</w>
ถุ ง
ब च्च
उन् होंने</w>
ン ト
套 </w>
भा रत</w>
sen diri</w>
ó c</w>
bag s</w>
م ات</w>
v ac
س ە
้า ง</w>
적 인</w>
ज े
bm w</w>
produc t</w>
ker ana</w>
at os</w>
se ks</w>
เซ ็กซ
c c
л ение</w>
хо л</w>
الأم م</w>
jewel ry</w>
бу в</w>
ah a</w>
แส ง</w>
א ה</w>
for m</w>
щ о
क ै
ш ко
ー ル</w>
ú </w>
จ ะ</w>
قى ل
מ ד
chuy ển</w>
ب ار
간 </w>
ne y</w>
hot el
أ ي</w>
сь ка</w>
世 界
บ ุ
меж ду</w>
分 </w>
링 </w>
us an</w>
ق ر
सर कार</w>
น ั
ộ i</w>
림 </w>
піс ля</w>
ver s</w>
ด อก
gr ap
m ay
kel u
ं द
по зи
ь ю</w>
is an</w>
о де
ho ặc</w>
خ ت
바 지</w>
ज न
ah kan</w>
ra dio</w>
y or</w>
f ur
द्वा रा</w>
и г
ap li
r en</w>
間 </w>
מי ד</w>
z n
아 이
ish ing</w>
ุ ่น</w>
ि त</w>
ci p
s ü
จ ี
tem per
얼 </w>
f el
각 </w>
mer ah</w>
ос нов
f er</w>
j em
ผลิ ต
ú t</w>
版 </w>
品 質
ن ي
ش ار
с і</w>
ال ة</w>
b s</w>
部 </w>
b ên</w>
ध ्य
ن ف
格 </w>
สี ขาว</w>
机 </w>
st an
sch o
ج مي
c ổ</w>
т во
с мо
ให ้
ส าว</w>
n ap
מ ת</w>
ـ </w>
пла ть
r ad
го да</w>
ш та
et as</w>
est er</w>
त े
cot ton</w>
r ất</w>
fun da</w>
r ic</w>
c is
band ar</w>
en er
lag i</w>
gir ls</w>
울 </w>
k ế</w>
ве д
batter y</w>
ли ч
з да
gu e</w>
bo l</w>
ці ю</w>
s ão</w>
यो ग</w>
ذ ا
เครื่อง ประด
ń </w>
infor masi</w>
ส าย
家 </w>
r ak
про гра
ใช ้
w en</w>
ngh ĩ
sa at</w>
ram but</w>
j an
h ak
л ет</w>
о му</w>
an nya</w>
ור ף</w>
ग र्
ショ ン
י ים</w>
y ak
ัพ ท
服 </w>
ศ ัพท
su b
כות נה</w>
בגד י</w>
้า น</w>
bal i</w>
br ush</w>
दि </w>
с ре
ł a</w>
ol og
пе ра
o us</w>
war e</w>
경 </w>
w ay</w>
ब ता
k al</w>
l ic
ш ки</w>
โทร ศัพท
ص ا
li ệu</w>
f ec
म ह
ڭ ى
ت ها</w>
l ớ
dil akukan</w>
or s</w>
mung kin</w>
en ia</w>
ال ي
a al</w>
voc ê</w>
ונ ים</w>
et en</w>
รั บ</w>
до ва
kab el</w>
女性 </w>
가격 </w>
de d</w>
e y
ó a</w>
ư a</w>
lt d</w>
t on
n ach</w>
tr a
주 </w>
lar ge</w>
غ ا
l un
hom me</w>
f f</w>
क म</w>
kam era</w>
प ी</w>
เสื้อ ผ้า</w>
ст рі
фут бо
ส ไ
ع ل</w>
ль та
o der</w>
× </w>
लो ग</w>
一 </w>
ck et</w>
ю тся</w>
غ </w>
on es
נ ון</w>
l ot
ph oto</w>
smar t
كې رەك</w>
com p
כ ר
ö r</w>
бо ле
f en</w>
k ết</w>
لى رى
ארו ך</w>
ло ж
str i</w>
อ ั
sesu ai</w>
ق ۇرۇ
ئ ۈ
ạ c</w>
á p</w>
tah an</w>
ser vi
ย น
ч ет
te x
स भी</w>
ці в</w>
بى لە
เล ็ก</w>
็ อ
l an</w>
f it</w>
са мо
dun ia</w>
vi ệc</w>
מו צ
ш і</w>
ло ся</w>
गा ।</w>
al is
सि ं
ut o</w>
do st
ل ية</w>
r hin
क ई</w>
o fer
l ing
l ık</w>
е ди
ज ु
char ger</w>
الم ت
про из
мож ет</w>
क्र ि
स् ता
फ ा
्र ा
ạ ng</w>
ติ ด
ни ма
ц ь</w>
ни ків</w>
ข ึ
i bu</w>
ठ </w>
w u
जा ए
n ăm</w>
ul asan</w>
br on
ant ara</w>
ст і
c and
קי ץ</w>
но во
perl u</w>
er n</w>
wor l
si y
paint ing</w>
re i
li ên</w>
gol f</w>
am o</w>
ส ม
p s
in k</w>
et y</w>
型 </w>
安 全
म न</w>
ظ ر</w>
랙 </w>
f ace</w>
大 学
ก าย</w>
成 </w>
st ü
it ter</w>
前 </w>
st on</w>
小 </w>
틱 </w>
flo wer</w>
g ang</w>
حس نا
l ite</w>
ได ้
bant u</w>
ки та
tan pa</w>
ס נ
ब ढ़
द ी
or der</w>
men ing
जा न
cr y
yel p</w>
ú c</w>
autom at
e qu
g an</w>
ग ो
ึ ก</w>
जा ने</w>
ي ات</w>
ı z
ữ a</w>
ati ve</w>
а л
m ut
ック </w>
ir an</w>
ن ح
з ер
明 </w>
ต า
ھ ى
उ से</w>
no w</w>
ップ </w>
ch ec
裙 </w>
đ ặt</w>
ба га
ро бо
i di
स् व
ст ер
ко гда</w>
크리 스
фо н</w>
또 는</w>
b est</w>
ना म</w>
置 </w>
ج ى
om o</w>
ב ים</w>
al at</w>
車 </w>
di es
b om
แ ห
rhin est
mic ro</w>
급 </w>
ア </w>
पा स</w>
क ं
ti f</w>
ג ר
s al</w>
แ พ
ス テ
kat eg
u dara</w>
b t</w>
at ed</w>
i que</w>
س أ
ill o</w>
sens or</w>
ro up
av o
ak hir</w>
ing l
الم ر
l engan</w>
y m</w>
الا ست
li ve</w>
al t
r c</w>
et o</w>
ậ y</w>
men ts</w>
дру ги
กรณ ี</w>
لە ر
ur es</w>
s amp
ュ ー
מק רה</w>
nh ận</w>
ل دي
ver y</w>
แ ร
б ри
пред став
ш ка</w>
น ำ</w>
ئ ة</w>
ul u</w>
бу ду
й те</w>
tr ực</w>
สไ ตล
зна чи
תינו ק</w>
तु </w>
de k
호 </w>
g g
л ю</w>
่ ม
з во
ut an</w>
ch am
道 </w>
я кий</w>
e f</w>
ك م</w>
य र</w>
но ст
क ी
셔 츠</w>
ب ي</w>
k ot
ту р
p ack
mengen ai</w>
co che</w>
ي ە</w>
w w
กั บ
ши й</w>
d af
หน ้า</w>
ł ad
प र
و ض
צו ע
em s</w>
c ảm</w>
ẫ u</w>
th êm</w>
कर ना</w>
bel t</w>
progr am
об ъ
ี ้
j adi</w>
เซ็กซ ี่</w>
き </w>
n es</w>
sp eci
m l</w>
उस के</w>
k ira</w>
о ни</w>
pal ing</w>
ئ ۇ</w>
v ir
is on</w>
स् थि
sin d</w>
k ong</w>
all y</w>
ל ים</w>
fr anc
por ta</w>
ди за
mo del
pr é
k ata</w>
मुझ े</w>
v rou
श ी
u v</w>
ка те
produc ts</w>
ker eta</w>
ü ber
mar i
ко в
s d</w>
x a</w>
v an
gi úp</w>
bun ga</w>
科 技
it es</w>
sen d</w>
contro l</w>
ב ר</w>
カ ー
gi o
mo da</w>
म ौ
invest ing</w>
バ イ
z eg
技 術
tr ước</w>
ंग े</w>
ı z</w>
כ ס
ph òng</w>
ה ת
hu b
k ni
at eur</w>
ตร ี</w>
y o</w>
st o</w>
o em</w>
s wit
ї х</w>
kıl ı
se p
sta in
cli p</w>
b el</w>
h ay</w>
lal u</w>
nghi ệ
ol e</w>
m ing</w>
pri v
par ti
प र्
स र</w>
br in
ц а</w>
ज ो
ad s</w>
dam es</w>
्य ू
б ро
tr o</w>
f az
ра йо
n ic
de i</w>
con nec
จักร ย
с пи
re stor
че хол</w>
ท ธิ
な い
z in
ב ור</w>
א בי
อ ล</w>
d ang</w>
告 </w>
on om
al o
ef t</w>
ung i</w>
s ka</w>
по ча
skir t</w>
lo ve</w>
di re
s ac
цен т
орга ни
백 </w>
sty le</w>
mak e</w>
h en
ค่า จัดส่ง</w>
er t</w>
सक ते</w>
up akan</w>
و الت
속 </w>
ग ई</w>
द े</w>
se at</w>
g in
세 트</w>
повідо м
я к
ма га
s ir
चा हि
f ut
ار ى
па с
หน าว</w>
vo tre</w>
кате го
ด ้าน
l g</w>
化 </w>
ถุ ง</w>
r it
ं ट</w>
kit chen</w>
чен ня</w>
h adi
दू स
car ro</w>
ro sa</w>
b é</w>
si de</w>
tr e
א ם</w>
ب ح
ול ים</w>
h ad
co at</w>
ان ت
кра с
נ ת</w>
un it
li j
т ет
업 </w>
с к
จ ุ
m on</w>
ت ۇ
bol a</w>
б е</w>
ان ا</w>
mer upakan</w>
ต่ อ
द् र</w>
เครื่ อง</w>
v ar</w>
क्ष </w>
pl ate</w>
j uk</w>
س ب
pu an</w>
d ùng</w>
評 論</w>
oo l</w>
ھ ا
イ </w>
hab it
о бу
بىلە ن</w>
장 식</w>
水 </w>
ко ш
ten tera</w>
l y
il kan</w>
ص ة</w>
u z</w>
ỹ </w>
착 </w>
c ast
ल गा
ตั ว
ख े
pus at</w>
ó r
ב ד</w>
न ई</w>
ic s</w>
про це
r ag
cloth ing</w>
ي ع
作 </w>
스 틱</w>
ิ ต
ה לב
ко ли</w>
em en</w>
th ực</w>
dah a</w>
на д
كن ت</w>
ve z</w>
คว าม</w>
hon da</w>
กางเก ง</w>
신 </w>
pili han</w>
c av
חד שה</w>
pro c
ว ด
表 </w>
דו ם</w>
di n</w>
а д
aw an</w>
con di
por to</w>
מעי ל</w>
pr int</w>
he ad</w>
ー ム</w>
सब से</w>
v w</w>
क् ति</w>
ki m</w>
bur g</w>
ร </w>
סג נון</w>
kin der
al iti</w>
z am
шен ня</w>
इस के</w>
ฤดู ร้อน</w>
แต่ ง</w>
ın ı</w>
र त
sch u
н ки</w>
चा ह
ट े</w>
아 기</w>
ent os</w>
aw i
長 </w>
ro be</w>
lux ury</w>
h en</w>
з мі
au pun</w>
य ू
ิ ด
時 </w>
ด้ว ย
理 </w>
win dow
उन् हें</w>
бы ть</w>
저 </w>
wir eless</w>
m ig
pend ant</w>
सम झ
shi pping</w>
тер </w>
퍼 </w>
שר ש
و ال
ti ve</w>
scre en</w>
т ку</w>
ע ו
đị nh</w>
j un
의 류</w>
ви со
azi oni</w>
m ẫu</w>
t ür
ป ั
ứ </w>
z a
gl asses</w>
которы е</w>
片 </w>
c ent
त् ता</w>
pl ac
bo x
सा म
论 </w>
ट ा</w>
tab let</w>
d aw
ku asa</w>
bu y</w>
họ c</w>
слу ж
сто ро
ti r
دا ً</w>
ke dua</w>
ฬ ิ
ho o
у прав
v eg
ti ons</w>
ข วั
ba yi</w>
vi br
достав ка</w>
ba ju</w>
en i</w>
an n
합 </w>
คุณภาพ </w>
origin al</w>
le go</w>
อ ล
र् ट</w>
घ र</w>
ng o
ễ </w>
tech n
ري د</w>
ind ones
ชั ้น
ле г
at ore</w>
sili kon</w>
เป ล
스 테
เ ค
י כ
а бо</w>
d t</w>
pol y
є вро
f ishing</w>
發 展
面 </w>
at ing</w>
ت ه</w>
غ ى
al en</w>
po d</w>
бу де</w>
ени ю</w>
кі й</w>
ro m
то к</w>
при н
d av
de v
ч лен
ต ว
ส ม</w>
ي د
ла ся</w>
sol ar</w>
hi du
ต า</w>
да в
فق ط</w>
t ed</w>
ay s</w>
स र्
in i
א ית</w>
h ô
pol it
에 게</w>
h ak</w>
in ess</w>
क्ष े
qu ần</w>
не об
립 </w>
jep ang</w>
et to</w>
las er</w>
मि ल</w>
b é
あ る
c ali
g ör
да ми</w>
วั สด
м і</w>
y er</w>
пі в
สามารถ </w>
ロ ー
ं च</w>
men em
gr and</w>
ื่ น</w>
б ере
eg en</w>
ป ้อง
то ва
ש ר</w>
d ịch</w>
t ất</w>
된 </w>
ро ці</w>
쇄 </w>
นา ฬิ
עי צו
ツ </w>
pen di
th ấy</w>
ק רי
s in</w>
ت ۈ
по ли
to l</w>
ко ю</w>
ku alit
k aki</w>
put er</w>
f av
stain less</w>
no v
ถ ึ
ств у
pos si
و أ
สั ตว
สิน ค้า</w>
su s</w>
per u
第 一
ט בע
f ahr
ф ран
ma j
ден ь</w>
a w</w>
fic i
st al</w>
во до
款 </w>
ad esi
ออก แบบ</w>
ज्ञ ा
v illa</w>
量 </w>
양 </w>
du c
b áo</w>
v ari
網 </w>
т вер
worl d</w>
l l
in er</w>
or ia</w>
ци й</w>
in dia</w>
เล ่น</w>
п ли
украї нсь
プ ラ
ó ł
動 </w>
вы х</w>
z oo
ma qu
น ด
m ale</w>
ww w</w>
l é
abil a</w>
от кры
d ad</w>
on u</w>
во ни</w>
여 성
вре мя</w>
त ्य
as h
ad ores</w>
gi e</w>
ру ч
地 </w>
व ो</w>
apart ment</w>
вре мен
名 </w>
bam b
pl ic
mo use</w>
ap abila</w>
hal aman</w>
生 活
ati f</w>
rist al</w>
ac ji</w>
ฤดูใบไม้ ร
und ang</w>
ı ğ
đ ổi</w>
se d</w>
บ าง</w>
t ol
в е</w>
we b
во ї</w>
า ะ
муж чи
inter net</w>
企 业
aci on</w>
боле е</w>
t ali</w>
зо м</w>
nati onal</w>
द ौ
ש ים</w>
מות ג</w>
צ בע
тра н
त् व</w>
aç </w>
мо н
i or</w>
window s</w>
kno w</w>
จ าก</w>
प ा</w>
no k
оди н</w>
ch ev
о на</w>
in ya</w>
ג ל
๊ ก
よ う
ма ль
มั น</w>
ك ة</w>
コ ン
u omo</w>
ab out</w>
חולצ ה</w>
ter s</w>
dv d</w>
bon jour</w>
r ent
гру п
ı ş</w>
โ น
أ </w>
it ar</w>
ס תי
sp a</w>
ak er</w>
u han</w>
г ре
ของ ขวั
sist em</w>
đi ểm</w>
in ci</w>
מכ י
커 버</w>
โ ม
bi e</w>
bas e</w>
са н
أ جل</w>
p ł
li ke</w>
se e</w>
as y
ص ل</w>
ب ه</w>
ạ </w>
e book</w>
am p</w>
c ell
वि श्
ور ة</w>
ї ї</w>
袋 </w>
res ort</w>
ش ە
am bil</w>
к ер
ple ase</w>
z an
di r</w>
на в
zi oni</w>
거 </w>
ก ี
zi m
ấ u</w>
し い
gar den</w>
an ci
á ch</w>
z ar
옷 </w>
indones ia</w>
ระ บ
m b
cost ume</w>
हा र</w>
พ ื
프 로
рас стоя
w est
เง ิน</w>
dr ag
un t</w>
st one</w>
c ing</w>
k kan</w>
الآ ن</w>
в же</w>
ки е</w>
क ॉ
i ka</w>
ch an
str a</w>
หน ัง
em as</w>
t ải</w>
sit u
ht tp</w>
bul an</w>
er op
bu ka</w>
z y</w>
ต ่าง
re al</w>
al la</w>
се к
se orang</w>
n os</w>
सिं ह</w>
그 </w>
し ます</w>
sai z</w>
mand i</w>
за в
작 은</w>
c òn</w>
з ем
e ig
plast ik</w>
ה כ
פ ת</w>
t os</w>
ב ל</w>
m ę
ה ב</w>
ए ।</w>
l ac
คล ุ
t é
q u</w>
s af
стру к
เ หม
ذ ه
мо же</w>
ph i
de fin
ein en</w>
โล ห
기 계</w>
mes in</w>
ブ </w>
ç o</w>
ць ого</w>
unic or
v ille</w>
ت ش
הו בי
タ ー
pri a</w>
wi ę
ợ </w>
п ы</w>
al ta</w>
v ậy</w>
시 계</w>
mem bantu</w>
r un
قا ت
ं कि</w>
ر ف
th ị</w>
arab a</w>
con ver
फि ल्
שרש רת</w>
s ung
फ ो
k as</w>
рі в
dress es</w>
de kor
꽃 </w>
oy un
по лу
sh e
ใ จ</w>
sa o</w>
et er</w>
म हा
s ł
に よ
xx l</w>
h and</w>
gam bar</w>
ar ia</w>
ग ए</w>
w ers</w>
إ ذا</w>
ro ad</w>
नि क</w>
블 랙</w>
pas s
то н
t ang
bi ết</w>
품질 의</w>
ph ot
סו ו
fas t</w>
ספ ור
хі д
p ec
an j
u d</w>
рі з
ay ak
연 </w>
th anh</w>
ئ ور
示 </w>
ه ي
सम ्
restor an</w>
d ent
ผลิต ภัณฑ
ar es</w>
с ша</w>
n en
रा ष्
hd mi</w>
ill as</w>
선 물</w>
ー ス</w>
буд ет</w>
во м</w>
z on
я м</w>
ث ر</w>
סתי ו</w>
ان ية</w>
עיצו ב</w>
par is</w>
ма с
te ur</w>
dr e</w>
fl or
en si
đi ển</w>
б ло
ex ten
fl ash</w>
cu p</w>
ว ง
ro r</w>
사 이
de ze</w>
for t</w>
ف ر
पा र्
산 </w>
w ł
出 </w>
р я</w>
ب ل
そ の
ph ần</w>
پ ار
л ый</w>
di r
j et
wi ki
il y</w>
ti ết</w>
ко ж
sup port</w>
ó ż
ві до
च् च</w>
mas s
l ý</w>
ب ال
mel al
in ver
те м
tho ại</w>
to y
큰 </w>
事 </w>
e ch
n ama</w>
मं त्री</w>
de ut
де й
ल ग</w>
ด้ว ย</w>
l az
t ak</w>
fu l</w>
מש </w>
чен ь</w>
tr ường</w>
들 </w>
תח ת
n é
תח רה</w>
ви ч</w>
f ung
त था</w>
com pr
л ки</w>
보 석</w>
ให ้</w>
กระเป๋ า
olo gi</w>
bir th
り ます</w>
بع د</w>
ex tr
ß </w>
ess o</w>
k ar</w>
б ю
ci l</w>
ก ุ
j ust</w>
ц ю
g ing</w>
グ </w>
ồ i</w>
ỗ i</w>
ци он
мен т</w>
鞋 </w>
be bek</w>
ב איכות</w>
ді в</w>
두 </w>
ー ム
ре ш
vi l</w>
ك ما</w>
en o</w>
bi s</w>
w ing</w>
le ur</w>
ان ي</w>
ho a</w>
ฤดูใบไม้ ผลิ
ต ้อง
gi ảm</w>
נ ו</w>
arti kel</w>
צו ו
ري ق</w>
w ä
bat h
z war
đ ối</w>
設 計
bar e</w>
con tac
ب م
sa int</w>
ai o</w>
दे श
cet akan</w>
เข ็ม
प्र े
bo t</w>
ン ド
щ об</w>
是 </w>
so bre</w>
э лек
ü ber</w>
чи с
ลูก ไม้</w>
melal ui</w>
त ों</w>
то ра</w>
n s</w>
и ме
mo bili
z er</w>
غ ۇ
ligh ts</w>
co unt
मु ख
c ô</w>
g un</w>
го тов
от вет
หน ึ
ยื ด</w>
shir ts</w>
r am</w>
عن د
э к
ئ </w>
क भी</w>
س م
v ì</w>
s ite</w>
adap ter</w>
ди с
に つ
wi j
بې رى
플 라
т рі
out door</w>
语 </w>
st amp
é p</w>
अ व
zoo m</w>
د ع
terse but</w>
לי ים</w>
kaw asan</w>
بش أن</w>
ł o</w>
wa ar
h ệ</w>
cas ual</w>
м я
ไ หล
d hl</w>
мож ете</w>
з ро
ре зу
अधि क</w>
الم ح
च ा</w>
ا ع
ні ч
bo w</w>
s alah</w>
di st
위 해</w>
อ ะ
ر ي</w>
mul a</w>
est á</w>
แต่ง งาน</w>
mo u
kualit as</w>
ส่ ง
ที่มีคุณภาพ สูง</w>
เร ็
no us</w>
מ ר
评 论</w>
резу льта
아 이</w>
ко ст
ดอก ไม้</w>
t un
is s
g u</w>
た </w>
fr ance</w>
fab ric</w>
را ر</w>
ци аль
ber l
ק ים</w>
م ج</w>
ch aus
s ay
per s</w>
ה אופנה</w>
יל ד</w>
ư u</w>
to o</w>
nh ân</w>
าร </w>
シ ャ
ра к
n ên</w>
كان ت</w>
פ רו
kad ın</w>
नि य
ex press</w>
sw im
कार् य
य ी</w>
so cks</w>
را ء</w>
н ю
ut a</w>
भ </w>
kemu dian</w>
we i
여 름</w>
ặ p</w>
الخ ا
us i
า ด</w>
감 </w>
س ل
م ه
प हु
i en
bah kan</w>
ए व
ti j
ー ク
сь ких</w>
f ant
se c
لك ن</w>
cz y</w>
co lo
perl ind
af f
ฟรี ค่าจัดส่ง</w>
inc lu
hi asan</w>
شي ء</w>
с о</w>
has il</w>
น ี้</w>
lớ n</w>
perlind ungan</w>
ספור ט</w>
kon tol</w>
it é</w>
birth day</w>
ж і
يمك ن
p um
vest idos</w>
ח צ
compan y</w>
م ۇ</w>
ty pe</w>
ह म
چ ى</w>
bi j
ц вет
ือ ก</w>
t av
tiế p</w>
sli m</w>
ุ ก</w>
fig ur
ถ ู
แฟชั ่น
ru b
手 机
g ood</w>
ве ден
ช า
บร ร
मा म
ート </w>
ro pa</w>
ing in</w>
s m</w>
ش نى</w>
ブ ラ
hi ệu</w>
เต อร
oo k</w>
wer den</w>
th an
on ic</w>
n al</w>
거 운</w>
wor den</w>
י ד</w>
ल ने</w>
son t</w>
в ра
送料 无
ש ות</w>
x im
d ây</w>
wi r</w>
на н
हो ती</w>
ne u
er y</w>
क ू
serv ice</w>
उ च्च</w>
tr es</w>
ay ah</w>
ні ї</w>
от ри
ע בור</w>
ст в</w>
по вер
bar ang</w>
se belum</w>
ma y</w>
린 </w>
pri x</w>
s ac</w>
م ار
عا م</w>
会 社
исполь зова
di ken
дол ж
ان ى
กางเก ง
อ อก</w>
लि या</w>
su n</w>
жи ва
it as</w>
ak ah</w>
pe ar
果 </w>
ac ja</w>
ס ט</w>
aç ões</w>
po si
c ơ</w>
الل جنة</w>
เร ีย
n cia</w>
ال نا
ắ ng</w>
us i</w>
制 </w>
sz cz
ря д
an che</w>
prof essi
c ùng</w>
전 기</w>
महि ला
col l
인 쇄</w>
ज ैसे</w>
ال سي
g le</w>
ва с</w>
סו י</w>
ati on
materi al</w>
브 랜
po ko
ль ки</w>
ec tor</w>
sle eve</w>
प ं
se hingga</w>
ür ün
پ ە
北 京
в ь</w>
gr and
produ k
عل م</w>
т ка</w>
aw al</w>
ст ен
技 术
restaur ant</w>
อ ด</w>
st en
el as</w>
men er
市 場
sh or
s au
เครื่องประด ับ</w>
א ינ
н г</w>
y cle</w>
d ung</w>
제 품</w>
з у</w>
su kan</w>
sel uar</w>
pro bl
ni e
การ ์
क ल</w>
실 </w>
मे रे</w>
н ю</w>
за щи
sch n
g ì</w>
x o</w>
o vo</w>
ч ный</w>
au dio</w>
d ẫn</w>
행 </w>
ल य</w>
을 위한</w>
ס קס
gi or
ı s
p y
нь ого</w>
な ど
پ ا
w at</w>
el i</w>
se kol
про бле
bot tle</w>
ต ู
на ми</w>
架 </w>
会 </w>
ин форма
ว ก
l ong
tu be</w>
пар ті
情 报
мо ло
ви д
हु ई</w>
cle an
it i
ن ت
c u</w>
ราค า</w>
при й
国 </w>
g ái</w>
סיטונ אי</w>
ar ı</w>
الم ست
« </w>
stic k</w>
e ğ
ท าง
คริส ตั
ん </w>
ко ї</w>
कर ता</w>
м л
ู ่
сум ка</w>
sch e</w>
שמל ה</w>
zi k</w>
пе й
mak anan</w>
apli kasi</w>
m t
l ên</w>
то т</w>
の ため
एव ं</w>
ब र</w>
能 </w>
sp ec
н ка</w>
प् त</w>
de st
stri p
cá i</w>
họ </w>
se y</w>
m ant
号 </w>
на х</w>
ç as</w>
f est
י ות</w>
כ ת
ग त</w>
ç ok</w>
ни че
أ ر
ді й
kt ó
市 </w>
yor um</w>
l l</w>
ва жа
air port</w>
ro und</w>
フ ィ
הו א</w>
in ch</w>
ir es</w>
qu ad
उन की</w>
इ न
bor n</w>
الم ع
li m
n ach
back pack</w>
خى ز
सा ल</w>
uc u</w>
є мо</w>
v al</w>
ن ظ
ש ק
sekol ah</w>
for ma</w>
रू </w>
pr inc
por no</w>
st ation</w>
ра з</w>
cn c</w>
ö z
يج ب</w>
г но
ali an</w>
str o</w>
nam e</w>
як що</w>
v il
r af
ku aliti</w>
те к
ผ้า ฝ้าย</w>
за яви
di en
ло ве
fr ame</w>
ю чи</w>
man u
д лин
مث ل</w>
ق ە
на у
ฤดูใบไม้ร ่วง</w>
it à</w>
时 间
ch at</w>
daf tar</w>
ท าร
su a</w>
a a</w>
ق ار
ุ ่ม</w>
pen dek</w>
ab ili
vi ên</w>
at ure</w>
transpar ent</w>
레이 스</w>
س ية</w>
мер и
क् स</w>
什 麼
д ви
bo ots</w>
딩 </w>
능 </w>
me er</w>
ent a</w>
k ap</w>
flo wers</w>
nh ật</w>
s ini</w>
و م</w>
ि क</w>
ти я</w>
bu ku</w>
ắ m</w>
전 화</w>
avo ir</w>
問 題
на м</w>
m ap
ar ri
हमा रे</w>
нен ня</w>
กร ร
sch i
ba ş
y u
こ の
ba b
ब ी</w>
pi ece</w>
en vi
у кра
文 </w>
कर ण</w>
เ ศ
プ ロ
ọ ng</w>
де й</w>
ai kan</w>
טל פון</w>
ש ב</w>
و ا</w>
br it
ma de</w>
ن ية</w>
ст ре
d ag
s ale</w>
ต่ อ</w>
ku t</w>
แ น
s ure</w>
ック ス</w>
ọ i</w>
個 </w>
о со
pl ug</w>
at u
ori os</w>
سا ع
vo it
ло ві
ко ми
лі в</w>
h ành</w>
ці й</w>
j ung</w>
就 是
з и</w>
レ ス
ध ी</w>
เจ ้า
만 </w>
ข ัด</w>
к м</w>
ब द
то лько</w>
ph ụ</w>
दा र</w>
те ля</w>
ту а
y at</w>
g t</w>
ル ト
อา กา
高 </w>
ph át</w>
ق تى
เว ล
co r</w>
ข้อ มือ</w>
д ня</w>
пере да
ור י</w>
пре де
st ur
as kan</w>
water proof</w>
del le</w>
t amp
ฤดู หนาว</w>
ку ль
j as</w>
章 </w>
z um</w>
w s</w>
का रण</w>
a ur
छ ा
he art</w>
голо в
अ गर</w>
스 포
เ ห
syst em</w>
เหล ็ก</w>
“ </w>
a ć</w>
t âm</w>
थ े।</w>
органи за
ت لك</w>
in de
че лове
ri os</w>
ba ba</w>
ت ي
ag gio</w>
dr u
ंग ्रे
미 니</w>
z naj
zi on
ли сь</w>
वा ली</w>
ณ </w>
dri j
녀 </w>
чо лові
多 </w>
ل ن</w>
bi ểu</w>
во на</w>
ge bru
fung si</w>
б у</w>
メ ン
wal let</w>
swit ch</w>
ч ение</w>
ค ้า
ブ ル
ấ m</w>
等 </w>
fil ter</w>
ع ية</w>
다 른</w>
ק ת</w>
se a</w>
ч но</w>
у ни
та м</w>
ج تما
а на
ีย ม</w>
t est
pel bagai</w>
м но
se di
х ло
مى ز</w>
【 </w>
ю щ
א ר</w>
r ing
루 </w>
г ри
без пе
מכונ ית</w>
protec tion</w>
래 </w>
تە رە
hi j
लि ख
ic es</w>
bay an</w>
ü l
kas ual</w>
на с</w>
k ö
centr o</w>
ق بل</w>
ค ู่</w>
kle t</w>
má s</w>
eg ang</w>
cint a</w>
ח ם</w>
оп то
ol s</w>
univer sal</w>
תכ שי
ко ман
со в</w>
好 </w>
я ть</w>
「 </w>
mi d
плать е</w>
но вый</w>
et i</w>
c ake</w>
m ail</w>
is i
ba wa</w>
хо дя
z ą
วัสด ุ</w>
ซ ี
ف ى</w>
d ễ</w>
و في</w>
m akan</w>
وق ت</w>
ז ו
femin ino</w>
но ва
ग ी
са м
ว ิน
थ ी।</w>
рі ї</w>
ל ב</w>
mal am</w>
j ac
有 </w>
ल न</w>
ตก แต่ง</w>
इ त
па ра
中心 </w>
ר ב</w>
ल ड़
er ing</w>
de w
ak kan</w>
beb as</w>
vi ệt</w>
комп лек
во про
s ci
手 </w>
украї н
bus iness</w>
d al</w>
g ün
디 </w>
พล าส
श ा</w>
enf ant</w>
ar chi
द् ध</w>
ว ด</w>
מש ק
b angan</w>
커 </w>
ل ت</w>
ж о
ס ול
期 </w>
ئ ية</w>
bi kini</w>
si m</w>
ag o</w>
ر ا</w>
ज ै
재 </w>
電 話
म न
位 </w>
lem but</w>
v s</w>
金 </w>
च ी
目 </w>
หม วก</w>
ло м</w>
กล าง
ча ст
เท ้า</w>
bi a</w>
д ере
ges ch
s ko
ści e</w>
v ing</w>
g a
gi ờ</w>
ด ิ
につ いて
दा न</w>
ה ב
lu z</w>
ขึ ้น</w>
ตั ้ง</w>
स् वा
h p</w>
un o</w>
пра во
ัง ก
тель но</w>
タ イ
락 </w>
س ي</w>
שמל ות</w>
כ ד
กี ฬ
д ра
t wo</w>
br o</w>
inf anti
ва ль
ro le
k ut
па д
es se</w>
ni eu
ك ن</w>
str uc
गु ण
gu ar
या ं</w>
tr ình</w>
f um
ко е</w>
פ ור
it an</w>
us d</w>
men ar
本 </w>
клю ча
คว บ
т рен
장 난
着 </w>
he eft</w>
по го
bic ycle</w>
ло гі
п ет
rem aja</w>
дне в
탈 </w>
ホ テ
go d
ال ية</w>
be ads</w>
с ки</w>
ti l</w>
ш у</w>
s ạn</w>
ل ه</w>
ru ang</w>
ein em</w>
레 이</w>
b ec
sweat er</w>
플 러
목 </w>
ق ية</w>
ayak kab
оде ж
أ و
ควบ คุ
ท ำ</w>
ử i</w>
द र</w>
หั ว
ה ש
рова н
бу ли</w>
h ello</w>
v u
penggun a</w>
لى رى</w>
wan ie</w>
держа в
kelu ar
il o</w>
se jar
мужчи н</w>
ย ุ
m ek
mon it
ser e</w>
cry stal</w>
че ский</w>
قو ق</w>
ה ק
ل ق</w>
ki en
b b
服 务
ราค า
ж да
램 프</w>
อุปกรณ ์</w>
पूर् ण</w>
on ton</w>
do m</w>
बा रे</w>
נ ים</w>
โ พ
po ol</w>
พลาส ติ
ऐ से</w>
ที่ มี</w>
dam en</w>
ре й
ที่ สุด</w>
bi m
一 个
ф ек
ь ся</w>
раз ви
dil do</w>
פ ות</w>
สี แดง</w>
en ie</w>
ไม ่</w>
har d
id ad</w>
bel ak
g ửi</w>
đ ơn</w>
dol l</w>
wiki pedia</w>
ל ות</w>
h at
pi ec
เก็ ต</w>
ד ר</w>
โค ม
rhinest one</w>
po p</w>
महिला ओं</w>
さ い</w>
z est
c ak
катего рія</w>
ยน ต์</w>
पि ंग</w>
عند ما</w>
หน้า จ
ア ル
ไ ป
е е</w>
telef o
م ې
主 要
머 리</w>
t ạo</w>
หร ือ</w>
必 要
s ne
म े</w>
fre es
라 인</w>
سو ف</w>
blo use</w>
mo ż
ber si
ne j</w>
w ar</w>
제 공
b ac
но в</w>
daw anda</w>
k im
ча сти
플라 스틱</w>
ht c</w>
ri a</w>
เร า
อย ่าง
وق ۇ
מ יני</w>
요 </w>
y êu</w>
질 </w>
ah li</w>
eu p</w>
nghĩ a</w>
ant ar</w>
c ak</w>
i yi</w>
ư ở
natur al</w>
男 </w>
mi ej
stand ard</w>
ju kkan</w>
आ ग
線 </w>
ق لي
c as</w>
t es
си ли
j ah
ọ c</w>
lam an</w>
гово ри
hồ </w>
دي د</w>
แส ด
ko bi
ิ ง
t s
теле й</w>
ถึ ง</w>
bagai mana</w>
sch ool</w>
el in</w>
w and
tr adi
tu a</w>
li o</w>
il i</w>
ser t</w>
d ar</w>
sol o</w>
상 자</w>
sh ell</w>
zz o</w>
ك ر
re ad
t um
go ed</w>
so ft
สบ าย</w>
ú i</w>
לב ן</w>
dew asa</w>
t ai
c ic
แบ ต
ط ف
ن ە
to àn</w>
주 얼</w>
me k</w>
s é
ك ِ</w>
pu bl
ऐ सा</w>
sem asa</w>
memili ki</w>
แบต เตอร
stor age</w>
ч у</w>
мо в
hi er</w>
мож но</w>
पु लि
росі й
ста нови
ро ків</w>
m ac</w>
з ви
li er</w>
板 </w>
tel e
с ве
โร ง
en do</w>
ل ۈ
โ ซ
겨 울</w>
re zer
ль ный</w>
ז הב</w>
dic tion
mascul ino</w>
캐 주얼</w>
vi er
по став
l eng
m u</w>
po int</w>
ले कर</w>
स ब</w>
ast a</w>
ar g
צ ע
со м</w>
कर े
s ch</w>
lo ck</w>
сь о
אח ת</w>
al so</w>
spor ts</w>
mir ror</w>
ol es
m àn</w>
lin k</w>
kem bali</w>
dziec i</w>
الم ؤ
ist i
يا خ
fil em</w>
מו ד
ü k</w>
א ים</w>
स् ट</w>
ниц т
k ota</w>
フ ォ
pag es</w>
r an</w>
e ja</w>
ç ões</w>
га н
w el</w>
по від
be drij
ad h
子 供
外 </w>
サ ー
en za</w>
stoc k</w>
ra di
to t</w>
뜨 거운</w>
ло ги
di tam
par t
ạ ch</w>
me dia</w>
ul tra</w>
กล่ อง</w>
או רך</w>
mak eup</w>
ho es
acces so
バ ー
ч е</w>
도 착</w>
ب ۇ
es z</w>
ز نىڭ</w>
t ur</w>
gi ới</w>
gl itter</w>
ח ת
너 </w>
tan ah</w>
o il</w>
ex ter
ح تى</w>
商 品
aj ą
所 </w>
عل ا
ali baba</w>
व ्या
х а</w>
o ther</w>
ח ול</w>
ti es</w>
а мери
ol o</w>
st ore</w>
smart phone</w>
sejar ah</w>
產 品
थ ो
quest o</w>
i da</w>
c ah
n ói</w>
ค รั
li ch
k ali</w>
tuy ến</w>
जी वन</w>
ê s</w>
ניי ד</w>
повідом ля
menar ik</w>
文 化
lin s</w>
ob j
ल ै
key chain</w>
ра спо
च े
wel l</w>
b um
det ail</w>
j on
ме ст
mak in
ता ओं</w>
ag es</w>
contro l
ه د
ter dapat</w>
لد ان</w>
ч ка</w>
e an</w>
c um
at ura</w>
ب ات</w>
to il
k n
ч і
bol sa</w>
ko s
جمي ع</w>
en vo
สไตล ์</w>
ु </w>
بع ض</w>
fo ot
man o</w>
我 们
ผ สม</w>
प ड़
wi ed
жен ские</w>
ध न</w>
k ah
pen er
к тор</w>
गा ं
meng ambil</w>
길 이</w>
ti s</w>
pu t</w>
i der
나 무</w>
لە ر</w>
kl as
qu alit
ال سا
пра цю
것 은</w>
تق د</w>
이 다</w>
利 用
布 </w>
ker as</w>
ジ ャ
ế p</w>
pap el</w>
ダ ン
ח ורף</w>
با ر</w>
بى ز</w>
khi d
car s</w>
w heel</w>
mat e</w>
m ar</w>
ді в
แ ว
er ie</w>
ber g</w>
g ul
д ы
k us
प्र का
bü yü
bi ru</w>
스타 일</w>
mem per
t we
ni ke</w>
แข ็
t eg
sem ula</w>
пу нк
إن ه</w>
لل م
ні ше</w>
kum pul
方 </w>
to ys</w>
merc edes</w>
su ite</w>
จ าก
ung s
بول ۇ
را ً</w>
ind ing</w>
ti ền</w>
го р
the y</w>
mu da</w>
sin h</w>
形 </w>
er ta</w>
su kien
can tik</w>
mic key</w>
i os</w>
ét é</w>
keluar ga</w>
ינ ה</w>
chi o</w>
g on
pel o</w>
ה נ
d ate</w>
au di</w>
้า ง
rub ber</w>
ทาร ก</w>
voit ure</w>
قىلى ش</w>
כי סוי</w>
ไ ป</w>
ل س
br es</w>
ỳ </w>
כס ף</w>
ля ть</w>
al e
мо да</w>
s áng</w>
org as
غ ان
all o</w>
п ен
ar ka</w>
ul i</w>
ล ำ
イ ル</w>
ч ного</w>
セ ン
p p</w>
서 비
됩 니다</w>
ज ब
каче ство</w>
se m</w>
유 </w>
א ות</w>
ar be
belak ang</w>
מז ד
디 스
ev a</w>
на при
neg o</w>
frees hi
ві ль
ве с
man ag
di g</w>
кі н
っ てい
ซ ื้อ
ฤดูใบไม้ผลิ </w>
ü n</w>
н ку</w>
단 </w>
s mo
र ंग</w>
vis or</w>
mon t
g at
per se
fr ont</w>
महि ला</w>
เด ียว</w>
spr ing</w>
ल ता</w>
li qu
ضا ء</w>
ए ं</w>
ñ os</w>
protec tor</w>
wak tu</w>
entr e</w>
kl i</w>
ber be
ł y</w>
el en</w>
pro mo
an to</w>
у слу
apar tam
at h
מצ ל
ch ant</w>
ส่ วน
stu dio</w>
k y</w>
ba d</w>
하 기</w>
с вет
เม ตร</w>
열 </w>
to p
украї ні</w>
sel atan</w>
ม ิน
i ş</w>
man y</w>
по я
ب ها</w>
lap top</w>
ж ения</w>
주 도</w>
需 要
to ol</w>
ิ </w>
เล ็
dat ang</w>
зо ло
кі сть</w>
ени ем</w>
액 세
toy ota</w>
goo gle</w>
फै शन</w>
dah ulu</w>
沒 有
ग्र ा
ج ە
임 </w>
크리스 탈</w>
컬 러</w>
ши е</w>
бе зо
mem b
mil it
案 </w>
pan el</w>
me is
femin ina</w>
nh anh</w>
чер ный</w>
col lins</w>
r il
ac z</w>
us z
програ м
짧 은</w>
ш ей</w>
l ịch</w>
c ửa</w>
ب ت
co up
เพ ื่อ
w all
infanti l</w>
ึ ก
сти ль</w>
kin der</w>
pu bli
قا ئ
नि या</w>
कर ा
до ку
ber g
li cht</w>
ح ت
au n</w>
ג ה</w>
mo de</w>
ס י</w>
co o
l ish</w>
高 品質
v as
tem p
こと が
לי ון</w>
ма тери
여성 의</w>
mot oc
kes el
पुलि स</w>
cu t</w>
k ain</w>
bi asa</w>
व स्
מ ות</w>
h ad</w>
чи ть</w>
م ي</w>
un jukkan</w>
по ді
та х</w>
де во
ı kl
к рі
ed ge</w>
су ще
r ang
路 </w>
브랜 드</w>
้อ </w>
sch l
・ </w>
de ğ
s ak
am at</w>
su is</w>
คริสตั ล</w>
до в</w>
t pu</w>
ми ни
ठ ा
ب الت
kam er</w>
ข ั
та ми</w>
d r</w>
ค ์</w>
ذ لك
fem ale</w>
y am
ngo ài</w>
фу нк
us se</w>
ma ar</w>
в з
카 드</w>
í n</w>
н ет</w>
网 </w>
si z</w>
अप ना</w>
스 크
т ый</w>
分析 </w>
פ ר</w>
al ia</w>
v í
व ै
ві т
so l</w>
ko sz
чи й</w>
amer ic
と い
च े</w>
пере д
บ น</w>
ki r</w>
об ес
міні ст
털 </w>
d ot
fl y</w>
א דום</w>
jer sey</w>
ท อง</w>
fun das</w>
aw aran</w>
ac er</w>
лю дей</w>
上 海
br as
chec k</w>
ber sama</w>
ل ها</w>
stre et</w>
az a</w>
शि पिंग</w>
he id</w>
на ча
op el</w>
儿 童
하 지</w>
वा द</w>
l ak
it e
ป ัด</w>
تص ا
k ön
su l</w>
n t</w>
der s</w>
c ầu</w>
스 틸
j as
m am
h os</w>
מט ר</w>
не за
ขนาด เล็ก</w>
бу ти</w>
бу ла</w>
य न</w>
ड े
ל ש
ком на
т ри</w>
f ur</w>
gi ft</w>
राष् ट्र
pap ier</w>
sah am</w>
pl ace</w>
f ing
u ş
т ный</w>
per em
en g</w>
у ні
du al</w>
boo king</w>
g om
сво бо
k au</w>
жен </w>
д ва</w>
chuy ện</w>
ỏ i</w>
आ ई
ט ים</w>
col lar</w>
h n</w>
обес пе
n il
су дар
چ ۈ
woo den</w>
wal aupun</w>
tou ch</w>
ва ла</w>
ear s</w>
но си
ро к</w>
scr ap
ל ע
د ې
á vel</w>
au str
สี ฟ้า</w>
ti que</w>
ウ ェ
ưở ng</w>
shor ts</w>
ज ्या
cap ac
भ ी
fit ness</w>
ẩ n</w>
ب غ
ति क</w>
cro ss</w>
ка на
те сь</w>
फ े
लि ये</w>
ol d</w>
k is
di p
ш ения</w>
ass en</w>
lamp u</w>
et ti</w>
دى غان</w>
要 求
на д</w>
الإ نس
го судар
be dro
ở i</w>
وم ات</w>
ג ת</w>
량 </w>
на з
ac ess
t x</w>
ส ตรี</w>
י ה</w>
सा र</w>
ड ी
omet er</w>
to ut</w>
sp an
э тот</w>
tin h</w>
ши м</w>
ل ح
port able</w>
ap p</w>
า ะ</w>
را ئ
дер ж
h ay
д ные</w>
를 위한</w>
че м</w>
пер </w>
min h</w>
ング </w>
दो नों</w>
と </w>
ใหม ่
сьо год
資 訊
меж ду
за га
p ek
e h
ль т
be st
cl ass
chi ế
о преде
shi p</w>
गुण व
उत् पा
bu atan</w>
сько му</w>
tro u
та н
ब ल</w>
сле ду
за ли
ك ون</w>
أ ت
орга ні
ти м</w>
uy ên</w>
безо пас
wir d</w>
lon don</w>
с е</w>
о чень</w>
th ường</w>
k lo
d ada</w>
ไฟ ฟ้า</w>
러 운</w>
dam skie</w>
الم و
trav el</w>
ж у</w>
le j
に な
ีย </w>
ре а
th ích</w>
ti po</w>
भा रत
א תה</w>
dis ney</w>
हो गा</w>
э той</w>
่ อ
ं स</w>
mer chant</w>
網 友</w>
k ów</w>
א ש</w>
nh au</w>
bic ic
y es</w>
dis play</w>
تى نى</w>
ฐ าน</w>
त ं
th ere</w>
여 자</w>
ah l</w>
lo u
बी च</w>
кон тро
per ia</w>
между народ
et i
li e</w>
я за
gri s</w>
گە ن</w>
ko p
ф ак
пе ча
d ư
tem po</w>
गुणव त्ता</w>
د ية</w>
ợ i</w>
목 걸이</w>
ba k</w>
обу вь</w>
רכ ב</w>
ш ь</w>
س ۇ
ن عم</w>
ч ор
sum ber</w>
zwar t</w>
сси и</w>
系 統
я з
ny m</w>
政 府
म त</w>
бы л</w>
र् थ
点 </w>
kr y
ка я</w>
ว ม</w>
ล ะ
кост ю
har us</w>
r ę
spor t
a x
euro pages</w>
res er
』 </w>
zim mer</w>
장난 감</w>
パ ー
ст ю</w>
вико ри
ц а
ö l
во ро
נ ק</w>
ไ ร
le d
ac ry
mo i</w>
ч ения</w>
v eux</w>
ด า
م ست
팔 찌
ב ית</w>
t ai</w>
لار نىڭ</w>
क ता</w>
ل گى
сві т
f ak
d ass</w>
v et</w>
v ật</w>
一 般
o so
wan e</w>
as li</w>
יכ ול</w>
ro ck</w>
n ag
g um
явля ется</w>
시 한</w>
tas che</w>
ą cz
п ля
l uruh</w>
kar t
pel ajar</w>
م ش
כו כ
r ent</w>
re ka</w>
мож ли
제 품
כר טי
pe j
ह े
と して
с па
с дела
ec o</w>
bi o</w>
op en</w>
ap plic
ผ ิ
く だ
كي ف</w>
ผ ล
por tu
अ भि
per o</w>
รูป แบบ</w>
vrou wen</w>
с пу
ч ний</w>
sch war
u st
про гно
member ikan</w>
pand ora</w>
pen u
د ت</w>
重 要
sp ir
kam ar</w>
ro me</w>
ser ta</w>
das arkan</w>
か </w>
pent ing</w>
ق ل</w>
ş ar
n ä
k ah</w>
w szy
ко мі
ke d</w>
금 속</w>
bag us</w>
qu art
ter min
กีฬ า</w>
et ta</w>
พ ร
招 聘
po t</w>
ướ ng</w>
лю бо
sen ti
ch em
f ood</w>
е сть</w>
ग या।</w>
ス ク
bu kan</w>
кош тов
ig ht</w>
스테 인
ili z
خ ص
अन ्य</w>
ıc ı</w>
kar a</w>
ลูก ปัด</w>
oc uk</w>
ein er</w>
l aut</w>
c lub</w>
lo o
非 常
لى دۇ</w>
ми ну
안 </w>
коро т
са й
s ent
men onton</w>
cri an
em pat</w>
k ỳ</w>
ع ات</w>
ت فا
و إ
ب ما</w>
and ere</w>
adh esi
t em</w>
する </w>
ell er</w>
द ्र
cut ting</w>
แท ้</w>
tr ẻ</w>
갑 </w>
ц вет</w>
col lec
kap as</w>
jun to</w>
사용 </w>
ber e
و ف
گ ۈ
z t</w>
जा ती</w>
диза йн</w>
m ö
đ ặc</w>
го ду</w>
ital ia</w>
ß e</w>
学 生
p t
s ang</w>
ра х</w>
כו בע</w>
카 메
è n</w>
イ ル
ت م</w>
є м
горо дами</w>
pr e</w>
द ों</w>
ter baru</w>
be d
แส ง
mt b</w>
מח שב</w>
ו ב
al les</w>
ल ॉ
squ are</w>
الم ج
pel u
있 다</w>
а т
pi j
نا ء</w>
ля р
ق وي
ổ ng</w>
hadi ah</w>
च ना</w>
خ ط
ل ق
源 </w>
st ad
min im
스 트</w>
n ica</w>
g eg
unicor n</w>
th ay</w>
섹 시한</w>
سى نى</w>
mul ti</w>
द न</w>
篇 </w>
हू ँ</w>
ви роб
perem puan</w>
с ли
we en</w>
มั น
l eta</w>
сти ту
спор тив
at e
ร นด
y er
行 業
ци ю</w>
ري ر</w>
전 체</w>
без коштов
สัตว ์</w>
تى ش</w>
ع ي</w>
ं द</w>
ख ो
ver s
이 어</w>
l umin
פ </w>
여 </w>
l ang</w>
co ff
я ка</w>
it ali
到 </w>
d aki</w>
बै ठ
mi r</w>
т ные</w>
س ات</w>
не й</w>
ser ies</w>
第 二
م ح
wi el
j ack</w>
universit y</w>
व ल</w>
se gu
mobili ário</w>
ز ۈ
в ка</w>
g n
tam u</w>
t úi</w>
م ؤ
v est</w>
コ </w>
в ну
선 택
스틸 </w>
ho ut</w>
גד ול</w>
freeshi pping</w>
आ ं
ac ci
ג נ
y az
car bon</w>
भा ष
st ro
心 </w>
ping gang</w>
เสื้อ ยืด</w>
organ is
pa ñ
เข็ม ขัด</w>
e iro</w>
시 스
ال عمل</w>
el bis
بي ر</w>
שו ט</w>
menem ukan</w>
ser a</w>
in in</w>
em er
kad ar</w>
पु रु
테 이
sh ar
ה חדש</w>
an ah
kin h</w>
ב ות</w>
t w
wi er
mat i</w>
ба р
ライ ブ
par ti</w>
ال ات</w>
ç ocuk</w>
đ ường</w>
đ en</w>
등 </w>
圖 </w>
đ ầm</w>
bu il
ら れ
如 果
p is</w>
no u
उ न</w>
ва ри
计 </w>
배 터
г ер
fi eld</w>
hã ng</w>
від повід
f s</w>
сь кі</w>
ۆ لە
ци ональ
mi ch
께 </w>
网 友</w>
หล ัง</w>
غ ي
श ो
प ढ़
to on</w>
el er</w>
जा र</w>
يمك ن</w>
mag net</w>
ре ги
x peria</w>
мо й</w>
s y</w>
ของขวั ญ</w>
่ อ</w>
進 行
diction ary</w>
花 </w>
क्षे त्र</w>
s ą</w>
ห ้อง
ست طي
sho e</w>
พล ัง
경 우</w>
гро ма
tem ent</w>
h s</w>
ген е
ال ي</w>
קצ ר</w>
r ab
ज़ </w>
ph ones</w>
to ols</w>
भारत ीय</w>
hã y</w>
біль ше</w>
v ri
повідо ми
उस की</w>
на ці
أ ص
f m</w>
по каза
ר ק
r ad</w>
hot ele</w>
ц ер
mi e
произ води
ş ir
כת ף</w>
ле й</w>
di jual</w>
en ter
क प
cust om</w>
ча сы</w>
отри ма
bang unan</w>
e ye</w>
ッ チ
ग ्
aci ones</w>
ли ше</w>
스포 츠</w>
โลห ะ</w>
ह न</w>
п ы
院 </w>
ۋ ى
с пра
th áng</w>
สู ง
fi er</w>
qual ity</w>
다 이
li e
ти й</w>
ab er</w>
โด ย
ri m</w>
at er</w>
ं त</w>
мож на</w>
jum lah</w>
сказа в</w>
to e</w>
ar ea</w>
ла га
alumin ium</w>
ś </w>
ta g</w>
유 리</w>
ỉ nh</w>
袖 </w>
อากา ศ</w>
prze z</w>
ผ ม
ओ र</w>
pl y</w>
матери а
sch en</w>
чи та
הובי ל</w>
レ ー
m m
미 </w>
दे ने</w>
반 </w>
द ्य
k ích</w>
kateg ori</w>
อุปกรณ ์
ิ ล
yor k</w>
sam och
ze it</w>
खि ला
m eg
키 </w>
pol o</w>
スト リ
o z
v a
ig en</w>
وا ح
ag aan</w>
ร าย
เช ื่อ
ياخ شى</w>
w ind
po s</w>
액세 서
tr i</w>
모 자</w>
am i
学 校
an y
к ни
מס ך</w>
g ur
ज रू
chiế c</w>
ro y
bu l</w>
ut il
c es
vo ir</w>
e ver
hol a</w>
tr y</w>
du ğ
v ag
ไหล ่</w>
נע ליים</w>
s av
ธ รร
с прав
ang kat</w>
y eni</w>
as ian</w>
ス ナ
不 是
зна ча
nghiệ p</w>
é es</w>
ภ าย
น ำ
h ur
боль шо
mar y</w>
b ình</w>
ً ،</w>
v ụ</w>
host el</w>
กล </w>
الت ن
ad es</w>
кар та</w>
代 </w>
팔찌 </w>
про сто</w>
sel ama</w>
unit ed</w>
pi e</w>
建 設
धि </w>
ed or</w>
pen uh</w>
हो ते</w>
ד ות</w>
no ir</w>
equ ip
ду ма
음 </w>
mu se
о пера
le i
il an</w>
tr ợ</w>
시스 템
сі в</w>
to ur
sel f</w>
電 子
ph ân</w>
те м</w>
ren a
v ẫn</w>
ä t</w>
い た
ду же</w>
f aire</w>
ch ine</w>
당신 이</w>
сум ки</w>
خ ص</w>
s par
ồ n</w>
ป้อง กัน</w>
ко ли
ti ada</w>
bi ed
人 民
п у</w>
camis eta</w>
का र
ג בי
і сто
ni ght</w>
r ü
क्य ो
bre ak
ol i
us s</w>
pro te
гу т</w>
ك ل
ки ї
е вро
フ ェ
cent er</w>
че к</w>
n ur</w>
p ac
z za</w>
ण ्
ль ных</w>
त ै
thu ê</w>
ב תו
eng kap
न् न</w>
men unjukkan</w>
ت ج
an os</w>
c ette</w>
พื ้น
วิน เท
ко ри
เส ้น
би ра
ab an</w>
з ни
kar ang</w>
il er</w>
ча й
vi sta</w>
r z
m ed
st it
wen n</w>
वि शे
말 </w>
le v
men gi
bl es</w>
ch ủ</w>
य क</w>
تى پ</w>
파 티</w>
at u</w>
ко ль
на ро
ر ج
बता या</w>
นิ ้ว</w>
จักรย าน</w>
دا ق</w>
ті льки</w>
к си
ระ ย
v ak
อ ิน
cat eg
mol d</w>
со ответ
ре гу
з не
f an</w>
ي دۇ</w>
str ap</w>
ek en</w>
по жа
使 用</w>
kle ding</w>
الم نا
发 展
ז ר</w>
s ki
ま す
in ha</w>
z w
я т
đị a</w>
со зда
cl as
ku p</w>
до да
סנ טי
s as</w>
หญ ิง
се й
ए स</w>
외 </w>
त्र ों</w>
hä ng
j az
d ài</w>
स ै
bi an
jur k</w>
graf ik</w>
cor d</w>
bo y
ク リ
an ja</w>
пере д</w>
ת ר
س ن
fir st</w>
خ </w>
यो ज
조 명</w>
x t</w>
본 </w>
x s</w>
bo dy
ष् ट</w>
约 </w>
від бу
пу та
ח לי
ئ ار
рова ть</w>
ตั ว</w>
us ia</w>
rem ote</w>
k g</w>
h l
п и</w>
वि धा
indi vi
ho se</w>
市 场
zan ado</w>
elektr on
ว ี</w>
น่ าร
л ся</w>
体 </w>
כ ר</w>
sho ul
चि त</w>
at en</w>
an kan</w>
كۆ ر
ۇ ڭ
ل دى</w>
su ites</w>
bro wn</w>
พิ เศ
д но</w>
clo ck</w>
ش قا</w>
li ber
in ti
com mer
ni o</w>
x in</w>
口 </w>
ла м
di ğ
ه ،</w>
w ur
yel low</w>
dzi ew
バ ッ
실 버</w>
स न</w>
r gb</w>
אבי ב</w>
as al</w>
핫 </w>
ท าง</w>
du d
त ीन</w>
cah aya</w>
v á
bo w
on ly</w>
फिल् म</w>
場 </w>
grat u
v ị</w>
ра ди</w>
s k</w>
đ a</w>
bal lo
б лі
er es</w>
es co
mang a</w>
ad et</w>
kh us
б я</w>
ا ف
لا م</w>
progr am</w>
n ay</w>
but y</w>
خ د
of fr
н ет
يك ون</w>
п лю
ц ве
ver de</w>
ств е</w>
위 </w>
f ish</w>
ני ים</w>
שק ית</w>
cap a</w>
เ คล
g ặp</w>
ت ك</w>
tid ur</w>
k ing
si s</w>
us kan</w>
ื อง</w>
ту ра</w>
c ập</w>
adi das</w>
天 </w>
和 </w>
сво ю</w>
潮 吹
мо де
ع ي
сьогод ні</w>
ber i
لا ً</w>
يو م</w>
빛 </w>
العا مة</w>
ти х</w>
กล ้อง</w>
สร้อย คอ</w>
se juk</w>
ne ka</w>
br az
tr ee</w>
b in</w>
count y</w>
b hin
s ad
th ương</w>
tap e</w>
ס טי
habit ación</w>
स् त</w>
cir i</w>
zest aw</w>
büyü k</w>
ha ar</w>
с ы
ker aj
क म
箱 </w>
ку пи
メ ージ
क ़
י ר</w>
ध ्या
б ен
anim al</w>
b ung</w>
во ю</w>
शु रू</w>
प ता</w>
스타 일
te en</w>
ber dasarkan</w>
่ว ง
fli p</w>
ח ל
al le
r au
fl am
bar at</w>
ر ب</w>
디 오</w>
dri ve</w>
bhin neka</w>
मै ंने</w>
tr ain
יו ם</w>
त ब</w>
ev en
h air
peng un
ג ן</w>
lang sung</w>
盒 </w>
обла сті</w>
ของ เล่น</w>
ни з
d f</w>
في ذ</w>
कर ें</w>
ผ น
בי ו
ва ет</w>
슬 림</w>
영 </w>
si one</w>
int a</w>
я ко
عل ق</w>
เด ิ
let ak</w>
bo ur
ac o</w>
प्र भा
пос ле</w>
arti fici
grap h
p li
с ни
lang e</w>
or an</w>
ad ul
ต ุ
स ौ
or d</w>
ك ار
ць ому</w>
ль но</w>
lu kan</w>
프 레
ذه ب</w>
ż u</w>
moder n</w>
kılı f</w>
区 </w>
lit tle</w>
حسنا ً</w>
str uk
e ar</w>
o x
kan nya</w>
付 </w>
angg an</w>
室 </w>
الأ خ
ab s</w>
sy n
au en</w>
어 깨
ッ ド
в важа
略 </w>
mas ih</w>
ч ні</w>
ско м</w>
ad en</w>
од на
मा र</w>
光 </w>
gi ao</w>
re ad</w>
น ส์</w>
в не
t est</w>
לי י
ซ ม</w>
ap e</w>
ए ल
jep un</w>
ch ống</w>
ं क</w>
х ра
ec h</w>
ك ر</w>
av i
ı k
y j
a je</w>
да ння</w>
डि या</w>
x anh</w>
hab en</w>
【 送料無料
wer k</w>
را ي
มือ ถือ</w>
ar ak</w>
ב נות</w>
ا م</w>
prod ot
화 이트</w>
で あ
wh en</w>
來 </w>
к вар
א מי
मा र्
c ai
c á</w>
pay udara</w>
em bro
الق ان
r az
ט ה</w>
en ne</w>
га р
ec a</w>
ห ู</w>
prz ed
bron z
pel anggan</w>
доку мен
har d</w>
خل ال</w>
ta ş
k ak
पा नी</w>
все х</w>
шо к</w>
ชั ้น</w>
qu ar
ind ah</w>
अ लग</w>
organiz er</w>
י י
الأم ر</w>
con tin
หน า</w>
बै ग</w>
че ские</w>
가 을</w>
drag on</w>
เต อร์
par ts</w>
ซ ี</w>
фо то
б ла
य े
מ ד</w>
wszy st
ظ </w>
đ ại</w>
co in</w>
א פ
kot ak</w>
で は
แม ่
c tion</w>
पु र</w>
roup a</w>
ẹ n</w>
कं प
的 一
य हां</w>
ספ ת</w>
했 다</w>
ल गा</w>
ля ет</w>
마 </w>
ब न</w>
r ah
ज्या दा</w>
क्ष ण</w>
su dah</w>
ẹ </w>
で す
רו </w>
es en</w>
av </w>
ס ר
הד פס
с но</w>
o h
ول ا</w>
s pl
่ อน</w>
сло вами</w>
бо ро
กระ โปร
a ero
ren dah</w>
イ メージ
per ang</w>
perc uma</w>
br us
う </w>
r and
pen ut
el es</w>
ئە مە
중 </w>
भ े
хо д
मे री</w>
v ận</w>
くだ さい</w>
fo ur
n ad
प्र कार</w>
relo gio</w>
кі в
ال ى</w>
ब ्र
bil i</w>
m ang</w>
プ </w>
но р
ओ </w>
kes an</w>
ي ۈ
em i</w>
ज र</w>
แขน ยาว</w>
술 </w>
प त्
f esta</w>
שע ון</w>
म क</w>
어 린
lu k
자 전
men dapatkan</w>
в сі
го м</w>
त्र ि
裝 </w>
ต ์
ê ncia</w>
हि ं
भा ग</w>
조 각</w>
ха р
الإ ن
फ ी</w>
ע מיד</w>
जा ते</w>
חי צ
m t</w>
anc is</w>
अ भी</w>
액세서 리</w>
क वि
ج و
ç al
피 </w>
ell es</w>
роз мі
neg eri</w>
pr int
di ter
nhi ên</w>
م ت</w>
г ли
ę p
הג עה</w>
jam in</w>
relo j</w>
tr ọng</w>
ل ان
kul lan
ar aç</w>
jer man</w>
ma stur
信息 </w>
con junto</w>
็ ม</w>
スナ ップ
schu he</w>
car e</w>
카메 라</w>
ผลิ ต</w>
ま せ
ขนาด ใหญ่</w>
ال غ
が あ
ป ก</w>
ल् ली</w>
เหม าะ
э кра
min y
c ji</w>
sho wer</w>
си туа
集 </w>
le der</w>
ки ми</w>
є ї</w>
n ella</w>
通 </w>
мо р
ت ب</w>
ре гі
台 </w>
diken ali</w>
ij ke</w>
วินเท จ</w>
لا ح
mel h
ة ؟</w>
по все
o h</w>
meng is
с ет
약 </w>
พลาสติ ก</w>
c z</w>
רו ז
ख ़
i ron</w>
वा ला</w>
ワ イ
l age</w>
одеж да</w>
do w</w>
チ ャ
แข น</w>
سا ئ
ण ा
늄 </w>
ض ا</w>
ph ong</w>
hang er</w>
ي ار
ุ น</w>
มิน ิ</w>
li che</w>
inter national</w>
دا ئ
пре достав
ay aan</w>
m ô</w>
em pres
ق قى
et es</w>
kle id</w>
ส ร
ส ติ
rena ult</w>
工作 </w>
t ế</w>
де ше
thu ật</w>
ل و</w>
k ac
रा न</w>
보 드</w>
cel ana</w>
t óc</w>
ri ght</w>
ज ग
pi st
持 </w>
nak lej
fl at
เสีย ง</w>
від кри
o pen
ñ as</w>
ін форма
来 </w>
レ ン
her e</w>
ث ة</w>
ati l</w>
ショ ット</w>
sol e</w>
أ ة</w>
мер а</w>
n as</w>
العا م</w>
sta f</w>
عم ال</w>
ль ного</w>
ant ung</w>
ang ka</w>
ช มพ
ध ा</w>
sk r
ทั ้ง
us er</w>
bo ys</w>
po w
li fe</w>
fi yat
검 은</w>
ज े</w>
न ए</w>
ц ей</w>
di tu
we j</w>
ग ी।</w>
kon tro
เ อง</w>
學 生
se karang</w>
ช าร์
ba i
م س
me hr</w>
но вий</w>
eng lish</w>
kal is</w>
as us</w>
at r
أ ب
우리 의</w>
क्यो ंकि</w>
ber main</w>
be y
چى قى
ла йн</w>
ber h
f oo
เด ็ก
le ver
กลาง แจ
горо де</w>
et ui</w>
ри и</w>
ди на
มา ก
ла сь</w>
вер си
к с</w>
kumpul an</w>
zen ia</w>
इ सी</w>
ئا ي
jaw aban</w>
點 </w>
พ ี
at ur</w>
fa it</w>
ки є
us o</w>
per ni
hr s</w>
kh óa</w>
ba b</w>
пос ле
disp oni
s ans</w>
camis a</w>
min nie</w>
наці ональ
si er
нь о
יו תר</w>
po tr
ה צ
kan n</w>
ge ç
โทรศัพท ์
red mi</w>
mener ima</w>
ê tre</w>
h ẹn</w>
意 </w>
th ống</w>
dig it
pas ang</w>
ป ก
त ृ
夏 </w>
방 수</w>
è me</w>
res ist
ко мен
画 </w>
en ci
bu m</w>
na ils</w>
ab ri
t ore</w>
wh ich</w>
her es</w>
흰 색</w>
スナップ ショット</w>
إ ي
पार् टी</w>
kol am</w>
業 </w>
く </w>
v ill
li mit
in y</w>
я ких</w>
д ро
आ ई</w>
राज ्य</w>
sen i</w>
cz ar
עי ף</w>
teng ah</w>
ต่ ำ</w>
be kerja</w>
‘ </w>
ch ten</w>
نا مج</w>
ba ar</w>
k af
mar ca</w>
bu k
con ta
sol u
sk in</w>
โ คร
ы е</w>
el i
الد ول</w>
เย็ น</w>
peru bahan</w>
w ire</w>
ータ ー</w>
ak ers</w>
б рен
w aj
見 </w>
ма т
man i
म ों</w>
배터 리</w>
ра м
sp esi
хо в
pel le</w>
бага то</w>
o de</w>
er as</w>
و ص
ف ية</w>
с пер
ช าย
य दि</w>
च ीन</w>
про ти
од но
问 题
es sere</w>
सं स्
p unt
pant ai</w>
ko k</w>
х то</w>
pro pri
ba u
ki ểm</w>
et tes</w>
גבו ה</w>
ль ные</w>
три ма
วั น
or ange</w>
d łu
सा इ
자전 거</w>
ش ع
car toon</w>
je an</w>
저 렴
نح ن</w>
повсе днев
е з
az ul</w>
في ما</w>
char m</w>
де пута
er to</w>
콘 </w>
wh oles
aw at</w>
ı na</w>
mo chil
gi ày</w>
s anta</w>
zh ou</w>
fab ric
ق تصا
โ ก
널 </w>
о стан
mig li
cur ta
th u</w>
ب ية</w>
ח מה</w>
تە ك
wor dt</w>
aç o</w>
бы ло</w>
pen awaran</w>
k y
sel uruh</w>
w est</w>
ب أن</w>
ता र</w>
ro ute</w>
פר ח</w>
м пі
l ựa</w>
arm band</w>
ธรร ม
dap ur</w>
f is
ل ن
у да
ch ti
wo uld</w>
ч них</w>
ध ु
fil le</w>
ar s</w>
ف عل
вс і</w>
g ay</w>
ก ิ
mat an</w>
스 티
э том</w>
dud uk</w>
to dos</w>
ща я</w>
g es</w>
cam ping</w>
be au
ۈرۈ ش</w>
re fle
av ez</w>
ผลิตภัณฑ ์</w>
zeg ar
ภ ู
tr en
ان ه</w>
ba by
gr av
จี น</w>
록 </w>
時 間
ส ง
ण ी</w>
f one</w>
プレ イ</w>
वर् ष</w>
以 及
bi jo
다 양
теле фо
o th
si z
و ك
g ł
वि ष
ени х</w>
to wn</w>
हि न्
ня я</w>
tel a</w>
res pon
po de</w>
ko w
ล ง</w>
air es</w>
t ài</w>
pes ca</w>
wil ayah</w>
tot al</w>
ۇرۇ ش</w>
abili r</w>
ber ry</w>
do ğ
당신 은</w>
ה לו
sli p</w>
क्र म</w>
पि छ
сре д
เพ ิ
int eg
ق ۇ
al mente</w>
ー ド</w>
ско е</w>
ang i</w>
wi g</w>
ki em</w>
hidu p</w>
م ،</w>
tah u</w>
מכי רה</w>
s am</w>
から </w>
بە ر
pear l</w>
基 本
มา ใหม่</w>
m ó
é n</w>
gl as</w>
we it
א רי
ant ai</w>
पूर् व</w>
fl at</w>
се кре
الو ط
hi stor
qu á</w>
t ác</w>
mo unt
ग े
ชา ติ</w>
튼 </w>
전 원</w>
वि का
ン ク
פ ול
ชิ ้น
he b
ول ة</w>
vel op
निर् मा
infor ma
ول كن</w>
bath room</w>
ت ار
us ah
च ौ
ข </w>
в ки</w>
за ко
у же</w>
d ai</w>
रा त</w>
en cia</w>
gro te</w>
โทรศัพท ์</w>
высо кое</w>
ut ara</w>
ई ।</w>
ль ная</w>
zz i</w>
wat ches</w>
за хо
пред стави
מ ינ
น เล
ắ p</w>
al ı</w>
kön nen</w>
hij au</w>
أك ثر</w>
الش ر
leg g
par te</w>
mas ing</w>
hand le</w>
tr í</w>
be g
berbe za</w>
tag s</w>
авто ма
se u</w>
वा स</w>
ي ول
ти ки</w>
or az</w>
t ới</w>
中 的
h ỗ</w>
प्र ि
wy ch</w>
إ لي
แว ่น
ए स
ле ж
ad er</w>
т ет</w>
euro p
us es</w>
t ung
사용 자</w>
but ton</w>
भ र</w>
च ी</w>
mu ch</w>
רכ ת</w>
ве ло
d ong</w>
had ap</w>
m os</w>
keraj aan</w>
be ste</w>
is s</w>
вій сько
प्र देश</w>
भ ा</w>
루 미
ст ек
met ro</w>
to ur</w>
не про
字 </w>
माम ले</w>
má qu
ц ы</w>
w eg
s no
기 능</w>
c lar
що до</w>
ch te</w>
s is
s se</w>
der i</w>
แบ รนด
و د
in c</w>
рабо та
사용 할</w>
жу р
ong an</w>
ْ </w>
บ ิ
身 </w>
ter dahulu</w>
अच्छ ा</w>
со л
ชุด ชั้น
ế m</w>
הלב שה</w>
릴 </w>
ประ เท
he els</w>
бы ли</w>
er ah</w>
ệ m</w>
z ę
shoul der</w>
ke pal
c ristal</w>
裤 </w>
bi as
أن ها</w>
sm d</w>
dziew czy
он лайн</w>
bad an</w>
ho ạt</w>
ห ม</w>
pou vez</w>
ra in
ض ل</w>
member i</w>
מ ב
archi products</w>
ч ные</w>
un it</w>
為 </w>
м не</w>
靴 </w>
nh ỏ</w>
ي م</w>
0 </w>
исполь зу
v r
सा न</w>
pr esi
헤 어</w>
niñ a</w>
히 </w>
ब न
đ ánh</w>
pe u
ผ ่า
cr et
เร็ ว</w>
แห วน</w>
最 新
แบตเตอร ี่</w>
th ức</w>
กำ หน
語 </w>
ست ى
ر ض</w>
เข ียว</w>
न ौ
อ ม</w>
ھە ر</w>
ว ี
jal anan</w>
sen ar
т ере
الب لدان</w>
آ خ
em ail</w>
ब ड़े</w>
рі шення</w>
piec es</w>
kat kan</w>
ที่มีคุณภาพ </w>
보 </w>
qu y
का ंग्रे
l ö
m ai</w>
车 </w>
об ще
후 </w>
系 </w>
д жи
إ د
qu ả</w>
b inc
プ リ
av a</w>
то л
j ul
สุ ทธิ
د ۆلە
以 上
オー ガ
lo ok</w>
च ल</w>
� �
어깨 </w>
gro up</w>
ที่ จะ
dad es</w>
ستطي ع</w>
ウ ン
h es</w>
cab elo</w>
ari um</w>
на ша</w>
am in</w>
書 </w>
복 </w>
о к
с ка</w>
送料无 料
w ör
لى نى
m ä
모 델
m ap</w>
hol id
par t</w>
v or</w>
ท ็อ
材 料
adap t
sweat shirt</w>
ve is</w>
di buat</w>
дж у
人 的
שי פון</w>
gi ải</w>
र् ड</w>
pengun jung</w>
ut i</w>
ज वा
em ber</w>
ダン ス</w>
ki ş
자동 </w>
e za</w>
ne e</w>
bi ến</w>
ho p</w>
cy cl
b ina</w>
แต นเล
디 지
f at
in k
bat u</w>
โคม ไฟ</w>
mem bawa</w>
工 </w>
ีย ง</w>
ang e
adi s</w>
블 루</w>
uk uran</w>
а н</w>
ट ो
ut en</w>
الا جتما
ev en</w>
เส ริ
mo du
pil low</w>
ว ่าย
الدول ية</w>
ot om
жи во
di ver
se hr</w>
ंग े।</w>
ס ק
כרטי ס</w>
男 性
に お
ً ا</w>
ж и</w>
عل ومات</w>
इ से</w>
自 動
คลุ ม
क्य ों</w>
o par
слу ча
т р
k lu
мо гут</w>
저렴 한</w>
پار تى
ch ưa</w>
ста ли</w>
ביו תר</w>
입 </w>
n ice</w>
cle ar</w>
ف ت
тру д
tic al</w>
ס ה</w>
t ương</w>
יל דים</w>
다 운</w>
相 關
ל א
保 護
ק ון</w>
t ình</w>
t ư</w>
גו ף</w>
أن ك</w>
品 牌
per kara</w>
ك ا</w>
nh ập</w>
і в
fi kasi</w>
обо ру
заяви в</w>
слі д
الم ش
p aj
บ ู
ค น
ce j</w>
r ồi</w>
di men
हा थ</w>
ın dan</w>
ت ،</w>
on ale</w>
रि यों</w>
lu ôn</w>
mus ic</w>
웨 딩</w>
พิเศ ษ</w>
mengis ap</w>
מצל מה</w>
di stri
ab ile</w>
其 他
бли зь
person aliz
kin d</w>
पू री</w>
최 고
pre cio</w>
的 な
mul heres</w>
श ी</w>
di j
foto graf
情 </w>
ت لىك</w>
у ря
चु ना
ズ ム</w>
बा हर</w>
ל ק
n in
חצ אית</w>
การ์ ตู
핸 드
ब ना</w>
se k</w>
นาฬิ กา</w>
น่าร ัก</w>
ال بي
í t</w>
m p
zen ie</w>
coff ee</w>
ป าก
धा र</w>
내 </w>
포 장</w>
함 께</w>
l ä
al kan</w>
תכשי טי</w>
ब ॉ
ئا سا
경 쟁
о сі
ş e
רו פ
ฟ อง</w>
צ מר</w>
ใ บ</w>
ше го</w>
ва ти
ti vo</w>
мо в</w>
af as</w>
мер ы</w>
k amp
तु म</w>
ر ية</w>
ड ॉ
ญ ญ
لى شى
meny er
d ahan</w>
تق دي
自 动
ร ุ
j elas</w>
नि </w>
सु र
pe k</w>
ó t</w>
hoes je</w>
ति यों</w>
cor re
h ong</w>
fet ish</w>
제 공</w>
res id
ш ого</w>
cre am</w>
קי שוט</w>
स्था न</w>
चाहि ए</w>
st op
お よ
el u
о на
舞 </w>
ल ते</w>
ho ch
po ur
e ń</w>
电 子
int el
sukien ka</w>
जू ते</w>
tu ổi</w>
ul o</w>
kar ena</w>
o ms</w>
nh a</w>
하 나
б рю
ź </w>
го сти
c ute</w>
brac ci
j au
ro w</w>
ي ۇ
d or</w>
pen yel
부 드
nh é</w>
бы ст
c c</w>
на се
co un
mil f</w>
z om
या ँ</w>
se par
прогно з</w>
ak h
日本 </w>
d am</w>
при ня
ді ї</w>
о соб
en s
साम ने</w>
o w</w>
ні х</w>
ki ện</w>
น อน</w>
c il
дево чек</w>
ec t</w>
끼 </w>
ง าม</w>
по ро
ec onom
ny lon</w>
n ast
보 호</w>
к лу
o bi
ad ora</w>
ме ди
そ れ
ני ות</w>
ब ड़ी</w>
تك ون</w>
uy ền</w>
ві р
प न</w>
ี ก</w>
र् म</w>
อา ห
mem u
cam a</w>
zi o</w>
挿 入</w>
달 </w>
та лі
缩 小</w>
на ві
faz la</w>
tu do</w>
der e</w>
ตั ้ง
س م</w>
ed s</w>
イメージ プレイ</w>
mas k</w>
пла сти
หนึ ่ง</w>
е лек
pi o</w>
pol i
го то
س ا</w>
กระ จ
ir as</w>
k ad</w>
po ster</w>
シ ュ
жи з
kay u</w>
של ך</w>
ет и
ชมพ ู</w>
l ần</w>
лен о</w>
ori o</w>
ズ ーム</w>
ş ek
mas alah</w>
ngh ệ</w>
ي ح
ج ة</w>
men u
とい う
inter ior</w>
penggun aan</w>
st ico</w>
nec k</w>
オ イル</w>
โด ย</w>
n ah</w>
סקס י</w>
กลางแจ ้ง</w>
ме то
ем ый</w>
as y</w>
ק ור
qu ando</w>
в ня</w>
บ ้าน</w>
다양 한</w>
ow n</w>
ст ей</w>
set s</w>
ag ua</w>
po wer
kun t</w>
n es
ストリ ップ</w>
티 지</w>
什 么
b ài</w>
आग े</w>
ארו ן</w>
ו רו
s ic
是 一
ל בו
设 备
정 의</w>
ल ंब
ที่ ดี
전 자</w>
फ् त</w>
хо ло
ре жи
ju st
tim ur</w>
켓 </w>
ti ện</w>
ни ком</w>
学 </w>
z ur</w>
дет ей</w>
며 </w>
per jalanan</w>
g ần</w>
ڭى ز</w>
wan ia</w>
no ch</w>
त्र ा</w>
ar d
ח ה</w>
さ ん
설 정</w>
fr es
تى ن</w>
can vas</w>
پ ۇ
어린 이</w>
ber at</w>
רו ק</w>
ور ية</w>
भ ो
m ạnh</w>
mie ście</w>
مە ت</w>
sp ół
ati an</w>
लो क
시 간</w>
telefo on</w>
per gi</w>
бю дж
безкоштов на</w>
u g
ल ू
al ter
bo is</w>
dow n</w>
mę ż
sil a</w>
scho enen</w>
t ind
embro ider
amp ilkan</w>
ま で
स् प
co la</w>
прода жа</w>
or e
kun ci</w>
격 </w>
ما ً</w>
ва ния</w>
و ية</w>
га да
ث ي
दु निया</w>
es u
спор т</w>
pe di
ac t</w>
воз ду
необ ходи
y ears</w>
ừ a</w>
p it
pant at</w>
gi l</w>
tr ack
ונ ג</w>
】 【
k ai</w>
रा म</w>
ल त</w>
빈 티지</w>
bu ch</w>
パ ン
คร อบ
im per
мен я</w>
タ バ
ü ş
उ म्
com me</w>
bl au
दि खा
およ び
ของ คุณ</w>
украї на</w>
u ży
تەرە ققى
с ви
و ح
ה ס
scrap booking</w>
वा ल</w>
at es</w>
ầ y</w>
ni ki</w>
heb ben</w>
ร้อ น
mes h</w>
g adis</w>
फ ी
ant en</w>
ち ゃ
設 備
制 品
تح د
ці аль
ak ses</w>
ุ ก
bel anja</w>
تق د
bi ệt</w>
अ र्
коно мі
יל די</w>
n ą</w>
t il
j ą</w>
t ập</w>
z il
her en</w>
ج ه
помо щ
หน้าจ อ</w>
bat an</w>
me wah</w>
жур на
ul asi</w>
อั ต
mad r
so fa</w>
yü k
书 </w>
g ed
niñ os</w>
большо й</w>
b àn</w>
적 으로</w>
چ ە
spe aker</w>
sing le</w>
พ ัน
sle ev
kl er</w>
ik al</w>
foot ball</w>
mari age</w>
gr á
leg no</w>
inst al
khus us</w>
ц у
ді я
प्र ो
col ar</w>
अ मे
ח ות</w>
пого ды</w>
され た
жи ть</w>
अ ध्य
se kit
้ ม</w>
กระเป๋ าส
l ü</w>
ak ses
sedi kit</w>
मु फ्त</w>
an z
be aut
ка м</w>
é is</w>
็ น
ังก ์
sto ff
tem en</w>
ラ ー
รั ก</w>
स् वी
自 然
des ain</w>
com puter</w>
męż czy
र ं
แต่ง กาย</w>
לו </w>
월 </w>
ro man
ال ض
图 </w>
時 間</w>
s wi
ת מ
не й
h aus
指 の
อ ิ
الس يا
са м</w>
posit i
neg ro</w>
centr um</w>
z aman</w>
ko d</w>
о ри
шен ко</w>
em ents</w>
را ف</w>
bis i
vis i
ي ُ
p az
रि त</w>
glo ves</w>
d ak
विका स</w>
pre cis
ра ху
स ह
ジ ュ
щ а</w>
أ ق
el e
contac t</w>
dzi e</w>
jo hn</w>
ル ド</w>
ющи е</w>
代 表
لار نى</w>
за й
ter hadap</w>
ã i</w>
ย ์
סנטי מטר</w>
ку х
ket ika</w>
о лек
len ovo</w>
न ो
gam es</w>
ed er</w>
co ol
do anh</w>
קט ן</w>
m ing
ло сь</w>
คอ ม
kun st
オーガ ズム</w>
dr o</w>
gö z
ap un</w>
све то
per khid
li ma</w>
co st</w>
セ ックス</w>
ri l</w>
油 </w>
мл н</w>
เ ธ
tan k</w>
공 급</w>
알 루미
đ èn</w>
一 篇</w>
дей стви
с к</w>
pint u</w>
も の
h aus</w>
дру го
iz er</w>
o ui</w>
у станов
bab kan</w>
ซื้อ </w>
ق ي</w>
या र</w>
s c</w>
pr a
โน มั
ak sesu
mass age</w>
ใ ส่
ار د</w>
w ic
с с</w>
ساع دة</w>
ł ącz
tam bahan</w>
пові да
a ar</w>
رو ع</w>
社 会
ro m</w>
da erah</w>
オ </w>
צי ר</w>
до к</w>
आ व
ري د
ви бо
est r
ющ ей</w>
ậ u</w>
घ ट
man de</w>
आप को</w>
en da</w>
dro p</w>
จ ิต
z aba
ې تى
الدول ي</w>
hou ston</w>
द र
ש מ
อัต โนมั
президен та</w>
diff er
스테인 레스</w>
时 </w>
ch ân</w>
men ina</w>
ingl és</w>
ge ar</w>
מי ו
sung l
э ле
th ing</w>
est u
그 것은</w>
ह में</w>
prof esi
вен ь</w>
kepal a</w>
cas es</w>
指の 挿入</w>
b es</w>
לו ן</w>
re e</w>
h ang</w>
re gal
off ice</w>
которы й</w>
य ही</w>
ダ ー
br and
pes an</w>
م ى</w>
naj le
ौ र</w>
ски м</w>
خە لق</w>
ве з
เล ็ก
נ ק
ה פ
इस लिए</w>
號 </w>
ch air</w>
ส า
erop ah</w>
расстоя ния</w>
perni agaan</w>
ề m</w>
ст ри
रा म
ğ i</w>
perkhid matan</w>
現 在
у доб
ne o</w>
پ ت
h app
президен т</w>
ser ie</w>
벽 </w>
т ні</w>
yam aha</w>
وق د</w>
ח תי
ण ा</w>
दि ल्ली</w>
त न</w>
s os</w>
re p
실 리
เข ้า
ri s</w>
उन का</w>
กว ่า</w>
vo u
ch ế</w>
الت ح
magnet ic</w>
а ф
頁 </w>
по тре
пожа лу
ئې لى
数 </w>
ช </w>
ev o</w>
त ्य</w>
per usah
di ge</w>
ant ing</w>
de pan</w>
p es</w>
пра к
g os</w>
ap kan</w>
后 </w>
な た
e v</w>
매 우</w>
立 </w>
per ancis</w>
최고 의</w>
الر ئي
f eu
win dow</w>
बना ने</w>
ب ن
बच्च ों</w>
ว่าย น้ำ</w>
कांग्रे स</w>
يە ت</w>
أن ت
с ва
กระ ดา
낮 은</w>
э того</w>
ма тер
cap e</w>
ра ми</w>
아이 폰</w>
pr ise</w>
ग ै
h ap
อ ื่น</w>
продук ты</w>
這 個
ol i</w>
k aj
i g</w>
perusah aan</w>
ディ ルド</w>
d inding</w>
श्र ी</w>
вер х
от но
디스 플
b or</w>
do k
인 치</w>
j s</w>
แผ ่น</w>
ア イ
sig ni
em o
健 康
قا ً</w>
po dr
ส แตนเล
ฟ ังก์
ฟังก์ ชั
br azi
अमे रि
peg at
ห ว
k wi
tem por
monit or</w>
經 濟
пита ння</w>
الف ق
on ze</w>
con to
ש ית</w>
अ न्
te am</w>
n u</w>
r ay
ow ania</w>
ष ों</w>
pum p</w>
accesso ires</w>
ing kan</w>
е кономі
m ai
цен тра
ตั ด</w>
peng ar
有限 公司
เดิ ม</w>
for m
kur ang</w>
r ata</w>
в ключа
b as</w>
органі за
दर् शन</w>
за во
мі ж
ส่ วน</w>
по са
t ır
prod ut
элек тро
צ ה</w>
l ung
di m</w>
เซ อร์</w>
mad era</w>
for nec
al ber
패 드</w>
v ui</w>
공 장</w>
sp re
l ưu</w>
fam ili
ถู ก</w>
wer k
гра фи
핸드 백</w>
吧 </w>
סול לה</w>
jak et</w>
centr e</w>
טבע ת</w>
t ích</w>
קי ר</w>
вла с
al u
يا ،</w>
ส อง</w>
ceram ah</w>
المن ظ
пожалу й
د ار
に は
त् व
아 름
ب ت</w>
пе в
w z
od y</w>
ライブ オーガズム</w>
il ing</w>
ul t
я н
h am</w>
str on
สิ ่ง
กระโปร ง</w>
com bin
場 合</w>
gi ve</w>
пожалуй ста</w>
ي ه</w>
د ر</w>
д ву
dr aw
อย ู่
pas angan</w>
समा ज</w>
بع ة</w>
ア ン
ت س
mar ket
b ảng</w>
по ка
ונ ות</w>
i stri</w>
tri pad
के ट</w>
нер жа
ja ar</w>
न ु
मा ल</w>
ch ang
pem egang</w>
好 的
еди нен
pili h</w>
du e</w>
cl oth</w>
pantal on</w>
ล าย</w>
จ ร
ห ์</w>
ค ลิ
an as</w>
on ia</w>
تە ر
tripad visor</w>
न ही</w>
em ent
ب ع</w>
्य ा</w>
ф ро
通 過
sk y</w>
צ מיד</w>
เน ียม</w>
क ैसे</w>
็ อก</w>
投 資
م ل
m ắt</w>
за значи
jap an</w>
เหล ือง</w>
ш ли</w>
сі ль
lu ận</w>
g ang
gol den</w>
m ỗi</w>
se con
ad em
per ak</w>
ligh ting</w>
lad y</w>
所 有
सं बं
言 </w>
ั ส</w>
per binc
м ку</w>
ж ение</w>
mi kro
dom in
k aca</w>
perbinc angan</w>
ał </w>
спе к
连 衣
пар та
не е</w>
ל מים</w>
플러 스</w>
북 </w>
brazi l</w>
g ast
in en</w>
ac tion</w>
scar pe</w>
all en</w>
gu a</w>
a it</w>
rol ler</w>
ด ำ
mo di
се бе</w>
直 接
酒 店</w>
pri me</w>
phi ếu</w>
st off</w>
tek n
sn ap
при зна
e urs</w>
ne h
ח ן</w>
リ ー</w>
ver sch
頭 </w>
र् फ</w>
בתו ספת</w>
про во
до помо
до ма</w>
ア ク
手 機
タバ コ</w>
be oor
k ken</w>
com mande</w>
y le</w>
play s</w>
ינ ס</w>
ch et</w>
ج ۇڭ
수 있는</w>
el ik</w>
香 港
am ar
ل س</w>
ho àn</w>
sa ja</w>
การ์ตู น</w>
yü z
est er
is o</w>
hal lo
cust om
li an</w>
j or
m c
и сто
ئ ال
ก เก
و س
на ту
說 </w>
bias anya</w>
حد ث</w>
ม ู
k az
ש ול
ي ق
ट ू
o so</w>
セ ット</w>
팅 </w>
ช นิ
k le</w>
ป ะ
ha ar
जा ना</w>
अ स
en as</w>
am os</w>
gel ang</w>
ear ring</w>
centr al</w>
il a</w>
elbis e</w>
ล อง</w>
การ ออกแบบ</w>
kı z</w>
росі ї</w>
או פ
m ở</w>
दूस रे</w>
ระย ะ
ство м</w>
士 </w>
ti r</w>
봄 </w>
a at</w>
ro t
но ва</w>
ผิ ว</w>
буд ь</w>
per f
ab al
о фі
э коно
ファ ッ
ter n</w>
لل ە
ek at</w>
بغ ي</w>
по пу
schwar z</w>
у ть</w>
tut ti</w>
hak k
โ ต
活 动
l or
ढ़ </w>
u bah</w>
ai i</w>
ت خ
米 </w>
chin ese</w>
d eng
mar k</w>
кла д</w>
휴 대</w>
ห ู
tat too</w>
חי ר</w>
is chen</w>
घ ो
ח רוז
h ing</w>
nec es
am az
사이 즈</w>
на пря
y ing</w>
hi j</w>
po st</w>
วั น</w>
ter letak</w>
प्रका श</w>
фер ен
т но</w>
đ ăng</w>
austr alia</w>
le bar</w>
í vel</w>
g as
bracel ets</w>
न ्या
휴 대
до ступ
م مى
reg ul
ו ע</w>
pl es</w>
प ्या
玻 璃
ฟ อร์
ま た
इ न्
tr at
y z
н ные</w>
야 외</w>
รั ก
se qu
गर् म</w>
إن ها</w>
fi e</w>
t ent</w>
á s</w>
r óż
chev eux</w>
ان ات</w>
i en</w>
จ ี้</w>
हि त</w>
prem ium</w>
रि क</w>
class ic</w>
رب ما</w>
т ных</w>
но вые</w>
ต ะ
n ơi</w>
lamp e</w>
ลู มิ
जि स</w>
wo hn
צבע ים</w>
al am</w>
тех но
co vers</w>
ジ ェ
grand es</w>
ko we</w>
t ed
car ta</w>
ta ille</w>
व ृ
व्य क्ति</w>
白 </w>
cr it
الا قتصا
e g</w>
mar ket</w>
दू र</w>
siy ah</w>
cel ular</w>
킷 </w>
v ais</w>
лю д
обла сти</w>
แก ้ว</w>
슬 </w>
miny ak</w>
ب وي
ge en</w>
wo mens</w>
гла в
w et
ın daki</w>
หร ู
ку с
ß en</w>
程 </w>
ك وم
f ä
ข า
al mo
роз у
ej ak
ต ้น
đ ề</w>
t ăng</w>
đ ảm</w>
ז כר</w>
th ước</w>
알루미 늄</w>
ر ت</w>
b ởi</w>
li p
при єм
ra ja</w>
ar ta</w>
ख ा</w>
х ва
щ у
ف ق</w>
h az
כ חול</w>
mo et</w>
f us
pi hak</w>
ال عم
a ños</w>
l ak</w>
ל ט
ח ת</w>
pis cina</w>
z ir
rol l</w>
tr ès</w>
ша я</w>
sam o
ç anta</w>
され てい
ль ник</w>
b ung
บร า
राज नी
如 何
e el</w>
be ar</w>
디자 인
є д
て </w>
hr en</w>
ค ำ
kit ty</w>
الت ق
เวล า</w>
제 어</w>
рі к</w>
yo l</w>
y l</w>
ос ен
и гра
หล ัง
के वल</w>
ch ic
soft ware</w>
ч ной</w>
次 </w>
од ного</w>
강 </w>
ष ण</w>
gr up
f oc
mat ah
チ ェ
מנ ורת</w>
elet tr
ค ั
م ر</w>
لى قى
c aja</w>
fi ber</w>
ث ير</w>
ali h</w>
водо непро
боль ше</w>
ве сти</w>
ност ью</w>
घ ा
ми р</w>
ब ्रा
ال ه
бо р</w>
го ди
ba i</w>
我 的
生 產
ow anie</w>
пред лож
з доро
br ake</w>
ell en</w>
cz ę
тери то
цен а</w>
ent as</w>
يا ً</w>
照 </w>
рабо ты</w>
शा मिल</w>
ind ung</w>
तु म्
про вер
euro pe
k ung</w>
أي ضا</w>
ท อง
ย ี
par ed</w>
เล ือก</w>
uz un</w>
ペ ージ
m ã</w>
ro l</w>
ejak ulasi</w>
фо н
co p
ак тив
jo u
holid ay</w>
g mb
ع د</w>
в сь
สิ ทธิ
ко ви
w ang</w>
al to</w>
h ấp</w>
t ổng</w>
kel uli</w>
kni fe</w>
in fr
उस ने</w>
cu ir</w>
пар ла
д ні</w>
मि क</w>
牛 仔
щ і</w>
э ф
ック ス
部 分
e da</w>
j ab
מת כת</w>
手机 壳
v ita</w>
sho w</w>
่ อน
अच्छ ी</w>
lü k</w>
ול ת</w>
эконо ми
bedro om</w>
ту т</w>
bes ch
خ ل</w>
計 </w>
ло в</w>
ж і</w>
hi gh
項 目
ч ого</w>
mes a</w>
er te</w>
ब ल्
sungl asses</w>
케이 블</w>
ผ ู
פי ים</w>
dost aw
é o</w>
b ana</w>
aw arkan</w>
fr auen</w>
최 고</w>
al bum</w>
ко ле
tel ev
ро й</w>
do c
секре та
ku at</w>
x ico</w>
tr uyền</w>
लग ता</w>
th ink</w>
бе лый</w>
d àng</w>
ми ни</w>
si onal</w>
o ci
不 能
is is</w>
ці єю</w>
sp on
ter akhir</w>
b ất</w>
kol ye</w>
ati vo</w>
сі ї</w>
del i
bul u</w>
ं द्र</w>
anim e</w>
ต าร
交 </w>
sekit ar</w>
เปล ี่ย
бе ль
य ो</w>
म श
ke it</w>
酒 店
も </w>
全 </w>
ק ות</w>
memili h</w>
le opar
आ ने</w>
こ れ
श ब्
as as</w>
во с
उस का</w>
я р
ध ी
จ ุ</w>
apar temen</w>
و الأ
इस से</w>
他 們
ba gian</w>
بد و</w>
벨 트</w>
si al</w>
ed el
ż y</w>
ak a</w>
색 상
pl s</w>
於 </w>
м ного</w>
де ся
ре спу
स्ट े
mo s
พ </w>
мі ж</w>
あ なた
تن فيذ</w>
безопас ности</w>
k ính</w>
организа ции</w>
レ ディ
cos play</w>
دە م</w>
با ً</w>
bl ack
ç ı
so ur
k ia</w>
ющи х</w>
access ori</w>
popul ar</w>
กล าง</w>
g y
ditam bahkan</w>
褲 </w>
ชี ฟอง</w>
ش ۇ
mo vi
रु प
ch ap
c inc
â ng</w>
ur t</w>
qu een</w>
타 </w>
กรณ ี
sp in
t à</w>
f on</w>
p ne
о ста
ni em
madr id</w>
포 함
ju an</w>
้อ ย</w>
c ek
行 业
け る
де ли
बच्च े</w>
ju gu
م ق
мен і</w>
mem en
ten nis</w>
عا ون</w>
h ò</w>
๊ ก</w>
lo kasi</w>
세 </w>
y an
आ दि</w>
가 장</w>
भा व
ль ві
도 금</w>
פר ח
i x</w>
j aya</w>
sir i</w>
д ки</w>
pe ut</w>
设 计
pl ush</w>
ب إ
ال وقت</w>
нату раль
कप ड़े</w>
产 品
par ede</w>
บ อล</w>
nhi ệt</w>
م ان</w>
他 </w>
s ing</w>
ồ m</w>
e ş
на ння</w>
крі м</w>
bo ek</w>
д вер
אח ד</w>
पहु ं
nit ure</w>
ä t
полі тич
大 的
e uro</w>
t shirt</w>
キャ メ
m ec
fot os</w>
ทั้ง หม
طا ر</w>
с ку
zu ki</w>
her ren</w>
mem beli</w>
п ня</w>
म त
co kl
च र्
ни ю</w>
球 </w>
ing s
л ений</w>
不 同
unt er</w>
s ắc</w>
kemu dahan</w>
at akan</w>
ino x</w>
h ati</w>
si on
ดิ จิต
مج لس</w>
تع زي
le y
रा ज</w>
c uk</w>
材 </w>
不 可
ء ات</w>
bicic leta</w>
หรู หร
in nya</w>
約 </w>
con tre</w>
ことが でき
pak ai</w>
الف ر
ไร ้
ספ ר</w>
ع ت
了 一
воз мож
ब ा</w>
卸 売</w>
กัน น้ำ</w>
ш кі
ста в</w>
bo ot</w>
senar ai</w>
ฉ ัน
adesi vo</w>
員 </w>
環 境
bl i</w>
灯 </w>
дан ные</w>
ph ối</w>
парті ї</w>
ו ם</w>
” 的
กว ้าง</w>
niñ o</w>
se ar
ó j</w>
แข็ ง</w>
ч ної</w>
el ev
ض ي</w>
र ह</w>
in stru
int en
ин тер
ب الم
ph ục</w>
य त</w>
apart ments</w>
シ ー
説 </w>
に 関
ม ผ
ви рі
g ad
内 </w>
न ल</w>
قىلى پ</w>
com mun
sist ema</w>
sho t</w>
break fast</w>
dre w
ну ж
ق ات</w>
ئ و
ali zz
af ri
ควบคุ ม</w>
k ỹ</w>
blan c</w>
श ्य
со гла
sch ut
כ די</w>
kh u</w>
क्र ी</w>
ot el</w>
со ю
ร ุ่น</w>
im port</w>
w it</w>
t ên</w>
प ति</w>
स्थि ति</w>
z el</w>
des en
社 會
че ских</w>
fi at</w>
ab u</w>
제공 합니다</w>
pr aw
เอ ว</w>
on de</w>
二 </w>
ac com
foo t</w>
ко ва
met al
wię cej</w>
력 있는</w>
мет ал
су а
h óa</w>
l ic</w>
than k</w>
w aan</w>
아 몬
fac ebook</w>
من ظ
в ере
f c</w>
p age</w>
ino x
站 </w>
сто и
화 면</w>
e qui
מת ו
開 始
ot er</w>
som e</w>
ma ison</w>
ng u
ges pon
ออก แบบ
น ัก
z ona</w>
serv ices</w>
li st
アナル セックス</w>
r aya</w>
e yel
so cket</w>
ล ์
ルト ー</w>
キャメ ルトー</w>
ниц а
tr ả</w>
ا خ
ко ві</w>
tr ắng</w>
su zuki</w>
ब स</w>
sou th</w>
ध े</w>
a o
lis mo</w>
區 </w>
증 </w>
ко с
wy po
долж ны</w>
ال ز
ek t</w>
לה גד
ту ри</w>
in apan</w>
kom puter</w>
pu l</w>
ph ili
ت ۇر
g ồm</w>
디지 털</w>
ren ang</w>
autom o
nor th</w>
set el
็ ค
ها ،</w>
ः </w>
ۇ ن</w>
st ec
यु क्त</w>
メ ート
ש מש</w>
m ọi</w>
ש לו
ộ p</w>
تا ج</w>
фек тив
i as</w>
ע ן</w>
possi ble</w>
cu ad
v àng</w>
所 以
den im</w>
שרו ולים</w>
ç ant
ко ло
im i</w>
演 </w>
me ja</w>
전 문</w>
а б
hallo ween</w>
ان ت</w>
мо г
ừ ng</w>
f ica</w>
д ю
s p</w>
h ướng</w>
fec t</w>
のため の
ớ </w>
si êu</w>
olog y</w>
pi r</w>
напри мер</w>
ec ch
té lé
ci gar
ใน การ
h ai
ג ם</w>
g lu
הר בה</w>
크 기
th ứ</w>
信 </w>
z ka</w>
सक ती</w>
лю ди</w>
eg gio</w>
بى ر
طل ب</w>
er d</w>
лю ди
ge or
lag u</w>
бу ди
하 게</w>
판 </w>
נש י</w>
อา ท
ng ay</w>
ki ểu</w>
бесплат ная</w>
라이 트</w>
к ле
مع ية</w>
ج را
ac je</w>
防 水
кер ів
لك ن
gespon sert</w>
fi esta</w>
แ ค
arbe it
b ắt</w>
me i</w>
h u</w>
str ass</w>
il les</w>
โ อ
พิ ว
אופנ יים</w>
mag ic</w>
ar ab</w>
ri b
trad uc
an no</w>
빠 른</w>
те п
ни ков</w>
bar cel
th en</w>
ث ا
nas zy
이 드</w>
द ृ
ยื ด
או ז
ram i
cokl at</w>
pr ó
แ ปล
ał y</w>
國 家
cu ộc</w>
w ad
mat ri
is es</w>
tur es</w>
م را
hub ungan</w>
고 품질</w>
आ र
ko l</w>
sp or</w>
چ و
an ni</w>
про ти</w>
mi x
ew s</w>
м м</w>
ผ ล</w>
les bi
peng inapan</w>
or ie</w>
ser i
близь ко</w>
去 </w>
한 다</w>
şir ket
fr en
线 </w>
стро й
mak lum
наві ть</w>
率 </w>
ा ई</w>
si r</w>
la innya</w>
ב ת
ni pis</w>
童 </w>
б і</w>
เสื้อ ผ้า
우 아
char ge
バイ ブ</w>
影 </w>
코 트</w>
ला ल</w>
ر س
в ши</w>
z ur
щ ения</w>
pas ukan</w>
mu zik</w>
צוו ארון</w>
問題 </w>
art ic
क ौ
yo ga</w>
ш і
펜 던
คอม พิว
ti ên</w>
о тели</w>
сан д
zz le</w>
क हा
до во
g ot
ı t
s ơ</w>
men cari</w>
sne akers</w>
당신 의</w>
ж ін
ze ug</w>
加 </w>
k and
j angan</w>
m än
त म</w>
ре к
meny edi
ท ี
h ội</w>
ти мо
의 해</w>
inst it
고 객
ท ุก</w>
cic lismo</w>
bas ket</w>
ตร ง</w>
दौ रान</w>
cz e</w>
kinder en</w>
الع الم
men ti</w>
ي ف
иг ры</w>
чи х</w>
ti êu</w>
知 </w>
ç ek
डि जा
位 置</w>
te ase</w>
ור ות</w>
amp li
за коно
ç i
k ant</w>
bersi h</w>
ar o
บ วก</w>
तृ त्व</w>
fun k
no ści</w>
้อ ม</w>
pi è
col o</w>
ble m</w>
ket ting</w>
사 람
го спо
футбо лка</w>
dest in
a x</w>
can ada</w>
ע ג
ھ ۆ
fin d</w>
ви де
하 여</w>
gu est</w>
스 웨
profesi onal</w>
الأ ول</w>
or din
写 真
маши на</w>
key board</w>
we i</w>
er g
다이 아몬
vol k
प्रा प्त</w>
mem ak
ar m</w>
ти ся
n ico</w>
ח ג
जान कारी</w>
v ấn</w>
ड ा</w>
lap oran</w>
と な
pl ata</w>
дет ься</w>
h ỏi</w>
턴 </w>
או טו
ill er</w>
يە ر
постав щи
pen j
ऐ सी</w>
nil ai</w>
ain s</w>
де я
міс це
方 法
ชุดชั้น ใน</w>
ol arak</w>
ئى قتى
tam an</w>
oc ul
ак се
p eta</w>
за про
sek ali</w>
้อ น
per for
j in
di ese</w>
со к</w>
тран спор
re ar</w>
an us</w>
تعزي ز</w>
dv r</w>
य हाँ</w>
har ry</w>
t ica</w>
eng ah</w>
कि त
dri ver</w>
щи й</w>
быст ро</w>
ज्ञा न</w>
util is
द ्या
jau h</w>
צו ע</w>
по ру
ım ı</w>
ו ה</w>
те й</w>
ス ポ
ye ar</w>
un is
的 人
חרוז ים</w>
内 容
ши ро
ผน ัง</w>
l at</w>
س بة</w>
zi p</w>
veg et
r in
inform ation</w>
व ज
ó d</w>
phot o
х ран
ing o</w>
बे ह
ב ציר</w>
ה ז
플 </w>
었 다</w>
со труд
me dic
ра ніше</w>
car te</w>
w n
ak at</w>
潮吹 き</w>
co uro</w>
ñ a</w>
الأ س
and er</w>
बि ना</w>
飾 </w>
при чи
چ </w>
о в</w>
co uld</w>
ー ツ
бу р
أ ل
kun nen</w>
лю би
ض ع</w>
po cket</w>
카 </w>
럽 </w>
环 境
распо ло
ess en</w>
su ka</w>
專 業
ę d
k ý</w>
int ure</w>
大 學
silic ona</w>
kul ak
menyedi akan</w>
ภู มิ
су аль
b óng</w>
ра в
bo uc
scar f</w>
ษ ณ
man nen</w>
mem ast
bu han</w>
م لة</w>
brit ish</w>
า ด
מד בק
ซิ ลิ
meny e
ma z
strip tease</w>
ver a</w>
обору дова
ay u</w>
ba ño</w>
تح ا
ycz ne</w>
с паль
app li
श ै
ke j
大 家
เล ่น
blan co</w>
جل س</w>
ب ص
कि या।</w>
mem as
la g</w>
but ter
อัตโนมั ติ</w>
was ser
cr u
ن ت</w>
role plays</w>
со времен
أح د</w>
qu ed
ma xi</w>
ใ ส</w>
لى كى
बि क्री</w>
esp eci
mel akukan</w>
у ров
أ ج
га ря
st op</w>
أن ّ
зе лен
ch ange</w>
ร ่าง
ינ ג</w>
אר נק</w>
p ur</w>
l ấy</w>
ת ק
ци к
บั ตร</w>
eleg ant</w>
ב רי
ट न</w>
ग ठ
ญญ า
gen s</w>
경쟁 력있는</w>
卸 売
ą ce</w>
生 产
l òng</w>
j ę</w>
f air
【 送料无料
系 列
фі ль
ч ет</w>
n ur
bun yi</w>
en na</w>
nas i
با د
ні я</w>
इस का</w>
bar bie</w>
ho ok</w>
没 有
ข ้า
ха рак
स्ता न</w>
स् थ
y ıl
p pers</w>
ap ro
סטי ק</w>
чи к</w>
run ning</w>
c ụ</w>
ร ์</w>
stri p</w>
j un</w>
wy so
о д</w>
гене раль
חולצ ות</w>
병 </w>
fab ri
ũ </w>
يا دة</w>
dan ce</w>
สร้อย ข้อมือ</w>
co de</w>
o g</w>
flor al</w>
ast er</w>
نف س
่ว ย
al aman</w>
ow ych</w>
ت ب
เพ ื่อ</w>
服務 </w>
להגד יר</w>
men am
ığ ı</w>
s re
по ряд
ช า</w>
ือ น</w>
at y</w>
国 际
gre at</w>
т ро</w>
मे रा</w>
cip ta</w>
ه ر</w>
тво р
ي ة،</w>
v ệ</w>
运 动
мож уть</w>
מ או
rel ó
is a</w>
ب الن
cut ter</w>
princ ess</w>
s ống</w>
lem e</w>
mol to</w>
س ت</w>
inf o</w>
фа й
от де
ร ์
ne d</w>
fam ily</w>
허 리</w>
co co
ह ों</w>
ро би
жо в
เครื่อง มือ</w>
d ay
为 </w>
li z
ph áp</w>
ek ran</w>
bisi klet</w>
fi x
ч ь</w>
ح قوق</w>
bl usa</w>
ди а
sek si</w>
ch âu</w>
ти н
sw agen</w>
สี เขียว</w>
ีย น</w>
жд ения</w>
귀 걸이</w>
कर ती</w>
राष्ट्र ीय</w>
bas e
ap akah</w>
ラ </w>
ви пад
до не
s lu
свето ди
рука вом</w>
ter r
п ка</w>
r ay</w>
b adi</w>
될 </w>
ven di
أخ رى</w>
आ कार</w>
op ti
นาฬิ กา
สว ม
чо ї</w>
про веден
ре сто
nis san</w>
n ol
o sa</w>
관 </w>
펜던 트</w>
spe el
beoor del
на циональ
w on
купи ть</w>
त ो
دا م</w>
bet ul</w>
ק ו</w>
실리 콘</w>
ih re</w>
골 드</w>
ї з
kle ine</w>
man apun</w>
접 </w>
со р
디스플 레이</w>
b aca</w>
mo do</w>
alar m</w>
纸 </w>
par tic
дне й</w>
h ộp</w>
om a</w>
अनु सार</w>
ма н</w>
ц ю</w>
इ ल</w>
ผู้ หญิง
แข ่ง
لۈ ك</w>
אל גנ
tem u</w>
t ico</w>
노 트
عل قة</w>
te e</w>
м ени
เพ ช
स ही</w>
con sul
أ ه
т ю
لي ات</w>
ี้ ย
ç o
다이아몬 드</w>
гра фі
ปล อด
лен а</w>
流 </w>
รู ป</w>
г ло
业 </w>
ë </w>
х у</w>
เอ ีย
d ö
आप के</w>
tij d</w>
acces orios</w>
g sm</w>
nieu we</w>
ш т</w>
ח ב</w>
方 法</w>
กล่ อง
пре с</w>
sus pen
ча ть</w>
кита й</w>
gmb h</w>
фор му
at ori</w>
aci al</w>
ע ות</w>
管 </w>
โ อ</w>
tr ị</w>
ल र</w>
ли за
col le
th ảo</w>
wör ter
го ря
pat ch</w>
est o
во ды</w>
란 색</w>
してい ます</w>
k ır
만 화</w>
או וי
ch ỉnh</w>
따 라</w>
vi ol
stell en</w>
หล อด
te k</w>
ver o</w>
ยุ โร
ال لا
في ها</w>
maklum at</w>
充 電
ק טי
צוו אר</w>
bol so</w>
ĩ </w>
כ ים</w>
検 索
т ка
เด ิน
ส ล
تم ر</w>
중 국</w>
필 요
t aj
ש ם</w>
w ay
раз лич
j os</w>
prin cip
s ân</w>
dek atan</w>
ش خص</w>
roup as</w>
р н</w>
תי ים</w>
un id
ับ สน
tr ở</w>
a ine</w>
ك ي</w>
得 </w>
um en</w>
len s</w>
電話 </w>
рова ния</w>
क हीं</w>
г е</w>
حس نا</w>
t ail</w>
cu is
खु द</w>
ม น
يى ن</w>
ro hs</w>
рен ня</w>
ت د
גי ט
lu xe</w>
bah u</w>
es pañ
י ש</w>
па м</w>
th un</w>
se in</w>
会社 </w>
כוכ ית</w>
t ad
الأ ط
携 帯
kam ers</w>
مر ح
d ent</w>
restaur ants</w>
以 下
ท ี</w>
v ed</w>
ל לא</w>
kap al</w>
コ ー
מל א</w>
l am</w>
с ну
t am</w>
decor ação</w>
ي ز
ab les</w>
खे ल</w>
xx xl</w>
삼 성</w>
מ צו
ви зна
ص ول</w>
ва тися</w>
бла го
мен ты</w>
glo bal</w>
บริ สุทธิ
房 </w>
nok ia</w>
類 </w>
cycl ing</w>
b r</w>
स्त र</w>
ח ז
ม ะ
ki j
erop a</w>
qu esta</w>
خ انى
mi x</w>
ис кус
מג פי</w>
表 示
สแตนเล ส</w>
u hr</w>
o si
قۇرۇ لۇ
z em
ר צוע
no va</w>
み </w>
ко роб
pro ses</w>
चुना व</w>
ビ ー
วิ ท
to do</w>
vi et
ने तृत्व</w>
conto h</w>
dor f</w>
送 </w>
j an</w>
科技 有限公司</w>
professi onal</w>
레 드</w>
भू मि
on e
а й
mar io</w>
стан дар
за раз</w>
it ion</w>
체 인</w>
ra f</w>
الإنس ان</w>
en c
u b</w>
สน ับสน
ь я</w>
ガ ーター</w>
penut up</w>
per ing
ซ ์</w>
का ल</w>
ש י</w>
tran spor
per angkat</w>
te pat</w>
з в</w>
เย็ บ
j ę
第 三
מל א
do cu
بوي ى
do b
تى نىڭ</w>
ци а
สั มผ
fl ores</w>
s ở</w>
су т
ro bot</w>
机 械
spi el
пре м</w>
co w
per nah</w>
e il</w>
k ole
ल ौ
जग ह</w>
لىرى نى</w>
k rij
di sk
cam ere</w>
eng er</w>
х и</w>
б лу
й ти</w>
kel uar</w>
dan h</w>
ضا ً</w>
ці а
例 </w>
po bli
ве чер
pen cil</w>
et f</w>
dost ęp
ن ،</w>
s ot
न ू
قي ق</w>
원 래</w>
ku ar
م وا
ט רי
лі ння</w>
ter m
เ ฉ
у па
會 </w>
भाष ा</w>
ละ เอีย
ч на</w>
лы е</w>
z na</w>
ba ğ
מט ען</w>
к ва
धा न</w>
caf e</w>
ケ ー
біль ш</w>
char ge</w>
ئ ي</w>
çal ış
ار ات</w>
ek si</w>
da g</w>
на ходи
ve au</w>
ağ ı</w>
ה מק
क ल्
ئىش لە
tet ek</w>
sp it
rec ei
um um</w>
و من</w>
จัดส่ง สินค้า</w>
по зво
s ách</w>
eng lis
to us</w>
pe qu
หรูหร า</w>
m ỹ</w>
tor y</w>
ก พ
ä r
am atan</w>
لا ،</w>
ang gil</w>
bijo ux</w>
חד שים</w>
в то
publi k</w>
詳 細
グ ラ
قد م</w>
ко л
p h</w>
mochil a</w>
c lu
ak ces
meng inst
pobli żu</w>
ch é</w>
影 響
zi e</w>
自己 的
지 갑</w>
dur ch</w>
spo d
an u
se cur
adhesi ve</w>
ม า</w>
© </w>
роз ви
師 </w>
लि त</w>
cinc in</w>
a vi</w>
про ф
aqu arium</w>
jar ak</w>
де ко
kab lo
t af
भ व</w>
ul ang</w>
setel ah</w>
p inc
ing gris</w>
pes so
p au
का फी</w>
x in
рі й</w>
świ et
新 款
mo vil</w>
or olo
l ast
бі р
ch al
แสด ง
ब ड़ा</w>
ke m</w>
ri f
ac es</w>
ad res
с про
фо то</w>
ủ ng</w>
サ ン
регі о
с фер
م ە</w>
ро ди
कार् य</w>
jo y
b ali
國 際
ี่ย ม</w>
at ten
uch wy
फो न</w>
cos met
สุ ด
ल ना</w>
جۇڭ گ
máqu ina</w>
부드 러운</w>
нсь кий</w>
أ َ
ปลอด ภั
polit ik</w>
터 치</w>
ป ี</w>
im pin</w>
ст ів</w>
artifici al</w>
elektr ik</w>
ch at
หั ว</w>
시 리
re ci
in et</w>
ak t</w>
n ổi</w>
un s</w>
ст у</w>
우아 한</w>
ز ا</w>
к за
bud get</w>
d us
看 </w>
muse um</w>
g y</w>
e co
ショ ン</w>
ए म
ı l</w>
щ ение</w>
по трі
פל סטיק</w>
リ ア
mon tre</w>
по ку
สี ชมพู</w>
サー ビ
ح يا
州 </w>
販 売</w>
с м</w>
дис пле
cr aft</w>
micro soft</w>
men jual</w>
wy naj
स् कू
str at
תי בת</w>
ди ви
مۇ ھى
k si
bl u</w>
cu ba</w>
bagai manapun</w>
ส อบ</w>
yük sek</w>
le urs</w>
新 しい
con ten
um n</w>
d le</w>
ले ख
rou ge</w>
무 선</w>
kur t
попу ляр
при я
v é
и мен
расстоя ние</w>
p á
o gr
n ữa</w>
ạ y</w>
ти п</w>
des cri
se ur</w>
під приєм
con si
wor d</w>
memast ikan</w>
活 動
头 </w>
oper asi</w>
모델 </w>
k ri
知 道
play er</w>
า หล
ถ ้ว
зу стрі
ファッ ション
tab </w>
ئۇ نىڭ</w>
ง ่าย</w>
г де</w>
er ung</w>
ษ า</w>
inter net
qu er</w>
หน้า อก</w>
หน ัก</w>
not a</w>
컵 </w>
เล็ บ</w>
bo ho</w>
ח בי
स द
玩 具</w>
ti an</w>
ngh ỉ</w>
ल ू</w>
k ę</w>
вело си
शा क</w>
י הלו
s he</w>
ّ ة</w>
פ ים</w>
sep tem
bedrij ven</w>
op le</w>
де сь</w>
만 든</w>
decor ations</w>
sal on</w>
ज न्
จักรย าน
르 </w>
u je</w>
गी त</w>
남 자</w>
ut er</w>
gö n
בו י</w>
pl an</w>
alar ı</w>
im port
กล ับ</w>
is land</w>
it os</w>
uni on</w>
на стоя
j et</w>
لۇ ق</w>
є в
ayakkab ı</w>
學 習
fur niture</w>
man n</w>
ur en</w>
t ung</w>
소 녀</w>
pul se
au c
ل ات</w>
men ta
녹 색</w>
ホテ ル
th em</w>
ter buka</w>
ph ố</w>
bo ut
ỷ </w>
都 是
स हा
m b</w>
лен і</w>
ç os</w>
mening katkan</w>
cu ero</w>
hi st
g ek
l ạnh</w>
та р
am ik</w>
k te</w>
str ing</w>
fle xi
علي ه</w>
са ме</w>
ш вид
un i</w>
ז י</w>
велоси пе
it ing</w>
сек суаль
ח זה</w>
од я
لا شت
s wo
pic ture</w>
мі ся
ür ü
теле фон</w>
希 望
ін тер
אי שית</w>
mastur b
mak en</w>
ar ch
af ric
ma ster</w>
häng er</w>
ח ד</w>
тор го
पो शाक</w>
कि ए</w>
d ź</w>
시 오</w>
cor r
tent u</w>
ク ラ
ự ng</w>
बा ल</w>
ходи ть</w>
ש לי
fo x</w>
прий ня
מ חו
ati es</w>
д жа
l ực</w>
cu kup</w>
ỡ </w>
до н
li chen</w>
ac t
รร ค</w>
крас ный</w>
بويى چە</w>
americ an</w>
वि रो
con struc
ب ك</w>
all s</w>
ธรรม ชาติ</w>
ק לי
ж ки</w>
ль ний</w>
chuy ên</w>
呢 </w>
sch af
หล าย</w>
e di</w>
си м
el é
k h</w>
жен ская</w>
acci aio</w>
сто ву
ang sa</w>
โ ย
อา ชี
te j</w>
de cor</w>
rist or
no g</w>
بو لىدۇ</w>
plast ico</w>
pri ma</w>
hi p</w>
스 를</w>
dar k</w>
sch er
आ द
ec as</w>
t uk</w>
را ض</w>
أ ريد</w>
зро би
toil et</w>
hal ter</w>
ля х</w>
s aan</w>
った </w>
集 團
ê me</w>
ter us</w>
ch rome</w>
se bel
k ristal</w>
сто й
се год
社 </w>
мет и
א ן</w>
r aw
mo bil
नि क
し ました</w>
च ै
ab y</w>
합 금</w>
te a</w>
ig a</w>
سى نىڭ</w>
li m</w>
pres ent
แข่ง ข
の お
स भा</w>
nghiệ m</w>
h aut
inver no</w>
ket te</w>
dü ş
أع تقد</w>
े क</w>
利 </w>
wł os
d ạng</w>
an de</w>
ป รับ
h nya</w>
ko t</w>
по до
址 </w>
ผ้า พัน
xx x</w>
bran sol
нержа ве
십 시오</w>
h ül
peu ge
ви да
о кру
ن د
фи ль
दि या।</w>
ad or
من ذ</w>
يى غى
לי ונה</w>
соб ствен
chi p</w>
이 크
ing ger
te bal</w>
happ y</w>
on n
l us
בגד ים</w>
กรร ม</w>
legg ings</w>
感 </w>
ap ka</w>
о суще
ag u
볼 </w>
f ili
cas o</w>
모 </w>
pem and
ac ero</w>
अ ग
jum p
su pp
ні ш
m ềm</w>
el os</w>
वस् था</w>
سائ ل</w>
жи ття</w>
automat ic</w>
ลูมิ เนียม</w>
sul la</w>
h af
or ecch
hor lo
bam bo
機 械
jo ur
जन ता</w>
се зо
us nya</w>
west ern</w>
ś ni
berl in</w>
si mul
ي ،</w>
си ть</w>
li on</w>
ü cret
ingger is</w>
ster ling</w>
de ux</w>
ऊ पर</w>
r ằng</w>
m apa</w>
印 刷
zi e
ชาร์ จ</w>
tekn ologi</w>
eleg ante</w>
ні ме
ли сто
bamb ini</w>
أن ني</w>
ف ل</w>
ס מס
सि र्फ</w>
з ки</w>
sen za</w>
b os</w>
me j
폼 </w>
c â
पू रा</w>
br un
ان ة</w>
m r</w>
되 어</w>
lever anci
me chan
su peri
en contr
el eri</w>
ا ح
ва х</w>
كو مة</w>
f o</w>
uk kan</w>
נ ית</w>
a ż</w>
بر نامج</w>
p ush</w>
ab bi
sm it
про води
ме ха
nh ựa</w>
н ный</w>
배 </w>
ні ж</w>
سى ي</w>
אנ י</w>
情 況
المت علقة</w>
ז כוכית</w>
bi dang</w>
жі но
交 通
홈 </w>
har ley</w>
dow y</w>
spr ay</w>
kh as</w>
أع رف</w>
vo y
bant al</w>
스타일 의</w>
p al</w>
au tres</w>
aba t</w>
o br
melh or</w>
ch aqu
ті м</w>
फ़ </w>
節 </w>
mu ñ
हा ल</w>
c rist
t age</w>
ten is</w>
stad t</w>
сло ви
ने ता</w>
мо сти</w>
ба ть
hô tel</w>
ürün ler</w>
m ục</w>
ت ُ
เก าหล
ter jem
band ara</w>
mek an
dư ới</w>
aut an</w>
收 纳
पिछ ले</w>
ン の
ا ً</w>
็ ด</w>
ap or
peng alaman</w>
סמס ונג</w>
di ag
ל נשים</w>
pe ople</w>
כר ית</w>
систе мы</w>
об і
мен е</w>
n ero</w>
barcel ona</w>
seg ur
bro ek</w>
est o</w>
사 진</w>
я ну
ต้อง การ</w>
ונ ית</w>
노트 북</w>
ка ж
衫 </w>
peuge ot</w>
cer ca</w>
业 务
ıs ı</w>
ck en</w>
कह ते</w>
हो ना</w>
אבי ז
sh ang
pi k</w>
universit i</w>
組 織
랩 </w>
beaut y</w>
v ent</w>
offr e</w>
cus hion</w>
โ ฟ
프 리
ше м</w>
on omi</w>
السي د</w>
शा य
vent il
im mer</w>
キ ー
del en</w>
تقدي م</w>
אווי ר</w>
wu j</w>
같 은</w>
can cel
под держ
आ रो
су д
плю с</w>
кар ти
ע ד
汽 车
الما دة</w>
يا م</w>
co ol</w>
bou tique</w>
pre st
เจ้า สาว</w>
製 造
th ao</w>
щи х</w>
法 律
लि क</w>
zi en</w>
ka itan</w>
по ста
方 面
ви м</w>
car bon
tak e</w>
al t</w>
パ ール</w>
ız ı</w>
だ け
สะ อา
щен ня</w>
ac qu
طف ال</w>
ۇرۇ پ</w>
ker tas</w>
en si</w>
لەر نى</w>
ج ار
rel i
ザ ー
bat h</w>
لى ك
be wer
del u
को शि
س ر
ge omet
d ành</w>
cz as</w>
ke bany
á m</w>
プラ グ</w>
ב סגנון</w>
קו ד</w>
per band
ung e</w>
tut to</w>
is mo</w>
คลุ ม</w>
st esen</w>
pem as
ตุ ๊ก
ходи т</w>
ex peri
че х
г ну
प्र ति</w>
tuy ệt</w>
프 트</w>
sear ch</w>
ạ m</w>
s ant
dal la</w>
ตร ว
o hr
че мпі
dis fr
ب ا</w>
سا ء</w>
〜 </w>
ре комен
міні стра
am bi
aba d</w>
сту па
חולצ ת</w>
ни к
z d
k us</w>
p ay</w>
per le</w>
制 造
บ ัน
tel l</w>
су р
т ного</w>
воло ди
да же</w>
о те
водонепро ница
тем пера
พ กพ
ر ئي
מ בו
мо л
ba u</w>
ب را
б рас
מ הי
ba an</w>
r f</w>
p é
jo b</w>
【送料無料 】</w>
自 由
do p
elektron ik</w>
विशे ष</w>
mer ci</w>
वा न</w>
फ ू
ור ים</w>
zap at
hou der</w>
th am</w>
orolo gio</w>
سب ب</w>
se bahagian</w>
se jak</w>
sat in</w>
ย าง</w>
لا پ</w>
сле дова
th ật</w>
помо га
sel esa</w>
ませ ん</w>
tul le</w>
нан со
동 물</w>
紙 </w>
qu ant
t f</w>
о фи
not ebook</w>
ту ры</w>
anj ing</w>
כפ ול</w>
दे ते</w>
ري ق
ע ק
can on</w>
edi t</w>
» </w>
झ ा
휴대 용</w>
ני ו</w>
木 </w>
car t
d ự</w>
m ặc</w>
ส อง
मि त</w>
fig ure</w>
zaba w
кіль ка</w>
k rist
bli bli</w>
ۇ ق</w>
пер и
ร วด
ความ ยาว</w>
laz ada</w>
देख ा</w>
p ak</w>
سى ز
石 </w>
розу мі
be en</w>
лен </w>
l au
ен </w>
说 </w>
เพ ล
y a
वि द्या
분 </w>
le o</w>
드 라이
nav ig
m ù
та ких</w>
ダ イ
roy al</w>
ма ють</w>
светоди од
年 度
kuar za</w>
по вин
ج د
宽 松
qued os</w>
वा ई</w>
หร ือ
r asa</w>
th ủ</w>
p lo
t ín</w>
ar te</w>
成 功
pem ain</w>
sch mu
ク ロ
योज ना</w>
викори стову
kos met
dic cion
парла мен
परि वार</w>
не го</w>
ber kualiti</w>
h is</w>
per man
volk swagen</w>
к лі
та ж</w>
no c
po h</w>
go ed
מזד מן</w>
ap ril</w>
ist e</w>
sem ble</w>
про дов
อย ่าง</w>
قو م</w>
за вер
ac tu
i ii</w>
山 </w>
ג י</w>
z ed
よ り
br ill
w ell
政 策
лен ь
decor ative</w>
kosz ul
со вет
є р</w>
ver e</w>
f u</w>
bat eria</w>
fin den</w>
家 庭
pl ant
bag no</w>
उप योग</w>
직 </w>
lang kah</w>
mul her</w>
ल ो</w>
ش طة</w>
h aw
क् टर</w>
u ç
כ בל</w>
костю м</w>
sal a</w>
э ти</w>
दि नों</w>
kr ó
ch ắc</w>
k ant
เต ็ม
מות ניים</w>
mo m</w>
ह े</w>
標 準
อ เม
출 </w>
dr y</w>
ide al</w>
ло го</w>
op ini
es c
스크 린</w>
핑 </w>
ש קי
хі д</w>
दे ख</w>
се м
부 츠</w>
m p</w>
t ay
ber bagai</w>
스티 커</w>
mo on</w>
kam u</w>
по ч
k ą</w>
ठ ी
起 </w>
ジ ョ
م ين</w>
ess a</w>
โทรศัพท์ มือถือ</w>
ھە ر
al u</w>
f ine</w>
ck er</w>
c ây</w>
wur de</w>
пер і
vi vo</w>
ด าว</w>
í as</w>
一 定
сту пи
samoch od
pr a</w>
hol z</w>
челове ка</w>
по в</w>
не ско
г рн</w>
ما د
베 이
cz ne</w>
כו ח</w>
건 </w>
від повіда
أ سا
या न</w>
en ví
band ingkan</w>
en der</w>
ин стру
brin quedos</w>
man usia</w>
we g</w>
ber t</w>
مە ك
私 </w>
ร อบ</w>
new born</w>
кли ка
c d
ถ ัก</w>
ль о
v ực</w>
пра ва</w>
长 </w>
الأ من</w>
ด ล
v in</w>
за ка
ل ماذا</w>
ม ุ
ค าร์
bel l</w>
เต ็ม</w>
دي دة</w>
vis ion</w>
ब् लॉ
mini str
t ượng</w>
access ory</w>
사 랑
g ym</w>
box es</w>
el y</w>
se pat
ме д
li eg
і ва
cit tà</w>
шо в</w>
著 </w>
fo am</w>
bo ite</w>
aus si</w>
ti vi</w>
sa ç</w>
系 统
отно ш
ren da</w>
s ức</w>
מ א
ро ки</w>
є н
종 류
テ ー
सं ख
cl usi
ме ся
z or
men awarkan</w>
fer n
единен ных</w>
कर के</w>
до ма
sand als</w>
عا دة</w>
ท็อ ป</w>
б ка</w>
im por
kom en</w>
保 护
диза й
खिला फ</w>
acry lic</w>
че ской</w>
por n</w>
ver ano</w>
เชื่อ ม
s ze</w>
has ilkan</w>
ध्या न</w>
terse dia</w>
م ُ
mat te</w>
निर्मा ण</w>
о хоро
ن ې
sil k</w>
쉬 폰</w>
clean ing</w>
श र्
l in</w>
со об
لى ق
hard core</w>
לה ת
k auf
סי לי
ту ри
ста р
가 지</w>
ro d</w>
ation en</w>
al d</w>
на прав
о х</w>
โรง งาน</w>
спе циаль
şar j</w>
осуще ств
вер хов
ئى ك
ד ם</w>
kar at</w>
ur i</w>
so us</w>
th an</w>
g it
で は</w>
с ку</w>
ti onal</w>
바 랍
c ực</w>
怎 麼
елек тро
ве ст
시스템 </w>
و ز
ط و
telev is
ex tra</w>
思 </w>
st ad</w>
робо ти</w>
е ще</w>
ئ الا
bes chi
cli ps</w>
ความ ร้อน</w>
च म
gr ay</w>
мо то
w in</w>
delu xe</w>
ma id</w>
ข ย
ما ي
let ter</w>
أخ بر
م نا
на р
कर ो
ر ات</w>
други е</w>
res in</w>
وج د</w>
vic ino</w>
ti v
o ve</w>
च ू
bi o
bi er
० </w>
ast e</w>
리 는</w>
тимо шенко</w>
h antar</w>
bor sa</w>
прави тель
у го
swim suit</w>
euro sport</w>
traduc ción</w>
су к
про сто
เป ิด</w>
食 品
ホテ ル</w>
sz u
f ire</w>
ज हां</w>
so porte</w>
进 行
기 계
סוו דר</w>
ال م</w>
đ á</w>
fri end</w>
ט ית</w>
con for
од на</w>
produt os</w>
tri ển</w>
f ır
di d</w>
d d
บริสุทธิ ์</w>
spe ed</w>
ذ ات</w>
по д</w>
छ े</w>
控 制
킹 </w>
am s</w>
i e
war m</w>
minut en</w>
j in</w>
ber kata</w>
wer e</w>
ю ще
ва ние</w>
af ter</w>
ใส่ </w>
ẳ ng</w>
ต ้อง</w>
שי מו
bu h</w>
孩 子
голо ва</w>
די ו</w>
डिजा इन</w>
str ic
sco oter</w>
h àn</w>
i ph
ма лень
pu ò</w>
w ave</w>
s lo
electr onic</w>
中 央
ro t</w>
євро пей
ไ ล
поль зова
w ach
vac u
et ah
for nit
ist an
sah aja</w>
바랍 니다</w>
anim als</w>
高品質 </w>
जा री</w>
ライ ン
с ме
p ure</w>
mich elin</w>
c ài</w>
hab a</w>
已 經
mu k
poko je</w>
за пи
av is</w>
ch au
ресто ра
co cina</w>
septem ber</w>
er n
yak ın
o ść</w>
cel l</w>
الب ر
1 </w>
ro dz
ประ สิทธิ
spi eg
а лю
ย า
кон ферен
n el
भा व</w>
ٍ </w>
па н
я по
สำหรับ ผู้หญิง</w>
デ ザ
пу сти
页 </w>
हमा री</w>
ber jalan</w>
s d
do wa</w>
an ı</w>
со бо
wall paper</w>
פ ס</w>
từ ng</w>
आ म</w>
fer ram
бы ла</w>
бюдж ет
zo ek</w>
श री
बं द</w>
потрі б
कु मार</w>
fac il
bah wa</w>
ड ो
旅 行
… …</w>
oyun cak</w>
gr u
em y</w>
aut or
vest ito</w>
ं स
アナル プラグ</w>
כ לה</w>
war s</w>
lab or
st ahl</w>
tr ời</w>
beri kut</w>
ג ד</w>
sup ply</w>
n ội</w>
s si
一 覧
い ます</w>
r ica</w>
צע צוע</w>
rib bon</w>
fi yat</w>
具 有
ج ان
ורו ד</w>
핑 크</w>
ह त</w>
pe ux</w>
kor ean</w>
ฟ ุ
wh o</w>
qu el</w>
cai xa</w>
व हां</w>
re vi
t ile</w>
с мер
мо дные</w>
包 括
कु ल</w>
ע גי
กำหน ด
đ ôi</w>
ل إ
ल ती</w>
ק רה</w>
gen u
der en</w>
地 域
ฟ ้า
bur an</w>
夏 季
ло к</w>
char ms</w>
an o
项 目
ль ной</w>
ст ер</w>
ent al</w>
装 饰
pl á
g ag</w>
ни ть</w>
bu ff
서비 스</w>
diccion ario</w>
ה נשים</w>
pier cing</w>
kol czy
br a
to ps</w>
us ing</w>
ปล ีก</w>
klas ik</w>
アナル パール</w>
am u</w>
p df</w>
fun c
мы ш
mon t</w>
дер </w>
други х</w>
ड ल</w>
โซ ่</w>
وي ل</w>
ko men
เ ภ
ا س
с ма
ро сси
ke u
ва є</w>
qu ý</w>
пер со
แข่งข ัน</w>
י ח</w>
é m</w>
美 </w>
מ ית</w>
су вання</w>
ti m</w>
l il
pot ter</w>
kel as</w>
建 设
gu itar</w>
pendi entes</w>
ci os</w>
들 어</w>
정 장</w>
wal au</w>
ниц ы</w>
мі ль
ル ー
ec u
sur es</w>
sel ec
して </w>
शा दी</w>
जि न
لى قى</w>
c s</w>
펜 </w>
潮 </w>
prin ci
加 工
建 築
man ual</w>
trans l
y u</w>
з ло
金 融
st amp</w>
mu ito</w>
冬 </w>
it em</w>
خىز مى
القان ون</w>
мет а
t ối</w>
ขน สัตว์</w>
ए म</w>
ष् टि
cu cina</w>
프레 임</w>
و ى</w>
สะ ด
ठ ी</w>
ре аль
f il</w>
स्थि त</w>
to ber</w>
desig ner</w>
wu ju
р ф</w>
после д
л ер
кру же
ش ر</w>
st ato</w>
duğ u</w>
accom mod
精 神
y et
c ach
ван ной</w>
อเม ริ
कह ना</w>
las t</w>
akces oria</w>
t angg
อาท ิต
ע ץ</w>
z us
ष् ठ</w>
재 킷</w>
ता ।</w>
ul es</w>
unt ing</w>
tran sport</w>
हा ला
anal y
들 은</w>
도 구</w>
доро ж
wholes ale</w>
ні стю</w>
per m
पा ल</w>
ีย ว
al atan</w>
向 </w>
الا تفا
บ าง
vis it
та ли
ко му</w>
tem poh</w>
kar te</w>
يت علق</w>
kl eri</w>
leopar d</w>
elast ic</w>
al ex
ti ene</w>
外 套</w>
th ai</w>
contro le</w>
fo i</w>
شى نى</w>
moż na</w>
car ian</w>
maqu ina</w>
ئ وقۇ
스웨 터</w>
ي ش
perse waan</w>
قوي ۇ
осі б</w>
시 기</w>
mac book</w>
เส น่
пор та
כ לי</w>
tor ba</w>
น ่า
be z</w>
金 属
pc b</w>
た ち
га з
ต่าง หู</w>
पु रा
ב רו
很 多
naklej ki</w>
ste in</w>
услу ги</w>
v ừa</w>
h in</w>
אינ ץ</w>
bey az</w>
मू ल
се да
m ati
ba in</w>
gi y
f at</w>
раз у</w>
inst all
sh el
пра в</w>
jed no
ви си
ki ếm</w>
pet it</w>
방 지</w>
per h
samo cho
брю ки</w>
zo sta
쉬 </w>
kaw aii</w>
ट र
دا ر</w>
छो टे</w>
רכ י
ni ka</w>
व ो
s ö
तै यार</w>
pur ple</w>
pun to</w>
jen ama</w>
олек санд
z ł
ve ya</w>
фор ма</w>
с вет</w>
pul sera</w>
ma z</w>
ट ल</w>
ه ما</w>
stat es</w>
lo k
bé m</w>
ç ev
आ या</w>
мя г
ص حي
מק ר
환 </w>
र् ष</w>
tam bém</w>
가 능
क्रि या</w>
на гада
ari an</w>
城 市
但 是
v ai</w>
बा त
ข า</w>
ut am
v òng</w>
نى ڭ
หนึ ่ง
シ ステ
сегод ня</w>
и м</w>
cou leur</w>
टी म</w>
tro va</w>
proj ek
str ap
่า น</w>
zegar ek</w>
мно го
द्य ो
s can
zi cht</w>
со ба
里 </w>
мі ста</w>
de ur</w>
y aş
عل ي</w>
ro k</w>
i alah</w>
m ême</w>
対 応
us u
so f
co que</w>
철 </w>
取 り
מוצ ר</w>
ali express</w>
ш ру
is ol
ख ू
т ко
необ хід
h em</w>
組 </w>
ือ ก
赤 </w>
थो क</w>
cand y</w>
지 원</w>
上 的
exten sion</w>
p ati
ücret siz</w>
проек т</w>
मश ीन</w>
cam el
stü ck</w>
cu l</w>
섹 시</w>
m amp
pe que
لەر نىڭ</w>
با ب</w>
천 </w>
terjem ahan</w>
ग ह
را ن</w>
आव श्य
de o</w>
最 高
와 이어</w>
啊 </w>
韩 版</w>
점 </w>
ซ </w>
sem pur
r ak</w>
an za</w>
구 슬</w>
um an</w>
đ o
ลิ </w>
a aa</w>
co sa</w>
fl ash
bl az
l ati
पा र</w>
가 지
et h</w>
milit ary</w>
при лож
ut en
x ác</w>
סט ה</w>
di kan</w>
aj es</w>
זי ה</w>
star s</w>
讀 </w>
c ada</w>
head set</w>
t ắm</w>
sk ull</w>
чех лы</w>
no ść</w>
v ăn</w>
ч ная</w>
סר ט</w>
까 지</w>
icz ne</w>
เสริ ม</w>
dostaw ca</w>
á rios</w>
wei ß</w>
ant arab
प त्र</w>
ال را
것 입니다</w>
ベ ル
น ์</w>
الأ ف
r s</w>
ู น
عم لية</w>
tri que</w>
הדפס ת</w>
外 套
ต ่าง</w>
ە ت</w>
ิ ก</w>
flo or</w>
ch ing</w>
стра н
кра си
チ </w>
manag er</w>
더 블</w>
सं घ
tem a</w>
ช ์</w>
へ の
n ai
ang le</w>
n aci
投 资
ประ เภ
bat t
ज़ ा
мар шру
tran sm
ch ức</w>
กร ุ
an el</w>
blo ck</w>
ба та
pr et
ad aan</w>
per alatan</w>
แ ปร
um i</w>
бі ля</w>
n ối</w>
부 품</w>
dec o</w>
उ ठा
п ки</w>
o ur
东 京
ल ं
ê ng</w>
z ung</w>
horlo ge</w>
航 空
ter i</w>
o st
ber kaitan</w>
anah tar
eer d</w>
spesi fikasi</w>
т ний</w>
สง ่าง
ול ד</w>
נ ד
asy on</w>
星 </w>
o c</w>
hot éis</w>
סו ג</w>
se xo</w>
qu in
ปาก กา</w>
ت ۆ
भि न्न</w>
осо бли
du var</w>
han no</w>
re cher
wynaj em</w>
ท ัน
수 영
l aw
ter jamin</w>
с са</w>
ру ко
cap elli</w>
mu ka</w>
ئى گى
ค เก
r á
kir al
hu ur</w>
hotel u</w>
la ş
종 이</w>
g ọi</w>
h út</w>
бу дів
gro und</w>
الفق رة</w>
мага зи
电 话
за безпе
フ ト
мо ск
al ar</w>
짜 </w>
nor di
घ ु
kas ar</w>
дея тель
主 </w>
サイ ズ</w>
ठी क</w>
धि त</w>
या द</w>
t z</w>
foto ğ
น้ำ มัน</w>
tai wan</w>
재 료</w>
n ak</w>
व्य वस्था</w>
ण ों</w>
แ กร
r akan</w>
א ט
जू द</w>
美 國
мо м</w>
แบรนด ์</w>
між народ
zap atos</w>
男 性</w>
우 스</w>
pel indung</w>
研究 </w>
ذلك ،</w>
支 援
дома ш
ко лі
ก ะ
น ติ
ג ים</w>
ла ми</w>
систе ма</w>
آخ ر</w>
ל ך</w>
kho ảng</w>
مه ورية</w>
ty l
sli ppers</w>
i pod</w>
se dang</w>
beoordel ingen</w>
광 </w>
fav or</w>
st of</w>
ग यी</w>
nghĩ </w>
ber ada</w>
antarab angsa</w>
av es</w>
ดิจิต อล</w>
材 料</w>
kh u
по си
під три
джи н
g é
그 리
do or
t ô</w>
control ler</w>
話 </w>
ite it</w>
ช ่
न ीय</w>
sar ung</w>
ब ू
conta iner</w>
파 </w>
ر ق
ป รับ</w>
אמי תי</w>
per to</w>
und ai</w>
sch il
hom em</w>
hakk ında</w>
सु न
را ت
レ ス</w>
ми ра</w>
mad eira</w>
ста ть
з вер
чо му</w>
ע ת</w>
슈 퍼</w>
इ ला
м ере
кон струк
pl at</w>
bli j
事 业
ผ้า ใบ</w>
חיצ וני</w>
v ul
कृ ति</w>
head phones</w>
з десь</w>
कार्य क्रम</w>
pł y
cul os</w>
mi cha
कर ी
ó rio</w>
का रों</w>
to án</w>
न् द्र</w>
pen gi
let to</w>
ผลิตภัณฑ ์
스 커
st wo</w>
су д</w>
gr ad
leveranci er</w>
ד ק</w>
l ake</w>
แ อล
m ẹ</w>
mem er
품질 과</w>
שול חן</w>
ข้อ มู
ac e
ì n</w>
si mil
h au
com ple
र ने</w>
आ र्
حي ث</w>
lig t</w>
hi ểu</w>
เพช ร</w>
פ רי
b b</w>
log am</w>
đ ủ</w>
за х
הח ורף</w>
ك مة</w>
ch ia</w>
ไ ข
בר ז
embroider y</w>
س لا
c âu</w>
во л
มา ณ</w>
따 뜻
pa int</w>
大 码
in vier
ۈرۈ پ</w>
כד ור</w>
ви зо
bim bit</w>
の で</w>
plat form</w>
du du
г на
バ ー</w>
載 </w>
أ ش
з дій
is se</w>
th ese</w>
vide os</w>
時 候
v ải</w>
م رة</w>
ag ens</w>
スト </w>
де б
đ ình</w>
regal o</w>
शाय द</w>
ча сти</w>
r ingan</w>
sa w</w>
si ons</w>
ab i</w>
кож и</w>
perc aya</w>
su porte</w>
中 古
也 是
יל דה</w>
unis ex</w>
भा ई</w>
ร่าง กาย</w>
v ga</w>
オ ン
ва ш</w>
แสด ง</w>
भ ु
комплек т</w>
ç elik</w>
अ ला
wh ere</w>
do br
สำหรับ การ
ру ба
功 能
遊 戲
bu b
us u</w>
di ber
ber n
또 한</w>
फ़ ि
com fort</w>
д ка</w>
vet ro</w>
แ ถ
е в</w>
ни ж
tar af
섬 유</w>
ถู ก
bas ket
i ki</w>
หม าย
h ant
ข ่าย</w>
इस में</w>
rec ep
đ ều</w>
за яв
条 </w>
gal kan</w>
ंग ा</w>
wörter buch</w>
혼 합</w>
че й</w>
hel p</w>
sle ut
chi ff
le k</w>
cor ak</w>
คอมพิว เตอร์</w>
de gli</w>
bo at</w>
m el</w>
f aux</w>
علي ها</w>
ف و
jac ke</w>
сере б
х е
tit an
โ บ
ワ ン
ד רו
повідомля є</w>
be m</w>
l ập</w>
er os</w>
con tra</w>
ющи й</w>
नी चे</w>
collec tion</w>
ac ul
ing a</w>
д ли
जि त</w>
ع ب</w>
بي ن
tr abal
مك ن</w>
ba st
ה קיץ</w>
d able</w>
re qu
ско ро
tor eb
د ون</w>
ін ших</w>
t and
สัมผ ัส</w>
l uk</w>
عد م</w>
ch as</w>
จ อ
z ak</w>
ver re</w>
vis u
人 気
цент р</w>
d âm</w>
produ its</w>
الج معية</w>
็ ป
招 標
ブ ラン
dam ska</w>
an hänger</w>
ड र</w>
局 </w>
الم د
le it
שקי ות</w>
l aki</w>
элек три
हू ं</w>
со в
플 레이
ต าม</w>
sk y
ч чи
kh í</w>
по к</w>
ac z
च ो
أ ين</w>
á gua</w>
th ail
प क</w>
t alian</w>
bransol et
का न</w>
חו מר</w>
est ra</w>
體 </w>
ส มั
到 了
ت وق
น ี้
li p</w>
シ ュー
อ ย</w>
रह े
prodot ti</w>
ระบ บ</w>
lesbi an</w>
販 売
pan an</w>
ent en</w>
ci ą
म ृ
ब र
ang nya</w>
ượ t</w>
dr ill</w>
tam ento</w>
ठ ा</w>
mal ay
ڭ ى</w>
кро ме</w>
หู ฟ
ke ping</w>
מ טי</w>
времен и</w>
इ स्त
o kr
нав ча
الأ ش
aut umn</w>
am ich
pu b
bo da</w>
ен ер
et ten</w>
מ חיר</w>
ני רו
şe hr
jak arta</w>
li ef
a er
fi o</w>
appar tement</w>
페 이
wi de</w>
in flat
đ ầy</w>
s öz
ment os</w>
सा हि
爲 </w>
pel ekat</w>
w and</w>
स फ
tab le
行 政
pi el
осен ь</w>
任 </w>
ar nya</w>
wi ą
ru p
i hr</w>
un ik</w>
j at
表 示</w>
limit ed</w>
門 </w>
ة ؛</w>
श हर</w>
و ة</w>
decor acion</w>
indu stri</w>
ز ة</w>
็ อก
проф ес
st as</w>
phot os</w>
ko op</w>
kesel amatan</w>
то ри
tor s</w>
กรุ ณ
y an</w>
ส ์
he bat</w>
camis etas</w>
ви а
nov ember</w>
under wear</w>
а у
вес на</w>
pering kat</w>
ma il
alumin um</w>
ئى لگى
ئە ھ
ang el</w>
結 婚
ए क्
gh t
ك ز</w>
бу ма
아름 다운</w>
ला इ
dziec ko</w>
wa ist</w>
스 위
re par
ti en
th ẻ</w>
ng he</w>
ницт ва</w>
ez as</w>
al ph
ห า</w>
even ing</w>
ต ู</w>
भ ्र
ни ти</w>
из мен
f are</w>
to ko
l ote</w>
acti vit
क् ति
خا ص</w>
أ غ
kon gan</w>
str et
tür ki
س ې
caf é</w>
ck ing</w>
di sem
vo m</w>
pa ill
त र्
do we</w>
d ays</w>
th ân</w>
ปร ิ
з бро
gi ữ</w>
com bien</w>
دا د</w>
cor so</w>
b ici</w>
ин тере
द म</w>
го с
ท ์</w>
bot ol</w>
ar ası</w>
נירו סטה</w>
tan te</w>
car g
ol ah</w>
ut es</w>
ств у</w>
se ite</w>
mi esz
gh ts</w>
t ons</w>
men dapat</w>
ان ها</w>
汽 車
про тя
ئور ۇن
евро пей
та ким</w>
เพิ ่ม
ค น</w>
ยี นส์</w>
m s
मु ख</w>
luk isan</w>
сь кій</w>
אל חו
cr é
ئا پت
ห ุ
a stra</w>
管理 </w>
lar i</w>
lab el</w>
แล ็ป
ئ الى
hu is</w>
eg a</w>
fren ch</w>
sim ple</w>
z as
से वा</w>
gr ö
ide a</w>
마 스</w>
ग ं
об раз
ко жа
so kongan</w>
sand al</w>
メン ズ</w>
engkap i</w>
u hi</w>
ceram ic</w>
bi or
аф ри
me il
woo l</w>
av en</w>
ت ست
englis ch</w>
เกาหล ี</w>
ไร้ สาย</w>
на ру
o bro
gör üş
ter i
z al
gi u
си ст
th ái</w>
d ữ</w>
ย ัง
f ar</w>
at h</w>
r ack</w>
ho of
ti g</w>
decor atie</w>
pur an</w>
h ic
홀 더</w>
ك ذلك</w>
прода ж</w>
p anda</w>
я кість</w>
muj eres</w>
ि यों</w>
kli p</w>
meny el
meis je</w>
at t
he al
ッ ド</w>
sempur na</w>
car reg
пи сь
sch lü
علي ك</w>
ist a</w>
chi ến</w>
anal isis</w>
tr ac
на ций</w>
축 </w>
ü r</w>
pek er
cap s</w>
hy undai</w>
it en
자 신
з ра
разви тия</w>
אח ר</w>
l ợi</w>
ชุด ว่ายน้ำ</w>
मुख ्य</w>
за кон
一 些
спо соб
тон кий</w>
אופנ ת</w>
ak si</w>
ين بغي</w>
че ского</w>
при мен
to wel</w>
다 시</w>
ट ु
or al</w>
mo unt</w>
ek onomi</w>
ble u</w>
di lihat</w>
bel len</w>
дет е</w>
ทำ ด้วย
開 發
cor t
ти е</w>
sch aft</w>
바 </w>
に は</w>
गां व</w>
수 한</w>
про ку
meis jes</w>
الح ا
blau w</w>
革 </w>
bal ls</w>
준 </w>
be h
แบบ พกพ
טו ב</w>
матер і
少 </w>
gu an</w>
สำ คั
वि चार</w>
bu ck
пере бу
ي ل</w>
str a
tu o</w>
kol or
公 告</w>
สนับสน ุน</w>
pen il
ز ل</w>
chiff on</w>
al tri</w>
e en
d ai
leng kap</w>
อุ ่น</w>
الم جلس</w>
vi dro</w>
да є</w>
ه ؟</w>
الأط راف</w>
ले ने</w>
ę dz
пе с
j ar</w>
сере д</w>
ลำ ลอง</w>
u ang</w>
完 成
i der</w>
не має</w>
pen s
да ти</w>
грома дя
भा ज
mar e</w>
กระดา ษ</w>
य म</w>
w agen</w>
до ба
uy gun</w>
cancel ar</w>
un u</w>
عا ً</w>
sch ö
चाह ते</w>
智 能
zi pper</w>
з ву
sk ar
ת ליון</w>
ख री
ص دي
能 力
แร ง
อาชี พ</w>
در ات</w>
解 </w>
hồ ng</w>
us aha</w>
ب ط
est i
ال يوم</w>
компа ний</w>
同 </w>
務 </w>
تە ش
con ven
รวด เร็ว</w>
press ure</w>
แพ คเก
م ان
c ana</w>
इत ना</w>
makin esi</w>
มา ตร
株 式
не м</w>
sin iz</w>
학 </w>
운 드</w>
uchwy t</w>
מזד מנ
so und</w>
gu ide</w>
태 양</w>
kas ih</w>
ballo on</w>
pot ongan</w>
皮 </w>
כד ור
ier t</w>
á n
อาห าร</w>
си ний</w>
anc es</w>
зи м
mi asta</w>
пра во</w>
لىرى نىڭ</w>
k ra
ze it
l te</w>
学 习
ย ู
ไ หม</w>
pl aza</w>
o sp
penil aian</w>
pres sion</w>
th om
sz tu
йо му</w>
vi amich
viamich elin</w>
раз мер</w>
o va</w>
mi jn</w>
ल् क</w>
imper me
invier no</w>
dur ante</w>
ق ول
د ،</w>
est ilo</w>
du t</w>
bot t
com par
web site</w>
צוע י</w>
ol an</w>
уча сть</w>
все го</w>
जब कि</w>
hi d
ac yj
cab o</w>
re view</w>
kon uş
cu sto
pendi dikan</w>
l ol
दि यों</w>
вы м</w>
sam e</w>
mascul ina</w>
m ill
mas zy
म द
pu ede</w>
مە ت
cap ai</w>
bat er
en ds</w>
資訊 </w>
v lo
」 の
ف ر</w>
сдела ть</w>
помога ет</w>
объ единенных</w>
des de</w>
प री
z ol
pow der</w>
갤 럭
t t</w>
ตรว จ
pl u
kho ác</w>
ض ي
re a</w>
タ ー</w>
ut ch</w>
sc at
h acer</w>
офі цій
ag ing</w>
ẩ u</w>
то ді</w>
워 </w>
플 래
압 </w>
ยืด หย
über set
сту ден
mo że</w>
บ น
ป ิด</w>
ल ु
dz o</w>
pr eto</w>
be ige</w>
갤럭 시</w>
सम स्
צ ינ
po se</w>
통 </w>
ли й</w>
se i</w>
스 터</w>
深 圳
เก็ บ</w>
liv ing</w>
ภาย ใน</w>
ติ ด</w>
yo kong</w>
a ils</w>
ho sp
레이 저</w>
것 을</w>
ทั้งหม ด</w>
hub ungi</w>
ap r
chu ẩn</w>
c ant
उप ल
batter ie</w>
רצוע ת</w>
краї ни</w>
ти с</w>
най ти</w>
mo d</w>
ंग ा
で も
ท ิ
vi da</w>
象 </w>
ре сур
あ り
met all
dan n</w>
מש י</w>
telef onu</w>
고 품질의</w>
ó rios</w>
war d</w>
fon c
bar dzo</w>
ng uyên</w>
curta in</w>
bun uh</w>
хо д</w>
материа л</w>
h ar</w>
e aux</w>
वा प
त ्या
se wing</w>
di ện</w>
p y</w>
音 </w>
ض ر
ad v
р д</w>
jal ur</w>
са мы
qui ero</w>
ล ึก</w>
חו ם</w>
ś li</w>
ain ya</w>
у ва
ver i
ста ль</w>
ב ל
предостав ля
име ет</w>
connec tor</w>
th ép</w>
ber dekatan</w>
스커 트</w>
se panjang</w>
חד שות</w>
jo urs</w>
fem mes</w>
inox id
達 </w>
сті й
ए न
re z</w>
ク ト
водонепроница емый</w>
귀 여
พิมพ ์
che ap</w>
d s
infor mac
bl ade</w>
is me</w>
ster eo</w>
ü h
z ah
li ga</w>
go pro</w>
h aut</w>
وم ۇ
presi den</w>
سا عد
เว อร์
sa ğ
istan bul</w>
قي قة</w>
पा कि
الذ ين</w>
dise wa</w>
ह ा</w>
r f
完 全
rent al
מ פר
свя за
ti va</w>
al ne</w>
提 高
теле визо
li ar</w>
ati va</w>
ло н</w>
가 락</w>
रह ने</w>
по ра
हि स्
แขน สั้น</w>
ци ей</w>
car pet</w>
存 在
ặ ng</w>
tung gal</w>
ang in</w>
패 키
आ त्
се бя</w>
плать я</w>
за ги
ag gi
ка ль
industri al</w>
et c</w>
hu ile</w>
開 </w>
m ất</w>
cro ss
平 成</w>
ket ua</w>
produ it</w>
ба чи
r est</w>
शि क्षा</w>
bes cher
د ول
gu t</w>
bu st
تەك ش
三 </w>
שימו ש</w>
ми р
er de</w>
k sz
буду т</w>
חת ונה</w>
ph ù</w>
mac china</w>
され る
ว ่า
sili kon
un der</w>
ра я</w>
orecch ini</w>
кіль ки</w>
укра шения</w>
ın ın</w>
m ili
val ve</w>
par l
د ور
מי ק
ни тель
паль то</w>
c ja</w>
帶 </w>
aj ą</w>
ro ma</w>
패 널</w>
ind ungi</w>
ro da</w>
ئۆ ز
gu est
ี่ ห
ב ש</w>
le ist
hel met</w>
ch ung</w>
ล ล
хо да</w>
जिस में</w>
ב סי
בו דת</w>
pro vi
² </w>
ci al</w>
hu b</w>
ف ع
па к
n âng</w>
pul au</w>
spo t</w>
en z
ร ณ
綿 </w>
ال ان
ber ita</w>
trad u
за хи
liqu id</w>
n on
д ь</w>
入 れ
ag ue</w>
ר אש</w>
deut sch
ข น</w>
rental cars</w>
dr a</w>
w ó
afri ka</w>
च ने</w>
الأ ع
دا بير</w>
ري ب</w>
arg ent
h ana</w>
land s</w>
国 家
專 案
vest e</w>
ー ツ</w>
a e</w>
पह ली</w>
역 </w>
ter ken
sc ri
カ ー</w>
en y</w>
ty m</w>
地 方
ỡ ng</w>
в ського</w>
考 </w>
hi m</w>
э тому</w>
ap lic
одна к</w>
귀여 운</w>
特 別
י ש
เสน่ ห์</w>
टि ंग</w>
пред лага
ur us</w>
st asi
cy j
sel amat</w>
وا ق
ah u</w>
را ق</w>
vi ết</w>
din o
최 신</w>
ac co
wa ar</w>
ke adaan</w>
ch ts</w>
n óng</w>
온 </w>
アク セ
مە س
g le
de ar</w>
bro o
an ni
الأ سا
tut up</w>
ko sten
d ầu</w>
春 </w>
tem ps</w>
d chen</w>
bes o
य ल</w>
ध्य म</w>
介 </w>
tet ap</w>
پارتى يە</w>
पू छ
до ста
к віт
prof es
這 樣
जा ए</w>
st elle</w>
das ar</w>
ва ется</w>
休 闲
gu ang
ка та
ва ний</w>
え る
зазначи в</w>
clean er</w>
ka art</w>
ッ シュ
am ing</w>
j ian</w>
정 품</w>
foc us</w>
ро ско
ड े</w>
خ ار
b ö
đ óng</w>
vel vet</w>
से ट</w>
מס ג
th ử</w>
พ ร้อ
ка м
é lec
สั น</w>
re fer
s per
beb ê</w>
ร หั
ло го
stasi un</w>
mem ek</w>
ò a</w>
現 </w>
vi agem</w>
קרי סט
ро пор
or nam
ป ุ่ม</w>
le her</w>
kaw alan</w>
ve el</w>
dip anggil</w>
д ні
لا زى
й ский</w>
m us</w>
g is
обра зова
س ان
mi k
ไม่ มี
ज य</w>
מי ן</w>
ver mel
bras il</w>
pu zzle</w>
mon ey</w>
coun try</w>
s v
qu ali
meng um
f ul
cul o</w>
sem pre</w>
ー ン
str ut
rak yat</w>
жи тесь</w>
สง่าง าม</w>
ci u
mel ayu</w>
по чи
anc ia</w>
plast ica</w>
पुरु ष</w>
el ing</w>
أي ضاً</w>
至 </w>
к но
butter fly</w>
ti p</w>
mas ı</w>
上 衣</w>
peng em
ซ ู
भ ग
دۆلە ت</w>
inflat able</w>
ניי ר</w>
t ess
па не
le ş
нов і</w>
景 </w>
g ag
en semble</w>
ra in</w>
a co
aw ay</w>
i j</w>
ٌ </w>
го д</w>
лю б
ว ง</w>
sil ber</w>
на ступ
腕 时
kre atif</w>
è res</w>
ic as</w>
१ </w>
ро бі
ग्र ी</w>
ko wy</w>
उपल ब्
n em
समझ </w>
no tre</w>
đ úng</w>
fer ien
ok tober</w>
ф е</w>
i y
reló gio</w>
at rak
chaus sures</w>
am as</w>
бе ль</w>
gön der
ल ब</w>
الق رار</w>
v iti</w>
pag ina</w>
ти те</w>
ส ้น
ب ح</w>
ме ча
wa ć</w>
פ ור</w>
ві в</w>
報 </w>
read y</w>
الأ ول
內 容
ї м</w>
cu i</w>
دە رى
ro ze</w>
ل نا</w>
ئى ن
pi ed
spod nie</w>
モ デ
gil i</w>
الإ قلي
उ सी</w>
из обра
يى تى</w>
ม ม</w>
प क
생 </w>
но вая</w>
ดู </w>
י רוק</w>
น ุ่ม</w>
ни ка
i mento</w>
se x
f ı</w>
ร ู้
bang kok</w>
裝 置
cro wn</w>
科 </w>
стро и
ü z
จร ิง</w>
j ad
hotel es</w>
откры тый</w>
י די</w>
e duc
الأم ين</w>
t 恤
shang hai</w>
ỏ ng</w>
מו </w>
г лу
ร ี
прин ци
anu ger
те ра
đ ông</w>
לבו ש</w>
ut ili
mo usse</w>
свя зи</w>
f all</w>
bir d</w>
sh am
ط لا
불 </w>
ส ถ
d ana</w>
的 “
st ik</w>
in os</w>
تم ع</w>
d n</w>
tec h</w>
ч ных</w>
秋 </w>
้า ย
с хо
в на</w>
เง ิน
ti ge</w>
nh ìn</w>
ur zą
з я
वे श</w>
によ る
n icz
cet ak</w>
मी डिया</w>
คล าส
r ộng</w>
मुख ्य
ho ge</w>
详 细
и гру
да х</w>
嗎 </w>
хо л
शरी र</w>
מג ן</w>
et r
свя житесь</w>
סקס ית</w>
hon or</w>
fr uit</w>
berl aku</w>
gar anti
भाज पा</w>
פ ע
рю кза
bat man</w>
er al</w>
бере з
ח מו
вер </w>
ย ี่ห
go u
त् मक</w>
em os</w>
cor rec
каче ства</w>
คลาส สิ
b ing
vacu um</w>
воло с</w>
슬 리
ति हा
mas yar
ho e</w>
с пла
st ate</w>
dil engkapi</w>
s cot
พลัง งาน</w>
z one</w>
c est</w>
w c</w>
ma ção</w>
cor por
об е
ر جل</w>
ơ m</w>
secur ity</w>
pej abat</w>
كو مى
ط قة</w>
о тель</w>
don ne</w>
وض ع</w>
рам ках</w>
hül le</w>
wit hout</w>
at ac
質 </w>
я зы
ط بي
gior no</w>
di s</w>
送料无 料</w>
повідоми в</w>
방 법
ตุ๊ก ตา</w>
pantal la</w>
學 校
ar o</w>
ё </w>
автома тиче
kr it
고 급</w>
सुर क्षा</w>
ницт во</w>
สติ กเก
크리스 마스</w>
me xico</w>
श्र ी
d us</w>
지 만</w>
厚 </w>
ù y</w>
men ur
аксе с
pulse ira</w>
do t</w>
у строй
국 어</w>
ควบคุ ม
ر د</w>
кре ма</w>
skr in</w>
aan bied
รถ ยนต์</w>
銷 售
ב צבע</w>
st art</w>
ن ۇ
х ви
o io</w>
خت ل
s ag
سى يا
to we</w>
lo w
sor ry</w>
me z</w>
masyar akat</w>
vin yl</w>
ア ー
हो गा।</w>
ber lian</w>
ถ ั
а с
gr an</w>
ко жа</w>
которы х</w>
l ado</w>
ồ ng</w>
素 </w>
pi ano</w>
可能 </w>
cit ro
वा ह</w>
결 혼
gi ản</w>
ื น</w>
ट ै
t us
до кла
ac ara</w>
ما ية</w>
зви чай
aw am</w>
مك ان</w>
त ौर</w>
하 드</w>
ю щая</w>
바 닥
גל קס
регу ли
אביז רי</w>
ए ँ</w>
ها ب</w>
z es</w>
gi bi</w>
kun ing</w>
מנ ות</w>
kon sum
ي ين</w>
з ы</w>
vá y</w>
参 加
вз я
faz er</w>
ประ ก
ท ุก
pr ac
fre e
導 </w>
bu hkan</w>
ट् स</w>
we k</w>
gro s</w>
ใ จ
تۈ زۈ
lin en</w>
k ı</w>
gi bt</w>
ص د</w>
مش روع</w>
це в</w>
大 き
ад міністра
lay anan</w>
现 在
การ จัดส่งสินค้า</w>
во е</w>
แด ด</w>
ru g
ประ ตู</w>
хло п
pi x
цвет а</w>
ป้อง กัน
quart os</w>
горо да</w>
po zn
bol sas</w>
ظ ا
אב ז
aero porto</w>
m ah</w>
a use</w>
publ ic</w>
ना ओं</w>
أ ث
дія ль
दा री</w>
sac o</w>
h is
स वाल</w>
go ud</w>
в да
ocul os</w>
m c</w>
合 作
ئىقتى سا
fi re
bl us
lav oro</w>
ע ליונה</w>
ек спер
до зво
pra ia</w>
แจ ็ค
الث اني</w>
จุ ด</w>
플 랫
hand bag</w>
cz as
set i</w>
th ư</w>
mas chine</w>
ủ y</w>
long gar</w>
fr ont
קריסט ל</w>
plast ique</w>
เข า</w>
l la
经 济
ми на
p aci
о м</w>
ph im</w>
教 學
is u</w>
ท น</w>
רו ן</w>
ạ p</w>
профес си
選 擇
со стоя
ร ว
बि ज
w od
kolczy ki</w>
аксес суа
ह ्
su ara</w>
ת ן</w>
rag az
소 재</w>
kle ber</w>
पी छे</w>
प् ला
зага ль
你 的
ał a</w>
ग ये</w>
bl au</w>
بولۇ پ</w>
مى ي</w>
ج ز
تح قيق</w>
u sed</w>
in j
파 이
ne k</w>
дю й
ul tr
tab let
str and</w>
สน ใจ</w>
تى كى</w>
z ich</w>
ปลอดภั ย</w>
thail and</w>
bran co</w>
ज ल</w>
د ات</w>
ר ט
hum an</w>
ีย บ</w>
ذلك ؟</w>
ньо ї</w>
य ता</w>
oor bellen</w>
d ı</w>
โค น</w>
nam un</w>
ม ่วง</w>
доне ць
до пол
spi ele</w>
quar to</w>
يې ڭى</w>
업 체</w>
) </w>
s r
lij k</w>
ver fü
aju kan</w>
тет у</w>
座 </w>
บู รณ
eng ine</w>
ले ख</w>
ex pl
ف ض
ら </w>
ल कर</w>
कोशि श</w>
し ょ
ill on</w>
micha el</w>
بە ك</w>
lu i</w>
mężczy zna</w>
작 </w>
ต าง
セ ット
시리 즈</w>
ھا زى
چىقى رى
ــ ــ
यो ग
re cor
tu bo</w>
ध र्म</w>
ש מי
r ond</w>
n ut
j uta</w>
з м</w>
kü ç
мо сть</w>
กรร ม
바 이트</w>
я кого</w>
kobi ety</w>
po z
сей час</w>
أف ضل</w>
의 상</w>
ter lalu</w>
y on</w>
ser ing</w>
mar ia</w>
bis nis</w>
муж ские</w>
제 조</w>
samp ai</w>
tru ck</w>
posi zione</w>
的 是
वि त</w>
t ùy</w>
ши ми</w>
дан ных</w>
ho f</w>
at ur
हिन् दी</w>
k au
地 址</w>
ณ ห
ชิ ป</w>
ж ер
目 前
2 </w>
j ą
f ake</w>
ป เตอร์</w>
sur at</w>
crian ça</w>
تت ە</w>
משק פי</w>
coll ana</w>
ला ने</w>
럼 </w>
pl aya</w>
co zin
b ếp</w>
受 </w>
या त्रा</w>
ट ो</w>
t ả</w>
ми ко
lo l</w>
ي ست
سل حة</w>
손 </w>
려 </w>
rain bow</w>
ग ई।</w>
rab bit</w>
loc ation</w>
al am
tr ek
आ यो
全 球
нь ому</w>
it in
ing iliz
ne ar</w>
ชนิ ด</w>
لي ون</w>
ิ ล</w>
يى ل
فت رة</w>
بد أ</w>
у ч
ar at</w>
vibr ator</w>
ker ing</w>
مج ال</w>
透 明
je śli</w>
กล ้อง
міс це</w>
相 关
ลู ก</w>
你 </w>
थ ी
и де
난 </w>
v ic</w>
ь е</w>
gre y</w>
no s
ของ ผู้หญิง</w>
้ ม
pen is</w>
平 </w>
sab er</w>
ธ </w>
प्र दर्शन</w>
брен д</w>
ri ch
อ ม
पि त</w>
s lot</w>
p tion</w>
es o</w>
m ức</w>
pegat inas</w>
หล อด</w>
pol ish</w>
ç e</w>
r ów
श्र े
يە ت
סילי קון</w>
фе де
ع يد</w>
ш ля
ウ ォ
com pon
สิน ค้า
ko pi</w>
كومى تې
qu anto</w>
가 운</w>
v is</w>
อุ ณห
と 思
б ре
الم علومات</w>
on der</w>
u ñas</w>
製 品
เล ี้ย
обо ро
作 者</w>
ב ב</w>
ling erie</w>
उत् तर</w>
ı y
ста ння</w>
p f
ת ית</w>
hang ing</w>
h ö
cho col
condi tion
ност ей</w>
is m</w>
ขั ้น
enf ants</w>
g all
ро зо
ول وج
ט ר</w>
є ди
sig n
camel toe</w>
hi er
採 購
แล็ป ท็อป</w>
neh men</w>
jan u
l ist</w>
нов у</w>
ac ao</w>
الخا ص</w>
สะอา ด</w>
c ke</w>
או ה
ح ب</w>
euro pa</w>
as sist
항 </w>
than ks</w>
telef ono</w>
loc al</w>
an s
ใ ด</w>
mach ines</w>
個 人
p ai
n ú
어 댑
لا ء</w>
ض ية</w>
fl es</w>
ber temu</w>
无 料
g ate</w>
題 </w>
cuis ine</w>
ر ،</w>
चाहि ए।</w>
pi zza</w>
ig n
ไ กล</w>
ถ ือ
tr end</w>
це п
çant ası</w>
स्ट ी
ня ми</w>
브 라
то н</w>
ne o
ノ ー
ل ،</w>
ปั ๊
อุณห ภูมิ
الوط نية</w>
nom e</w>
แ ป
ро ль</w>
sepat u</w>
mer a</w>
spr zed
com mand
pi ę
шо ї</w>
н ні</w>
tr ai</w>
hab e</w>
需 求
h ộ</w>
d òng</w>
ч ів</w>
ف إن</w>
ס ים</w>
tind akan</w>
ئۈ چۈ
kle in</w>
א לו
эф фектив
스 카
paz nok
зали ши
gör ün
一覧 </w>
tü m</w>
بش كل</w>
per s
ه د</w>
ци фро
ل ې
k atil</w>
for e</w>
сі м</w>
ря д</w>
com ment</w>
ھۆ كۈ
आद मी</w>
ti er</w>
kap as
مج مو
リ ング
re co
мы с
b by</w>
ب خ
毛 </w>
т них</w>
ケ ット
adap an</w>
akh ir
م ها</w>
доро г</w>
الب ح
kaj ian</w>
ad ult</w>
ท ่อ</w>
di cion
प्र योग</w>
so g
col i</w>
at tr
in to</w>
段 </w>
पू रे</w>
anti k</w>
so sial</w>
เคล ือ
ti fic
t api</w>
พลัง งาน
د ه</w>
int ah</w>
pl ant</w>
บรร จุ</w>
述 </w>
н ения</w>
بول غان</w>
c é
де мо
ر ين</w>
s ent</w>
고 무</w>
قىل دى</w>
อาทิต ย์</w>
باش قۇرۇ
го стей</w>
dro p
h ết</w>
akses ori</w>
on en</w>
bec ause</w>
ic io</w>
ダ ウン
เร ือ</w>
في ه</w>
rep air</w>
ver t</w>
אי שה</w>
تك ۈ
לו וי
สั ญญา
жі нок</w>
ี่ย ว
zapat illas</w>
않 습니다</w>
เ ฟ
दि ल</w>
s avoir</w>
ro ss</w>
原 因
卡 </w>
א פו
v ec
क ट</w>
bel gi
sp ace</w>
珠 </w>
ड ्
位 置
schlü s
matri mon
gan te</w>
בי ב</w>
ниц а</w>
p am
buil ding</w>
і га
g s
fr on
ث لا
ges chen
ma qui
ขึ ้น
ซี ดี</w>
راي ون
資 料
од ним</w>
ac ak</w>
memak ai</w>
당 </w>
ات فا
brus hes</w>
تق رير</w>
фран цу
зо крема</w>
ظ ي
ô m</w>
ча с
ы х</w>
acti ve</w>
關 於
qu ad</w>
ch el
כו ס</w>
сер ь
auto bronz
우 리</w>
rezer w
mount ain</w>
lu ch
ệ nh</w>
ger many</w>
coco k</w>
pu is</w>
lap isan</w>
或 者
s int
га ран
価 格</w>
取 </w>
م ص
หล วม</w>
до ла
मि यों</w>
det ails</w>
ван ная</w>
cour t</w>
ถ้ว ย</w>
lan e</w>
นิ ก
dal e</w>
e bi
но вого</w>
квар ти
bil ek
indivi du
go t</w>
ج ن
פ ל</w>
f ico</w>
ci as</w>
ז מן</w>
y on
ра зом</w>
価 格
je u</w>
音 楽
mu zi
م ال</w>
ха й
po sta</w>
dü ğ
設計 </w>
muk aan</w>
พ อ
الس ل
מ סי
тра ди
о ле
vic tor
av ali
レディ ース</w>
the ir</w>
hi z
qu ản</w>
عد د</w>
pi at
ر ه</w>
h ör
w ür
o bu
ó s</w>
meng and
ба л
वा लों</w>
ter tentu</w>
вере с
per mukaan</w>
fol ding</w>
ess enti
แต ะ</w>
empres a</w>
ê t</w>
signi fic
dal aman</w>
f á
ver sion</w>
ле га
ф а</w>
un k</w>
pemand angan</w>
чи м</w>
bian co</w>
l ời</w>
ج داً</w>
ycz ny</w>
ac qua</w>
حس ب</w>
war en</w>
따뜻 한</w>
특 별
集 团
lon gue</w>
フ ラ
apartam ento</w>
l í
بە لگى
re in
dav id</w>
буду ть</w>
ل ذا</w>
อะ แด
kom bin
न गर</w>
особ ен
x box</w>
リ </w>
얇 은</w>
す べ
hal f</w>
र् स</w>
र् य</w>
tat u
bu urt</w>
sel es
журна лі
想 </w>
чу в
ท าน</w>
управ ления</w>
f era</w>
แต ก
in dic
מג ע</w>
и м
hav a</w>
ि </w>
दू </w>
train ing</w>
ke bang
i va</w>
l ant
الس لام</w>
l ai</w>
ตก แต่ง
gener al</w>
回 </w>
و الد
lati han</w>
ق رار</w>
ע ט</w>
c pu</w>
หลอด ไฟ</w>
א ספ
meng ur
공 기</w>
x ếp</w>
produ kt
t ử</w>
リ カ
b ent</w>
th in</w>
pener bangan</w>
يا ر</w>
fi ets</w>
perfor man
sp ot
트 리
सम र्थ
до сти
qu il
for me</w>
o tr
диспле й</w>
akti f</w>
let ters</w>
運 動
ek e</w>
供 應
pr on
ई डी</w>
अमेरि का</w>
קצ רים</w>
т не
ทำ ความ
i bis</w>
अला वा</w>
ri g
สัตว ์
pi el</w>
мест е</w>
tor i</w>
แจ ๊ก
ス の
мо ви
لي ل</w>
であ る</w>
под роб
ئۈچۈ ن</w>
ан д
pen carian</w>
בי י
مە سى
פנ י</w>
戦 </w>
kh ả</w>
лег ко</w>
マ ン
ш ла</w>
מדבק ות</w>
met ros</w>
ван та
s ana</w>
phi ên</w>
쉽 게</w>
ро ж
دەرى جى
schmu ck</w>
pap aran</w>
амери кан
t wo
ki er
szy b
कि ल</w>
ю щен
автомоби льных</w>
स् ते</w>
о пи
j est
a ar
场 </w>
服务 </w>
กระจ ก</w>
熱 </w>
这 个
ти ж
n ab
المر أة</w>
컴 퓨
칩 </w>
ור ית</w>
sung ai</w>
צ רי
tro v
regi str
วั ด</w>
ס רו
mu y</w>
商 </w>
릿 </w>
व ों</w>
돌 </w>
be kas</w>
ги и</w>
st ic</w>
cht ung</w>
ber ken
方 式</w>
nhi êu</w>
ш ту
אל קט
men ent
像 </w>
או ת
닝 </w>
ph ương</w>
高 速
ста ту
『 </w>
cali for
واح د</w>
ed ah</w>
ch ạy</w>
جرا ءات</w>
ล ่า
то ры</w>
c er</w>
का नू
ag ak</w>
ut nya</w>
ئاپت ون
в ле
men ino</w>
c aj
因 為
par king</w>
c ó
م ه</w>
mar ine</w>
ва ют</w>
ีย ง
p r</w>
do ble</w>
s ạc</w>
s now</w>
id ade</w>
上 衣
ан ти
ç iç
mamp u</w>
อิ เล็ก
t ki</w>
जरू रत</w>
क ी।</w>
称 </w>
قا ء</w>
her o</w>
ز ار
女性 の
लग े</w>
र् थ</w>
หูฟ ัง</w>
hidu pan</w>
ür ün</w>
sh ape</w>
terken al</w>
e ing
ตาร าง</w>
as z
ナ ー
บริ การ</w>
gro ot</w>
해 야
ज ल्
sta at</w>
kal an</w>
gem a
t ây</w>
l ót</w>
還 是
dig an</w>
테이 블</w>
शा सन</w>
mo g
de al</w>
vi aggio</w>
fl as
tem an</w>
n ền</w>
دو لار</w>
について </w>
опреде лять</w>
댄 스</w>
พ ับ</w>
находи тся</w>
f acial</w>
企業 </w>
dol ls</w>
एल ईडी</w>
家 用</w>
sk ó
pro vin
sz uk
ụ p</w>
gen to</w>
场 合
ย าว
лен ы</w>
at ın</w>
че ская</w>
于 </w>
us ers</w>
v ê
світ ло
press o</w>
白 色
го ю</w>
o ber
se der
ве й
ट ों</w>
ch ương</w>
transl ation</w>
вы ши
燈 </w>
произ вод
вы пол
क ह</w>
bambo o</w>
发 </w>
є к
ब ह
شا ء</w>
во сті</w>
ov al</w>
ري قة</w>
מכ ונה</w>
要 </w>
char ging</w>
संख ्या</w>
ئ ومۇ
кре ди
бри та
ש טו
nec ess
때 </w>
ان ،</w>
cro chet</w>
لا ت
รับ ประ
хран ения</w>
proj ek</w>
kebany akan</w>
वि भिन्न</w>
ді а
кри ста
ن جا
blo k</w>
חו ט</w>
ö ff
pro blem</w>
دا ء</w>
m ạng</w>
cz er
iz en</w>
장 치</w>
ע לה</w>
प ना</w>
प त्र
उम् मी
r ange</w>
le er</w>
宝 宝
per kat
צ </w>
จั บ</w>
cas amento</w>
t ủ</w>
kiral ama</w>
c el</w>
t war
en contre</w>
学 生</w>
ที่ กำหนด
ре зо
ं त्र
แบ น</w>
gro ß
ن ق
стви и</w>
ट री</w>
мі н
لل ت
кон ф
su its</w>
記 </w>
ма г
diam ant</w>
в станов
cu er
สไตล ์
ву ли
gun ung</w>
س يا
kar an</w>
د د</w>
杯 </w>
кла сси
en ig
시 간
ยืดหย ุ่น</w>
tr ag
u cu
ח זי
al god
する こと
تحد ث</w>
قا ي
amer ica</w>
ال قا
ก ็
jump suit</w>
تع رف</w>
वा दी</w>
ي بدو</w>
で の
و ع</w>
政 治
ن ص
け </w>
牌 </w>
lo gi
स्कू ल</w>
o kul
建 筑
ミ ニ
قان داق</w>
לח ת</w>
am ig
ro oms</w>
cer min</w>
bol as</w>
พ ั
а ген
更 多
і м
lu ce</w>
나 는</w>
ला इन</w>
цер к
tis su</w>
sno w
แพคเก จ</w>
आप की</w>
õ </w>
angg ap</w>
ประเภ ท</w>
it ar
fin anci
color s</w>
dra ul
분 의</w>
b ts</w>
te il</w>
perkat aan</w>
न व
दे ता</w>
при нима
sh ap
cy ch</w>
ה חדשה</w>
อย ู่</w>
צ ת</w>
pem u
תו ך</w>
гі дно</w>
व्य व
ฝ า
те пер</w>
y ah
mä dchen</w>
ger akan</w>
れ る
мо ви</w>
пер ший</w>
któ re</w>
บัน ท
國 </w>
o ści</w>
하나 의</w>
प्र या
צ הו
за сі
ї х
com bo</w>
조 끼</w>
ת צו
ши н
emp lo
غ ير
fü hr
الخا صة</w>
간 단
po m</w>
مە ر
s ır
ứ a</w>
col lier</w>
di fer
क न</w>
st ati
cam bio</w>
com pri
過 </w>
ล ็อ
ung kan</w>
спі ль
बल् कि</w>
чен о</w>
ئى ي</w>
पो र्ट</w>
си н
л л</w>
कंप नी</w>
с р</w>
сько ю</w>
đ áng</w>
bal l
h ora</w>
мо гу</w>
ke dai</w>
工 業
旅 遊
bor d
si cher
cá o</w>
an ne</w>
शु ल्क</w>
k w
שח ורה</w>
struk tur</w>
má t</w>
di um</w>
الم س
ที่ จะ</w>
bel ajar</w>
integ r
mer o</w>
पुरु षों</w>
ف ع</w>
施 </w>
רי ות</w>
нуж но</w>
qu ick</w>
צינ ור</w>
sk le
зи ма</w>
ь ю
nom bor</w>
要求 </w>
标 准
สี น้ำ
скла д
生 物
ма я</w>
küç ük</w>
aw aj</w>
रह ते</w>
а п
kap ı</w>
gro s
sa id</w>
n aw
im age</w>
znaj du
cigar ette</w>
קרי קט
ทร อ
жа ть</w>
al nya</w>
уні ан</w>
bl ing</w>
作 品
सद स्
э нер
ศ ูน
シ ン
يا ء</w>
pro v
an illo</w>
kel ijk</w>
ส ต์</w>
chaus sure</w>
kal ung</w>
ju ego</w>
헤 드</w>
mess enger</w>
kart un</w>
ของขวั ญ
гі р
म ॉ
गु रु
ز وج
आ धार</w>
im e</w>
на ф
สั ่ง
ट ने</w>
يە ن
fav or
жиз ни</w>
ข วด</w>
e cht</w>
ك ت
dom pet</w>
все гда</w>
il ah</w>
带 </w>
活 動</w>
ยี่ห ้อ</w>
條 </w>
ne ue</w>
su it
شك ە</w>
st wa</w>
f eder
ב א
ك ە</w>
mes i</w>
श र
мыш лен
安 </w>
samp le</w>
ж ные</w>
वि भाग</w>
киє ві</w>
ف ين</w>
डि यो</w>
الم عن
अ म
po ch
d áng</w>
случа е</w>
menu lis</w>
gun a</w>
ет а</w>
gü ne
u de</w>
ए ल</w>
ก ๊
fr am
kılı fı</w>
भ ग</w>
글 </w>
inform atie</w>
व रण</w>
網 絡
ب ري
ham pir</w>
av en
可 爱
ban ho</w>
bal ik</w>
आ वा
수영 복</w>
ذا ؟</w>
utam anya</w>
en se</w>
a ń
zi j
प रे
br y
за ступ
v ời</w>
í m</w>
क् सी</w>
v ang
לה יות</w>
ke ine</w>
قار ا
le i</w>
di cht</w>
un iti</w>
็ น</w>
न ै
b ach</w>
रि या</w>
спе ціаль
in iz
方 式
всі х</w>
ยุโร ป</w>
mak a</w>
gl as
ba um
หม วก
أ د
мі лі
วิ ดี
ت ۈر
れ ば
ad dress</w>
re is
ch ez</w>
professi on
kad ang</w>
用 品</w>
آ س
por ta
b ánh</w>
תי קי</w>
kle id
лі за
па ри
ho od</w>
su z</w>
คลาสสิ ก</w>
培 訓
สว ย
ac cor
l á
ко ва</w>
الو لا
택 </w>
الم وا
да лі</w>
时间 </w>
ка са
спо н
me u
톤 </w>
ك رة</w>
신 부</w>
देश ों</w>
in iz</w>
ไ อ
צ עיף</w>
gebru i
сло ва</w>
देख ने</w>
кон су
og ni</w>
angk uk</w>
อิเล็ก ทรอ
अधि का
g afas</w>
חו ף</w>
ز ە
أ علم</w>
meng ajukan</w>
im pri
แบบพกพ า</w>
กระเป๋าส ตาง
ча со
техно логи
ass er</w>
ti mo</w>
кан ди
s łu
c ứng</w>
не ць</w>
да ле
wh y</w>
الف ريق</w>
ach ter
ニ ー
लग भग</w>
н ер</w>
ami ento</w>
кан ь</w>
z aw
pe z</w>
w ine</w>
st aw
er d
נ ר
superi or</w>
pne um
гра ни
سي كون</w>
이 름</w>
му ю</w>
pen si
선택 </w>
ארו כה</w>
レ ビ
plast i
ษ า
ow ane</w>
mo ther</w>
數 據
इस की</w>
ล ด
don c</w>
ハ イ
t c</w>
韩 国
обо и</w>
सा ह
роско ш
qu el
wil li
for ce</w>
м ки</w>
ت جا
don t</w>
про фе
节 </w>
gar a</w>
vak anti
บุ ค
di bu
อ ลูมิเนียม</w>
mon d</w>
तुम् हा
इस्त े
员 </w>
ंग ी</w>
kurt ka</w>
нагада ємо</w>
ถ ้า
لىقى نى</w>
в ської</w>
europ car</w>
r ama</w>
a ş</w>
ch ụp</w>
الما ئة</w>
clas si
ab a</w>
म ही
ब ह</w>
fe bru
em ente</w>
用 品
col ores</w>
порта тив
注 意
f un</w>
rhinest ones</w>
dziewczy n
ئا ش
ба с
客 户
ring e</w>
ช น
di ret
car ds</w>
إد ارة</w>
swe et</w>
d ân</w>
bo a</w>
чи н
ス カ
די גיט
반 지</w>
หม ึก</w>
з бір
pr y
miej s
зна ть</w>
l úc</w>
ше е</w>
дж е
techn olo
dur ch
flam ingo</w>
מיו חד</w>
อิเล็กทรอ นิก
beg itu</w>
ק ל</w>
pi ezas</w>
हिं दी</w>
pu erto</w>
ราคา ถูก</w>
ad just
벳 </w>
ת ח</w>
و ز</w>
د ها</w>
б лю
autom atik</w>
ch ave</w>
프로 그
โปร ด
สุ นั
ונ ת</w>
클 </w>
dino sa
в клю
노 </w>
间 </w>
il los</w>
am at
ti kan</w>
코 드</w>
nh ớ</w>
per hiasan</w>
mus un</w>
pap an</w>
nat ale</w>
इस्ते माल</w>
di k
kat o
he it</w>
ซ ุ
zil ver</w>
modu le</w>
제 조
פרו וה</w>
ін ші</w>
ig er</w>
disem ber</w>
b n
um es</w>
데 </w>
でき る
वज ह</w>
مك اف
tr ain</w>
pr akti
स मु
mi ş</w>
ك ات</w>
ре є
ст е</w>
персо на
gam bar
би зне
ro pe</w>
विश् व
об слу
роз та
co le</w>
ラ ー</w>
transpar ente</w>
ho mens</w>
мі ї</w>
ok ay</w>
ker jas
ש כ
ネ ット
ju kan</w>
информа ция</w>
ە ن</w>
nasi onal</w>
に関 する
seder hana</w>
enví o</w>
ві сть</w>
に も
bu ch
แฟ ล
дво х</w>
जि न्
bo m</w>
e ver</w>
bamb ino</w>
را ق
一 次
rus ia</w>
p autan</w>
gu es</w>
мініст р</w>
นิ ย
сь ку</w>
un juk</w>
b ę
צי ה</w>
đ ộc</w>
बा जार</w>
pun k</w>
у з
ज ों</w>
sho pping</w>
ख ्
קריקט ורה</w>
полу чи
minut os</w>
minut i</w>
ئى ج
in vit
past i</w>
ö l</w>
버 스</w>
正 </w>
he iro</w>
de x</w>
ко не
as se</w>
กุ ญ
th rou
क्ष ित</w>
r p</w>
co up</w>
to k
di ce</w>
est ados</w>
at é</w>
様 </w>
มน ุ
un ya</w>
k ą
งาน แต่งงาน</w>
су ду</w>
开 始
на де
peri ode</w>
щи е</w>
sem i</w>
portu gal</w>
科 学
प् प
ğ ü</w>
ti em
má i</w>
ג ול
стра те
abil ir
دى ي</w>
body con</w>
マ イ
환 경</w>
กำ ล
ले ं</w>
tim es</w>
в ли
패 턴</w>
קור י
통 해</w>
ंद ्र
color ful</w>
g ói</w>
i ère</w>
ด ้าน</w>
sol id</w>
れ た
t ức</w>
t ắt</w>
טו בה</w>
o o</w>
ت ه
di pilih</w>
pa ar</w>
не с
кру г
בק בו
ส าร</w>
co ut
id enti
ti ger</w>
moder ne</w>
mit su
к ві
b ước</w>
po wi
الم ف
malay sia</w>
rac ing</w>
ร วม</w>
จั ด</w>
vill age</w>
t anda</w>
su ất</w>
ク </w>
d aya</w>
про мышлен
jo go</w>
報 告</w>
वा स्त
ر فة</w>
wszyst kie</w>
ter bang</w>
т ті</w>
do gs</w>
за кін
pin s</w>
ス ペ
لا ش</w>
рі б
بل غ</w>
но мер</w>
แฟชั่น ใหม่</w>
тися ч</w>
폴 리</w>
f ach</w>
ถุง เท้า</w>
ic k
so m</w>
त्र ा
to pi</w>
jedno cz
מסג רת</w>
ad ministr
к ну
gr ill</w>
ก รั
エ ン
ку вання</w>
plac es</w>
पि ता</w>
ло н
diper lukan</w>
quart z</w>
qu er
โต ๊
配 件</w>
変 更
วิ ธ
เป อร์</w>
роз гля
खा ने</w>
al c
ث م</w>
שי ר</w>
ע ים</w>
פו ס</w>
h á</w>
sch ap</w>
b ỏ</w>
kl ar</w>
l t</w>
मू ल</w>
用 户
in kan</w>
לי ל
wis ata</w>
وا ج
ку паль
а парта
خ دام</w>
j im
ระบ าย
ר ק</w>
aci er</w>
cav o</w>
p g</w>
extr em
חו ק</w>
城 </w>
о то
pol is</w>
fi kir</w>
श ं
t al</w>
さ せ
दूस री</w>
по тому</w>
てい る
产 业
य र
th ree</w>
li es</w>
ท น
ئەمە لى
госпо дар
ฟุ ต
אלקט רו
ви ки</w>
oso by</w>
tek s</w>
צ ב</w>
y sty
z al</w>
ты е</w>
i hr
і сну
akhir nya</w>
e ast</w>
क ल
दि र</w>
gar is</w>
מח זי
у ро
pp en</w>
dap ati</w>
poly ester</w>
מינ יום</w>
ח ים</w>
h z</w>
s la
스트 랩</w>
wi j</w>
to day</w>
니 스</w>
실 크</w>
有 效
про те</w>
ที่ เป็น
ホ ワイ
hom bres</w>
ز م</w>
kerjas ama</w>
в чен
ting gal</w>
h ơi</w>
바 디</w>
जा ये
peny im
ar ts</w>
גד ולה</w>
味 </w>
те бе</w>
מזדמנ ים</w>
ole hkan</w>
比 較
諮 詢
风 </w>
這 些
ト ップ
ख ों</w>
mel et
็ บ
hor se</w>
操 作
黑 色
мл рд</w>
co per
によ って
สั ง
ke hidupan</w>
ш ение</w>
о лі
m ün
สะ พ
му зи
ล าย
ни ці</w>
g aan</w>
bud d
ко н</w>
و ي</w>
си ль
ผู ้</w>
ma u</w>
हो गी</w>
раз і</w>
dr one</w>
ко ре
ва л</w>
ві й</w>
st ek
กร อบ</w>
lux o</w>
ти в</w>
적 합
по тім</w>
إ طار</w>
nor mal</w>
膜 </w>
at mos
tet amu</w>
ng ủ</w>
plá stico</w>
미 국</w>
ни ем</w>
น ไ
ع دة</w>
val ut
ला ई</w>
mi di</w>
ri êng</w>
p on</w>
מת נת</w>
클 립</w>
रख ा</w>
ві к
ram e</w>
techn ology</w>
đ àn</w>
fle x</w>
про дол
ل لى
الر جل</w>
אופנ י</w>
인 형</w>
י ל</w>
kor on
s ni
pak et</w>
الف ت
d ön
x o
ע רב</w>
ח ק</w>
ق ېتى
as soci
здій с
inter ess
пес ни</w>
ці ка
חג ורת</w>
תחת ונה</w>
bot as</w>
yor um
loc aliz
ter utamanya</w>
gi ấy</w>
नि श्
sho uld</w>
мно ги
br et
в за
朋 友
в ні</w>
l ư
어댑 터</w>
ь те</w>
以 上</w>
สติกเก อร์</w>
pl aca</w>
op in
dư ỡng</w>
о ру
出 口
lam pada</w>
충 전기</w>
र म</w>
ئىك كى</w>
j ag
z ab
nh ạc</w>
bo hem
ً ؟</w>
ئىلگى رى</w>
ع ت</w>
на ших</w>
नि का
av ant</w>
الم ق
di tem
hal ten</w>
qu et</w>
ver en</w>
esu aikan</w>
di y
neces ito</w>
ट् टी</w>
pr inter</w>
ne on</w>
fre qu
т ная</w>
hoo die</w>
po p
scre w</w>
مې نىڭ</w>
ör ü</w>
x r</w>
近 </w>
bé bé</w>
r aj
d kan</w>
ch ur
arg ent</w>
ngu ồn</w>
तं त्र</w>
у г
ów ki</w>
重 </w>
щ ей</w>
prof il</w>
デ ータ
เครื่องประด ับ
cam ara</w>
新 的
saf ety</w>
ras mi</w>
cor te</w>
w u</w>
alter nati
fornit ore</w>
ar ing</w>
חו ת
э та</w>
di ad
ス マ
้อ น</w>
สำคั ญ</w>
ग ़
ไ ว
צ ים</w>
sh are</w>
re don
lo ver</w>
br el
acess órios</w>
편 안
vest iti</w>
ar gento</w>
免 費
men yokong</w>
k adi
א מ
की मत</w>
tul en</w>
ji ang</w>
ت ُ</w>
важ но</w>
韩 版
テ ン
управ ління</w>
т кань</w>
ل لا
स् लि
س ۈ
pas ar</w>
p si</w>
ت َ
y n
xu ống</w>
ż a</w>
og os</w>
เครื่อง แต่งกาย</w>
awi aj</w>
d au
l v
cham bre</w>
pen duduk</w>
aj aran</w>
一 直
матері а
कृ त</w>
ви бор
עי בוי</w>
न ्यू
ps ze</w>
кото ро
po int
k ru
フ レ
ב ט
ci on</w>
тре ба</w>
car r
akti vit
גבי ש</w>
l âu</w>
el and</w>
maqui agem</w>
glu e</w>
str y</w>
а рен
च ला</w>
cl ass</w>
ar ah</w>
م ما</w>
ill s</w>
ci ones</w>
ध ्
तर फ</w>
с п
( </w>
ला ख</w>
комна та</w>
s ay</w>
bro s</w>
z eu
rec ensi
ता ल</w>
od asi</w>
differ ent</w>
хло пок</w>
бата ре
se dia</w>
lig ne</w>
waj ah</w>
质 </w>
per is
j unt
те бя</w>
ti vit
siy on</w>
dou che</w>
わ せ
gi ống</w>
в нима
مۇھى م</w>
ب ق
वर् ग</w>
produc ten</w>
e ach</w>
per tem
ne ed
up s</w>
buck le</w>
dis co</w>
價 格
ت ا</w>
piè ces</w>
bul b</w>
u d
st ati</w>
sep ak</w>
sch w
posit ion</w>
美 容
bili yor</w>
ھ ې
gratu ito</w>
во му</w>
was hing
dies er</w>
рі ч
dr uk
אנ א</w>
lamp a</w>
edi tor</w>
ท ด
प्र त्य
в ський</w>
tem plate</w>
dies el</w>
w heels</w>
มั ล
pro tet
ศ ิล
sat z</w>
о чи
n an
t ester</w>
师 </w>
хо м</w>
equip ment</w>
专 业
止 </w>
sko da</w>
ther mo
he b</w>
hand made</w>
แข็ ง
person n
우리 가</w>
ڭى ز
тер а</w>
s h</w>
gen i
prze wo
เด ร
ה ר</w>
x uyên</w>
l ỗi</w>
zd ję
cen y</w>
e de
製 </w>
แจ๊ก เก็ต</w>
ئە ڭ</w>
сере д
t ỷ</w>
ó m</w>
ộ n</w>
शै ली</w>
ؤ ول
ئى ل
l ưng</w>
li sta</w>
我 </w>
kand ungan</w>
3 </w>
респу бли
о писа
гу р
on c
crian ças</w>
beso in</w>
be fore</w>
شر ين</w>
em bal
ध र</w>
ไม่ มี</w>
termin al</w>
trans fer</w>
o se</w>
голо си
th ấp</w>
मुख्य मंत्री</w>
क्ष ि
am ster
blu za</w>
الخ د
mar vel</w>
ut c</w>
었 습니다</w>
त क
لي لة</w>
ı yor</w>
אוטו מטי</w>
q i
風 </w>
дет а
ve il
im it
บ า
פל ט
rom per</w>
k nit
соответ ству
ва ні</w>
на со
जा ंच</w>
su dad
she et</w>
кли ен
mod è
meny im
bied t</w>
ли т
l ą
z ki</w>
уча ст
hai wan</w>
สร ้าง
за па
ligh t
b l</w>
รหั ส</w>
ו ו
станови ть</w>
świ at
mat ure</w>
fri ends</w>
비 디오</w>
та й
sy m
ch ic</w>
มา ถึง</w>
um awiaj</w>
提 出
h é
ї ха
c all</w>
her rami
коли ш
ด้าน บน</w>
st ay</w>
ча я</w>
ทั ่ว
नि यों</w>
של נו</w>
بى زنىڭ</w>
sad ece</w>
citro en</w>
rand ki</w>
plat z</w>
ne xt</w>
new s</w>
절 </w>
な い</w>
re publik</w>
clo sure</w>
bi ển</w>
genu ine</w>
nav idad</w>
ць кий</w>
ucu z</w>
до слід
ประเท ศ</w>
по ну
j ung
ח שמ
س را
cor ri
fol ie</w>
न र</w>
i f
ल क</w>
fest iv
ber warna</w>
し ま
तर ी
washing ton</w>
sier aden</w>
ประเท ศ
re m</w>
m ica</w>
st ab
о ці
pau l</w>
ever y
за лі
怎 么
met all</w>
fing er</w>
स् </w>
tab el</w>
ค ู่
cu be</w>
ver lich
を 行
फ ु
a ño</w>
поча тку</w>
кіль кість</w>
mag li
تې خ
deutsch land</w>
adapt ador</w>
知 識
ธ ุ
हो कर</w>
קס ם</w>
листо па
игра ть</w>
d ır</w>
вин таж</w>
ह री</w>
अ ति
ل دي</w>
atu j</w>
피 스</w>
ंब र</w>
role x</w>
สร ้าง</w>
at om
ro wer
ที่ดี ที่สุด</w>
dan i
집 </w>
pint ar</w>
è m</w>
कवि ता</w>
سا ق
เซ ร
pozn awaj</w>
ماد دا</w>
mol et
ki ej</w>
car digan</w>
แอล ซีดี</w>
сво ї</w>
ле м</w>
ทำ งาน</w>
kesel ur
фі ка
s ai</w>
be ij
ما م</w>
ros so</w>
gebru ik</w>
sho ck</w>
ch atuj</w>
คลิ ป</w>
vi er</w>
es crit
२ </w>
ما ذا؟</w>
tu juan</w>
แว่น ตา</w>
perband ingan</w>
н є</w>
t é</w>
di ck</w>
рова ние</w>
д ный</w>
mo ment</w>
חי ים</w>
ट्र े
sy en</w>
sit o</w>
канди да
ger i</w>
מ רו
та кі</w>
ber kem
pr i</w>
je ep</w>
บ ลู
ed as</w>
é ta
ปล า</w>
n au
ا ي
maj lis</w>
프 린
ين ،</w>
가지 고</w>
स चि
स्त ीन</w>
ди ти
вы ре
air s</w>
व हाँ</w>
türki ye</w>
تەش كى
ان ك</w>
soci al</w>
manu fac
ц о</w>
ма ти</w>
되 는</w>
he at</w>
голо ви</w>
sing ap
bel la</w>
מ בר
jul ai</w>
ol tre</w>
フ </w>
si an</w>
基 礎
ber ik
ल ीन</w>
kontro l</w>
direc t</w>
y uan</w>
компа нії</w>
ar my</w>
jack ets</w>
ष्टि </w>
а э
per ro</w>
po k
ligh ter</w>
pl o</w>
ポ イン
pir ang</w>
r av
priv ate</w>
अध्य क्ष</w>
вла ди</w>
包 装
ّ َ
ти ка</w>
коли че
kan ada</w>
สม บูรณ
ing er</w>
म गर</w>
họ a</w>
kap ak</w>
一 步
ח ג</w>
ย าง
g b
com for
ag er</w>
jat uh</w>
ध ू
califor nia</w>
최 대</w>
מלא כו
ці єї</w>
유 럽</w>
est im
ล ้อ</w>
리 를</w>
मा ना</w>
х ся</w>
してい る
เวล า
ist an</w>
交 易
छ ु
ك َ</w>
pub bl
b ap
у сили
matah ari</w>
com men
น้ำ หนัก</w>
का म
vel o</w>
rezer wuj</w>
מת נה</w>
зна ю</w>
칼 라</w>
סו פר</w>
професси ональ
ड़ ों</w>
telef on
cas as</w>
an ello</w>
प्र दान</w>
ブ ロ
pi et
inst ant
nat u
май же</w>
за да
в зу
ut iliz
› </w>
у каза
com pet
지 를</w>
אי ד</w>
ah ş
e is
qualit é</w>
i den</w>
جۇڭگ و</w>
ten aga</w>
мо ю</w>
то п</w>
informa zioni</w>
能 力</w>
產 業
con fir
кон ститу
ラ チ
af fi
га м</w>
i x
ال دي
con cer
กระเป๋า ถือ</w>
ма кси
per at
т ня</w>
키 트</w>
fas il
d j</w>
ми ро
קטי פה</w>
in ho</w>
새 </w>
показа ть</w>
po kro
kh á</w>
מק ל
ki ến</w>
menginst al</w>
host el
um i
buk ti</w>
農 業
يۇ قى
mer maid</w>
av ail
so ap</w>
rf id</w>
學 </w>
ге о
מאו ד</w>
al is</w>
ע ד</w>
men ampilkan</w>
ט ת</w>
раз де
dis k</w>
blaz er</w>
शब् द</w>
со циаль
ti ps</w>
протя гом</w>
pi g
إ ل
tem ents</w>
cint ura</w>
करी ब</w>
ко му
通 过
คาร์ บ
ф ра
in den</w>
g az
建 立
밴 드</w>
ar as
ti ma</w>
ballo ons</w>
黒 </w>
я с
ste ering</w>
car ri
o graf
najle psze</w>
มาตร ฐาน</w>
प्र मुख</w>
man ic
ל ת
з гідно</w>
l ah
си л</w>
ту ре
го род
아 크
sesu atu</w>
эле ган
매 트</w>
ditam bah</w>
manag ement</w>
vol vo</w>
com put
代 理
ล ัก
घट ना</w>
बढ़ ा
ai mer
बिज ली</w>
se ç
ph ía</w>
ch and
га зо
治 療
g ina</w>
iz z
tas ar
व ैसे</w>
ح ص
т в</w>
and eren</w>
ем ые</w>
c ắt</w>
ม อ
ח שמל
fun ny</w>
edel stahl</w>
ั ย</w>
百 搭
ט ר
u y</w>
ger eja</w>
кур тка</w>
mi st
к то</w>
у н
الإن ما
sch e
メ ー
هد ف</w>
자 기</w>
ниц я</w>
pe ł
fo il</w>
兒 童
充 电
pi pe</w>
दे ना</w>
menj adi
con t
ch ứng</w>
bis hi</w>
อ ่อน</w>
ن دو
ا ب
ス チ
ча сто</w>
ق ل
ה לי
un idos</w>
chaqu eta</w>
сі ч
查 </w>
pap ier
män ner</w>
oc eny</w>
पाकि स्तान</w>
ku l</w>
打 底
סק סי
paj amas</w>
لە پ</w>
वाप स</w>
for mat
ए क
تحا د</w>
m ama</w>
ती स
ד או</w>
ху до
ра да</w>
वि क</w>
h òa</w>
l oro</w>
व हीं</w>
се ло</w>
त्व पूर्ण</w>
e do</w>
f und</w>
シ リー
z ach
g ato</w>
निय म</w>
д ження</w>
ئە ت</w>
se z</w>
mù a</w>
उ द्
tyl ko</w>
ell eri</w>
ва ють</w>
เน ื้อ
col ore</w>
ıl ık</w>
міні стер
जि क</w>
מת אם</w>
в чи
ва лю
注 </w>
ห ิน</w>
يمكن ك</w>
повседнев ное</w>
נ מו
סנ ד
y et</w>
э тих</w>
dis pos
organ za</w>
st ill</w>
in e
кон вен
а ка
b ật</w>
मे ंट</w>
cozin ha</w>
y g</w>
fi bra</w>
कहा नी</w>
h atan</w>
슴 </w>
bri de</w>
beau ti
t ı</w>
h ul
mo st</w>
לווי זיה</w>
re vol
bud aya</w>
са х</w>
il ha</w>
影 响
му льт
級 </w>
لى پ</w>
мен </w>
b et</w>
taraf ından</w>
製 品</w>
รถ จักรยาน
مك تب</w>
ce inture</w>
มนุ ษ
الم ط
經 營
iç ão</w>
扣 </w>
to ko</w>
fl ü
พ ลิ
סט ר
colo m
ح ية</w>
pul l</w>
du bai</w>
id s</w>
ł at
ре д
y s
ell as</w>
mak ing</w>
hol e</w>
ch ắn</w>
ак ти
t ốc</w>
menam bah</w>
ви д</w>
बना या</w>
โลห ะ
อ ี
hi e</w>
роз ді
자 의</w>
同 時
j uni
b uk</w>
сі й
מו ן</w>
ro jo</w>
bo b</w>
ber s</w>
ס טי</w>
lag en</w>
elek tro
प्या र</w>
lu as</w>
st ones</w>
sel b
ינ ת</w>
pass at</w>
сві ту</w>
kelu arkan</w>
ي َ
kar ş
т ра</w>
hil l</w>
ul tras
мото цик
за мі
원 격</w>
thu ốc</w>
دا ئى
oc chi
al ami</w>
เ ติ
주 문</w>
dudu kan</w>
אלו מיניום</w>
システ ム
ได้ รับ
โ หล
الح كوم
st af
कौ न</w>
어 떤
نو ات</w>
आ स्तीन</w>
pan or
ว ่า</w>
ज म
تر ك
כפ ולה</w>
ti g
人 員
fl age</w>
l á</w>
不 要
t ic</w>
ん で
janu ari</w>
เปลี่ย น</w>
ad at
ต าม
و أن</w>
مكاف حة</w>
n int
c la
आ ँ
網 路
सि क</w>
restaur antes</w>
сту п</w>
đ âu</w>
ав то</w>
ak tu
popul er</w>
mem bandingkan</w>
прода жу</w>
lij ke</w>
al ter</w>
ль во
เท า</w>
ه يا</w>
comp ati
생 산</w>
kal em</w>
مەك تە
сі я</w>
bouc le</w>
ค ่า</w>
ج راء</w>
ราย การ</w>
kor uy
автомоби ля</w>
spr aw
ис следова
v ed
ser ver</w>
esto y</w>
про вод
ges chi
サービ ス
кон тра
fin an
ح الة</w>
qu at
pla at
coll ant</w>
자 수</w>
vi e</w>
fle ur</w>
de por
com press
מכונ ת</w>
s ut
ви й
сай т</w>
hô m</w>
้อ ย
цен ы</w>
çi ft</w>
f ak</w>
曲 </w>
go ing</w>
속 옷</w>
แ ย
श क्ति</w>
अ ल्
compl eto</w>
ad akah</w>
кото рая</w>
a ang
but tons</w>
ak ala</w>
रख ने</w>
un ser
ライ ト
브 러
โล โก
组 织
لي ست</w>
sap atos</w>
ד ית</w>
nak li
念 </w>
penyim panan</w>
aw ai</w>
adesi vi</w>
ئاپتون وم</w>
と の
memb olehkan</w>
他 の
วิ ก
f ino</w>
нсь ка</w>
lar ga</w>
ئى چى
v ra
교 </w>
กรั ม</w>
использова ть</w>
gol d
ウ ィ
विश् व</w>
pr at
मो बा
konsum en</w>
मद द</w>
म ता</w>
除 </w>
ي س
n ah
व त</w>
जि से</w>
skar pet
g au
fir my</w>
오 일</w>
qu é</w>
mun cul</w>
k wal
ak om
футбо лки</w>
لس ت</w>
mer k</w>
ว ์</w>
pem bangunan</w>
meng el
أ ليس</w>
แก ะ</w>
euro pe</w>
e asy</w>
ıkl ı</w>
cam po</w>
مەس ئۇ
ver n
หนัง ส
f in</w>
masturb asi</w>
b ing</w>
mas ukkan</w>
раз меры</w>
ba ga</w>
เซ นติ
ter e</w>
ба й
auf kleber</w>
p all
ل جنة</w>
чо к</w>
st ica</w>
mu m</w>
en am</w>
an na</w>
g ent
тер мі
ingl ês</w>
anuger ah</w>
на писа
ta il
proj ec
ingl ese</w>
sa ins</w>
最 大
رات يج
su e</w>
no el</w>
man akala</w>
pr ä
價 </w>
时 尚
sun duğu</w>
k ast
자 연</w>
สี ม่วง</w>
מת ק
مە ن
fr ag
чер во
وج ه</w>
स ों</w>
szuk aj</w>
शि त</w>
ро ссии</w>
ถ ่าย
貼 </w>
र वि
अ फ
ئ وت
su dut</w>
su b</w>
на ш</w>
ラチ オ</w>
j ai</w>
світло ді
stre aming</w>
резо лю
ме шок</w>
mo tif</w>
vou dr
c ứ
व ही</w>
or d
thi ếu</w>
hi ver</w>
пла ття</w>
aci on
घ ं
西 </w>
hal us</w>
su d</w>
וי דאו</w>
ı lar</w>
ver enig
を お
zu beh
sem ent</w>
ab d</w>
sle ep
тол сто
y ol
kh ẩu</w>
anah tar</w>
en den</w>
ak i
क्ष ा
続 </w>
जाए गा</w>
est ar</w>
바닥 </w>
ま た</w>
со н</w>
ı yor
ה ל
по ки</w>
пу блі
ti re</w>
te il
ئۇ لار</w>
kom men</w>
perh atian</w>
ле з
ت ل
во ен
ch ains</w>
bilek lik</w>
о стро
克 </w>
根 據
믹 </w>
tr y
تو غ
đ ỏ</w>
се ль
ra ison</w>
บ ล
游 戏
im ej</w>
de wan</w>
रह ता</w>
no vo</w>
가 발</w>
他 们
ي ع</w>
회 </w>
अधि कारी</w>
मा ध्यम</w>
дво й
อะแด ปเตอร์</w>
प्र धा
schut z</w>
ל מע
ци х</w>
khi ển</w>
手机壳 </w>
bu dap
is co</w>
ak it</w>
vrou w</w>
모 양</w>
b d
مى سى</w>
спі в
د ة،</w>
uży t
et her
hi ển</w>
s or</w>
층 </w>
об яза
mal zem
بالن سبة</w>
di zion
年 的
б ки</w>
ó leo</w>
r ant
ह मे
ba it</w>
cost o</w>
взу ття</w>
סו גת</w>
er ca</w>
et ic</w>
ả y</w>
автомо бі
su hu</w>
ital y</w>
dis co
الم ص
更 新
ız lı</w>
har ian</w>
共 同
הי א</w>
б ря</w>
기 능
ді тей</w>
t win
пы та
y em
מנ וע</w>
di al</w>
ش ئ</w>
l â
stan za</w>
पा ंच</w>
e is</w>
الم عا
до гово
ח ור</w>
каче стве</w>
ка п
양 말</w>
иг ра</w>
те й
up an</w>
compr ar</w>
хо чу</w>
bel le</w>
لە ش</w>
كان ون</w>
सं गठ
mitsu bishi</w>
الن ظ
cứ u</w>
ระ ด
j ari</w>
론 </w>
แจ็ค เก็ต</w>
5 </w>
bum per</w>
da ar
سي د</w>
א ל</w>
مى نى</w>
sor s</w>
ter tinggi</w>
ब े</w>
גבוה ים</w>
mar tin</w>
รูป แบบ
mo den</w>
ẵ n</w>
ре кла
الت زا
qu o
in fin
जब ू
дж ере
past a</w>
स ड़
gli a</w>
apr ès</w>
يا كى</w>
прода жи</w>
peng elu
drew ni
h un</w>
אפו ד</w>
国 内
us en</w>
mening galkan</w>
하 십시오</w>
l ut
كۈ چە
플래 시</w>
ту ф
j ah</w>
z mi
bi z</w>
pp ed</w>
wa x</w>
n elle</w>
при род
пере гово
лі ї</w>
me as
un kan</w>
men u</w>
co ck
民 族
आ ता</w>
म जबू
ס ון</w>
л ении</w>
tis ch</w>
子供 </w>
स्ट ा
النا س</w>
cor a</w>
com mis
der n</w>
दि ए</w>
الت ع
ан гли
пу ска
jam es</w>
직 물</w>
บรร จุ
де ву
zo als</w>
co l</w>
南 </w>
스 탠
تى ما
新 聞
у м
пер ше</w>
ア ップ
मा ंग</w>
ằ m</w>
知 名
ih nen</w>
द ल</w>
דרו איד</w>
co cuk</w>
ch ào</w>
碼 </w>
מוצ רים</w>
брас лет</w>
d ll</w>
็ ค</w>
議 </w>
аксессуа ры</w>
tar j
з ві
المنظ مات</w>
con sum
उस से</w>
ва ється</w>
ar du
ン ダ
по перед
어떤 </w>
تى دۇ</w>
เหล ็ก
kiş inin</w>
tari h</w>
s sen</w>
शा म</w>
r ul
el n</w>
ef fec
ữ u</w>
c ảnh</w>
אי רו
ब न्
r ä
jap on
ве сти
co t</w>
ro ck
ชุด แต่งงาน</w>
pas s</w>
do is</w>
튜 브</w>
ol ina</w>
ق ان</w>
sili con</w>
帽 </w>
אי י
전 력</w>
प क्ष</w>
entr e
в стре
바 이</w>
zom er</w>
an ça</w>
자신 의</w>
speel goed</w>
त ना</w>
iç </w>
entr o</w>
ru e</w>
q i</w>
haut e</w>
st än
لدي ك</w>
ц я
me an</w>
ול ות</w>
упа ков
ı t</w>
하 이
spr it
маль чи
ل أ
ار لىق</w>
с де
よう な
ч ений</w>
atac ado</w>
по над</w>
而 且
라 믹</w>
패키 지</w>
жен ь</w>
स्व य
ت ظ
set er
mot osi
كې يىن</w>
u le</w>
akom odasi</w>
per so
ە ن
st im
l it</w>
ع و
el iz
h ữu</w>
에 너
当 </w>
لا ن</w>
it s
सु बह</w>
dy nam
1 9
mon tag
س ك
ตา ข่าย</w>
niñ as</w>
단 일</w>
発 </w>
प त
ger ak</w>
ب د</w>
n ada</w>
amster dam</w>
ре тро</w>
ไ ฮ
دى ر
في ر</w>
ל צ
バッ グ</w>
si e
qu ay</w>
eig en
i b
ce iling</w>
全 国
inter es
قان ۇن</w>
الع الم</w>
解 決
लिख ा</w>
幅 </w>
т ник</w>
pan ties</w>
que do</w>
र ो</w>
ori da</w>
하 나</w>
מת ח</w>
藝 術
و هو</w>
повер ну
ju eg
d ut
ש קו
ị u</w>
t ft</w>
天 然
分 享
br au
уча сти
sa ati</w>
strat eg
des k
kil ometer</w>
lat ex</w>
완 벽
אנ דרואיד</w>
сотруд ниче
mo q</w>
กระเป๋าสตาง ค์</w>
버 튼</w>
pier re</w>
אוז ניות</w>
ш ка
раз ме
sch ul
f l</w>
न ही
intel ig
nordi c</w>
то ром</w>
الإ ر
ט לוויזיה</w>
сво го</w>
с мыс
ド レス
gar ten</w>
de velop
有 一
ن د</w>
ahş ap</w>
उत्पा द</w>
ה מכונית</w>
لل ح
الخ ار
الأ طفال</w>
тра вня</w>
model o</w>
er in</w>
ถ ัง</w>
स्ट ्र
م نى</w>
표 준</w>
وج ود</w>
inter rup
الك ثير</w>
חלי פת</w>
publ ic
s isi</w>
ฏ ิ
sl r</w>
gi ả</w>
ing e</w>
או ר
не де
kah win
band s</w>
श र्ट</w>
उपलब् ध</w>
при мі
n az
aqu i</w>
ut eria</w>
лет о</w>
n ic</w>
펌 프</w>
情报 </w>
res ol
유 니
motoc y
动 </w>
nom bre</w>
amp iran</w>
kleid ung</w>
eti qu
別 </w>
हाला ंकि</w>
re k
ci dade</w>
ג ו</w>
li cht
ne er</w>
가능 한</w>
по то
ey es</w>
l ul
핀 </w>
ex port</w>
bri ght</w>
pro mo</w>
per kahwin
orgas me</w>
важ ли
で ある
elec tro
кра со
fr ut
st an</w>
gr ade</w>
נ ט</w>
лет ы</w>
no wy</w>
rę kaw
мен ь
le u
t app
ch amp
ל נש
se benar</w>
अ ंग्रे
عم ليات</w>
t ast
fi ori</w>
lớ p</w>
tar ik</w>
يەن ە</w>
ın ız</w>
co ton</w>
ك بي
招聘 </w>
ض د</w>
듀 얼</w>
ду вання</w>
fl or</w>
דיגיט לי</w>
с ю
з віль
то ю</w>
le k
m is</w>
트 롤
보 호
問 </w>
coup le</w>
no m</w>
h adapan</w>
ku cing</w>
ic ia</w>
ป ฏิ
as aki</w>
seter usnya</w>
or is</w>
b one</w>
ب ق</w>
हमे शा</w>
bor d</w>
dol lar</w>
dent al</w>
ทัน สมั
in s
bow l</w>
anim asi</w>
den s</w>
ح ول</w>
ชุ บ</w>
シ ル
ـ ا</w>
दु र्
gü n</w>
सा मा
ng ắn</w>
liv re</w>
am ateur</w>
網 站
penyel idi
e ur
car ros</w>
commer ce</w>
트 를</w>
复 古
من ها</w>
อา บ
maz da</w>
angk ap</w>
كە ت
o z</w>
kh ó</w>
dag angan</w>
kon tak
گە ن
со еди
ab ito</w>
đ </w>
סג סוגת</w>
lar go</w>
stri k</w>
מת אים</w>
v í</w>
rá pi
廠 </w>
in der</w>
ec ek</w>
re gen
compl et
ю ри
luch th
стен ы</w>
th ou
ز يد</w>
ت ول
形 成
त ीय</w>
дет ь</w>
투 명</w>
фото графи
ur usan</w>
производи тели</w>
स्लि म</w>
kel amin</w>
套 装</w>
int el</w>
chi avi</w>
me e</w>
k ili
ü t
أنت ِ</w>
at tre
ื ้น</w>
ุ ่ม
ру с
jar din</w>
au di
데 이
ย ัง</w>
s ẵn</w>
pre zzo</w>
s ıc
ס ד
ack et</w>
jar dim</w>
vendi ta</w>
ді я</w>
v r</w>
blan ket</w>
न जर</w>
men capai</w>
ท ู</w>
अ क्
по че
за сто
cu bi
f an
لا ح</w>
distri bu
ر ؤ
z te</w>
som et
lon go</w>
er ini</w>
ब र्
گى نى
الم ك
le ar
refle c
tek anan</w>
軍 </w>
تك ە</w>
та бли
perkahwin an</w>
ק ול
ко во</w>
st il</w>
z awi
قر ر</w>
て の
ме сто</w>
y um
ช ื่อ</w>
กัน แดด</w>
num ero</w>
數 </w>
ди в</w>
di re</w>
מע רכת</w>
粉 </w>
мо к</w>
a che</w>
cab inet</w>
ic ul
دى م</w>
เซนติ เมตร</w>
ประสิทธิ ภาพ</w>
چ ا
應 用
sel e
เส ือ
кон так
」 を
bas s</w>
д ь
ph ép</w>
z jednocz
गां धी</w>
ст я
f ind
tu y</w>
州 市
जी त</w>
boo ks</w>
ฉ บ
आ तं
ا ذا</w>
as k</w>
愛 </w>
демо кра
tri p</w>
al em
안 전</w>
มัล ติ
ти ть</w>
et ik</w>
ро ри
л ер</w>
ów ka</w>
тель ный</w>
ch u</w>
di ri
ходя т</w>
titan ium</w>
член ов</w>
情 况
ня х</w>
соответ ствии</w>
spieg el</w>
h all</w>
ber mula</w>
ци о
січ ня</w>
чо ти
ме ль
ता न</w>
у би
по з
ה גברים</w>
st el
точ ный</w>
ля тор</w>
य े।</w>
الم ساعدة</w>
가 바이트</w>
verlich ting</w>
cer ita</w>
स्ट र</w>
ny aman</w>
w ill
memer lukan</w>
מוצ רי</w>
it ahu</w>
م ة،</w>
الدول ة</w>
é t</w>
ب أ
lamp s</w>
đ ưa</w>
c ạnh</w>
電 腦
si ę
е му</w>
верес ня</w>
上 一篇</w>
те чение</w>
пів ден
в тра
а виа
за ряд
to das</w>
स के
pu edes</w>
ingiliz ce</w>
미 터</w>
meng em
pengelu aran</w>
en ces</w>
ผ้าพัน คอ</w>
ста н</w>
о кре
po kem
mon o
機 構
bal lon</w>
د ارة</w>
мог ли</w>
menye babkan</w>
iş let
bil d</w>
容 易
ph ổ</w>
ди ть</w>
ma x
su o</w>
ar ds</w>
s ata</w>
is so</w>
по мі
아크 릴</w>
都 市
disp en
بي ل</w>
z ad
王 </w>
повер х
uk en</w>
wer d</w>
ku ch
tam ente</w>
un da</w>
tok yo</w>
세 라믹</w>
لار غا</w>
as ing</w>
л ению</w>
c ấu</w>
น อก</w>
직 접</w>
j es
ci onal</w>
thom as</w>
mi o</w>
tit ik</w>
円 </w>
pem er
t ê
폭 </w>
श् वर</w>
防 水</w>
жен ский</w>
l ỗ</w>
arch it
ра б
кух ня</w>
rü ck
sal ut</w>
الج ه
dzi ał
dit ampilkan</w>
throu gh</w>
терито рії</w>
sa at
मि ला</w>
dụ c</w>
w ays</w>
ko stü
kor te</w>
خا صة</w>
розмі р</w>
berh ampiran</w>
배 달</w>
إن ّ
re st
graph y</w>
im i
diag no
сили коно
m ia</w>
ві н
ко ло</w>
obi ek
e vo
ان ظر</w>
f te</w>
ค ณ
شى نجا
fasil itas</w>
а та
fl ag</w>
आ र</w>
وج ب</w>
หน้าจ อ
स ल
temp atan</w>
大 型
ме й
telef one</w>
ram ai</w>
门 </w>
jah re</w>
ho usse</w>
sar apan</w>
la un
ã n</w>
re aliz
leg ging</w>
ส ก
이 어
мет р</w>
cat alo
中国 </w>
ї й</w>
kar tu</w>
e it</w>
الأ ح
ver sa
pack aging</w>
hy dr
c ộng</w>
ח נו</w>
र ै
motor ola</w>
모 양
у чи
те пер
су час
z on</w>
фи ка
m est
проведен ня</w>
зали ша
cl utch</w>
rang ement</w>
ін ститу
int ér
ฉ ัน</w>
خىز مەت</w>
fi zi
ci ę
pom pa</w>
y n</w>
יו קרה</w>
anc y</w>
ac u
beij ing</w>
श क</w>
сво їх</w>
tam bi
t ục</w>
ۋ ې
do v
ming gu</w>
diğ er</w>
tut te</w>
ที่มี สี
a is
मोबा इल</w>
計 算
أ ُ
角 色
са ми</w>
p m</w>
kulak lık</w>
ad lo
: </w>
תכשי טים</w>
交 流
güne ş</w>
plac ement</w>
u br
bom ba</w>
h len</w>
오 토
ми кро
сва деб
plat es</w>
tut ucu</w>
perl en</w>
आप ने</w>
か な
motoc ic
ї в</w>
连衣 裙</w>
他 的
но мера</w>
ос ві
m x</w>
न या</w>
o es</w>
зі ї</w>
sel l</w>
af stand</w>
mail lot</w>
en ze</w>
тепер ь</w>
लंब ी</w>
le e</w>
po k</w>
c ine</w>
ช ื่อ
แ จ</w>
כ ן</w>
cá p</w>
der aan</w>
mon ta
เล เซอร์</w>
प्रे म</w>
z ob
ü zer
v ind
워 크</w>
भा ग
di ễn</w>
ci r</w>
wan y</w>
मह त्वपूर्ण</w>
ไม่ ได้</w>
та ль
rec e
v ale</w>
ر ج</w>
ка жд
연 결
ア メ
le vel</w>
บลู ทู</w>
de z</w>
女 子
ق ال
mer s</w>
जवा ब</w>
color ed</w>
re ally</w>
व ्
لدي نا</w>
ke put
ال طا
lun ak</w>
ป ัก
с від
数 据
iz ed</w>
be dien
al ny</w>
리 스</w>
ни ками</w>
sch on</w>
bi et
ل أن</w>
ס ינ
र् म
구 성</w>
urzą d
am y</w>
أي ها</w>
спон ден
lo a</w>
ka edah</w>
tambi én</w>
ッ キ
ئەھ ۋ
ف عل</w>
pu erta</w>
disfr az</w>
e iras</w>
만 들
الت عاون</w>
res ul
ej acul
си гна
лі кар
n ers</w>
家 居
а ми</w>
ด ิน
ag ama</w>
א דו
le g</w>
i ere</w>
กล ิ
ش ري
ри я</w>
tr ay</w>
beauti ful</w>
tr aba
जिस से</w>
衣 舞</w>
gel ij
용 량</w>
ar atın</w>
答 </w>
mo str
dise babkan</w>
يك ن</w>
ni ed
ヴ ィ
pes awat</w>
הו ד
да ль
로 고</w>
가 슴</w>
стек ло</w>
घो ष
تح س
기 를</w>
hy dro
ض من</w>
nä he</w>
win d</w>
kho ản</w>
د ين</w>
안 경</w>
结 果
ש ני</w>
พ วง
sleev es</w>
re gol
бра зи
pic tures</w>
do kon
ไม โคร
合 わせ
英 語
th i</w>
ju alan</w>
ther mal</w>
par ka</w>
캡 </w>
אנ חנו</w>
d ù</w>
recher che</w>
ذ كر</w>
kl u</w>
е ся</w>
tan ie</w>
ल क्ष
spon ge</w>
meng hasilkan</w>
sch nit
бо йо
â ncia</w>
лы х</w>
उ ल्
indi an</w>
вели кий</w>
o em
ng ực</w>
aç ık</w>
azi en
п е</w>
длин ным</w>
w asser</w>
して ください</w>
श त</w>
сам ый</w>
pet er</w>
міль йо
없 습니다</w>
ж ении</w>
प्रधा न
كۆر ۈ
viet nam</w>
meng atakan</w>
ba gue</w>
ag ne</w>
per tu
ś red
au tre</w>
ر ق</w>
є с</w>
विष य</w>
قان ون</w>
pá gina</w>
منظ مة</w>
v re</w>
보 다</w>
角 色</w>
เล นส์</w>
מט רים</w>
ай фон</w>
足 </w>
ב חינם</w>
เค เบ
tru y</w>
cir cu
hu a</w>
村 </w>
न ्य
zubeh ör</w>
öz el</w>
akti viti</w>
я ку</w>
cu ci</w>
fon d
ho es</w>
看 到
ブ ル</w>
رئي س</w>
マ ー
ال كا
al lo
التن مية</w>
また は
пози ції</w>
मु द्
set te</w>
ez za</w>
d ul
by ć</w>
ener gy</w>
сер гі
рюкза к</w>
sand s</w>
時 計</w>
wor ds</w>
par am
ا ،</w>
дет ские</w>
없 이</w>
ре мон
واح دة</w>
जिस के</w>
у вели
compl ete</w>
k éo</w>
u zak
盤 </w>
發 </w>
су пер</w>
re ali
الأع ضاء</w>
سى زنىڭ</w>
pelu che</w>
يې زا</w>
כפ פות</w>
продук тов</w>
re charge
ng uy
stoc k
nu ovo</w>
ת או
ん な
x ách</w>
र ता</w>
nie ż</w>
컴퓨 터</w>
co sta</w>
ag ar</w>
сти ле</w>
ф ар
pla ats</w>
festiv al</w>
も ちゃ
l ato</w>
f y</w>
ئ وي
y un
क ड़ी</w>
ب ناء</w>
ff el</w>
kauf en</w>
cu ối</w>
大学 </w>
ตั ด
ר גי
ス ー
患 者
對 於
दौ र</w>
person al</w>
लग ी</w>
grá tis</w>
شا ر</w>
гру дня</w>
s as
mengi kut</w>
angk aian</w>
берез ня</w>
أ ستطيع</w>
รองเท้า แตะ</w>
hu i</w>
太 陽
est ate</w>
an car
деятель ности</w>
hi dro
pod usz
إ ع
ho l</w>
un is</w>
sch ne
구 성
мо би
يۇقى رى</w>
ж ка</w>
com m
是 否
سأ لة</w>
nat ure</w>
जा न</w>
zw em
म् प
تر ك</w>
thu ận</w>
am or</w>
f ast
सा रे</w>
рі д
ent y</w>
we ł
婴 儿
но у
c awan</w>
со став
tel inga</w>
ket er
bang kan</w>
fil tro</w>
이 나</w>
เก ี่ยว
ch ron
vol ta</w>
мо го</w>
さ </w>
ار ي
rów nież</w>
ग ए।</w>
ство вать</w>
decor ati
ع ين</w>
du h</w>
बै ंक</w>
없 는</w>
шо му</w>
ซิลิ โคน</w>
сред ства</w>
fit ur</w>
aksesu ar</w>
팬 티</w>
종 </w>
lu bang</w>
яз ку</w>
de ki</w>
i one</w>
te h</w>
ק ר</w>
pr u
tiem po</w>
re gel
ho uten</w>
tap is</w>
pi es</w>
ow ego</w>
дет и</w>
d um
เดิน ทาง</w>
peg awai</w>
ци н
aanbied ing</w>
man i</w>
ati que</w>
al er</w>
ינ ים</w>
الج نس
fac tory</w>
電 視
pantal ones</w>
ch ỗ</w>
um nya</w>
พ วก
чис ле</w>
เรีย น</w>
pem bel
aju an</w>
या लय</w>
жін ки</w>
taj uk</w>
เก็ ต
รว ม
t one</w>
hostel world</w>
точ но</w>
prem ier</w>
it ies</w>
сві то
й ки</w>
mot el</w>
چو ڭ</w>
mar que</w>
pe ças</w>
mej or</w>
at ter
文 字
вер са
уні верси
keselur uhan</w>
kar go</w>
cle an</w>
كۆ پ</w>
ק לא
lo unge</w>
ung kin
ben im</w>
dist ance</w>
ay ı</w>
करो ड़</w>
ö ğ
ندو ق</w>
ط وي
do ch</w>
fo ur</w>
を 见
ने ट</w>
विद्या लय</w>
cam ou
brin quedo</w>
نح و</w>
minut es</w>
kon g
вну трі
włos ów</w>
re ch
ver si
แ หล
मं दिर</w>
mer haba</w>
로 스</w>
уча с
потріб но</w>
peng u
k nee</w>
प ृ
任 何
ki z</w>
ac cu
우 수한</w>
cas aco</w>
боль шие</w>
shi mano</w>
p av
장 갑</w>
z wis
อิเล็กทรอนิก ส์</w>
ва н</w>
ึ ่ง</w>
во й
lin der</w>
सर कारी</w>
gel ijk</w>
cam bi
wor k
re fri
chuy ến</w>
클 래
女 童
pri js</w>
모 듈
gebru ik
น่า สนใจ</w>
яко сті</w>
est rel
ליי זר</w>
prodot to</w>
g in</w>
教 授
по этому</w>
因 此
保 证
mening kat</w>
bing kai</w>
也 不
ня ть</w>
sk on
do os</w>
ب ،</w>
ز ى</w>
z wei</w>
вед ения</w>
目 的
ج مهورية</w>
um u</w>
ров ки</w>
功 能</w>
and er
n ell</w>
versch ill
ic y</w>
be er</w>
प द</w>
band ing</w>
peri badi</w>
f ah
an cora</w>
学校 </w>
प श्
do po</w>
כדור גל</w>
通 常
pus ingan</w>
程 序
a al
매 력</w>
सा ं
да т
ob b</w>
diam bil</w>
工 具</w>
внутрі ш
ва вся</w>
pre ço</w>
ni ków</w>
фор мы</w>
pet ite</w>
ür et
con se
bel ang
צי ור</w>
pat tern</w>
стра н</w>
快 照</w>
ื่ น
kh uy
文 件
ครั ว</w>
셋 </w>
블 루
zi el
to wer</w>
програм мы</w>
dal l</w>
關 係
وق ع</w>
ли пня</w>
h ạn</w>
ne on
кон ди
we ih
吗 </w>
व री</w>
pre par
ค้า ปลีก</w>
ł e</w>
stri a</w>
حسنا ً،</w>
ंद र</w>
c je</w>
ون ية</w>
여 러</w>
ทำด้วย มือ</w>
कार् ड</w>
v at
po wied
通 贩
תר מי
ה שחור</w>
dis cus
塑 料
ह ॉ
web cam</w>
resid ence</w>
대 형</w>
축 구</w>
【送料无料 】
ben z</w>
הת א
m ich</w>
cz apka</w>
화 장
est amp
ว าง</w>
menyim pan</w>
z entr
k ün
必要 </w>
ju t</w>
自 転
pokem on</w>
g ó
pro y
일 반</w>
lum ia</w>
귀 </w>
wat ak</w>
ケ ット</w>
v ô</w>
empres as</w>
展 示
ค ์
inde ki</w>
colo ur</w>
per fect</w>
st al
k èm</w>
да ними</w>
стви я</w>
जन् म</w>
חד ר</w>
ış ık</w>
그 림</w>
پ ۈ
hu is
bili r</w>
चु के</w>
вну трен
bas ikal</w>
ש מן</w>
單 </w>
كە ل
е шь</w>
r d</w>
्य ों</w>
ي وجد</w>
ج يد</w>
du b
ren kli</w>
сто м</w>
вважа є</w>
ר זה</w>
辦 公
ت ين</w>
temper atura</w>
소 년</w>
lal uan</w>
cap as</w>
cell ul
ك س</w>
znaj dź</w>
ir i</w>
te ori</w>
k ich</w>
fo is</w>
ータ ー
ó ł</w>
я н</w>
ну ть</w>
女 装
b ây</w>
الأخ رى</w>
kan an</w>
m ét
ardu ino</w>
am but</w>
при з
ル の
str ona</w>
מק שה</w>
lu ces</w>
観 光
ال ،</w>
во ду</w>
tan to</w>
gi oc
אנ ו</w>
个 人
розта шо
標 </w>
set u
di bina</w>
מפ תח</w>
ק ד
床 </w>
ء ،</w>
v es
पहु ँ
sil am</w>
sal uran</w>
初 </w>
ר שת</w>
j il
jugu etes</w>
ला भ</w>
נ ב</w>
keput usan</w>
dire ka</w>
간 의</w>
玩 具
о хо
филь м</w>
construc tion</w>
ุ ด</w>
นิ ้ว
kom uni
م ف
ط ريق</w>
itali ano</w>
เก็ บ
syn th
的 小
post o</w>
ству ет</w>
zjednocz one</w>
па ла
воло с
bit kan</w>
प सं
jueg os</w>
网 络
man ch
아 프리
여 행</w>
комп ью
衣 服</w>
ша ть</w>
is lam</w>
объ ек
tor es</w>
mer ke
충 전</w>
現 代
自 分
mengand ungi</w>
е же
工程 有限公司</w>
fer ro</w>
з біль
ти и</w>
kt m</w>
렌 즈</w>
у ю</w>
на за
ver so</w>
ста ла</w>
be e</w>
an jang</w>
wol le</w>
sit us</w>
넥 </w>
gur u</w>
fl an
поло ви
son s</w>
c ặp</w>
c ed
ş iş
サイ ズ
st ij
الب ع
ви яви
आ धु
wi ad
net work</w>
ч о</w>
피 부</w>
сер д
kebang saan</w>
垫 </w>
หล าย
fin al</w>
ke per
inter nati
रुप ये</w>
ह रे</w>
制 度
फै स
vi do</w>
lok aliz
關 鍵
оп ы
дви га
カ メ
ر ك</w>
เท ค
आ ती</w>
mag n
一 起
rus sia</w>
g ä
ess es</w>
accommod atie</w>
is er</w>
тич но</w>
ke iten</w>
head band</w>
茶 </w>
股 份
シ ェ
บ อร์
ki ệm</w>
ؤ ون</w>
ด ัน</w>
жов тня</w>
ประ มาณ</w>
ชั ่ว
хо тите</w>
í s</w>
her tz</w>
ge b
n é</w>
عن د</w>
よう に
จ ิ
mem ory</w>
ลูก ค้า</w>
тет а</w>
adjust able</w>
ब्र ि
đ ức</w>
від ді
al log
in ce</w>
gi os</w>
आ ते</w>
دە پ</w>
เ ชิ
ของ เล่น
he i
t wit
פ ונ
n eder
map pa</w>
kr aft</w>
県 </w>
タイ プ</w>
לה ש
प्रया स</w>
челове к</w>
コ ン</w>
cc tv</w>
แตก ต่าง
ko ń
es per
빨 간
मन ो
הח ל
프로그 램
סי ן</w>
as pir
פנ ים</w>
н ных</w>
zon der</w>
ศูน ย์
व ट</w>
客 戶
प्र बं
ber gaya</w>
โ บรา
до ся
qu ảng</w>
जि ला</w>
רו ם</w>
علي نا</w>
ke dudukan</w>
i on
kil ang</w>
ket iga</w>
gi ặt</w>
роз пові
mah u</w>
フ ル
و لا
кре п
r angkaian</w>
투 </w>
му зы
人 才
seles ai</w>
دا خل</w>
ham ster</w>
vol ume</w>
wi ec</w>
כפ ת
eng land</w>
ن ع
تق ري
ב ד
推 薦
yo ung</w>
مە ھ
voudr ais</w>
ung u</w>
for t
ar c
mar ka</w>
ра ди
thi ệu</w>
ส าร
україн ської</w>
간단 한</w>
الم شار
चि ं
ह जार</w>
at t</w>
टु क
из дели
תחת וני</w>
su ede</w>
作 用</w>
мен а</w>
гру зо
ru angan</w>
stit ch</w>
ka ż
чер вня</w>
z ul
um kan</w>
qualit à</w>
ษ ั
те пло
refri ger
ля ми</w>
pł at
din am
n azi
आ ए</w>
ku gel
ре бен
en cy</w>
드 는</w>
s ĩ</w>
qu and</w>
קלי פ</w>
di m
ما ڭ
h ạng</w>
م لا
قائ مة</w>
h à</w>
ł y
cand le</w>
e ye
כ ול
сто ли
tex as</w>
提供 </w>
リ ン
nat al</w>
f el</w>
о цен
ระยะ ไกล</w>
m ại</w>
海 外
デザ イン
קצ רה</w>
กรุณ า</w>
lö schen</w>
k ungan</w>
f ts</w>
car ac
bar atos</w>
גר בי</w>
carg ador</w>
kle ider</w>
ти м
в пли
дер жи
stat en</w>
गा ँ
وق ف</w>
tel s</w>
gam ing</w>
pro ven
зах ис
진 주</w>
تۇ رى
무 늬
ствен ной</w>
dev ice</w>
відо мо</w>
информа ции</w>
сер і
j ego</w>
b c</w>
envo yer</w>
aro und</w>
vet ement</w>
iç inde</w>
cak ap</w>
ú l
กางเกง ขา
экра н</w>
nint endo</w>
m ong</w>
g ant
ди те</w>
febru ari</w>
장 비</w>
क ला
th ink
kem eja</w>
ди и</w>
인 터
bracci ale</w>
تەرەققى يا
स न्
lu str
ب هذا</w>
авто бу
取 得
ـ ة</w>
il la
stamp s</w>
ri m
tur bo</w>
園 </w>
lo dge</w>
rezerw acji</w>
geç ir
est as</w>
탄 소</w>
pi l</w>
चर् चा</w>
ir kan</w>
कि स</w>
ay r
או רות</w>
ба р</w>
kel ih
ונ ן</w>
เบ าะ</w>
س ۆ
ell y</w>
tah unan</w>
الأ ن
wan neer</w>
all er</w>
ถุง มือ</w>
elektr ische</w>
ken deraan</w>
goed ko
스 러운</w>
し か
recharge able</w>
mol ds</w>
camis as</w>
条 件</w>
uni que</w>
naszy j
en di
рука в</w>
ละเอีย ด</w>
أف ريق
parti r</w>
со вер
ما ق
op po</w>
ще е</w>
อ อ
सामा जिक</w>
у ста
n ano</w>
re kod</w>
ü st
ל לבוש</w>
x ử</w>
ב ן</w>
сво ей</w>
an ne
ла х</w>
в с</w>
bay ar</w>
स् क्र
pro fil
or en</w>
กำ มะ
с чита
vin den</w>
c ân</w>
ba ja</w>
ar kad
全 面
s ı
p ic</w>
mo tion</w>
في ذ
l ana</w>
ขนาด บวก</w>
проце ду
ג לי
klo pedia</w>
義 </w>
ยื น</w>
पह चा
mü ş</w>
أن ي</w>
pent ad
न् तु</w>
sup aya</w>
ar ma
פלט פור
mun do</w>
tr ái</w>
пла ну
бі ло
produc tos</w>
loo se</w>
це м</w>
ب الإ
릭 </w>
pl c</w>
kor zy
विश् वास</w>
วด ล
dent elle</w>
мо мент</w>
ר זי</w>
го н
m aya</w>
pres id
pe u</w>
خ ي
קו פס
om e</w>
i v</w>
ви ща</w>
cou ver
di keluarkan</w>
ent fer
отнош ении</w>
وا ست
m aupun</w>
池 </w>
sö y
s ạch</w>
ста ро
ter ima</w>
結 </w>
у слови
造 </w>
organis asi</w>
成 人
ty w
nh ẹ</w>
mar a</w>
り の
tho ải</w>
ori ent
тем но</w>
गि र
ет ы</w>
v ú</w>
prof is
bez aan</w>
kl in
ज़ ि
ص و
ze w
за по
memen uhi</w>
at ures</w>
比 </w>
menur ut</w>
ir s</w>
gg y</w>
ล วด</w>
ش ۇ</w>
衣 服
सं त</w>
ۈ گۈ
der a</w>
con fer
ber as
ड़ ने</w>
ш ер
sa ż
бра ть</w>
ch ant
з вез
غ م</w>
구 리</w>
ร อย
tah ap</w>
ре з
판 매
气 </w>
ชั ่น</w>
ał e</w>
th ings</w>
ci er
ね </w>
служ би</w>
при бу
पा ठ
ग ौ
bro w
du y
لا م
विशे ष
lin ha</w>
di pakai</w>
팬 </w>
і м</w>
แปร ง</w>
ที่ ดี</w>
ข้อมู ล</w>
is ra
ma xim
ze er</w>
єв ро</w>
แ วดล
спи сок</w>
nic y</w>
lou is</w>
ك ون
b ệnh</w>
पो स्ट</w>
z wier
si d
каж до
نف س</w>
מע ו
אלחו טי</w>
sp ek
탑 </w>
פ ן</w>
se ñ
mini ature</w>
보 증</w>
医 疗
सू चना</w>
ป ัก</w>
문 에</w>
lang u
स् तु
智 慧
cal cul
t ấm</w>
ke ys</w>
मा ने</w>
问题 </w>
н ного</w>
end ar</w>
c ô
巾 </w>
با ي
cal on</w>
エ ア
koszul ka</w>
ig h
сво и</w>
छो ड़</w>
es h</w>
g ec
कि ंग</w>
مەسى لى
ب ذلك</w>
з ей</w>
глав ная</w>
geor ge</w>
бу де
f é
ser angan</w>
الاقتصا دية</w>
безпе ки</w>
со держа
ле й
квіт ня</w>
thu ộc</w>
tem iz
o sc
pan as
in do</w>
bes i</w>
ad ing</w>
病 </w>
p hi</w>
ช ่วย
diter ima</w>
英 语
下 一篇</w>
su cc
hu y
фай л</w>
lot nis
hant aran</w>
ш ну
작 업</w>
ó d
दे व</w>
тран с
ва на</w>
악 </w>
ण् ड</w>
во в</w>
タ ル
o ce</w>
j p</w>
サイ ト
ва шу</w>
zabaw ki</w>
בו ה
u ro
ed ing</w>
keu angan</w>
temper ed</w>
g ni
bransolet ka</w>
スタ ー
во к</w>
inter r
สี เหลือง</w>
י צי
одя г</w>
зо в
do ve</w>
göz lük</w>
gar age</w>
ph il
氣 </w>
cor sa</w>
เซร าม
ت ريد</w>
ma inten
เด ียว
pro wad
ди рек
전 에</w>
ново е</w>
सि ल</w>
م س</w>
рас смо
за гру
cz es
ча су</w>
kno t</w>
éri as</w>
装 飾
תחת ונים</w>
wypo saż
ตา ล</w>
se bab</w>
時 代
ь ох</w>
т ща
дав но</w>
al o</w>
sw iss</w>
fe e</w>
計 劃
nol eggio</w>
koruy ucu</w>
o do</w>
за я
プ ライ
ใหญ ่
마 이크
vin d</w>
แ พล
लड़ की</w>
mel indungi</w>
キャ ン
мер е</w>
кри мі
ב לו
fornec edor</w>
प्रधान मंत्री</w>
ver b
to pl
ł ka</w>
o fic
r ô
กำมะ หย
за трима
u be</w>
दे र</w>
विरो ध</w>
dé cor
يى لى</w>
오토 바이</w>
gr au</w>
캔 버스</w>
ס ית</w>
ลัก ษณ
pul a</w>
되 지</w>
展 </w>
و الا
tri ệu</w>
eer de</w>
公 共
मि ले
commun ic
라 운드</w>
ซิ ป</w>
pak ej</w>
i a
צ מי
ц ями</w>
מכי רת</w>
m ông</w>
kl am
ту ру</w>
kelih atan</w>
ду мку</w>
distri but
kab lo</w>
今 天
كۈچە ي
e vi
oz do
pur se</w>
si par
ページ </w>
li d</w>
ل ين</w>
т я</w>
graf i
грома д
ग्र ह</w>
hor n</w>
ill age</w>
am or
ра ді
があ ります</w>
cu ore</w>
на мага
值 </w>
र स्
ق ط
ฟังก์ชั ่น</w>
ö n</w>
stret ch</w>
держа ви</w>
contin u
моде ль</w>
م عا
ec r
te ile</w>
อบ อุ่น</w>
ต อน
on y
cu anto</w>
教 </w>
แ อ
mas akan</w>
ס ל</w>
u h
desk top</w>
राजनी ति</w>
ar om
な ら
o wej</w>
的 に
4 </w>
द् धि</w>
н ение</w>
רו חב</w>
az z
棉 </w>
รา ตรี</w>
перед ба
कृ तिक</w>
से ना</w>
потре б
kle ur</w>
предлож ения</w>
uj ian</w>
der ing</w>
เอ ส</w>
khid mat</w>
ول كن
peng hantaran</w>
си ли</w>
fr au</w>
게 임</w>
जाए गा।</w>
đ ô</w>
tr in
br as</w>
臺 </w>
mant el</w>
ol duğ
ड ्र
느 슨
व र
改 革
bri l</w>
sz y</w>
फ ॉ
ein fach</w>
нь ю</w>
gł ów
ensi klopedia</w>
バッ グ
l ông</w>
gri p</w>
ú n</w>
าร ์</w>
ע כ
ト ラ
ھ وقۇ
ver ke
hand y</w>
เคลือ บ</w>
accesso ire</w>
נ קו
c em
er s
ses e
الم سا
ch im</w>
mon ster</w>
스탠 드</w>
gon na</w>
обеспе чи
e ś</w>
تق ي
ни ць
ב ינ
tro l
m ış</w>
ш ор
腕时 计</w>
pel ak
wol f</w>
付 き
आप का</w>
خ ذ
неско лько</w>
二 手
гос ро
par ete</w>
batter ia</w>
وج ه
有 關
उ दा
ئال دى
jet zt</w>
дол госро
gi ac
d et</w>
стра ны</w>
g ỗ</w>
धा रित</w>
วิดี โอ</w>
wa ż
أن نا</w>
se hen</w>
ці в
in ny</w>
特 </w>
neg o
내 부</w>
gal a</w>
ro let</w>
ch ł
표 시</w>
사용 됩니다</w>
מש וב
b à</w>
cubi erta</w>
را د</w>
miej sc
olog ia</w>
भग वान</w>
ئ ات</w>
d ur</w>
феде ра
men ik
ל רכב</w>
ді й</w>
mo mento</w>
z ara</w>
ติ น</w>
ชี วิ
per corso</w>
dispen ser</w>
คร ิ
до ю</w>
penu lis</w>
anal og</w>
가격 으로</w>
產 品</w>
st ile</w>
प ॉ
il k</w>
屋 </w>
ร ่ว
ë n</w>
se bag
kaw asaki</w>
tra je</w>
kh ô</w>
k esi
tat s</w>
बा ं
省 </w>
方 向
st any</w>
hi p
消 費
col gante</w>
ши ть</w>
le uch
東 京
чемпі она
bant uan</w>
शु रु
pat ches</w>
хо ча</w>
tad ır</w>
ค ิด
head light</w>
по слу
หน้า กา
हो ।</w>
ча сом</w>
gi ữa</w>
פנ ס</w>
蛋 </w>
c ứ</w>
o uro</w>
киє ва</w>
im o</w>
ظ ة</w>
stit u
elé tr
tr ap
pul uh</w>
סט ון</w>
blo cks</w>
أك ون</w>
ม ป
ע צ
p esta</w>
駅 </w>
و الح
вы ра
раз рабо
tr ưng</w>
หัว ใจ</w>
ส้น สูง</w>
на и
sh en
cot one</w>
h y</w>
yo k</w>
fut bol</w>
prz y</w>
au th
ทาง การ</w>
lo go
budd ha</w>
curta ins</w>
ch ữ</w>
ep is
ه و
ز مة</w>
دو ر</w>
бли ж
टी वी</w>
t v
o ft</w>
бі зне
meng etah
थि क</w>
투 스</w>
จ อ</w>
gi r</w>
ex cel
pre is</w>
dis c</w>
х во
pul lover</w>
आ खि
flexi ble</w>
ת מי
se us</w>
волос ся</w>
أخ ذ</w>
k id</w>
чен і</w>
prz eg
المو ارد</w>
ко вий</w>
дере вя
hd d</w>
레 </w>
коми тет</w>
qu oi</w>
باشقۇرۇ ش</w>
מע ור
小 型
系統 </w>
haus t</w>
ग्रा म</w>
इत नी</w>
ه ن
th ick</w>
マ ル
มือ อาชีพ</w>
fle ece</w>
رى ي</w>
kam us</w>
ิ ้
ek s</w>
zh en</w>
mu g</w>
スト ラ
نظ ام</w>
tec ido</w>
medi ter
дол жен</w>
cl amp</w>
por que</w>
mus ik</w>
v ẻ</w>
ak nya</w>
quali dade</w>
家 用
pes o</w>
ge v
stu di
gi áo</w>
ブラ ック</w>
twe e</w>
ład ow
é cr
ch í</w>
בקבו ק</w>
調 整
поді б
dan ça</w>
の で
ox ford</w>
alle en</w>
دو خت
ut er
cab och
อุปกรณ์ เสริม</w>
hosp ital</w>
域 </w>
ز يادة</w>
ग ढ़</w>
ב גד</w>
ex haust</w>
чи е</w>
틴 </w>
fon o</w>
ore ille</w>
зи и</w>
infr ar
con ce
ge bi
b ền</w>
เชื่อม ต่อ</w>
रा ब</w>
का लीन</w>
c ü</w>
บุ รุ
sel ain</w>
بول دى</w>
ан г
oh ne</w>
態 </w>
тех ніч
мож ем</w>
tr anh</w>
cour se</w>
ワ ーク
ac cord</w>
ส าม</w>
л ли
창 </w>
」 と
груп пы</w>
空 </w>
ج ات</w>
to al
met ro
ist er</w>
bas is</w>
ча й</w>
确 认
ting kat</w>
ذ ن</w>
حا ول</w>
ket ah
노 란색</w>
it er</w>
銀 行
탄 성</w>
침 대</w>
मान ्य</w>
מפ על</w>
楽 し
تېخ نى
hil ang</w>
al um
про то
ра зо
ป ี
ti ến</w>
all as</w>
قا م</w>
тиче ский</w>
ди тя
進 </w>
й деться</w>
ва шего</w>
gö ster
ec eğ
регіо нів</w>
restaur ante</w>
ang eles</w>
支 持
sebag ainya</w>
厂 </w>
z ek
schl uss</w>
م حا
kut usu</w>
ไ ท
קט נה</w>
qu y</w>
r ice</w>
ก าย
ter mo
ar is</w>
ور وب
ag am</w>
ast i</w>
ми хай
t jes</w>
um ur</w>
lu an</w>
ap pro
얼 굴
מחזי ק</w>
vind t</w>
bou w</w>
を 持
ك ،</w>
wy m</w>
pi edi</w>
ل ما</w>
in ne</w>
i bi
提 升
nav y</w>
des k</w>
ші сть</w>
nas ıl</w>
ch eg
dies es</w>
ण ि
د م</w>
只 是
meng ek
neckl aces</w>
ret ro
r al</w>
א מנות</w>
kr alen</w>
기 가바이트</w>
盘 </w>
inter nal</w>
部 門
แผ ่น
ื น
á rea</w>
руч ной</w>
дума ю</w>
czer w
amaz on</w>
telefo on
יהלו מים</w>
त् </w>
ko wa</w>
พร้อ ม
چى لىق</w>
d ương</w>
使 </w>
命 </w>
h un
най кра
re v
jab atan</w>
개 의</w>
모 션</w>
يمكن ني</w>
bon di</w>
科 學
str ai
sch ak
ק ב</w>
defin ition</w>
бо й</w>
mengetah ui</w>
car ton</w>
خ ۇ
ped al</w>
ou d</w>
ว าด</w>
son ra</w>
高 校
सो च</w>
na am</w>
for um</w>
ố p</w>
ана ли
im pi
bal as</w>
bul at</w>
ó l
कर े</w>
é gal
con g</w>
світлоді од
s át</w>
e ille</w>
施 工
ファ イル
szu ki
文 章
ที่มีสี สัน</w>
кар те</w>
e dil
知 识
sal le</w>
eig en</w>
ó r</w>
ser as</w>
隊 </w>
मूल ्य</w>
speci al</w>
כ ל
hiz met
א דם</w>
焦 </w>
بول سا</w>
vo l</w>
possi bile</w>
pal ace</w>
int aan</w>
fu ß
ku da</w>
st y</w>
ain da</w>
लि ंग</w>
ر ز</w>
תמ ונה</w>
รั ด</w>
mag lia</w>
ger ek
המ ולד</w>
ber cakap</w>
з нову</w>
負 責
u di</w>
відповід но</w>
高 潮</w>
c ậu</w>
ри к</w>
g hi</w>
मा ँ</w>
проти в</w>
的 大
क्र ा
k lik</w>
स् ता</w>
완 </w>
et à</w>
مى للە
f aut</w>
気 </w>
ing ton</w>
っ と
рі ю</w>
ecz ki</w>
底 </w>
tari f</w>
go ede</w>
ос ве
gr aci
た だ
รถจักรยาน ยนต์</w>
сер пня</w>
ż ar
al f
mö gli
ことができ ます</w>
สุ ภาพ
ı p</w>
фор ми
co us
票 </w>
под готов
斯 </w>
ح ق
육 </w>
ш о</w>
sk ór
le gen
ต์ มา
ре да
ro od</w>
m ina</w>
chi en</w>
совет а</w>
th ủy</w>
pi g</w>
gio chi</w>
र ती</w>
trans for
इ तिहा
neg ó
олександ р</w>
pol ice</w>
하 였
جان ب</w>
vin ilo</w>
qu elle</w>
deng ar</w>
cel a</w>
ка бі
ap er</w>
be kij
기 타</w>
स ला
बा बा</w>
переда є</w>
sem ent
po g</w>
험 </w>
bere ich</w>
手 淫
水 晶
ту аль
ฝ ี
ва лися</w>
التق رير</w>
設 定</w>
भाव ना</w>
en core</w>
ph út</w>
glo ve</w>
คริส ต์มา
pay ment</w>
न ो</w>
ab iti</w>
ط ية</w>
pad s</w>
हम ने</w>
गु ज
机 能
tec n
इं टर
ספ ק</w>
สะ โพ
工 业
込 み
त हत</w>
biet et</w>
revi ews</w>
ра дя
zap ew
stron ie</w>
ми те</w>
ф ло
ك ؟</w>
при над
ко вич</w>
elek tri
יש ן</w>
fu ck</w>
повин ні</w>
ग ो</w>
פ ח
ша х
ren cana</w>
ปั๊ ม</w>
โล ก</w>
ị t</w>
сь ке</w>
ма ло</w>
est ão</w>
ля н
lung o</w>
ny ata</w>
gi m
gi à</w>
กา แฟ
perm intaan</w>
व क</w>
ال ك</w>
ker st</w>
dre am</w>
c n</w>
이 상
느슨 한</w>
lo m
худо ж
ber us</w>
зелен ый</w>
람 </w>
ac ağ
market s</w>
समर्थ न</w>
م ختل
host els</w>
ティ ー
มี ความ
ne i</w>
quy ền</w>
п в
نا ھى
アメ リカ
pen a</w>
le pas</w>
業 務
ग े</w>
ver ão</w>
de ko</w>
و سي
пол ностью</w>
y um</w>
ric am
メート ル</w>
ger man</w>
er ot
ag ent</w>
و ط
לב נה</w>
ви гля
свет и
활 </w>
digit ale</w>
виде о</w>
保 障
ör t</w>
k nya</w>
مۇ نا
س سات</w>
sz k
تا ئ
man che</w>
निय ंत्र
gi gi</w>
आरो प</w>
y af
т ків</w>
victor ia</w>
se p</w>
alu gu
wr ist</w>
比 较
kam er
短 袖
и но
od por
diam eter</w>
あなた の
普 通
ho using</w>
ber diri</w>
ти ру
ду ть</w>
pand angan</w>
bat eri</w>
ต ี้</w>
פ ת
i che</w>
stric t</w>
bur eau</w>
v é</w>
dol ar</w>
му ть</w>
ali ment
carreg ador</w>
ทันสมั ย</w>
ที่กำหนด เอง</w>
ארו כים</w>
phili ps</w>
acess orios</w>
на бор</w>
perf ume</w>
temper ature</w>
tek nik</w>
ض ة</w>
pr ata</w>
kır m
ج دا</w>
ले स</w>
en zi
нержаве ющей</w>
g dy</w>
เล ื่อ
chev rolet</w>
ं सी</w>
dise di
예 </w>
u fl
ئىش لى
dam ski</w>
스카 프</w>
m ı</w>
لىكى نى</w>
п си
美 国
avail able</w>
spiel zeug</w>
k ali
评 価
อ าย
ri ver</w>
en os</w>
คร ี
cir cle</w>
ถ น
pren dre</w>
ซ า
man nel
젤 </w>
длин ные</w>
스 피
कर् म
ब चा
st abil
少 女
женщи ны</w>
disedi akan</w>
ch y</w>
กุญ แจ</w>
sa yang</w>
стои т</w>
anc ed</w>
ко вые</w>
gu er
و الإ
к ер</w>
บริ การ
जै सा</w>
أ جل
bum i</w>
cu pc
ver wen
про й
电 脑
स्वय ं</w>
ال انت
כ י</w>
смыс л</w>
camou flage</w>
press ão</w>
il gili</w>
тща тельно</w>
วิก ผม</w>
belang rij
c et</w>
ter diri</w>
st el</w>
аэ ропор
チ ュ
ż ycz
s ửa</w>
شع ر</w>
ше к</w>
ab sor
ボ ード</w>
tro users</w>
s ms</w>
penyelidi kan</w>
do dat
राजनी तिक</w>
غي رة</w>
natu ur
w es
mat em
으 며</w>
jo hn
да ли</w>
لى كى</w>
co pper</w>
пу те
pas aran</w>
nú mero</w>
su atu</w>
kar t</w>
gü zel</w>
田 </w>
ワ ー
و هي</w>
ب ان
إن شاء</w>
чолові к</w>
eri k
cre ative</w>
쉬 운</w>
tex t</w>
kü pe</w>
насе лення</w>
костю мы</w>
全 國
क ला</w>
medic al</w>
・ ・
ले क्
ไ ซ
са д</w>
bud get
ni ej</w>
ow ać</w>
นิย ม</w>
memu at</w>
di beli</w>
ro c
शर द</w>
ditu buhkan</w>
ci vic</w>
למע לה</w>
seg ar</w>
แปล ง</w>
ari os</w>
ह र
se wa</w>
الولا يات</w>
su k
박 </w>
ะ พ
事 务
ग ल</w>
toreb ka</w>
o da</w>
pl ane</w>
ئا ً</w>
przed się
פי ות</w>
пред седа
cast le</w>
จั บ
компа нии</w>
ve hic
綜 合
micro phone</w>
特 别
со ро
बैठ क</w>
农 业
проце с
pe p
по тер
so wie</w>
题 </w>
светодиод ный</w>
त् त</w>
अ ंग
orgas mo</w>
cu ando</w>
พ รรค</w>
lat in</w>
гости ная</w>
quad r
clo se</w>
浙 江
do en</w>
동 안</w>
chi ều</w>
j eux</w>
g ung</w>
贴 </w>
per bezaan</w>
ke uken</w>
men cipta</w>
الق ضا
маршру т</w>
in te</w>
טבע י</w>
ter besar</w>
ھازى ر</w>
we ight</w>
batt le
व ्य</w>
ما يدۇ</w>
תי בה</w>
ز ال</w>
רט רו</w>
から の
您 的
produk te</w>
ch ịu</w>
bicic let
w inter
ay n
konuş mak</w>
со ціаль
블루 투스</w>
t ant</w>
op as
ю вели
pr ises</w>
を 受
चाह ता</w>
servi zi</w>
الش ا
ле жа
se ine</w>
ku h</w>
瓶 </w>
ن چى</w>
ل ب</w>
росси й
c p</w>
kr an
í veis</w>
tr ui</w>
tac tical</w>
sch uss</w>
panas onic</w>
ре зи
вари ан
환 영
pantal oni</w>
ت را
nu evo</w>
ס ת</w>
bri ef
ay ar</w>
ĩ nh</w>
li ste</w>
種 </w>
בו דה</w>
port á
nou veau</w>
zi mo
кор до
амери ка
sł uch
oc ean</w>
ण न</w>
yo u
sement ara</w>
ar re
ส ต
잘 </w>
tur ysty
t ego</w>
ज हाँ</w>
ви мо
ger e
기 에</w>
все м</w>
nieu w</w>
य ें</w>
द् धा
ange bot
luchth aven</w>
รับประ กัน</w>
се ли
रि श्
weih nach
m ic</w>
tro pez</w>
o us
그리 고</w>
國 內
sek ut
m è
beau coup</w>
डॉ </w>
el im
lay ar</w>
ill umin
c r</w>
국 의</w>
по кры
成 為
keper luan</w>
пів ніч
म ंग
il umin
i ye</w>
matrimon io</w>
bil an</w>
tr ak
re gar
inde x</w>
ท ะ
ב ור
f ai</w>
допол нитель
施 设
今 年
verschill ende</w>
si oni</w>
초 </w>
ศิล ป
pl a</w>
c aus
d ados</w>
町 </w>
已 经
मान व</w>
e ia</w>
an lam
मो दी</w>
х ри
及 び
ス ノー
שלו ם</w>
д жен
e use</w>
wi d
들 이</w>
공 주</w>
czar ny</w>
sist em
s ica</w>
ユ ニ
ं ति</w>
लंब े</w>
dat en</w>
ا ك
pro per
ליל דים</w>
bon ne</w>
заво д</w>
的 時候
แบตเตอร ี่
को र्ट</w>
hom mes</w>
toko pedia</w>
ill ing</w>
горо д</w>
ze ich
ec k</w>
ज य
أ لا</w>
braz ili
번 호</w>
ネ ル
मा री</w>
ma at</w>
blo emen</w>
מת נות</w>
イ ン</w>
אח סון</w>
ברז יל
in fl
щ ем</w>
ı ma</w>
ad eira</w>
เลี้ย ง</w>
ط ي</w>
об ы
be gin
필 름</w>
الأ سلحة</w>
пра ців
et leri</w>
bern afas</w>
कृ ष्
met allo</w>
포함 </w>
ट ॉ
ni ej
éri eur</w>
em bo
ron de</w>
obro l</w>
he im</w>
s hi</w>
а да
p ang
เต ียง</w>
tw in</w>
meng obrol</w>
hi dr
im pres
cor po</w>
ef f
מ די
pertem puran</w>
labor at
przedsię bior
lla vero</w>
kole j</w>
प्रति शत</w>
צהו ב</w>
pol ar</w>
loo king</w>
по хо
га з</w>
от ды
ni ght
แขน กุ
र ंग
็ ด
in ser
cap it
з е</w>
do es</w>
作 為
จ ่าย</w>
الن و
ب ط</w>
né t</w>
ни в</w>
zi j</w>
gü ven
гри вень</w>
disk on</w>
box er</w>
र क</w>
ت ە</w>
п я
кита й
aba h</w>
वा सी</w>
d ựng</w>
го ту
val ent
tet e</w>
plat te</w>
bou w
hoof d
ئېلى پ</w>
客 </w>
ۇن داق</w>
ض ر</w>
tess uto</w>
bin aan</w>
sh ad
blus as</w>
際 </w>
ฟุต บอล</w>
する ため
ці на</w>
h ạt</w>
ช ่วง
wr ap</w>
re du
מע ונ
ผ้า ขน
प्रि य</w>
п ру
пові т
时 候
พ า
ми й</w>
حت يا
о чки</w>
we ek</w>
di er</w>
バ ス
หรั ฐ
j aan</w>
rol len
พลิ ก</w>
по стоя
pro va</w>
á ria</w>
ber gerak</w>
під писа
ве ць</w>
pos sono</w>
สะด วก
bez przewo
เหมาะ สม</w>
pad an</w>
кажд ый</w>
s war
ส หรัฐ
menj al
่ว ย</w>
листопа да</w>
beschi k
produc to</w>
ad el
शी र्ष</w>
vibr ador</w>
jo bs</w>
gre en
देख ते</w>
m l
ад ре
inform ationen</w>
be el
ti cos</w>
ван ням</w>
а м
회 사
आ देश</w>
cer tific
ali menta
bu y
ин те
l eren</w>
f érias</w>
r un</w>
食 </w>
מע צב</w>
ד לת</w>
مۇنا سى
ح ين</w>
z in</w>
ना थ</w>
alo jam
شى مىز</w>
원 피스</w>
सर् व
per dagangan</w>
น ้อย</w>
as is
чет вер
st art
旅 游
ライ ト</w>
pul seras</w>
по за
s ole
रि पोर्ट</w>
kobi et</w>
ว า
أك يد</w>
n ung</w>
liv raison</w>
mar ble</w>
스 토
介 紹
wor king</w>
га л
cu f
ハ ンド
手淫 </w>
חתי כה</w>
แก น</w>
зро с
su c
कानू न</w>
фи льт
sese orang</w>
giy im</w>
dr es
आधु निक</w>
ل ول</w>
лю того</w>
h us
ве сь</w>
h ed
о ї</w>
в ці</w>
โบรา ณ</w>
wal k</w>
k os</w>
สี เทา</w>
ad d</w>
obj ec
напря мую</w>
и ю
족 </w>
उ पा
ब ने</w>
exter ior</w>
ли бо</w>
no i</w>
znajdu je</w>
दे ं</w>
무늬 </w>
마 스
स फे
n ess
spi ag
обра зом</w>
encontr ar</w>
st ap
хо ву
ل هذا</w>
典 </w>
ti ara</w>
שע ונים</w>
españ ol</w>
s ữa</w>
ну в</w>
ğ u</w>
ki es</w>
資 源
aksesu ar
कर ी</w>
उत्पा दन</w>
ת מש</w>
c l</w>
الأ عمال</w>
р ные</w>
स च</w>
n út</w>
p ina</w>
jugu ete</w>
m g</w>
hon d</w>
bol sos</w>
re born</w>
tari kh</w>
lu ci</w>
الج مي
hy draul
custo dia</w>
ระบ บ
धी रे</w>
הכ חול</w>
f alls</w>
ris ult
p ú
bul un
な く
ष ि</w>
น ก
स्वा स्थ
גו בה</w>
кра н</w>
an ze
เข า
ç in</w>
br il
bin nen</w>
쪽 </w>
單 位
ro d
he ating</w>
кли ма
ph o
साम ग्री</w>
і талі
ter murah</w>
ミ リ
res ina</w>
नही ं।</w>
wo ści</w>
sp ag
mak er</w>
l icz
кон кур
y i
dr in
во дя
会 议
تو ص
stec ker</w>
स्ट म</w>
治 疗
ag gi</w>
פ תו
v ài</w>
kablo suz</w>
多 く
เม ื่อ
리 아</w>
cer ta
at l
つ の
sh an</w>
cu ps</w>
إ لا</w>
pon sel</w>
ycz na</w>
tr aff
o cz
にお ける
आ न
ئى ش</w>
א ז
אופ ן</w>
бі р</w>
สถ าน
الم حا
і но
тех ниче
ต ้น</w>
lar a</w>
j ata</w>
сол не
aven ue</w>
ака де
作 品</w>
га ль
ス リ
ชุด นอน</w>
на зи
กระเป๋าส ะพ
det ector</w>
ben e</w>
afric an</w>
चु का</w>
осо би
合 金
r ico</w>
met ho
ден </w>
प्र णा
h es
फ र्
су пер
cr uz</w>
חשמ ל</w>
bas ic</w>
т ной</w>
दर् ज</w>
adres se</w>
ק ס</w>
كا م</w>
強 </w>
нови х</w>
สี ดำ
트 럭
עגי לי</w>
висо ка</w>
располо жен</w>
chocol ate</w>
cali dad</w>
に 対
च लते</w>
kwal iteit</w>
görüş mek</w>
z ou</w>
kol eksi</w>
to oth
anti kan</w>
a ver
но вой</w>
r í
बेह तर</w>
cham bres</w>
з ня
설 </w>
sn el</w>
到 着</w>
f ic</w>
基 础
sac ch
meng u
ל ר
אופנ וע</w>
מב טי
考 試
साहि त्य</w>
мі сті</w>
al ice</w>
모 니
d ab
ar im
बो र्ड</w>
เซ อร์
से क्सी</w>
ड़ ा
д ві</w>
uy gul
car d
ristor ante</w>
twit ter</w>
колі р</w>
ot te</w>
ani vers
少 年
การ ออกแบบ
و على</w>
transpor te</w>
에너 지</w>
แผ ง</w>
ب سبب</w>
ע רכת</w>
สวย งาม</w>
л ени
tr ek</w>
le ben</w>
… …
ت أ
to utes</w>
okul ary</w>
во сто
z ro
off er</w>
но вых</w>
น า</w>
лиза ции</w>
ci haz
處 </w>
た い
lo op</w>
ทำ ให้</w>
확 장</w>
الو ح
报 告</w>
ول ي
إ ست
培 训
مو ظ
قۇرۇ ل
чи ном</w>
маши ны</w>
वर् त
ื อง
le on</w>
ch os</w>
сво й</w>
out fit</w>
be ad</w>
ק שת</w>
pe i</w>
né es</w>
ul as</w>
o gro
cap p
ئا دەم</w>
appli que</w>
полу чить</w>
ن ج
л ля</w>
zel li
w p</w>
про те
pen n
ch ị</w>
풀 </w>
pem ent</w>
ak ıl
u zu</w>
s ä
rent al</w>
shir e</w>
مە دە
qu ot
bu g</w>
멀 티</w>
il ik</w>
lar ın</w>
स दी</w>
ac adem
رق م</w>
ล ด</w>
aff ari</w>
選 択
ні м</w>
الن ظر</w>
קו ור
uj ą
per met
ph á</w>
на ши</w>
g antung</w>
生 的
pr ès</w>
hoo dies</w>
成 立
أ ست
שי רות</w>
ت نا
es ki</w>
צ ות</w>
mul ai</w>
değ il</w>
バ ック
श ्य</w>
occhi ali</w>
українсь ких</w>
m ur</w>
其 中
샌 들</w>
シャ ツ</w>
володи мир</w>
flu or
ה ה</w>
li full</w>
base ball</w>
المج تمع</w>
zen fone</w>
bo î
ло г</w>
tak ım</w>
pró xim
кор пу
植 物
משק פיים</w>
पै दा</w>
タ ン
m ôi</w>
p abri
располо жен
the box</w>
ac ia</w>
ประ ม
i ko</w>
जै सी</w>
лен ні</w>
sat uan</w>
fat to</w>
ậ m</w>
ख ी</w>
пла н
ber jaya</w>
ผ้า ไหม</w>
ві де
ฉ าย</w>
spół ki</w>
合 同
vent a</w>
m ón</w>
เจ น</w>
視 頻
h ir
אספ קת</w>
сві й</w>
आर् थिक</w>
पत् नी</w>
performan ce</w>
груп и</w>
relo jes</w>
기 본</w>
شك راً</w>
wi l</w>
t l</w>
tan ya</w>
ไฟ ฟ้า
ช ื้น</w>
użyt kow
melet akkan</w>
ev ol
กั ด</w>
निश् चित</w>
utili zz
wer p</w>
с мар
ren k</w>
シ ング
тре ть</w>
ۋە زى
ef fet
яко му</w>
मही ने</w>
stu d</w>
bedrij f</w>
टि क</w>
d ant
टा इ
ce p</w>
ur as</w>
마이크 로</w>
for mula</w>
кон кре
in sul
พร หม</w>
почи на
pre z
е ле
x ây</w>
d ati</w>
l ạc</w>
clo ud</w>
hor as</w>
सा री</w>
ст ки</w>
stat us</w>
pol ari
อุณหภูมิ </w>
киї в</w>
त्य ा</w>
ص د
co le
zwis chen</w>
ส าว
ter as</w>
d ao</w>
กำมะหย ี่</w>
关 于
스위 치</w>
تح ت</w>
ผู้ ใหญ่</w>
ऊ </w>
สวม ใส่</w>
มัลติ ฟังก์ชั
能 夠
c t</w>
जि ले</w>
из вест
ni kon</w>
gi ác</w>
cu p
aw ki</w>
an ca</w>
צי פור
систе ми</w>
во да</w>
can lı</w>
вы ми</w>
dar mo
та ри
e id</w>
قت ل</w>
бан к</w>
yar d
ша н
sup porto</w>
ते ल</w>
코 </w>
กางเกงขา สั้น</w>
הא ביב</w>
fr u
يى ل</w>
ال ها
i ons</w>
因 为
بېرى ش</w>
디자 이
â neo</w>
versa ire</w>
op tim
тель ные</w>
по тен
бо в</w>
gi ard
bet ter</w>
au ß
結 構
อเมริ กา</w>
д ж</w>
त स्वी
рож де
बात ें</w>
な が
चि कि
pla id</w>
ข อบ
туф ли</w>
w ag
veget arian</w>
cr eme</w>
สะโพ ก</w>
इ स्
сук ні</w>
cum ple
價 格</w>
효 율
ア プリ
sp é
и гро
ك لا</w>
сто лі
проку ра
柜 </w>
и зо
के ंद्र</w>
луч шие</w>
direc t
전 구</w>
к т</w>
я ке</w>
gro ße</w>
接 </w>
ต ุ</w>
égal ement</w>
ecz ka</w>
สะพ าย
質 量
ни когда</w>
롭 </w>
阅 读
由 </w>
כ מו</w>
ay er</w>
electr on
照 明
ди я</w>
처 리</w>
كا پ
ब जे</w>
li ft</w>
і де
у сі
जो र</w>
райо ну</w>
소 프트</w>
goedko pe</w>
c ố</w>
sin k</w>
off ici
kwi aty</w>
네 일</w>
稱 </w>
зна й
빨간 색</w>
나 비</w>
sig n</w>
gar an</w>
首 頁</w>
ن عم
ein es</w>
供 应
ig lia</w>
dzi eci
ś my</w>
unid ades</w>
th ôi</w>
gu st
आ इ
備 </w>
bul l
ئۆ گىنى
le af</w>
ス イ
ฟ ิล
e b</w>
bron ze</w>
al gun
الح كومة</w>
нь о</w>
бо ку</w>
모 피</w>
по ми
ev ent
do ute</w>
ंग ्
自 身
il es</w>
de el</w>
shel f</w>
l akukan</w>
【送料無料 】
驗 </w>
แพล ต
م شا
พ ระ
सफे द</w>
館 </w>
m ²</w>
k um</w>
samochod ów</w>
düş ün
perse gi</w>
แพลต ฟอร์
член </w>
เ หย
शा न</w>
ga at</w>
दो लन</w>
ع ه</w>
sprit zen</w>
쇠 </w>
ben arkan</w>
अं तर
प्र सा
الت ا
ow any</w>
mo ins</w>
ที่ สุด
แห ้ง</w>
ا ؟</w>
תי י</w>
pneum at
пре до
چى لىك</w>
са нк
봄 과</w>
мен ше</w>
聯 繫
ئاسا سىي</w>
an si</w>
nh u</w>
smo king</w>
贩 売
切 </w>
ọ </w>
сь ким</w>
pou ch</w>
di si
إ ح
дет ская</w>
del ijk</w>
دي ر</w>
розви тку</w>
num mer</w>
bo ston</w>
पर् या
ph ím</w>
kesi hatan</w>
bo sch</w>
рас чет</w>
diber ikan</w>
кори сту
car ga</w>
規 模
й ся</w>
dispos able</w>
ва си
gen de</w>
dis positi
de ve</w>
ور ات</w>
s ell
파이 프</w>
タ </w>
far be</w>
mut fak</w>
ו ינ
ven da</w>
e ben</w>
yüz ük</w>
ص لة</w>
ئىشلە پ
生活 </w>
vi el</w>
xin h</w>
메 쉬</w>
edi tion</w>
應 該
мо щ
छो टी</w>
гер ма
oy un</w>
י פה</w>
zel f
मौ त</w>
değ iş
连衣 裙
كە ن</w>
же ла
त ल</w>
का ले</w>
вирі ши
أ ظ
ط ر</w>
चा रों</w>
get ah</w>
ни це</w>
pedi do</w>
ko st
フ ロ
च ले</w>
for mat</w>
工 具
ер а</w>
гло ба
mik ro</w>
di strict</w>
角色 扮
रि या
لە شت
schn app
sa una</w>
משק ל</w>
चिकि त्
ig t</w>
um p
po is</w>
gr azi
peng en
n ing
m d</w>
ka ğ
по ез
ゴ ール
ت عل
째 </w>
бан ку</w>
memen angi</w>
пода рок</w>
ماڭ ا</w>
只 有
s ơn</w>
gro en</w>
ทำความ สะอาด</w>
套 装
ของ เรา</w>
за хід
kı sa</w>
בע בודת</w>
หนัง แท้</w>
ві а
ステ ン
па н</w>
x p</w>
jor dan</w>
ay ai</w>
ق ش
บรา ซิ
女 孩
ट क</w>
в ська</w>
g ây</w>
प्र श्
на бо
b ột</w>
و ان
إ ذا
mo bi
sn ap</w>
เส้น ผ่า
per anti</w>
bl umen</w>
ئې چى
swim wear</w>
ح ف
pej al</w>
प े</w>
wied er</w>
ch óng</w>
各 種
を ご
per tan
降 </w>
ك ُ
лам па</w>
ş im
di anggap</w>
प्रभा व</w>
चु की</w>
उप करण</w>
про ми
juni or</w>
เสื้อ กัน
h ızlı</w>
ال دا
prz eci
ي ه
sch ei
發 佈
ธุ ร
wa it</w>
ア ウ
อ ำ
сво є
различ ных</w>
con tri
الت علي
kay ak</w>
не которые</w>
實 現
v ue</w>
alt ın</w>
短 </w>
э та
pe pejal</w>
j ana</w>
c ăn</w>
ข้า ม</w>
ד פוס</w>
vol le
找 到
su che</w>
sap ato</w>
одна ко</w>
chti g</w>
सम ू
га зу</w>
स हित</w>
kn it</w>
heal th</w>
зер ка
ж ная</w>
아 니
tur un</w>
con h
wn ę
h on</w>
角 </w>
sal es</w>
jo gg
समस् या</w>
le id
显 瘦
ب الح
كا دىر
з бер
vi et</w>
cek et</w>
च र</w>
स्वास्थ ्य</w>
tr z
fant ast
นั ้น</w>
플러 그</w>
迷 你
schi ed
proj ector</w>
ed y</w>
외 부</w>
ва но</w>
kus sen</w>
ร ฟ
ص ر</w>
путе ше
or den
ي دى
короб ка</w>
شى غا</w>
漫 画
צ ור</w>
十 分
неза леж
高 腰
х ро
j ahr
предоставля ем</w>
наза д</w>
aç a</w>
含 </w>
ven ir</w>
니 트</w>
→ </w>
im ut</w>
gü müş</w>
ش نىڭ</w>
ми ре</w>
ствен ный</w>
対 </w>
लि यों</w>
図 </w>
ง ่าย
icz ny</w>
卡 通
aktivit as</w>
r õ</w>
proc ess
po jem
ってい る
lu gar</w>
ฉบ ับ</w>
ста ло</w>
आ उ
چ ې
fer r
ri chi
處 理
indi cat
pas ek</w>
знача є</w>
je j</w>
מכ שיר</w>
ニ ング
ك ول
за твер
ва ло</w>
king dom</w>
bil angan</w>
cal ça</w>
限 </w>
prz em
ק ט</w>
v at</w>
台 湾
ـ ا
as sem
ष् टा
man fa
консу льта
ва ши</w>
鏡 </w>
แน ะ
s ó
व क्त</w>
tang ga</w>
सा फ</w>
ध ो
сол н
c ita</w>
c emer
хо те
hoes jes</w>
ak annya</w>
房 地
د رة</w>
соб і</w>
ลำ โพ
мен ь</w>
br em
ну ли</w>
mas si
لك ي</w>
minim um</w>
枚 </w>
t az
su i</w>
필 </w>
ni val</w>
t et</w>
ph y
आ पूर्
pen den
ò i</w>
el em
є в</w>
ска чать</w>
ไ น
ポ ート
ж ди</w>
servi zio</w>
ç er
و ش
pack age</w>
og en</w>
多 少
距 离
لل أم
i eren</w>
hồ i</w>
к ло
סג ול</w>
fr eno</w>
ق ال</w>
szcz ot
ri k</w>
报 </w>
पर् क</w>
pos isi</w>
8 </w>
メート ル
ت نى</w>
ph uk
wer ken</w>
pel e</w>
mé di
in ci
пода ру
br ella</w>
са н</w>
під ви
cemer lang</w>
แสง อาทิตย์</w>
מ סו
ли ть</w>
matah arim
ط ق</w>
mataharim all</w>
助 </w>
moż li
ko pen</w>
و أنا</w>
в ши
お もちゃ
아 웃
pant ol
מל אה</w>
향 </w>
تا پ
ба жа
по ля
습 </w>
与 </w>
인 트</w>
इतिहा स</w>
бі т
व्या पार</w>
per fec
lan ter
inc re
ور ي</w>
pri ma
現 在</w>
و ني</w>
мі в</w>
po kry
phuk et</w>
ग ण
пі з
x us</w>
圈 </w>
销 售
бли з
pij ama</w>
gu ard</w>
وي ن
recensi oni</w>
बढ़ </w>
нови нка</w>
mo c
สุนั ข</w>
us b
shi eld</w>
g ọn</w>
вій ни</w>
to eg
r ate</w>
ab str
항 목</w>
с цен
ль них</w>
bedro oms</w>
밝 은</w>
เพ ศ</w>
पसं द</w>
ч ку</w>
tam enti</w>
ط ات</w>
sen jata</w>
dra adlo
t egen</w>
드라이 브</w>
ві ктор</w>
الن ساء</w>
поя с</w>
so cc
ม อง
ste em</w>
크 로스</w>
sleut el
печа ти</w>
머 리
指 </w>
애 완</w>
צי ו
тер мо
기 술</w>
ถึ ง
ст ра</w>
द बा
der ni
地 区
dicion ário</w>
р ср</w>
пре ду
แวดล ้อม</w>
רו תיי</w>
fro zen</w>
גבי רותיי</w>
ti en</w>
عا ئ
buff et</w>
कि यों</w>
ap er
proj ect</w>
性 高潮</w>
ประก อบ</w>
สัญญา ณ</w>
س ان</w>
ל נ
по вы
غۇ چى
دا ف</w>
這 種
k w</w>
ju ste</w>
mak tadır</w>
ke ku
uk ra
budget places</w>
vol t</w>
角色扮 演</w>
ن ين</w>
чу к</w>
g ece</w>
помощ ью</w>
ос кільки</w>
зако н</w>
fr üh
เปลี่ย น
צרי ך</w>
по тра
lap angan</w>
di z
condition ing</w>
tr ack</w>
r ai
cho ker</w>
詞 </w>
schnapp schuss</w>
d ır
can eta</w>
안 티</w>
어 링</w>
ó b</w>
人 の
ب الط
ו א
sp ann
явля ются</w>
che ong
tamp a</w>
ग री
teng o</w>
ื่ อง
ю сь</w>
тако го</w>
संबं ध</w>
fic ation</w>
ck y</w>
海 </w>
di vi
p it</w>
á tico</w>
म् मे
lem ak</w>
ब्लॉ ग</w>
أن شطة</w>
wi k
cost umes</w>
定 的
wią z
الرئي س</w>
أن ّ</w>
під готов
в би
сма три
спі вро
h ung
el t</w>
חז רה</w>
indivi du</w>
م لىق</w>
an lar</w>
из готов
ด ัน
ข าว
ठ ि
m r
zwar te</w>
ジ </w>
me y
par f
बि क</w>
두 꺼
ตร ์</w>
ن ز
سە ن</w>
tr im</w>
ن ْ</w>
робо ту</w>
li pat</w>
сторо ны</w>
mat er
kar bon</w>
רכי בה</w>
잠 금</w>
ind ahkan</w>
저 장</w>
馆 </w>
mul ut</w>
ст вий</w>
모 두</w>
aqu a</w>
ło ż
教 師
セン チ
disp on
can e</w>
上 げ
ล ้าง</w>
verenig de</w>
特 殊
บุรุ ษ</w>
ल् ड</w>
ف ريق</w>
ت وا
fi x</w>
ב צ
str ada</w>
تو فير</w>
gli amento</w>
ध ्य</w>
r ail</w>
dah kan</w>
деко ра
vo et
ब च
муж ская</w>
ла зер
착 용</w>
cor ta</w>
低 </w>
ニ ュー
y ağ
المع ني</w>
спортив ные</w>
д ре
socc er</w>
k ład
חו פ
pabri k</w>
kem as</w>
informa ções</w>
ску ю</w>
оборудова ние</w>
ses et
อั ล
я кої</w>
총 </w>
이 상</w>
ذ ك
пре ж
th read</w>
c au
發展 </w>
स द</w>
kun ft</w>
gior n
الاجتما عية</w>
back ground</w>
app en</w>
第 四
क त</w>
li br
anni versaire</w>
ฮ าร์
ри нку</w>
cro p</w>
ther m
hol d</w>
प्र स्तु
מט ה</w>
lo se</w>
ж ной</w>
s ack</w>
त य</w>
स्टी ल</w>
tras par
pay pal</w>
isti yorum</w>
เ นิ
左 右
z it
kato en</w>
co ches</w>
ت شرين</w>
่า น
די ג</w>
кримі наль
il ia</w>
6 </w>
télé phone</w>
n in</w>
ma vi</w>
ट् र</w>
ग ति</w>
es col
éta it</w>
肛 交</w>
pp y</w>
ศิลป ะ</w>
企业 </w>
al tre</w>
ש ב
sau dara</w>
g ets</w>
开 発
בי ק
كە ن
k ur</w>
ni k
pem binaan</w>
menik mati</w>
し く
ธุร กิ
the gio
自 </w>
ئا ممى
hoch zeit</w>
z ag
coup e</w>
โ ป
वा र्
cion dol
пита нь</w>
v ase</w>
peng el
al ors</w>
swim ming</w>
kno b</w>
k ind
中 长
char d</w>
харак тери
су до
wi z
har aju
tele phone</w>
be kerjasama</w>
zir con
กำล ัง
ש אתה</w>
wiad om
av er</w>
ta ł
pre gn
z es
naci onal</w>
経 済
ีย ร์</w>
צ ר
מק ורי</w>
包 裝
gr y</w>
भी तर</w>
кни ги</w>
gar raf
คล ื่น</w>
pen s</w>
ko p</w>
тель ства</w>
bo ok
mou th</w>
i u</w>
высо кого</w>
มนุษ ย์</w>
مع ي</w>
пла ни
cal cet
생 산
o a</w>
e wa</w>
מבר שת</w>
од ной</w>
รั บร
因 爲
внима ние</w>
автомоби льная</w>
स मि
lin es</w>
bi ż
con na
رە ھ
สุ ข
car casa</w>
kar ak
pri mer</w>
出 来
と も
การ์ ด</w>
ضا فة</w>
ф рак
за кри
pand uan</w>
naklej ka</w>
adul to</w>
采 用
स्ट िक</w>
kon sen
vermel ho</w>
وا ض
la ur
시 트</w>
ket ing
المعن ية</w>
необходи мо</w>
เ กร
सं पा
бу т
รู ปร
ט ע
心 理
peng er
지 퍼</w>
스 마
l ọc</w>
українсь кий</w>
な </w>
ге ро
快 速
แถ บ</w>
за мов
cor to</w>
歷 史
c ec
स् ती</w>
л ку</w>
gu i
及 </w>
wuju dkan</w>
se vi
מלאכו תיים</w>
ва ться</w>
الب را
監 督
גר בי
ğ ı</w>
l antai</w>
่ ว</w>
كە س
qu ette</w>
дву х</w>
ç or
الق ر
організа ції</w>
m ine</w>
e il
f í
dru ck</w>
det tag
spi el</w>
ห้อง น้ำ</w>
ر أ
німе ччи
port es</w>
ナ イ
ser amik</w>
де лега
춤 </w>
تەر بى
per cu
ch ủng</w>
파 란색</w>
า บ</w>
ול י</w>
ne z</w>
이 브
产 </w>
ه ن</w>
bac kl
เ หน
ล ่าง</w>
و ع
kırm ızı</w>
क्ष क</w>
ар хі
produc tion</w>
الش ي
можли во</w>
ri em</w>
gesch ä
g war
t ưởng</w>
su ch</w>
idi dong</w>
фи нансо
men ge
fr ais</w>
변 </w>
त े।</w>
то ри</w>
ฯ </w>
уря ду</w>
manic ure</w>
หน้ากา ก</w>
و الع
укра и
ما ر</w>
ر ها</w>
แก ้
تى گە</w>
kis sen</w>
ar as</w>
ع راض</w>
tind ak</w>
ח לו
haraju ku</w>
そ う
ダ ー</w>
colle ge</w>
thegio ididong</w>
ẩ y</w>
ско ль
gio co</w>
แท ็บ
ิ้ ล</w>
تقد م</w>
หม อน</w>
kemu ka</w>
men teri</w>
comp act</w>
seset engah</w>
hil ton</w>
gl it
ป ิด
bę dzie</w>
cu m</w>
ori al</w>
graci as</w>
ú a</w>
कि ये</w>
veil ig
tu gas</w>
bl ick</w>
ter kemuka</w>
fri end
det er
กล ม</w>
v u</w>
u ur</w>
ant enna</w>
ag ain</w>
out ros</w>
gio i
الج ن
تع رف
ham il</w>
najle p
el er
भूमि </w>
jo y</w>
文 章</w>
zus am
c al</w>
ือ น
kir i</w>
хоро шо</w>
khu ôn</w>
телефо на</w>
웨 어</w>
ف قد</w>
온 도</w>
ठ ो
mot ore</w>
ۈگۈ ن</w>
meny atakan</w>
anc ang</w>
sch rei
त ः</w>
다 기능</w>
gel egen</w>
חל ק</w>
ow ym</w>
franc isco</w>
ค ืน</w>
вла да</w>
پۇ ل</w>
تص ل</w>
pri me
ھە ممى
눈 </w>
l ente</w>
ט ור</w>
de ep</w>
教育 </w>
bur ung</w>
그 래
fair y</w>
pint ura</w>
ol la</w>
abbi gliamento</w>
per satuan</w>
छ ि
良 </w>
peny er
min uman</w>
g r</w>
شك لة</w>
क पास</w>
ق ب
m hz</w>
con n
ну ва
क ने</w>
basket ball</w>
वि ज्ञान</w>
드 를</w>
szy ch</w>
th ú</w>
ז ול</w>
най біль
manufac tur
ب الف
en th
гене ра
arri v
vag in
c one</w>
てい ます</w>
เอ ช
ב אופן</w>
의 자</w>
at an
하 의</w>
종류 의</w>
が ある
الت د
เต ้น
райо ні</w>
me er
ener gia</w>
wor ks</w>
制 作
sa ing</w>
​ ​
ขย าย</w>
корот кий</w>
حس ن
っ か
следу ет</w>
woo d
voy age</w>
מקר ית</w>
х ла
din asti</w>
фа бри
pro perti</w>
커 넥
з ка</w>
बॉ क्स</w>
و ما</w>
ko ff
ка т</w>
ダ </w>
ad am</w>
пер ен
ві ду
ל ית</w>
mannel ijk</w>
wię ksz
เค ้
res ult
pre g
ئىشلەپ چىقىرى
жи ти</w>
pat ch
ت هم</w>
ج ع</w>
здійс ню
ferram entas</w>
أم ر</w>
وا ء</w>
высо кая</w>
цвет ы</w>
[...]
