</S>
<UNK>
a
n@@
i
o
ա@@
്@@
k@@
t@@
,
m@@
u
်@@
ی@@
e
a@@
de
i@@
.
h@@
்@@
1@@
d@@
ک@@
s@@
u@@
្@@
ა@@
o@@
್@@
j@@
v@@
0@@
l@@
g@@
r@@
p@@
్@@
y@@
ka
্@@
া@@
e@@
na
א@@
-@@
க@@
z@@
ი@@
்
ַ@@
ា@@
ku@@
း@@
w@@
ப@@
f@@
ү@@
્@@
э@@
ക@@
ე@@
s
in@@
ி@@
ə@@
ո@@
sa
2@@
ಿ@@
b@@
а@@
л@@
ા@@
an@@
ی
ി@@
t
ာ@@
q@@
က@@
n
ʻ@@
in
ا@@
x@@
š@@
it@@
ാ@@
ak@@
ե@@
ု@@
am@@
ర@@
н
پ@@
ր@@
5@@
at@@
ar@@
ө@@
ි@@
්@@
v
ն@@
ိ@@
r
3@@
g
র@@
ೆ@@
da
al@@
ი
ರ@@
j
్
ா@@
င@@
ి@@
ட@@
и
រ@@
τ@@
த@@
რ@@
ေ@@
ko@@
is@@
di@@
ke
ā@@
ن@@
ಾ@@
ર@@
l
ా@@
le
ក@@
α@@
ນ
ه
la
je
မ@@
්
20@@
و
an
ლ@@
ம@@
್
ల@@
ë
ad@@
m
د
т@@
ပ@@
en
တ@@
aw@@
ប@@
ar
න@@
ر@@
ர@@
4@@
ga
р@@
ு@@
po@@
č@@
క@@
.@@
ක@@
te
ch@@
wa
d
c@@
ি@@
ਾ@@
ana
მ@@
b
ស@@
ε@@
າ@@
di
ස@@
ර@@
ho@@
പ@@
as
ന@@
്
on
ko
на
en@@
အ@@
le@@
ž@@
ത@@
ο@@
ു@@
г@@
ے
6@@
ы@@
y
li@@
န@@
et@@
si@@
స@@
st@@
פ@@
á@@
ina
ව@@
as@@
س@@
ba
ម@@
ல@@
к@@
8@@
ಸ@@
ම@@
ক@@
un
ਰ@@
ਸ@@
ಕ@@
ai@@
у@@
կ@@
er
о@@
il@@
ន@@
സ@@
h
re@@
ag@@
ti@@
ọ@@
ງ
ja
ಲ@@
ક@@
is
el@@
с@@
ે@@
м@@
ര@@
வ@@
و@@
ත@@
ro@@
ј@@
un@@
ন@@
ప@@
റ@@
ta
ek@@
ನ@@
သ@@
ָ@@
vi@@
ಗ@@
lo@@
ბ@@
న@@
ო@@
7@@
\
ട@@
um@@
ს@@
on@@
za
та@@
ා@@
ತ@@
se
se@@
ւ@@
er@@
ap@@
വ@@
ل@@
н@@
ব@@
ে@@
ma@@
ు
т
ni@@
ι@@
ya
σ@@
સ@@
ol@@
ਿ@@
စ@@
ట@@
на@@
ျ@@
મ@@
ر
sh@@
প@@
mo@@
ન@@
ba@@
ڪ@@
im@@
ρ@@
ri@@
led
ნ@@
স@@
new
to
ка@@
ν@@
់
ັ@@
ab@@
ள@@
ရ@@
ం@@
ვ@@
ਕ@@
au
ອ@@
့@@
م@@
д@@
am
დ@@
we
પ@@
য@@
گ@@
us
hi@@
మ@@
so@@
μ@@
ສ@@
е
ಟ@@
k
ի@@
(@@
π@@
р
ke@@
it
et
ს
ප@@
ni
વ@@
ma
ia
í@@
യ@@
л
າ
ు@@
ಮ@@
да@@
ச@@
մ@@
de@@
қ@@
უ@@
9@@
ki
ල@@
ು
ش@@
േ@@
ë@@
ot@@
no@@
ai
ir@@
ြ@@
ن
ne@@
ш@@
и@@
ọ
የ@@
free
ະ
త@@
κ@@
bo@@
а
ki@@
ှ@@
at
ing
es@@
ي
em@@
te@@
ма@@
si
be@@
α
ti
ເ@@
ត@@
മ@@
ੀ
ak
ਲ@@
ු@@
ె@@
ла@@
av@@
ಯ@@
ೕ@@
ն
ല@@
ੇ
ne
me@@
me
ম@@
bi@@
ng@@
ಪ@@
"@@
й@@
ut@@
th@@
ល@@
ত@@
с
ა
je@@
0
tu@@
al
ur@@
ul@@
ka@@
ກ@@
િ@@
to@@
ang
տ@@
ho
ল@@
ah@@
လ@@
ּ@@
య@@
к
ு
es
ਦ@@
ವ@@
ು@@
or@@
ટ@@
ра@@
ā
у
do
র
յ@@
5
do@@
fa@@
д
ਨ@@
ી
ೂ@@
ч@@
వ@@
ດ
ī@@
ង
zi@@
ħ@@
ដ@@
ற@@
י@@
ய@@
fashion
/
،
ra
pi@@
ab
nga
mu@@
ny
mi@@
લ@@
ба@@
he@@
ය@@
om@@
sk@@
λ@@
iz@@
ਪ@@
ب@@
af@@
ો@@
ä@@
ெ@@
ລ@@
б@@
su@@
ay@@
ئ@@
?
е@@
ta@@
за@@
თ@@
ം
ji
no
ur
ע@@
kar@@
co@@
ಂ@@
ွ@@
ad
us@@
x
ਮ@@
ς
ຫ@@
గ@@
ன@@
া
í
ੱ@@
в@@
да
bu@@
ه@@
ha
)
ж@@
ē@@
um
ុ@@
ু@@
ခ@@
са@@
hi
жа@@
bo
ز@@
lu@@
ை
'@@
:
آ@@
ū@@
х@@
ບ
з@@
du@@
й
ದ@@
os
ਵ@@
ف@@
خ@@
ી@@
2
ព@@
au@@
8
ົ@@
c
hot
не
ಬ@@
່@@
li
ද@@
ụ@@
ph@@
ս@@
gi@@
man@@
ir
හ@@
з
ва@@
ូ@@
ны
pr@@
డ@@
د@@
el
è@@
pe@@
ci@@
ine
vo@@
ಡ@@
ed
ទ@@
ان@@
ú@@
ט@@
за
ing@@
ិ@@
ን@@
െ@@
ே@@
ტ@@
w
yo@@
ை@@
ਤ@@
ಿ
1
ા
ន
kh@@
መ@@
ત@@
em
ီ@@
س
ach@@
រ
fi@@
ր
ə
for
z
ે
ا
ι
pu@@
ny@@
he
վ@@
ua
ት
ন
kon@@
ada
бо@@
в
م
ت@@
ru@@
aj@@
ẹ@@
ి
è
г
î@@
dan
shipping
sa@@
ver@@
eg@@
ည@@
ါ@@
ය
ي@@
້@@
ແ@@
გ@@
pl@@
p
ay
ғ@@
ਹ@@
3
ig@@
ಳ@@
چ@@
ik@@
υ@@
ხ@@
ụ
ண@@
id@@
ট@@
ן
па@@
գ@@
tr@@
га@@
ં@@
ku
ಹ@@
val@@
ни
é@@
usb
ի
kl@@
አ@@
ਾ
ò@@
à@@
ந@@
ក
6
ி
చ@@
ọn
ٹ@@
ҳ@@
ద@@
ជ@@
ve@@
mi
hu@@
ہ@@
બ@@
mat@@
par@@
ί@@
ා
ц@@
ic@@
æ@@
ed@@
ṣ@@
ل
ມ@@
ch
ce
ນ@@
sexy
7
м
ለ@@
aj
ye
ુ@@
শ@@
я@@
va
ר@@
я
19@@
ק@@
то@@
та
კ@@
ി
4
ስ@@
or
ini
਼@@
å@@
ਟ@@
ን
mas@@
mini
pa
່
du
yo
йн
ំ@@
ong
έ@@
እ@@
ਰ
la@@
ယ@@
ച@@
na@@
ি
ങ@@
ė@@
ø@@
ẹ
ೆ
ທ@@
ੀ@@
հ@@
we@@
ان
ર
ੰ@@
جي
pro@@
ala
pan@@
ຂ@@
uk@@
ت
អ@@
mar@@
ਬ@@
ati
high
dr@@
od@@
о
ju@@
ge@@
sp@@
ara
బ@@
ກ
pag@@
and@@
ali
ų
ag
id
ха@@
nt@@
ang@@
ά@@
ă
om
ν
ැ@@
bi
fo@@
ona
ט
ា
ка
mo
պ@@
ach
ត
pcs
ੁ@@
ли@@
pa@@
pri@@
ડ@@
ో@@
wa@@
op@@
ў@@
ea
п@@
para
ຄ@@
vi
ី
kan@@
ണ@@
pu
በ@@
জ@@
ס
ş@@
ള@@
bag
f
qu@@
ට@@
il
ფ@@
ד@@
ো@@
ber@@
jo@@
п
q
br@@
ро@@
ö@@
ග@@
per
dress
iphone
ਨ
η@@
ac@@
ra@@
γ@@
ور@@
би@@
mal@@
ច@@
eng@@
/@@
ੂ@@
pre@@
но@@
ng
ੋ@@
ੈ@@
ქ@@
ти
ata
é
ha@@
ez@@
δ@@
до@@
era
ဆ@@
ే@@
ы
យ
pe
kul@@
ٽ@@
ok@@
ار@@
দ@@
נ@@
az@@
શ@@
av
мо@@
ко@@
ි
ံ@@
ο
်
go@@
ໍ@@
bal@@
ෙ@@
ao
њ@@
ры@@
ס@@
ער
for@@
bar@@
ъ@@
គ@@
қ
ဖ@@
լ@@
ಚ@@
ු
chi@@
ែ@@
ન
ີ@@
ር@@
ê
թ@@
ណ@@
ant@@
ে
kom@@
ri
ð@@
tu
ች
ό@@
ג@@
ج@@
়@@
ີ
ji@@
per@@
plus
ע
ተ@@
women
ય@@
ਲ
ం
the
sin@@
á
wy@@
og
ale
shirt
ດ@@
گ
ਜ@@
შ@@
лу@@
і
air
eng
के
ል@@
ali@@
ഷ@@
men@@
à
gr@@
ک
ç@@
си@@
[@@
å
ш
han@@
ị
ira
go
mak@@
mm
kw@@
sam@@
ש@@
ង@@
ша@@
ز
iti
້
ຍ
গ@@
হ@@
var@@
ິ@@
be
ти@@
ھ@@
ef@@
ਗ@@
os@@
េ@@
ူ@@
ov@@
не@@
]
zi
դ@@
pak@@
ча@@
ob@@
ó@@
ք@@
ile
der
ela
ва
ဲ@@
ੇ@@
ter@@
ei
nu
ວ@@
ພ@@
ગ@@
ju
х
har@@
ic
ita
kat@@
kal@@
set
ದ
ល
diy
ama
ik
ී@@
ди@@
ബ@@
re
ри@@
kr@@
ল
ມ
ون@@
ീ@@
wh@@
bat@@
চ@@
gh@@
ഗ@@
samsung
බ@@
aka
ie
ຕ@@
xi@@
лы@@
ge
ీ@@
una
ר
ը
ć@@
វ@@
kor@@
ל
ли
fr@@
ഡ@@
19
top
ზ@@
bl@@
رو@@
fu@@
eta
ε
jo
yang
ent@@
int@@
ó
case
ו@@
ни@@
ere
բ@@
ны@@
ты@@
ve
ӣ
ou
ປ@@
அ@@
air@@
ড@@
با@@
ൽ
ថ@@
im
आ@@
ac
sal@@
न
ati@@
min@@
וו@@
nu@@
те@@
ä
га
ло@@
ں
china
ំ
oni
gu@@
fe@@
ខ@@
est@@
ો
det
so
aha
ਫ@@
slim
ז@@
وا@@
ោ@@
da@@
අ@@
ah
9
pc
ផ@@
men
ক
po
ol
ð
dd
sen@@
ani
00
را@@
ep@@
ца@@
আ@@
को
ౖ@@
ష@@
yn
)@@
ü@@
kol@@
ker@@
ይ@@
હ@@
го@@
χ@@
of
ើ@@
ле@@
ды@@
ә@@
ማ@@
kun@@
С@@
ই@@
"
те
ту@@
ც@@
៉@@
ಣ@@
જ@@
ચ@@
wan@@
cover
во@@
kas@@
для
ven@@
ite
kut@@
gy@@
ӯ@@
ફ@@
dy@@
ê@@
ક
ху@@
oa
со@@
кі
su
-
ർ@@
ൾ
ղ@@
ist@@
су@@
pal@@
ги@@
quality
ር
း
ili
anda
по@@
lar
mag@@
long
bil@@
ړ@@
ટ
К@@
up@@
అ@@
car
න
kam@@
ake
პ@@
ګ@@
ຮ@@
kan
чи@@
dh
ላ@@
den
van
ੰ
st
દ@@
asi
ý@@
ō@@
ку@@
շ@@
ena
vel@@
are
гу@@
of@@
ġ@@
ਈ
ໃ@@
die
এ@@
bon@@
ки@@
կ
લ
ban@@
man
ො@@
ې
fl@@
ં
kel@@
ij@@
ست@@
lcd
atu
θ@@
ts@@
cr@@
ev@@
ون
zo@@
ane
ණ@@
10
ek
isi
va@@
ց@@
pol@@
sy@@
ce@@
的@@
ре@@
ל@@
ங@@
ਅ@@
ռ@@
ate
ບ@@
uma
مو@@
но
ထ@@
gar@@
del@@
இ@@
ви@@
wear
og@@
car@@
kak@@
ме@@
ар@@
black
ста@@
бу@@
ო
dar@@
се
bu
one
ഫ@@
uch@@
tar@@
эр@@
ڈ@@
ff@@
մ
ور
ል
ඩ@@
జ@@
ado
del
ten@@
wo@@
ele
tak@@
سا@@
isa
ன
ా
ফ@@
η
ነ@@
sil@@
ण@@
ش
ị@@
met@@
ያ@@
М@@
fan@@
מא@@
hd
fer@@
moda
ili@@
ду@@
hal@@
Б@@
ீ@@
ze
لا@@
સ
chiffon
por@@
ർ
ਕ
ми@@
ট
ყ@@
lo
ant
tan@@
od
ع@@
vin@@
ete
то
ла
aga
mer@@
А@@
:@@
ut
ला@@
ழ@@
ື@@
ari@@
est
त
û@@
ca
क@@
שי@@
pen@@
han
ឹ@@
ω@@
ው@@
cm
تو@@
ከ@@
де@@
î
ಶ@@
ру@@
ਡ@@
ינ@@
str@@
ica
bak@@
ਚ@@
ura
ክ@@
غ@@
ም@@
brand
ung
uk
ung@@
ಉ@@
ci
lam@@
ఫ@@
ex@@
бе@@
der@@
õ@@
lan@@
mah@@
gratis
ڊ@@
vintage
lub
mon@@
sak@@
અ@@
ൻ
ම
ગ
ේ
tam@@
ስ
न@@
ч
ول@@
П@@
pro
ċ@@
^
ши@@
ಜ@@
ze@@
ብ@@
ק
kur@@
lace
ಫ@@
ul
ino
ल@@
ួ@@
tel@@
jen@@
में
sol@@
ق@@
му@@
ஸ@@
all
aan
tal@@
size
ծ@@
φ@@
की
pap@@
ري@@
ano
style
tur@@
sz@@
ဘ@@
wi@@
ហ@@
kap@@
ઇ@@
உ@@
fi
ም
ຊ@@
წ@@
ма
ູ@@
െ
ý
ຈ@@
យ@@
tor@@
ہ
ен@@
യ
ម
એ@@
ore
lu
сы@@
ра
ៃ
kin@@
bor@@
ec@@
son
ح@@
խ@@
త
cl@@
ව
ет@@
ù@@
gal@@
oem
થ@@
ស
mot@@
ግ@@
all@@
ַ
ਟ
ұ@@
pat@@
sale
హ@@
ga@@
awa
š
רי@@
хо@@
ൂ@@
and
ਤ
out@@
ky@@
ញ@@
क
ٹ
ਆ@@
far@@
ॅ@@
ወ@@
les
לע@@
љ@@
mel@@
con@@
ين
sl@@
ښ@@
gl@@
que
cy@@
ari
ب
pvc
ז
lar@@
tha
tin@@
ys
by@@
ал@@
զ@@
rau
য
hel@@
io
ొ@@
sti@@
ě@@
э
ene
ቀ@@
ey@@
ке@@
mai
my@@
com
ඳ@@
tag@@
ւ
प@@
ໄ@@
sel@@
לי@@
cu@@
ూ@@
ਗ
ल
ң@@
wholesale
light
υ
crystal
ረ@@
र
nan
ວ
aa
ຸ@@
хэ@@
پ
ਇ@@
ty@@
van@@
լ
ύ@@
pas@@
ή@@
ຍ@@
ய
ese
ser@@
ៅ
baby
לא@@
ers
ു
ja@@
ಅ@@
ط@@
క
ী@@
isi@@
፡@@
ú
ен
ما@@
ры
ky
။
اس@@
അ@@
፡
vis@@
ll@@
ste
ך
म@@
mod
har
ure
dis@@
yak@@
fan
android
տ
able
ૂ@@
ీ
жи@@
co
com@@
her@@
ud@@
bel@@
wer@@
ish
ì@@
ба
нь
din@@
gu
به
ole
хи@@
ци@@
ٽ
উ@@
ř@@
des@@
ټ@@
dz@@
untuk
ter
!
مر@@
aci@@
ind@@
ភ@@
don@@
bluetooth
ರ
ম
ষ@@
ice
jer@@
ट
hat@@
til
ди
ገ@@
ent
uz@@
dh@@
の@@
vo
sleeve
ais
כ@@
مي@@
con
تا@@
casual
፣
वा@@
war@@
ё@@
white
ዎ@@
any@@
lin@@
кі@@
gi
box
iri
den@@
ми
ಷ@@
bol@@
mad@@
зо@@
fun
ation
ms
dal@@
lat@@
má@@
טי@@
zo
स@@
ні@@
shi@@
gel@@
pam@@
pon@@
ֿ@@
ನ
ൈ@@
ೖ@@
és
ձ@@
ص@@
ii
ү
sta
ෝ@@
ት@@
ং
៊@@
న
uni@@
por
ip@@
design
med
تر@@
hair
מע@@
ito
hin@@
ته
ain@@
mis@@
hy@@
္@@
summer
ք
сти@@
super
ባ@@
វ
ី@@
ui
auto
ভ@@
hand@@
ఉ@@
়
ă@@
asa
ינג
cal@@
aki
ઉ@@
هي@@
пра@@
ਸ
ው
רא@@
phone
uy@@
ڪ
rhinestone
ail@@
galaxy
up
בא@@
ী
Т@@
ell@@
ደ@@
ຜ@@
ڑ@@
ika
ം@@
len@@
ки
party
vest@@
bet@@
вы@@
ત
tv
ye@@
лі@@
ال
се@@
cha
kum@@
af
ban
pul@@
при@@
bul@@
cor@@
som
screen
ula
dan@@
بر@@
ан
ме
ራ@@
ما
tat@@
ጥ@@
ό
ប
anga
hl@@
tas
elo
art
vir@@
ono
ly@@
ত
ан@@
ри
color
ee
ე
aya
alta
mor@@
wedding
ያ
ះ
жо@@
ann
എ@@
pel@@
mul@@
án
yi
red
का
ћ@@
Д@@
chi
ў
fa
ሰ@@
ко
من
ben@@
watch
mit@@
है
स
gps
silver
ich
ok
ць
mu
ூ@@
ket@@
mol@@
kang@@
ora
yu@@
machine
pot@@
alo@@
ال@@
wah@@
ට
lot
ღ@@
ж
ker
tom@@
க
ने
का@@
ശ@@
cnc
च@@
hu
ና
ast@@
وي@@
ila
ru
ో
ं@@
си
ava
lan
ish@@
зи@@
hotel
aut@@
ca@@
kin
ow@@
by
ken@@
vak@@
ė
din
ታ@@
ٿ@@
ធ@@
ks
pin@@
نه
bag@@
bar
ning
וי@@
ဝ@@
,@@
ro
bur@@
wal@@
ჩ@@
oto
फ@@
rohs
ст
san@@
pil@@
mil@@
सा@@
ды
ځ@@
ht@@
esi@@
बा@@
ણ@@
ini@@
kho@@
دا@@
ד
ळ@@
anti
ත
ജ@@
ori@@
نو@@
metal
त@@
எ@@
ŝ@@
sit@@
من@@
व@@
ве@@
ක
ud
пре@@
স
ला
ಯ
ns
hol@@
ori
oo
ero
ты
ring
во
ਮ
kir@@
ળ@@
asi@@
से
vol@@
blo@@
kot@@
في
આ@@
produk@@
op
са
ஆ@@
tro@@
ڻ
wen@@
des
ear@@
لو@@
vr@@
azi
ಎ@@
ae
pi
्या@@
ons
line
ෂ@@
che@@
ين@@
एक
kus@@
ဒ@@
adi
лы
वि@@
iso
ሚ@@
ong@@
ato
set@@
ջ@@
bre@@
kab@@
vor@@
iy@@
oh@@
blue
ну@@
ច
alibaba
kit
inn
dat@@
û
сы
ť
fun@@
steel
ده
ot
ż@@
xl
jewelry
ේ@@
β@@
bir
த
ડ
sun@@
vy@@
ser
bot@@
mm@@
wel@@
ώ@@
kas
cho@@
kah@@
nam@@
fy@@
ту
pang@@
tab@@
ధ@@
ර
ह@@
эн@@
ধ@@
ger@@
؟
дар
hr@@
او
unt@@
ශ@@
ца
een
ill@@
mas
ви
big
det@@
son@@
ez
ਣ@@
ний
ste@@
र@@
ap
ഹ@@
ran@@
ג
अ@@
full
iro
tes
dc
let@@
శ@@
ska
min
ulu
ά
نا@@
ദ@@
logo
קו@@
ጠ@@
پا@@
ڙ@@
lab@@
sat@@
ts
თ
lal@@
ib@@
pin
છ@@
ug
पा@@
ඇ@@
из@@
sar@@
অ@@
ı@@
ڏ@@
мен@@
ngo@@
де
das
تي
lit@@
ول
sul@@
adi@@
ב@@
bro@@
diz@@
הא@@
і@@
טע@@
और
ഞ@@
tri@@
eni
ҷ@@
sv@@
ల
די@@
sm@@
ໂ@@
pad@@
מי@@
ճ@@
fil@@
ළ@@
سر@@
wo
cho
б
гі@@
met
gol@@
>
ഉ@@
هي
ds
yon
wifi
።
nak@@
ና@@
hor@@
lik
ю@@
ന
che
thu
zh@@
wall
dengan
oro
zu@@
ಕ
sab@@
ड
cap
đ@@
ف
ድ@@
័@@
ड@@
tas@@
мо
ري
ą
ု
sy
ц
spring
ire
ham@@
لي@@
bes@@
ब@@
ډ@@
ст@@
ски
mp@@
سي@@
smd
ör
ath@@
ise
best
home
न्@@
ή
ң
ሪ@@
usa
mens
kit@@
ej@@
aus@@
mai@@
ais@@
փ@@
can@@
об@@
ля@@
nov@@
iv@@
ຖ@@
ор@@
power
ها@@
про@@
*
cer@@
महिला
<@@
san
kli@@
ני@@
az
੍@@
wat@@
ilo
amp@@
mus@@
wak@@
mir@@
ĉ@@
olo@@
print
ке
jersey
ካ@@
ө
att
ቶ@@
né
ድ
ה@@
ឆ@@
ץ
эй
silicone
tä@@
sn@@
oo@@
ді@@
put@@
ಆ@@
шу@@
ही
े
custom
vestido
ski
jak@@
ש
ሳ@@
ün
پار@@
لاء
ਉ@@
lum@@
ball
ин@@
ძ@@
th
stat@@
ten
iga
фа@@
ax@@
eh@@
eu
ణ@@
ema
ф@@
ry@@
ಾ
मो@@
amin
हा@@
څ@@
bang@@
tai@@
tun@@
gen@@
fer
dresses
gold
þ@@
nit@@
મ
צ@@
मा@@
band
nat@@
bin@@
tit@@
nd@@
tre@@
ная
्या
sem
dia
кар@@
xa
ő@@
'
haw@@
Н@@
ло
dhl
չ@@
thi@@
nis@@
und
inga
mer
pir@@
سو@@
anti@@
ց
factory
ጣ@@
пи@@
fas@@
сі@@
olo
kau@@
бы@@
yn@@
סט@@
jet@@
ist
sim@@
original
اي@@
wi
apa
ator
bas@@
ព
רו@@
ધ@@
til@@
ola
ತ
ች@@
nova
sc@@
tau@@
hau@@
ણ
zin@@
uta
art@@
any
nag@@
ded
пу@@
ើ
ên
zu
dol@@
nar@@
vestidos
ල
var
ţ@@
back
tra
fur@@
උ@@
gam@@
ty
جا@@
sand@@
ņ@@
fal@@
ega
ino@@
ani@@
ave
ਖ@@
rgb
eti
tal
ih@@
eri@@
برا@@
ණ
دو@@
bah@@
ret@@
kn@@
О@@
cable
cas@@
laser
bri@@
vit@@
ಣ
ean
kun
gor@@
lel@@
är@@
prom
Ц@@
ј
ජ@@
ξ@@
plat@@
tap@@
це
short
от
وم@@
hat
pun@@
ਣ
И@@
rat@@
ipad
sim
pen
در@@
ند@@
هن
زا@@
мен
za@@
nh@@
col@@
جو
ò
net
cap@@
ആ@@
ੜ@@
shoes
ि
ፍ@@
प
श@@
pet@@
uri
ී
glass
от@@
गि
ભ@@
ver
kai@@
ቅ@@
vet@@
tpu
зу@@
چې
kil@@
retro
edi@@
य@@
ਚ
het
eb
од
som@@
ാ
video
non
ug@@
ጥ
ao@@
че@@
зі@@
+
ĝ@@
like
gan
의
oc@@
шин@@
kids
ছ@@
mod@@
ги
ള
inter@@
ይ
ej
sti
oli@@
imo
ा
zoo
उच्च
you
mut@@
دا
сто@@
kaw@@
fre@@
ா
dir@@
fit@@
ль@@
ren@@
cheap
panel
ler
די
ļ@@
क्@@
hem@@
diamond
hä@@
ер@@
খ@@
wu
star
tion
бі@@
ladies
fe
daw@@
ញ
ච@@
sto@@
hon@@
hot@@
י
бай@@
ං@@
ps@@
qi@@
č
лі
له
එ@@
fin@@
une
camera
ľ@@
۽
än@@
mam@@
Л@@
ér@@
mobile
cam@@
tor
ну
ig
ál@@
ω
۾
dom@@
ਈ@@
जा@@
ер
гар@@
Р@@
vá@@
let
anta
ឡ@@
flower
ram@@
itu
res@@
fol@@
ो
ip
lá@@
iki
бар@@
girl
ဂ@@
hè
ආ@@
ı
smart
pos@@
म
ले@@
ખ@@
ዲ@@
נע@@
ev
bir@@
мы@@
ку
स्@@
ör@@
че
nem@@
xo@@
gan@@
ew@@
ຽ@@
ट@@
मा
fit
ле
_@@
وت@@
ੈ
ě
she@@
ann@@
ity
ໍ
dro@@
net@@
zz@@
ide@@
է
до
би
ഇ@@
hur@@
rak@@
шо@@
oe
ता@@
los
ole@@
sen
lak@@
nau@@
oni@@
pad
ጋ@@
ஒ@@
pres@@
פי@@
cu
لا
aba
aus
tir@@
alo
dam@@
पर
ton@@
rin
aro
bra
нд@@
digital
cotton
angi
ken
eli@@
pur@@
ער@@
।
ly
las@@
го
ris
तो
ې@@
pit@@
ultra
bil
winter
ય
chu@@
့
با
lap@@
film
lamp
soft
ry
ei@@
vil@@
yan
jas
leather
inch
gro@@
тер
hen@@
flash
ras@@
ূ@@
ζ@@
alim@@
ulo
card
huawei
py@@
cin@@
motor
ו
kali@@
ೕ
meg@@
чу@@
dalam
ón
hit@@
nap@@
pendant
gas@@
kaz@@
тер@@
usi
ധ@@
Ọ@@
leg@@
sor@@
ິ
bez@@
pada
ढ@@
В@@
नि@@
डी
avy
ग@@
ຼ@@
her
ժ@@
dual
ня@@
sap@@
mata
with
jum@@
ۍ
pp
hn@@
hom@@
hum@@
يا
rem@@
के@@
ass@@
plastic
gy
ো
oi
ici
וא@@
ဟ@@
mé@@
що
sem@@
ens
ament
סי@@
eli
mur@@
၏@@
हि@@
ઝ@@
price
Ж@@
شا@@
lag@@
was@@
aku
sko@@
вы
sli@@
ست
hang@@
port@@
ঙ@@
ler@@
sum@@
cute
ಸ
ž
ego
چ
dur@@
iti@@
ना@@
ൻ@@
ዋ@@
ែ
tek@@
же@@
mar
sho@@
par
ô@@
פון
ئي
hou
ता
מ@@
ail
ion
در
ली
kom
ליי@@
wn
gel
bis@@
لي
ding
bit@@
कर
вя@@
नी
ill
ם
сты@@
rit@@
мар@@
azi@@
sw@@
age
пе@@
bad@@
cai@@
فا@@
gad@@
esi
but@@
“@@
ace
sur@@
sin
has@@
उ@@
way@@
wad@@
ет
سي
ף
hai@@
;
oli
med@@
raz@@
सं@@
bikini
freeshipping
sty@@
ले
dag@@
ज
maj@@
neck
ु@@
ume
gir@@
ာ
dari
ना
sta@@
elegant
هو
idi@@
ա
ай@@
ans
ima
بن@@
ber
cre@@
lav@@
ծ
ine@@
eri
tube
tá@@
ue
ton
ج
vas
kle@@
uv
ші@@
ني
ting
ador
يو@@
zam@@
và
dil@@
ard@@
ade
hip
ൽ@@
ئي@@
sport
ሽ@@
kre@@
ам@@
fat@@
eke
dig@@
ဥ@@
бар
ard
dat
rin@@
dad
fac@@
ment
có
pls
चे
fu
ад@@
eto
ھ
ិ
mt@@
heart
zir@@
ँ@@
flip
по
sav@@
=@@
toe
ග
eg
nem
භ@@
anya
mach@@
ner
ні
سم
עק@@
cur@@
ple@@
ఆ@@
pp@@
ሴ@@
pus@@
मि@@
lady
است@@
און
hab@@
ी
gri@@
pas
਼
раз@@
ile@@
$
display
cum@@
ō
jon@@
ඉ@@
waterproof
hana
?@@
tan
nor@@
eb@@
ano@@
kamera
ণ
ອ
kay@@
jam@@
плат@@
وار@@
ല
&
wanita
als
ota
bas
dekor@@
gen
uni
со
eka
aba@@
bun@@
board
ូ
end@@
jen
sis
dri@@
bon
tim@@
ті@@
nen@@
cartoon
laptop
bus
ட
ger
тар@@
mun@@
tablet
tul@@
%
ary
aan@@
בע@@
ps
iri@@
dy
ዳ@@
dem@@
ster
់@@
tet@@
pink
bata
бо
lis@@
প
jan@@
ши
tis@@
ami
лу
haz@@
مع@@
sek@@
רט
loo@@
пар@@
הו@@
gh
ро
chin@@
dor@@
を@@
ڈ
ın
тар
ഴ@@
ብ
lig@@
yan@@
бол@@
ín
touch
री
ак@@
ড
och@@
cá@@
ска
ante
фи@@
ධ@@
atau
सि@@
ੋ
gb@@
ಭ@@
ess@@
umi@@
girls
нов@@
đ
ٻ@@
dig
ക
taw@@
rang@@
بو@@
دي@@
max
bike
izer
مل
fut@@
ಇ@@
을
mü@@
stainless
ಮ
don
ത
ीन
yar@@
autumn
kim@@
core
ll
nek@@
הי@@
চ
Г@@
hd@@
int
jed@@
ран@@
model
angan
mit
fabri@@
мі@@
ज@@
hdmi
off
су
থ@@
nei
toy
रे@@
ષ@@
wireless
У@@
ए@@
ኛ
pant@@
pants
my
apple
vas@@
دي
lad@@
ру
king
jacket
telefon
ya@@
tin
dim
utu
round
tot@@
pet
ڊ
ŭ@@
aw
վ
nie
tem@@
ці
رب@@
ќ@@
大@@
ஜ@@
에
жен@@
пла@@
ahu
”
clip
pano
accessories
double
pre
kat
mode
प्र@@
ль
pes@@
ени@@
ss@@
cil@@
į
tank
spr@@
piece
flo@@
kes@@
ဇ@@
iz
uti
lí@@
дер
akan@@
green
hil@@
זי@@
ፈ@@
hak@@
char@@
ді
ণ@@
shu@@
па
بل
promo@@
ette
ī
sad@@
kai
од@@
new@@
backless
dai@@
vu
ચ
fam@@
nav@@
plast@@
بي@@
moto
ше@@
ਧ@@
jin@@
ans@@
ves@@
nas
if@@
Х@@
ched
कि
lem@@
lang@@
neg@@
charger
aluminium
ៀ@@
ಲ
mó@@
post@@
ஷ@@
है।
portable
ڇ@@
ont@@
ite@@
ş
៌
wed@@
ain
cali@@
gift
uv@@
dvd
lig
ክ
याँ
gre@@
भी
шта@@
bạn
ings
ղ
ሁ@@
gab@@
ган
mid@@
sony
या@@
nom@@
jar@@
sch@@
ķ@@
ళ@@
tran@@
ಧ@@
atomizer
xiaomi
fir@@
tus
ൺ
ь@@
fak@@
mes@@
của
may
law@@
tag
dra
ben
හ
سم@@
inte
ash@@
kost@@
gur@@
dav@@
iya
foto
battery
ات
сан
टी
iko
key
ਦ
kä@@
bisa
зна@@
ft
uli
â@@
يا@@
ia@@
eu@@
र्@@
ner@@
cel@@
maka
ein@@
not@@
made
had@@
asta
poly@@
ງ@@
este
dar
ען
тор
oy@@
mat
beach
yam@@
panas
jeans
ian
luxury
ژ@@
denim
ated
holder
नव@@
adapter
over@@
gs
тор@@
aq@@
ast
לו@@
wood
ahi
bus@@
тан@@
ще
kri@@
sterling
ġ
бор@@
multi
wr@@
qualit@@
ча
سان
ación
ህ@@
cad@@
ሊ@@
रा
ù
dzi@@
це@@
ຟ@@
ڻ@@
akan
مت
lis
cat@@
ende
zak@@
sleeveless
stri@@
গ
bli@@
гі
eo
ван@@
end
ຸ
ਡ
ण
cht
Ç@@
شر@@
aded
वा
ූ@@
ster@@
nä@@
sig@@
ه،
yi@@
mav@@
oh
zen@@
ws
kö@@
cat
ឺ
tar
oda
भ@@
cosplay
પ
eth
jal@@
produk
ৃ@@
kar
jó@@
jes@@
strapless
رس@@
nad@@
bay@@
product
rose
shell
ink@@
ħ
eci@@
ਆ
ге
က
छ@@
ás
naj@@
ख@@
ই
clo@@
zit@@
چا@@
Е@@
ஃ@@
пры@@
ris@@
=
xe
wy
sie@@
zan@@
dem
kaf@@
shirts
ឥ@@
在@@
rel@@
eme
ques
enta
ഭ@@
out
ис@@
inta
кра@@
zen
les@@
ኤ@@
low
द@@
hua
day@@
dum@@
ږ@@
ս
zon@@
coat
indi@@
кан@@
tay@@
فر@@
the@@
İ@@
cul@@
alt@@
נט
xxl
organza
jat@@
star@@
wang@@
יל@@
مش@@
map@@
ems
multi@@
hul@@
ski@@
ves
electric
או@@
ί
ob
say@@
Ž@@
enti
קס@@
sd
лон
band@@
fai
ּ
ets
eco
mau@@
ità
els
abs
lite
eva
rad
ket
dit
land@@
sing@@
för@@
ຢ@@
ठी
ram
dre@@
#
tee
sky@@
ím
nail
ì
mermaid
head@@
रा@@
speci@@
रंग
ವ
solar
ē
decoration
seg@@
het@@
rad@@
लि@@
ឈ@@
bang
سن@@
nd
anan
هن@@
مي
लिए
chain
בי@@
pis@@
জ
ell
дан
дра@@
nas@@
plug
مف@@
عم@@
nes@@
aji
に@@
aur@@
avo
lah@@
fur
ق
né@@
人@@
зы@@
sam
té@@
bank
natural
male
anas
xx@@
tôi
ble@@
мы
व्@@
dot
wis@@
fon@@
stu@@
ale@@
ለ
он
mä@@
гра@@
ost@@
eno
gas
dio
ნ
dru@@
chip
aal@@
tak
etti
sai@@
may@@
ting@@
lac@@
dvr
kulit
бер@@
sas
drop
adalah
mac@@
ett
لو
ener@@
stand
بل@@
sr@@
rc
ጫ@@
gil@@
bodycon
tang@@
ळ
أن
qi
וו
ria
مح@@
boots
bridal
лен@@
rap@@
डे
spo@@
ዘ@@
ден
asan
án@@
mang@@
port
tt
nik
wiki@@
جي@@
venda
sed
kt@@
vu@@
боло@@
一@@
mau
зе@@
ু
ती
из
עט
على
ং@@
بال@@
htc
dé@@
चा@@
مان
ෑ@@
च
ml
ando
पि@@
mei
dl@@
zar@@
ື
amo
real
hard
wat
wur@@
remy
lä@@
ingen
ዝ@@
vapor@@
ю
aq
ٺ@@
emo
cro@@
रो@@
ض@@
cha@@
fel@@
drive
bilan
sau@@
vé@@
vat@@
عل@@
kini
ble
pli@@
ታ
tos
тра@@
៍
kad@@
ಒ@@
hp
צי@@
ahan
ե
ос@@
inen
gown
tru@@
vis
ها
zim@@
jos
dak@@
gin@@
ente
вам
кол@@
ес@@
poz@@
या
។
uj@@
як
zel@@
مه@@
parti@@
mek@@
или
sie
sir@@
cum
נד@@
plated
ide
pedi@@
शन
cross
spor@@
ön@@
kontro@@
emo@@
sub@@
कप@@
tut@@
gun
bh
jn
esa
pul
ჭ@@
ঁ@@
kita
ሆ@@
teg@@
ät@@
фо@@
micro
oz@@
ек@@
ring@@
plastik
eleg@@
bos@@
kwal@@
can
proof
סט
bracelet
mis
чо@@
جو@@
ved@@
sten
सु@@
kem@@
עם
atu@@
pt@@
ith
झ@@
ше
cru@@
ses
gran@@
ute
ks@@
गुणवत्ता
ኪ@@
ун
adh@@
ፋ@@
libr@@
اني
patchwork
េ
नहीं
gul@@
ಳ
ou@@
see
नेतृत्व
ין
nach
мат@@
inc@@
yim
aire
run@@
ర
awan
pá@@
ர
ů@@
single
sticker
ਥ@@
אי@@
ví@@
length
व
ጌ@@
ical
ળ
ав@@
घा@@
ச
डा
tí@@
use
ര
post
mani@@
ici@@
shenzhen
和@@
हैं
ella
sapatos
sha
mana
universal
ే
mem@@
భ@@
ູ
tidak
نا
lon@@
led@@
uru
solid
bru@@
sweatshirt
pai
ੌ@@
تن@@
tra@@
slu@@
classic
gsm
ڼ@@
bam@@
ub
imi
ספ@@
пад@@
jag@@
ሮ@@
घ@@
ping@@
في@@
jan
ਛ@@
nes
ונ@@
control
flat
arri@@
xu@@
kis@@
ഒ@@
dost@@
lg
ඔ@@
satin
ré@@
bay
ase
pod@@
acc@@
лер
pearl
ві@@
yat@@
win@@
ex
lum
prod@@
ৈ@@
handbag
лет@@
cowhide
ڌ@@
ime
мода
وي
tav@@
बे@@
aza
enti@@
օ@@
dade
sis@@
शिपिंग
female
цу@@
مت@@
ning@@
unisex
lau@@
लो
tw@@
прода@@
ust@@
fis@@
پت@@
ys@@
rai@@
rec@@
leng@@
пр@@
ss
sili@@
ђ@@
ash
isha
stone
breathable
und@@
он@@
चा
ઓ
aja
oper@@
яс@@
water
kt
hav@@
dr
मी
ទ
alle
zer@@
rf
ني@@
hair@@
aug@@
į@@
وات@@
uc@@
pic@@
aki@@
ар
ame
ਹ
ຣ@@
ਪ
ін@@
shi
liber@@
هر
là
ቃ@@
ಟ
key@@
ami@@
less
fem@@
ess
pra@@
З@@
vil
ных
onal
fro@@
suit
kia
بي
cot@@
不@@
ఎ@@
fai@@
rag@@
дар@@
tie
ige
ره
jor@@
tion@@
woman
square
ع
envi@@
пі@@
downlight
tam
ading
pou@@
wing
outdoor
tur
wai@@
сло@@
мм
way
rab@@
cut@@
professional
appli@@
fum@@
को@@
ات@@
super@@
ģ@@
nic@@
ዕ@@
ша
sensor
قا@@
ষ
nen
ū
mab@@
yor@@
الم@@
system
ros@@
dec@@
ları
org@@
៏
eni@@
room
ב
polyester
ron@@
ब
чи
Ф@@
mand@@
ep
sports
decor
sel
umi
է@@
нар@@
ats
fah@@
mma
dt
सी
يل
ls
jam
jet
tum@@
دن
bs
sus@@
hun@@
lari
nice
中@@
балан@@
pour
tom
zipper
telef@@
sé@@
fet@@
是@@
ın@@
anak
ized
ቤ@@
các
hay@@
warna
tol@@
קס
هم
ළ
rfid
charm
ද
order
nam
हे@@
ዝ
stan@@
necklace
ƙ@@
illa
cus@@
een@@
हे
ண
oka
cc@@
ونه
ጭ@@
tl@@
ix@@
ط
sweet@@
siy@@
דו@@
kro@@
कर@@
무료
tah@@
christmas
tai
ء
uh@@
ڳ@@
ich@@
تص@@
uan
зи
red@@
сук@@
ल्@@
plaid
प्रकाश
ሌ@@
ፍ
бан@@
ورت
свя@@
بر
cardigan
euro@@
्@@
ő
wil@@
ier@@
land
קי@@
gn@@
series
tea
modo
小@@
lor@@
ium
ck@@
ous
ogo
دار@@
лек
ero@@
én
mujer
nt
ቢ@@
сли@@
ele@@
ౌ@@
vie@@
لن@@
kristal
Ẹ@@
frame
مون
ман@@
tura
kabel
ቁ@@
دو
princess
pper
stro@@
आकार
òn
lé@@
ራ
cool
elektr@@
gest@@
mesin
ric@@
وار
thi
sing
ظ@@
barang
cen@@
virgin
taf@@
ও@@
ግ
bara
ኮ@@
bat
ჯ@@
canvas
ൾ@@
ቦ@@
eto@@
خ
mobil
ful@@
를
kup@@
эй@@
mix
dad@@
وب@@
ሎ@@
ሲ@@
이
eza
ска@@
ح
ins
gem@@
tool
cup
aran
paper
чки
body
배송
arka
gb
gg@@
rok
ند
meng@@
ਯ@@
шка
वी
ат@@
dog
log@@
biri
chil@@
ణ
mal
inf@@
年
ges
ू
data
emi
dd@@
ذ@@
tho@@
drag@@
мі
गर्@@
dos
bed
tis
wan
autom@@
tri
ropa
ਭ@@
मु@@
via
button
onu
ൃ@@
ген
pele
वे@@
ете
korean
جد@@
ሉ
front
online
م،
ុ
ida
nun
handmade
belt
zap@@
ָ
kalite
्र@@
ies
sun
person@@
kad
head
wig
них
wer
фу@@
tä
bow
boy
ુ
संग
فون
bom@@
छ
ef
iny
ዛ@@
रि@@
ई
stock
korea
festa
lot@@
有@@
wallet
мет@@
сан@@
ngu@@
top@@
бра@@
ico
pla@@
وال@@
carbon
ږ
ሞ@@
gun@@
ती@@
dit@@
מפ@@
tulle
pri
vel
ем
dun
ull
יד
eller
انه
ീ
has
fo
rom
harga
its
xo
гла@@
وس@@
ҳ
non@@
ود@@
get@@
ün@@
ണ
年@@
कु@@
faz@@
pc@@
zon
sö@@
oma
مخ@@
が@@
side
sag@@
long@@
тен@@
nal@@
lay@@
saf@@
cav@@
amat@@
bare
ህ
зу
rá@@
raf@@
alloy
छा@@
dab@@
مه
غ
दर्@@
aku@@
bel
ที่
стра@@
diy@@
damit
cia
reg@@
ಥ@@
table
ór@@
pah@@
لم
quartz
quad
glo@@
wire
ros
ware
mum@@
مار@@
hle
ो@@
лан@@
öl@@
!@@
sco@@
ду
गि@@
हो
vest
wu@@
נו@@
ап@@
ઓ@@
stand@@
上@@
omi
ве
voor
شي@@
ዶ@@
ę
radio
paypal
baju
skirt
ву@@
ઘ@@
sep@@
plan@@
diri@@
ква@@
fen@@
care
сте@@
alar
avi@@
elle
ने@@
sex
ling
שע@@
yem@@
ıl@@
չ
kualitas
zad@@
ύ
пер@@
tops
produc@@
audio
floor
вер@@
legging
ır@@
нда@@
ates
ব
”@@
shorts
mobil@@
شت@@
는
las
hoodies
motor@@
krist@@
materi@@
custom@@
ዊ
يم
fair@@
skin
vari@@
დ
ఇ@@
dis
american
ник
ден@@
ors
lle@@
ents
bili
पुरुष
aste
popular
उत्पादन
pot
על
ау@@
peng@@
nokia
gat@@
ля
را
inan
candy
ár@@
under@@
डि@@
कार
stil
ול@@
photo
inde@@
سل@@
nai@@
दा@@
टा@@
anna
इ@@
म्@@
дол@@
kalit@@
faux
fé@@
với
קע@@
filter
rau@@
му
จัดส่งฟรี
bed@@
sia
ín@@
xi
yt@@
pieg@@
prin@@
ጉ@@
cri@@
pom@@
yen@@
sh
لم@@
apar@@
은
lı
खा@@
משלוח
club
down
cit@@
inn@@
lingerie
は@@
iska
ቅ
iş@@
ሸ@@
лах
kü@@
fiber
aty
تح@@
ско@@
wol@@
bola
gö@@
خا@@
road
medi@@
modern
ψ@@
ста
aca
yen
・@@
usi@@
spag@@
hand
สำหรับ
cut
oak
jar
жу@@
sau
lt@@
yel@@
इस
ck
ens@@
estas
सर्@@
hin
ds@@
ech@@
बि@@
unu
king@@
không
ដ
hop
plush
bags
य
ille
had
कि@@
lamp@@
ec
ford
sto
טר@@
ukuran
toyota
odm
dn@@
von
किं@@
lock
mesh
ዚ@@
panjang
ü
gum@@
ance
warm
polo
dir
door
anja
אין
ales
forma
ff
mos
שו@@
مص@@
ቲ@@
mua
दा
ț@@
pan
вет@@
شي
ober@@
доб@@
дан@@
funk@@
acrylic
io@@
ፊ@@
nin@@
ті
standard
ion@@
hy
uro
saw@@
elet@@
ond@@
نس@@
time
وا
ges@@
أ@@
ameri@@
ك
การ@@
тан
ras
stud
meter
pos
pê@@
nan@@
tina
best@@
ling@@
cli@@
cab@@
ony
strap
ك@@
wir@@
acht
oil
є
bl
uz
гу
len
mill@@
ción
Ş@@
ሙ@@
stick
sä@@
rs
oor@@
baseball
uur
pack
може
चि@@
painting
tiv
ede
cle@@
aaa
game
ted
kop@@
ming
ఒ@@
swimwear
aliz@@
ټ
ברי@@
lima
ሻ@@
sah@@
roz@@
material
isk
टर
yuan
הע@@
mb@@
ного
чка
وت
messenger
गो@@
yet@@
daj
lava
रु
ї
kov@@
azz@@
pt
fri@@
evening
val
moq
daya
ĵ@@
ran
ல
ote
так
off@@
roll
ello
pek@@
دې
શ
kel
และ
xin@@
kos
mes
gle@@
fm
ניי@@
дру@@
ړ
تر
ते
alu@@
חינם
được
ной
tü@@
ship
ин
form@@
loose
ім
app@@
nah@@
jes
honda
pullover
જ
womens
рас@@
спа@@
alan
फोन
Ј@@
से@@
arti@@
cob
प्@@
ub@@
aliexpress
anc@@
note
back@@
sapato
פל@@
मे@@
trong
fil
dek@@
sas@@
gra@@
cos
hoa
تا
toys
мета@@
ృ@@
sur
ulu@@
फ्@@
model@@
पी@@
ూ
ubu@@
фур@@
pay@@
сер@@
mara
як@@
ie@@
lang
ቆ@@
arm@@
ft@@
سائ@@
eve
pav@@
electronic
кор@@
ren
keychain
một
ير@@
elast@@
वर
של
ჟ@@
ώ
ሉ@@
ios
ew
bos
mus
telah
ğ@@
dur
osi@@
amu
сла@@
pw@@
work
អ
kho
dau@@
laz@@
ई@@
zur@@
sweater
num@@
kami
vinyl
ঘ@@
nia
थ@@
тт@@
चीन
lights
anime
ным
ที่@@
vor
haf@@
giá
وش@@
xs
خت@@
plasti@@
plo@@
micro@@
ऊ@@
fic@@
पु@@
ере@@
गा@@
grand@@
кон@@
ီ
лет
ron
ange
hang
pantal@@
umu
ía
mater@@
nica
sk
dır@@
popul@@
ня
punk
floral
под@@
yeni
сте
itas
ics
ث@@
bent@@
مون@@
द
auto@@
ця@@
ઈ
त्@@
ឿ@@
нан@@
ደ
yin
dre
ધ
heel@@
get
ी@@
ento
beads
bei
مل@@
વ
clu@@
tahun
ئ
js
earrings
ation@@
bab@@
हो@@
tional
сти
ස
ह
collar
hö@@
lab
dag
cctv
polit@@
рі@@
dimmable
press@@
strip
лер@@
sang@@
ș@@
ኛ@@
papa
إلى
ov
ട
zav@@
بد@@
param@@
rar@@
player
dara
ein
ası
pem@@
kon
وم
בר@@
sus
bali
vag@@
nis
sigar@@
novo
lenovo
oran@@
शि@@
aa@@
fab@@
ও
agi
ಖ@@
bai@@
switch
पे@@
ort
Ṣ@@
kes
bal
ሁ
دار
elek@@
alit@@
aş@@
akt
了@@
аб@@
Э@@
аф@@
zn@@
رف@@
ഓ@@
jel@@
انت@@
የ
more
bao
api
xperia
oso@@
fon
ses@@
fram@@
же
ray
dum
&@@
rt
ፕ@@
нии
ولا@@
estilo
פרו@@
tunt@@
alla
vers
frete
bras@@
wall@@
ዓ@@
buk@@
dim@@
tik
шт
что
issi@@
ust
دت
sle@@
dla
ám
zem@@
thu@@
тка@@
ஹ@@
longa
halloween
uit@@
טי
ሜ@@
avo@@
fot@@
शर्ट
ष@@
џ@@
ża
ֆ@@
lens
لل@@
cree
جن@@
sion
designer
ੜ
block
rah@@
том
shir@@
بار@@
desain
house
besar
क्री
ൗ@@
ट्र@@
cell
past@@
test@@
pipe
diam@@
высо@@
link
ь
tv@@
出@@
नु@@
кара@@
新@@
ment@@
ный
alt
рен@@
dv@@
sion@@
यह
ዎ
sid@@
radi@@
igh
hé@@
brush
ox@@
िक
日@@
ган@@
ores
स्व@@
costume
тро@@
át
poli@@
lash
wal
usd
ෘ@@
нг
lei@@
clothes
veg@@
ሽ
eti@@
rus@@
bmw
tab
sleep@@
jim@@
ጨ@@
،@@
ating
tre
lus
aju
vw
taj@@
jack
thể
bin
onda
фе@@
flu@@
foto@@
fik@@
saya
für
jin
と@@
pru@@
свет@@
cas
تي@@
fran@@
travel
ላ
地@@
сен@@
noiva
Ə@@
ठ@@
hah@@
femme
ध@@
gt
электро@@
ओ@@
bor
last@@
जा
doll
plate
voi
auta
if
pend@@
мя@@
blu@@
lak
ؤ@@
isti@@
cigar@@
mic@@
digitizer
suits
ick@@
кон
stre@@
good
لون
chrome
ះ@@
protector
bb
машина
水@@
णा@@
ф
ley
mae
ਐ@@
ंग@@
vet
ਜ
rom@@
سب@@
elli
dua
„@@
dah@@
aar@@
dames
enda
ຶ@@
ago@@
gön@@
view
eth@@
вання
glu@@
bic@@
mc@@
хи
open
gaya
حا@@
ग
эк@@
的
ਘ@@
ery
lampu
ody
क्र@@
जी@@
ном
ii@@
ier
km
tangan
पूर्ण
цы
inverter
ados
ጊ@@
ping
zer
amerika
দ
هذا
base
קט@@
ске
ኝ
sets
صل
ची
री@@
bling
small
spec@@
stic
lever@@
olen
uno
chem@@
ഥ@@
aluminum
rol@@
beh@@
ונג
ć
סו@@
stickers
ord@@
pengiriman
arrival
maz@@
dob@@
velvet
oleh
handle
are@@
cd
jem@@
सी@@
main@@
mid
ekran
ਊ@@
kau
cuir
ät
ltd
用@@
kav@@
ть
ара@@
жа
сту@@
вра@@
stor@@
azo
թ
gener@@
вар@@
દ
yer@@
سب
ск@@
ೃ@@
رام
supply
кла@@
बु@@
boys
ey
lek@@
ż
tex@@
ал
pac@@
vos
ные
stas
sist@@
vy
nej
ற
dik@@
जू@@
epi@@
висо@@
dij@@
ations
вен@@
bora
pcb
тка
ථ@@
das@@
עו@@
श
ering
kie
war
ech
ved
ቸ@@
chinese
emu
tools
dun@@
dev@@
tej
fá@@
zor@@
have
قي@@
ጀ@@
hui
silikon@@
trav@@
dic@@
ू@@
well
лек@@
ሪ
abo
inflatable
ઈ@@
אר@@
iii
arr@@
got@@
有限公司
router
той
tshirt
nos
роз@@
수
mari@@
jun@@
nou@@
ці@@
ding@@
trans@@
zhou
type
glas
ties
ဗ@@
cc
кры@@
gru@@
pec@@
tip
clear
european
prem@@
train
telefon@@
large
nin
مس@@
गु@@
pret@@
пой@@
हु@@
siz@@
ניו
به@@
ние
sneakers
дук@@
థ@@
ਵ
kab
res
ement
сі
手@@
ony@@
hal
over
kim
sistema
nya
fast
guangzhou
yang@@
hir
aro@@
tic@@
শ
were
chan
sten@@
మ
rechargeable
اي
proces@@
их
tir
ፖ@@
spar@@
alma
ဉ@@
rac@@
как
metal@@
وج@@
про
ân@@
natur@@
رف
kening
slo@@
ство
pod
mik@@
one@@
муж@@
để
craft
تع@@
лю@@
klo@@
jak
tes@@
sum
vai
sot@@
мер
сум@@
vara
wit@@
yal@@
chap@@
his@@
leopard
bebe
تم@@
ť@@
aqu@@
高@@
най@@
эле@@
दि@@
lama
sama
mah
ោ
ፓ@@
ipod
spot
imit@@
tot
temper@@
tr
ڙ
ista
this
esta
prov@@
naf@@
esp@@
пред@@
ago
zapatos
बिक्री
fabric@@
knitted
@
ੂ
tac@@
marka
biz@@
lebih
gom@@
otra
backpack
brown
kontak@@
god@@
rast@@
で@@
ഞ
bok
aid
golf
applique
eur
football
см
vous
גרי@@
mic
ged@@
bit
kot
दु@@
remote
dell
وائ@@
sera
jav@@
luk@@
vul@@
ود
wod@@
cz
seksi
dzi
sü@@
martin
тр@@
jas@@
graf@@
без
vat
bre
omo
xxxl
קיי@@
fes@@
tf
bli
кри@@
chat@@
fl
zil@@
عات
ے@@
ៈ
kolor
ску@@
мар
kleur
pantalon
fire@@
مو
zat@@
本@@
wor@@
uar
maxi
ule
charms
siz
هو@@
akti@@
оро@@
franc@@
jaket
зен@@
book
animal
eks
我@@
rol
רי
disp@@
пан@@
ння
ikh@@
ि@@
vers@@
sou
ним
ը@@
adap@@
sell
aman@@
item
جل@@
sol
alat
night
ड्रेस
किया
קט
rav@@
ё
ធ
alis@@
ге@@
dest@@
телефон
تما@@
फे@@
qq@@
вая
ean@@
kry@@
duk@@
galvan@@
cam
zaj@@
وه
jul@@
ጅ
कार@@
anj@@
kk
ih
lain
نان
từ
bac@@
zab@@
ෆ@@
пласти@@
face
bé@@
ור@@
beste
bij@@
brazil
дер@@
test
kuch@@
pig@@
products
uh
kur
loa
kort
टि@@
ital@@
زي@@
ham
tim
ús
div@@
ෝ
alum@@
máy
hara
дж@@
emas
kwi@@
magnet@@
ped@@
ml@@
झा@@
ኒ@@
india
gay
tren@@
सेट
ה
bol
acer
խ
bio
vand@@
ms@@
aff@@
ack@@
लो@@
tem
फैशन
motorcycle
ລ
bog@@
ick
max@@
love
тон@@
feminino
boleh
jumpsuit
appar@@
ঠ@@
play
meny@@
satu
muda
dom
새로운
nim
sweet
renda
тет
ike@@
лік
пере@@
pop
आप@@
nylon
ret
साथ
aia
redmi
غا@@
を
code
יל
يد
जि@@
lag
leu@@
program@@
makeup
лин@@
manufactur@@
ulo@@
spe@@
wheel
world
「@@
ສ
ೂ
inst@@
мини
сам
cir@@
dapat
shop
obr@@
фар@@
halter
kg
اف@@
רט@@
ath
डा@@
grade
ush
dise@@
ชุด
có@@
קר@@
kitchen
хай@@
uso
lö@@
им
bb@@
چو@@
plant
dot@@
liv@@
wholes@@
rd@@
ሳ
hong@@
cah@@
iran
etta
الت@@
iche
baş@@
grav@@
cake
子@@
sil
capac@@
vap@@
stereo
nav
تق@@
iller
aren
asyon
lampa
gear
cor
月
kra@@
ของ
try@@
ಐ@@
ongan
बी
rhinestones
wet@@
gear@@
nom
ias
mali@@
--@@
abi
ኖ@@
dub@@
ឧ@@
swimsuit
peru@@
sebagai
ants
फि@@
метал@@
human
magic
май@@
tro
пор@@
प्या@@
णी
уда@@
won@@
dal
ါ
koz@@
ڀ@@
industri@@
lai
जी
있습니다
ब्@@
гер@@
rug@@
silk
hello
ture
fs
zy@@
makin@@
produkt@@
aar
fle@@
halte
лка
dou@@
ings@@
الا
lamin@@
hap@@
शा@@
leggings
tutu
ጆ@@
tras@@
yên
eter
მ
printer
ін
sport@@
wek@@
ком
fabric
yl@@
पो@@
რ
bell
hala
liga
వ
eren
тре@@
seben@@
ux
한
yellow
office
hole
शैली
цо@@
عي
نى
ጭ
funny
bolsa
posa
enth@@
enie
abil@@
nog
mant@@
ň@@
dens
い@@
silikon
плюс
ас@@
connector
dü@@
zy
ঞ@@
baru
children
umo
ence
ups
aman
धा@@
flex
lon
يه
nek
mp
ใหม่
ים
bila
نج@@
ën
manga
wave
ffle
fin
bust
watches
jur@@
три@@
sofa
בו@@
ines
oy
【@@
ate@@
rubber
mill
сва@@
stru@@
zal@@
यो
anim@@
blan@@
טו@@
رائ@@
hollow
ре
ჲ@@
бы
toner
origin@@
vé
daha
seda
pak
matte
kara
नो
dere
gon@@
express
cn@@
name
was
тари@@
кам@@
asus
kong
分@@
jil@@
grad@@
google
antique
nur
uo
lana
машин
roller
syn@@
usu
多@@
bahan
ades
мер@@
моби@@
lun@@
бе
platform
rama
water@@
sản
pha
tft
esse
tela
спо@@
طا@@
करने
гор@@
homes
በ
itu@@
lamba
vga
सन
funda
etes
ປ
hing@@
clothing
colors
दी
ਧ
fí@@
קלי@@
ния
ova
ŵ@@
पर्@@
hun
yz@@
ther@@
nab@@
aç@@
gra
antes
גל@@
kang
ders
ós
및
ario
amp
anie
pantalla
нала@@
ipl
स्टील
sandals
ink
hàng
mount
hoodie
ဏ@@
лен
ጅ@@
الا@@
سلا@@
yay@@
pleated
eil
शरद
pai@@
ઝ
عا@@
क्स
สี
twinset
вас
тур@@
נשים
зер@@
jade
eye
fra
фи
juga
night@@
גי@@
हैं।
marca
ville
tung@@
longo
tote
การ
生@@
без@@
alam@@
ن،
lol@@
our
romper
bro
badan
шки
duc@@
عمال
creative
ï@@
eki
itan
silicon
earring
city
צו@@
will
pump
від@@
fitness
eiro
alis
alar@@
٪
גן
brit@@
tracker
تج@@
vibr@@
transparent
ګ
uf@@
dor
пера@@
mr@@
pes
ches
tub
pand@@
heil@@
टा
хар@@
과
monitor
ager
мас@@
push
dant@@
сек@@
simple
مر
ே
ዳ
sac@@
asti
pabrik
oso
ቱ@@
सू@@
शू@@
lou@@
angle
day
iv
يار@@
desig@@
harajuku
ars
iss@@
pocket
khi@@
ஐ@@
ي،
ces
сай@@
iki@@
ኩ@@
metall
ማ
ച
priv@@
arg@@
projek@@
arian
య
koop
eny
zione
anu@@
डे@@
atik
यर
module
street
סטי@@
бро@@
service
לינג
ven
ching
ප
ਝ@@
inj@@
hanya
iq@@
произ@@
yu
fy
мод@@
maid
нер@@
cry@@
boy@@
चे@@
ked
ፒ@@
दर
ppy
ils
etc
ert
iron
print@@
שן
inter
ular
мож@@
sheet
кли@@
vou
は
uje
ibu
cher
tec@@
shoulder
сре@@
이@@
tare
iem
علا@@
mao
ank
automatic
थोक
produ@@
ൂ
tengo
uld
stan
לד@@
lom@@
रे
기
genuine
wigs
buru
ax
lin
ango
дизайн
패션
lit
logi@@
ౖ
lil@@
buckle
alia
stil@@
your
она@@
vali@@
खाना
nel@@
פט
szer@@
child
ვ
magnetic
ඩ
soccer
шер@@
caixa
brica
وري
दार
aju@@
ük
ril@@
canon
性@@
mail
chte
slip
zas@@
nad
roo@@
vom
mate
için
bn
fishing
bez
kamp@@
osa
ضا@@
ď
windows
cape
evo@@
فو@@
rings
punt@@
tle
सो@@
кори@@
amento
aal
ott
osi
seal
mereka
ባ
skr@@
lona
ೌ@@
وز@@
speed
ада@@
sky
tel
פע@@
प्रा@@
gon
cutter
stit@@
parts
murah
bateria
קלא@@
lie
aban
wind@@
ман
oj@@
casa
business
tiv@@
بار
panties
atas
noi
مق@@
daripada
пло@@
kant
gang
já
ม@@
spi@@
зар@@
下@@
sham@@
դ
pied@@
truck
play@@
più
angg@@
colorful
clutch
selling
แฟชั่น
prez@@
kira
indu@@
भा@@
atan
uş@@
عن
gs@@
ở
ઇ
mark
ൈ
deal@@
cie
iph@@
ем@@
waist
rei@@
hooded
вре@@
само
uto
decor@@
जो
اري
של@@
mirror
нова@@
лё@@
yon@@
ien
lim@@
गा
peri@@
טל
кур@@
سر
ró@@
luz
wax
ultr@@
nó
armband
accessory
hope
तु@@
ız@@
Д
fig@@
orange
pl
paj@@
from
shar@@
imi@@
ones
aming
sir
ሬ@@
camisa
mouse
зя@@
pattern
な@@
الي
đến
слу@@
mini@@
رين
ö
yal
מו@@
fly@@
mati@@
bt
ode
tid@@
נק
rock
oto@@
swe@@
saw
нов
jual
עד
dist@@
kant@@
izi
גו@@
bum@@
авто@@
рд
家@@
fel
wide
univer@@
engine
cina
ጦ@@
кой
行@@
त्र
princ@@
टी@@
polka
फ्र@@
paling
deep
japan
khu@@
бур@@
тай@@
ス@@
kru@@
dian
that
match
hook
cht@@
purple
kart@@
yü@@
essa
قل
ध
please
ço@@
女@@
pure
hed@@
raw@@
؛
ਖ
dap@@
picture
чна
परि@@
make
dụng
trend
ix
suzuki
colour
kers
sut@@
atur
music
сті
quad@@
ký
cara
park
sre@@
amar@@
orang
gia
computer
नी@@
eh
الو@@
tua
इन
чар@@
डिजाइन
А
package
garden
nec@@
rang
anal
arom@@
اص@@
ति@@
storage
ingo
لن
काम
snapback
refer@@
entes
inci
att@@
app
big@@
अपने
zik
capa
hoody
cher@@
high@@
여성
قد@@
royal
here
ruffles
פרי@@
hele
rim
天@@
về
chim@@
omet@@
ните
دوست@@
femininas
ሃ@@
ጓ@@
bohem@@
مع
iyi
kac@@
कू@@
ogr@@
upe
scarf
lumin@@
पर@@
сле@@
дно
ጫ
br
ass
show
pris@@
чая
kag@@
lè@@
pili@@
disk
kata
जे@@
wrist@@
pil
keyboard
ਢ@@
moder@@
gar
тери@@
ű@@
rot@@
ब्रा@@
rivet
oth@@
blouse
испо@@
ory
intl
यु@@
bron@@
ंत
ген@@
fili@@
वे
ness
राम@@
zip
git@@
खे@@
sala
chu
jacquard
europa
ጃ@@
avan@@
utan
olla
kali
موا@@
yoga
sequins
tari@@
tape
kid
ız
aux
fli@@
gran
ሮ
pis
spa
team
automat@@
â
porta
था
ก@@
ış@@
press
underwear
esti@@
हान
пол@@
medium
тек@@
годи@@
retail
papel
neckline
arm
قي
rí@@
dang@@
到@@
ся@@
لان@@
ès
nak
iu
beauty
ок@@
list@@
mh
read@@
inform@@
certific@@
גר@@
בן
ૂ
तर
cop@@
neu@@
lut@@
گو@@
tori
stella
caw@@
hen
dus
tattoo
ૈ@@
fish
ሶ@@
ቱ
وق@@
pren@@
intas
lim
zal
telefono
tali
nel
arte
masa
vision
gal
בל@@
uas
ç
unt
кер@@
lv@@
stal@@
sẽ
swar@@
hai
ѓ@@
onic
azione
مست@@
ضر@@
ली@@
】
extension
its@@
ຟ
uda
lux
ative
עכ@@
heng@@
와
ধ
gambar
jako
gü@@
embroidery
ultras@@
aby
लेट
manu@@
मशीन
wang
bó@@
لس
pole
कम
elektro@@
volt
تف@@
vs
transpor@@
छो@@
squ@@
تون@@
化@@
ඳ
ů
lt
Ч@@
sic@@
seri@@
ॉ@@
sni@@
amo@@
jika
rand@@
main
@@@
mig@@
औ@@
की@@
fier
юн@@
так@@
kapas@@
ير
john
gli@@
pon
чай
भि@@
Ш@@
paket
emp@@
ever@@
zaf@@
С
butterfly
hao
бір
ጎ@@
elite
ŭ
ун@@
brazilian
tum
זו@@
الي@@
ኢ@@
ood
ция
ឱ@@
enza
premium
site
broek
hình
rek@@
ឺ@@
kepada
isan
kwaliteit
ब्र@@
blazer
web@@
ผู้หญิง
ose
decal
mais
تور
birthday
pati@@
colo@@
ຝ@@
sd@@
naz@@
rosa
േ
bun
बल
मुक्त
masculino
stic@@
unto
nev@@
mere
parti
jep@@
support
inger
energy
mili@@
kod
tus@@
قر@@
chen
cl
vic@@
regul@@
robe
etan
сон@@
шар@@
цен@@
part@@
ceramic
ಂ
dong@@
sec@@
hir@@
nik@@
buil@@
hon
ံ
lat
york
ница
tech
shan
edge
ഖ@@
ון
нам
пак@@
pat
cs
तू@@
ovo
ania
камера
mine
ਬ
cpu
sci@@
ом
bú@@
rr
mono@@
там
store
hong
shipp@@
ቻ@@
bağ@@
heid
indian
գ
scr@@
này
enc@@
úl@@
диза@@
가@@
ષ
pint@@
anh
मूल्य
ሩ@@
मध्य@@
hit
יו@@
三@@
sal
color@@
unan
cheongsam
ਠ@@
ape
atom@@
чу
jedno@@
mt
mdf
ures
centr@@
דר@@
డ
अधिक
nast@@
hus@@
ande
mö@@
ams
ઠ@@
sgs
आगमन
डी@@
eil@@
speaker
minim@@
чет@@
smartphone
verkoop
lighting
elastic
supplier
ally
dul@@
mass@@
etas
elektron@@
مج@@
infor@@
phẩm
ray@@
bowknot
tive
мон@@
mama
sea
goed@@
dropshipping
фон
sm
school
面@@
elegante
вла@@
tia
audi
|
cream
ंग
shape
eur@@
kand@@
ят
가
alu
version
tahan
ovi
vast@@
जु@@
fcc
anka
dable
unit
उन
leid@@
від
दो@@
ጋ
máquina
tt@@
oon
fed@@
gala@@
نظ@@
shopping
ሥ@@
دم
èn
roupa
aut
ım
प्रदर्शन
оп@@
femin@@
odi@@
yamaha
but
сили@@
lant@@
ım@@
mij@@
rack
mtb
все
ת@@
dans
pum@@
braz@@
người
xr
市@@
machin@@
יי@@
find@@
जर
mall@@
ሩ
fest@@
ا،
printing
woven
тру@@
mr
ewa
全@@
pik@@
buku
cham@@
وس
lev@@
ür@@
ล@@
lagu
طر@@
пы@@
eba
hem
pent@@
وست@@
આ
chin
ots
ሜ
सम@@
cai
ア@@
Č@@
рабо@@
以@@
кро@@
हर
web
arab@@
ด@@
enz@@
بت
dro
ву
putih
ции
ét
pendants
onn@@
câ@@
зе
fres@@
ordin@@
scar@@
khi
skate@@
jiang
japanese
resin
ld@@
ligt
ную
handbags
ą@@
ball@@
kte
slimming
ద
gör@@
hood
ight
外@@
ዜ
mir
hari
\@@
에서
ned
ум@@
хе@@
wit
بان@@
тив@@
×
menta
ň
tassel
elektri@@
sz
ھا@@
التي
công
ही@@
मान
cast@@
हार
beg@@
avec
mold
ឌ@@
tig
ران
vin
nol@@
ೖ
inne
цена
нару@@
成@@
kawasaki
山@@
ül@@
into
nota
ኔ
ફ
mail@@
gol
abu
ють
साय@@
blade
dien@@
зда@@
मत
aria
heels
nissan
ष्@@
ៀ
mim@@
yum@@
svi@@
ної
sunglasses
dekat
suv
cis@@
feminina
nú@@
layar
cocktail
ப
ፎ@@
cm@@
пос@@
nfc
bulb
چار@@
名@@
entr@@
yw@@
ghi@@
gentle@@
Š@@
rat
пли@@
teri
кен@@
дав@@
मिनी
了
oz
dry
electro@@
就@@
cker
ਔ@@
kitty
тон
기@@
point
earphone
할
sign@@
multicolor
ply@@
lio
tic
प्रति@@
фабри@@
eck
bead
wen
ஏ@@
rua
grand
gopro
ça
tun
tent@@
kore
स्त
stitch
сар@@
hak
बो@@
rod@@
chan@@
рука@@
ться
voor@@
como
plu@@
сон
前@@
ဓ@@
Ü@@
ters
bet
ator@@
tand@@
form
trên
thanks
lip@@
vent@@
rh@@
golden
оли@@
ome
ligh@@
usu@@
asia
klu@@
ę@@
ኦ@@
wane
eless
бей@@
loc@@
поли@@
leg
kno@@
tres
elsa
hut@@
dö@@
ية
рак@@
tad@@
人
formal
adjustable
bán
viet@@
làm
peg@@
ډ
aler
bottle
choker
eria
रू@@
และ@@
rd
ming@@
дво@@
probl@@
drop@@
making
hotsale
lengan
stra
жи
quin@@
kem
fire
nhất
headset
oir
子
socket
И
פר@@
mà
too
ct
spl@@
sp
atur@@
ส@@
로
dance
ፀ@@
dok
skó@@
lla@@
santa
zd@@
部@@
edo
sales
прави@@
exten@@
opti@@
ice@@
pell@@
laf@@
جان@@
金@@
những
wie
수@@
टो
kal
pictures
وان@@
等@@
रु@@
kits
bear
part
igen
bai
धी
disk@@
rant@@
chen@@
bes
bany@@
तक
sor
صا@@
grat@@
yer
electr@@
aft
cent@@
titanium
bolsas
fox
gaz@@
fedex
dong
дах
गरम
patch
cion@@
bis
pur
tat
कुछ
packaging
iste
resist@@
ของ@@
asli
функ@@
ग्@@
pir
obj@@
multifunc@@
lovely
נד
ከ
lü@@
гру@@
ern@@
anal@@
гово@@
пара@@
dut@@
batter@@
rö@@
neo@@
mí@@
дей@@
gau@@
ская
美@@
ove
soci@@
window
लर
chat
heim@@
dimen@@
वर्@@
اند@@
ства
тво@@
magn@@
waj@@
מד
可@@
zet@@
вс@@
energi@@
chal@@
media
दे@@
лик
मान@@
aum
спорт
than@@
acti@@
ン@@
kak
semi
versi@@
зон
ха
mikro@@
花@@
owo
yas@@
kaca
biz
ное
टे@@
ذلك
lia
musim
run
ée
kung
тря@@
atio
ley@@
tapa
شار@@
力@@
umin@@
bater@@
lec@@
mula
nhà
вала
beautiful
fancy
fung@@
ص
queen
take
seperti
coque
оби@@
extr@@
stel@@
日
atus
हॉ@@
old
dijual
pus
рок
otte
von@@
איי@@
выра@@
bia
seat
caps
aer@@
kle
eca
ана@@
nov
чор@@
над
bib
બ
dw@@
kasual
фі@@
tekn@@
ඟ@@
sted
ر،
profesi@@
socks
aper@@
tele@@
igi
стандар@@
rambut
act
ında
akh@@
mong
japanned
usan
sul
можете
гре@@
solo
parag@@
пи
laki
mascul@@
adas
not
apro@@
apli@@
aru
нен@@
andel
glitter
brides@@
number
eling
lelaki
א
thin
def@@
ル@@
tree
року
топ
quente
baba
drin@@
produkt
primavera
物@@
sana
лим
ít
oki
यन
anger
bou@@
bulu
איר
сет@@
bey@@
ını
ऑ@@
ayan
kari@@
криста@@
bateri@@
cy
गया
each
कल
нка
उन्@@
ኬ@@
bec@@
hyundai
spir@@
سان@@
trang
ow
nika
ಡ
bright
مات
ڍ@@
string
хол@@
े@@
sell@@
ए
kaj@@
сур@@
शुल्क
кре@@
пы
pode
ów
тич@@
शी@@
cel
cell@@
ċ
pau@@
تش@@
지@@
نىڭ
regi@@
eben@@
industrial
studio
bandage
pillow
raj@@
бас@@
િ
ै@@
rak
zat
kli
ual
kus
dies
экран
रन
要@@
リ@@
street@@
ਅ
вели@@
kout
tek
ंड@@
कन
eel
така
pé@@
ien@@
прав@@
ૃ@@
事@@
interior
ace@@
पू@@
lange
gag@@
europe
bine
色@@
hia
abiye
مان@@
खु@@
ಷ
cio
obi@@
pool
ща@@
stripe
notebook
элек@@
hes@@
zima
tout
baik
дро@@
dov@@
della
тот
合@@
kaya
did
leer
เด็ก
も@@
plac@@
وقت
kanak
स्त@@
tail
ਿ
kuy@@
ката@@
adver@@
उप@@
לי
гал@@
shang@@
dai
rho@@
जो@@
mare
рам@@
buy
الح@@
ця
之@@
brid@@
tino
bodysuit
法@@
camping
kasus
iser
ৌ@@
बै
会@@
tinggi
ação
breast@@
guar@@
sent@@
thom@@
cou@@
ّ@@
goo@@
cutting
zio
izing
ථ
tik@@
kato@@
log
ေ
ungu
น@@
чен
bry@@
bap@@
xin
się
cket
lau
hombre
xl@@
eso
zioni
benz
powder
ူ
шка@@
fine
grande
gio
styling
сво@@
bak
prime
сумка
ใน
heel
nil@@
mio
sleeves
sit
zom@@
ваш
fr
grooth@@
щ@@
каль@@
baz@@
eps
united
cos@@
blusas
主@@
uit
kamar
bran@@
album
руч@@
wil
bla@@
ఖ@@
headband
avali@@
salon
ये
nos@@
कॉ@@
ៃ@@
shaw@@
detal@@
pom
hydro@@
relogio
sang
тна
controller
нас
иска@@
את
auf@@
yap@@
رت
लु@@
gola
bow@@
ности
emer@@
بش@@
iso@@
dach@@
ші
god
ekonom@@
seng@@
isu
्य
desktop
hó@@
gli
sangat
cep@@
special
同@@
auf
asy
對@@
海@@
grey
buy@@
الن@@
सर
드레스
cena
ชิ้น
african
direct
ة،
случа@@
नर
스@@
西@@
ear
vita
spot@@
hr
kor
रू
manik
glas@@
jest@@
вли@@
жі@@
бал@@
шко@@
adult
मी@@
ه؟
elu@@
absor@@
أنا
tet
life
olog@@
oris
tiga
باش@@
maxim@@
ű
trad@@
dige
ח
hub
word
ट्@@
ン
ነ
ника
ribbon
ঙ
mercedes
wom@@
dak
tifi@@
allo
garanti@@
sepatu
market
visi@@
tera
boho
mala
rist@@
~
осо@@
lê
लाई
україни
starter
mc
стан
anting
öz@@
ється
им@@
agen@@
aber@@
ዩ@@
ingi
kolor@@
metros
入@@
rä@@
esz@@
bom
बाद
वह
tima
coche
bad
opp
bụ@@
tira
food
ቡ@@
واست@@
gall@@
ниц@@
kontrol
dire@@
रहे
trum@@
snow
limited
вых
đã
mich@@
dc@@
гур@@
він
europe@@
mac
little
bayi
עד@@
ใน@@
celebr@@
stä@@
ht
bride
طو@@
bikin@@
nic
bot
naw@@
pran@@
sc
smo@@
kecil
fä@@
マ@@
فر
घर
tors
光@@
eyi
ometer
ude
тет@@
neon
чно
gang@@
beliau
kraft
शी
swi@@
plic@@
твор@@
फा@@
hdd
printed
dana
ips
just
dj
sobre
alam
stel
ى
bands
대한
scrapbooking
റ
гло@@
macbook
cycling
тки
В
trat@@
ความ@@
тол@@
omen@@
文@@
एलईडी
ader
ontwerp
ей
ток
בל
кожа
рун@@
ጽ@@
غير
mess@@
dip
你@@
bohemian
ism
ठा
baj@@
how
إ@@
stra@@
جه@@
hanger
riv@@
ата@@
ዊ@@
strass
sistem
هذه
وب
अनु@@
rod
cao
原@@
ऊ
ee@@
zod@@
fotograf@@
automo@@
donna
ñ@@
ño
aris
situ@@
公@@
نې
ሐ@@
teng@@
alumin@@
femininos
բ
semua
प्लास्टिक
طف@@
nay@@
ית
hoy
бу
معا@@
kain
wand@@
об
direc@@
wach@@
mist@@
із
hitam
يت@@
tile
дис@@
ağ@@
зі
memory
自@@
techn@@
特@@
cn
hou@@
blu
គ
פו@@
każ@@
fant@@
تل@@
ות
cz@@
pei
eit@@
तम
리@@
alab@@
eye@@
fda
sat
dome
intel
spandex
ack
got
着@@
trim
ቻ
ค@@
yaj
mask
eff@@
akad@@
far
り@@
magnet
дам
ped
ئا@@
קן
diamant
ظا@@
pali@@
पी
bá@@
lagi
dra@@
ביי@@
pers
kawaii
dark
impin
及@@
тно
qual@@
지
zol@@
barato
iler
ña
foi
epson
करते
peter
קור@@
hl
���@@
tại
pati
integ@@
जन
gle
قط@@
pio
वी@@
ış
زن
ሱ@@
gis
קטי@@
slot
encia
mudah
apk
tone
wallpaper
compet@@
بط@@
lám@@
owe
ncia
長@@
ôn
ሻ
brake
eş@@
kos@@
هل
心@@
адап@@
bahawa
process@@
ám@@
това@@
work@@
sma
ksi@@
алма@@
vem
انا
قو@@
ዮ@@
好@@
dragon
lid
при
rear
ól@@
تخ@@
roman@@
sts
lav
dea
rotary
kare
botas
oran
file
qui
ा@@
עי@@
دون@@
fly
sequ@@
flowers
coil
дет@@
еди@@
geri@@
eres
manual
زي
superior
בלו@@
bicycle
շ
snap
суа@@
ore@@
romant@@
xxx
टो@@
spesi@@
ind
الأ@@
ቴ@@
motorola
uro@@
높은
bm@@
нер
者@@
utama
west@@
क्रिस्टल
ー@@
эт@@
atv
الب@@
diesel
د،
bord
mä
dok@@
yaf@@
thank
ρ
mina
會@@
rumah
ника@@
út
fus@@
eler
df@@
vera
стан@@
fie
ction
定@@
स्ट@@
都@@
ቂ@@
rian
mb
kolye
tige
ön
prima
turt@@
wol
beg
rou@@
コ@@
tane
grup@@
action
ኔ@@
所@@
रहा
ሱ
toddler
බ
пер
बर
บ@@
sml
ラ@@
пас@@
panda
scooter
shanghai
ã@@
の
owa
jurk
nut@@
poster
dam
jest
ፕ
кам
sed@@
gara
ок
жер@@
ति
buck
方@@
oth
мно@@
rim@@
пов@@
pouch
screw
ân
เครื่อง@@
моде@@
pair
बी@@
rij@@
น
मुला@@
waar@@
bud@@
אופנה
कोई
بور@@
phil@@
chun@@
दक
лага@@
clas@@
seti
yaz@@
כי@@
스
ord
hc
लित
לק@@
impres@@
tou
מעט@@
pie
ռ
الع@@
это
util@@
ت،
kamu
пка
lente
ido
uran
आप
lei
chang@@
زار
হ
ဤ@@
crossbody
ency
त्र@@
scri@@
chúng
אנ@@
cinta
ں@@
ഏ@@
poko@@
ઊ@@
internet
ekt
lok@@
mom@@
चु@@
zoom
تى@@
organiz@@
تول@@
sup@@
pena
wrap
компа@@
esen
sleeved
wn@@
aks
нія
शे@@
رات
massage
лай@@
west
aco
มี
ult
plata
rota
magaz@@
komple@@
У
ც
sistem@@
шен@@
рі
terbaik
mento
вати
मू@@
cua
пле@@
ਊ
ධ
diki@@
मेरा
ян
ful
bö@@
ян@@
hoe
خل@@
que@@
international
fc
profesional
bn@@
кир@@
quan
+@@
ус@@
ule@@
homme
hoo@@
tipo
лам
british
ній
سل
area
defin@@
ght
rex
हट
لت@@
ус
werk
self
भू@@
kombin@@
tiếng
như
dear
unha
peny@@
katoen
onder@@
bolo
suspen@@
dial
fast@@
ым
atr@@
ओ
bug
cane
scre@@
cambridge
lic@@
clock
धे@@
بت@@
сно
وله
가방
hol
villa
rum@@
मोबाइल
много
finger
加@@
ม
vrou@@
heli@@
ंब@@
उत्@@
alle@@
cad
بخ@@
inin
صف@@
national
gil
कहा
也@@
чен@@
mè@@
diri
خص@@
ጃ
ize
ंड
suas
sample
бренд
spek@@
ağı
inverno
boot
bali@@
बाल
מיני
رج@@
вой
french
рии
מ
сен
ão
alarm
ـ@@
супер
ዣ
running
qing@@
अर्@@
月@@
kasi
ሕ@@
hockey
игра@@
สูง
ét@@
тен
kotak
机@@
보@@
イ@@
avi
国@@
ঢ@@
gue
kni@@
sint@@
ل،
shap@@
zah@@
seks
zig@@
рам
lá
valve
chips
jec@@
pla
ansi
дево@@
اري@@
ኝ@@
seu
aras
gray
bra@@
ዴ@@
але
त्या@@
사@@
փ
рова@@
transport
eira
aun
sos
्य@@
home@@
servi@@
guitar
мени@@
телефо@@
एस
tte
cet@@
עור
dame
latest
tere
ڃ@@
レ@@
pli
mean@@
crochet
outsole
南@@
austr@@
ety
مرا@@
teach@@
pieces
ሠ@@
हा
ege
tempat
диа@@
need
दिन
body@@
futbol
vec@@
eer@@
sisi
الق@@
drawstring
เสื้อ
tou@@
kota
ליק
кая
حص@@
कृ@@
його
منا@@
stof
स्तर
або
hid@@
neoprene
samp@@
moz@@
mos@@
كان
fashion@@
kinder@@
mitsubishi
cd@@
pping
deli@@
ईं
डर
機@@
ekran@@
бор
ク@@
lila
ឋ@@
paillette
ቲ
enci@@
رد
bint@@
mickey
того
клу@@
às
áo
ві
foot
стру@@
продаж
كل
cashmere
安@@
тии
अस@@
電@@
шин
عه
kast@@
ją
пен@@
нова
कता
eder
fleece
回@@
mano
dice
stylish
бри@@
ቪ@@
用
chất
ճ
मैं
bela
edil@@
ond
đi
vape
ضد
内@@
kol
ments
shiping
rik
num
cot
tig@@
hey@@
lte
bé
ဲ
bira
sou@@
wek
ள
ঘ
obu@@
ric
син@@
стри@@
instal@@
vac@@
ड्र@@
amer@@
mempunyai
вер
hay
stak@@
пове@@
sifat
सा
uri@@
лам@@
他@@
problem@@
kapas
ठा@@
under
split
नि
agu@@
“
उत्पा@@
समय
اح@@
оз@@
الإ@@
digit@@
styl
orig@@
明@@
üz@@
converter
пет@@
pel
期@@
vlo@@
arre@@
hio
मुद्र@@
дат@@
後@@
nie@@
ام
Ц
学@@
comp@@
ستان
ित
सन्@@
vendi@@
layer
ፃ@@
live
multifun@@
lep@@
ater
curly
angel
banyak
kind@@
tubo
ран
ł@@
aco@@
最@@
мент
cé@@
ျ
яр@@
вали
ester@@
ninja
box@@
torba
能@@
زم
lı@@
trak@@
уби@@
bü@@
drill
flas@@
ൺ@@
ının
ख
onan
xx
लेकिन
लग@@
qu
дода@@
]@@
chơi
tour@@
company
mak
groot
وص@@
blackberry
स्टेनलेस
university
нет@@
olan
bird
ח@@
edu@@
ड्@@
комп@@
bieg@@
modi@@
ins@@
ely
specific@@
tkan@@
ced@@
ท@@
thông
zia
diff@@
sola
joy@@
potr@@
عام
hose
luar
ո
стер@@
स्क्रीन
води
hant@@
шну@@
pandora
防@@
чин@@
bumper
कार्ड
cases
living
водо@@
lumia
пля@@
driver
guang@@
cost@@
hard@@
hex@@
watt
か@@
لات
тов@@
ď@@
stop@@
feng
ром
футбо@@
skinny
menjadi
ators
pia
protec@@
só@@
став@@
inoxidable
mazda
tio
adora
車@@
cmos
zte
ски@@
network
foldable
vista
они
तर@@
ww@@
yes@@
otomatis
बैग
อ@@
tay
brand@@
रूप
бесплат@@
track@@
fication
rob@@
टेबल
长@@
inti@@
zirconia
ayer
валь@@
clar@@
aje
berry
ornam@@
abal@@
קרי@@
bahasa
bv@@
ход@@
rey@@
gros@@
सजावट
upa
eman
mint
spre@@
mou@@
copper
器@@
afri@@
station
ロ@@
yük@@
iş
luna
uzun
ayi
mon
الج@@
fall
mega
ún
shel@@
жда@@
रै
fen
jef@@
bracelets
niet
전@@
ណ
त्रि@@
itali
тр
حر@@
զ
лич@@
foot@@
प्रयोग
aling
south
rabbit
体@@
larga
וע
otr@@
اخ@@
inas
рка
equi@@
ners
بلو@@
cristal
與@@
bio@@
lượng
बार
الس@@
hk
кс
шан@@
pura
lif@@
wooden
copter
eder@@
cdma
sử
wikipedia
وال
лон@@
ಧ
packing
awak
analog
理@@
nut
số
हम
parte
рав@@
lear@@
stein@@
تائ@@
dobr@@
vian
lip
unta
电@@
ph
ccd
мини@@
technology
ਓ
वै@@
điện
ጂ@@
сни@@
cer
kaki
rgb@@
ради@@
ย@@
uhi
кана@@
stri
boat
most
ische
ต@@
नियम
कपास
добре
label
atura
ater@@
heal@@
ъ
email
डो@@
generator
道@@
ıcı
uns
ኑ
رى@@
cabelo
arc
swit@@
ขนาด
為@@
america
бара@@
eten
日本@@
정@@
ഘ@@
mom
теле@@
seas@@
hero
xen@@
volo
win
nok@@
고
दी@@
بعد
profession@@
く@@
bul
брази@@
wes@@
направ@@
маши@@
klas@@
redu@@
인@@
ree
बना@@
رز
pf@@
lul@@
yor
тех@@
ظر
access@@
mec@@
letter
astm
esto
шу
vot@@
送料無料
دل
pm
его
sequin
матери@@
아@@
rig@@
रिक
ích
平@@
ules
bamboo
два
्यु@@
camiseta
lion
foil
لاست@@
الر@@
бен@@
moist@@
гну@@
нови@@
gebruik
cau@@
시@@
features
لقد
siri
أو
ة
zaw@@
hos
ebe
what
고@@
نت@@
工@@
plá@@
separ@@
beach@@
ví
eine
ender
ції
igo
而@@
お@@
форма@@
trendy
वो@@
क्या
metro
देख@@
нав@@
nous
тя@@
зем@@
sini
器
oval
put
स्लिम
amen@@
чер@@
supplies
」
dä@@
يش@@
www
emi@@
주@@
नाम
fang@@
headphone
bung@@
车@@
microfiber
olahraga
تار@@
式@@
ню
bob
hid
जब
kinky
над@@
маг@@
тура
tốt
oksi@@
каза@@
द्@@
стер
kuku
パ@@
bach
center
sata
ض
प्रकार
ór
चित्र@@
مة
相@@
gai
pear@@
cushion
khách
حل
photo@@
kind
fix@@
يار
fluor@@
mikro
بين
serv@@
ខ
negro
型@@
fix
plat
lay
genu@@
caj
خي@@
рен
struk@@
є@@
κ
sex@@
ym
продажу
निर्@@
живо@@
gem
bomba
어
conver@@
druk
disc
tempo
ऋ@@
beur@@
pelo
mati
टिक
cấp
necklaces
يس
זכר
מב@@
אינ@@
ጽ
prodot@@
elektrik
กับ
आस्तीन
rest
кін
hiasan
about
dụ
rio
zijn
ኋ@@
час
baja
alı
ekt@@
folding
ۋە
ум
सेक्सी
stre
arbe@@
insul@@
stop
arı
eja
gün@@
rem
eig@@
ety@@
{@@
bur
phones
epo@@
infantil
重@@
itation
자@@
hall@@
mag
किसी
harem
laser@@
فت@@
جر
stal
tij@@
mad
דע
으로
الذي
воз@@
bab
bentuk
اب@@
fundo
very
tính
lej@@
רק@@
oled
weg@@
автомоби@@
пош@@
які
قت
ingan
jab@@
volkswagen
contac@@
立@@
סוו@@
kosmet@@
chir@@
tetapi
katun
aster
issa
ką
eum
abstr@@
hold
ঠ
ком@@
kam
لار@@
oxford
dada
thiết
karak@@
difer@@
ु
heat
endo
來@@
来@@
come
kop
마@@
anz@@
ına
leaf
neu
anni
зии
mond
мне
थी
aio
ã
得@@
ог@@
restaurant
pero
seri
पार्टी
آس@@
ઠ
чтобы
leds
guard
adores
filtr@@
ніч@@
や@@
suede
чим
veri@@
puff
provi@@
flat@@
çi
س،
mhz
ዙ
एस@@
subli@@
dent@@
विवाह
libre
صول
लाल
」@@
liz@@
ook
xy
pass@@
шту@@
bles
hed
orio
teen
iye
فقط
리
py
木@@
anos
zek@@
गर्मी
friendly
manufac@@
uter
біль@@
sua
ums
טרי@@
カ@@
する@@
ง@@
polish
onde
לה@@
oid
coin
mink
mari
kaos
pra
口@@
masculina
decals
вед@@
ור
इ
fing@@
इन्@@
ः@@
coffee
sf@@
afrika
saat
소@@
開@@
jung@@
nữ
sandal@@
अब
grain
enia
ся
पानी
لى@@
discount
gua
зад@@
спи@@
fundas
capacitive
pol
slippers
عت
ग्र@@
白@@
termin@@
חתונה
дом
kaw
jus
три
boo@@
аль@@
ɗ@@
edition
дюй@@
meer
مد@@
דרו@@
ङ@@
user
indoor
ఐ@@
ሚ
ኳ@@
метр
thermal
высокая
software
בי
ঝ@@
ऋतु
carton
dao
isce
作@@
пала@@
traduc@@
fiesta
vij@@
bộ
अव@@
acio
पं@@
ede@@
हुए
sind
ছ
입니다
euro
druk@@
australia
engi
chandelier
simul@@
mica
perhiasan
temperatura
quinc@@
包@@
लॉ@@
роб@@
גל
heb
батарея
track
kl
pó@@
sms
し@@
law
รองเท้า
oc
พ@@
gin
بۇ
женщин
сто
व्य@@
guan
lux@@
segu@@
adv@@
kong@@
động
cheg@@
energia
perf@@
अपनी
eda
ving
る@@
renault
लेस
футболка
sebel@@
ox
robot
هر@@
बच्चा
kontak
сна
cartridge
शीर्ष
制@@
pic
produtos
يس@@
just@@
racing
тов
gre
dress@@
agen
bintang
aqua
мина@@
τ
pert@@
mixer
hne
kör@@
कार्@@
ont
cabochon
ๆ
chand@@
क्ष@@
kasut
ጣ
clubwear
vali
шифон
ஞ@@
rojo
mountain
нау@@
gare
flan@@
‌@@
vacuum
です
sper@@
selle
ód@@
foam
nir@@
ليس
വ
general
יר@@
secara
պ
bana
кло@@
lee
peugeot
रही
oph@@
lene
एल@@
مې@@
боль@@
нк@@
zin
ಏ@@
zag@@
печа@@
tabel
gym
ventil@@
xia
beli
logo@@
ஓ@@
верх@@
बात
vibrator
видео
twe@@
kafa
soft@@
dium
量@@
blok
ڄ@@
лки
last
хва@@
rata
タ@@
ombre
oci@@
моды
flag
turbo
通@@
sink
ким
modelo
enas
व्याव@@
fob
wrist
תיק
lithium
unda
«@@
description
disco
spray
中
iva
linen
drum
shand@@
ఘ
produkte
логи@@
elem@@
iling
sono
powered
дор
الف@@
вах
gos
лення
idade
eag@@
lui
lle
alto
दिया
mình
onia
意@@
ष्ट
rainbow
algodón
ಹ
snow@@
itali@@
corset
now
download
થ
vào
राज@@
nano
流@@
ഐ@@
collar@@
έ
форма
बहुत
artikel
кей@@
rompers
pare
nai
Н
paris
hadi@@
kok
pall@@
blanc
inde
도
bass
feu@@
сель@@
stretch
нем
하@@
نش@@
john@@
दू@@
ам
бло@@
mel
ston
crown
ному
ря@@
syl@@
वस्@@
midi
went@@
машины
tang
하고
сна@@
fort@@
beanie
resi
دان
span@@
מינ@@
로@@
union
сви@@
ool
합니다
भे@@
meno
detail
హ
göz@@
tini
dip@@
iden
thời
ル
рин@@
gul
proc@@
deur
mera
лица
isen
ඟ
pier@@
она
hola
сты
ld
nhiều
global
मन
ares
interes@@
aggio
yah@@
dei
shower
女
シ@@
ولي
erkek
fondant
elasti@@
hing
fits
americ@@
вь@@
emos
кабе@@
dildo
धा
بع@@
많은
aise
vide@@
色
tions
बू@@
ಪ
azul
نق@@
đồ
pins
nur@@
وه@@
channel
кру@@
field
ካ
problem
fake
спе@@
unit@@
actu@@
대@@
sự
प्लस
basic
ቢ
महिला@@
度@@
kris@@
flor@@
contr@@
chỉ
ذ
sandal
bayan
duvet
ted@@
illing
פן
tablet@@
هد@@
pola
पै@@
ं
fono
reka
straight
hydraulic
bah
skull
delivery
фика@@
ว@@
maker
baby@@
利@@
elt
шок
appliqu@@
थे
stol@@
ско
sno@@
चार्@@
ção
sung@@
urs
आई@@
вих
jac@@
баво@@
ჲ
dati
ство@@
direk@@
kişi
ඹ@@
पार@@
merke@@
suku
mug
apan
अं@@
ก
상@@
ಇ
tester
cintura
mochila
performance
एक@@
sei
quil@@
chod@@
alne
raf
signal
mural
был
cart@@
laciness
rib@@
กระเป๋า
reader
све@@
hadiah
तरह
если
शक
trin@@
alan@@
rej@@
cuff
potenti@@
時@@
भाग
केट
wood@@
servo
指@@
عمل
लू
hiphop
whatsapp
offer
beige
stelling
כן
perlu
ël
papier
essi@@
ilikeyou
shamballa
jing@@
uf
okol@@
rul@@
обра@@
品@@
honor
під@@
bail@@
城@@
被@@
amente
uang
также
erie
cool@@
ece
pr
regalo
ឃ@@
ado@@
ekip@@
equ@@
род@@
조@@
bijou
коли@@
easy
看@@
glasses
degree
vn
cube
medic@@
bị
어@@
nikon
शो@@
klar
لې@@
optimus
بې@@
endi@@
eden
antik
無@@
coco@@
正@@
hex
आधुनिक
ლ
ثر
serie
समा@@
रो
ector
ป@@
nka
خبر@@
ís
身@@
milit@@
ém
down@@
diver@@
विशेष
رة
mặt
ною
state
shoe
femen@@
france
بع
مختلف
heavy
sole
tech@@
aluminio
black@@
yok
pack@@
shock@@
रण
юбка
shan@@
vrij@@
сери@@
cla@@
holiday
حق@@
jau@@
embal@@
ığ@@
court
boutique
यो@@
bath
sio
kwar@@
ukan
रात
၏
quick
пакет
ев@@
đa
loại
सै@@
دىن
strand
газ@@
security
рукавом
sear@@
luch@@
adat
तेल
оста@@
트
व्या@@
phí
rer
ander
df
lampe
पोर्@@
jun
た@@
stap@@
jean
จ@@
ща
сті@@
pulseras
gemak@@
थ
تور@@
нім
уз@@
western
कमी
мак@@
면
واق@@
ቋ@@
sac
lipo
motherboard
لة
caso
space
etto
kap
इं@@
mg
мам
wristband
부@@
trac@@
bile
가죽
xenon
ciclismo
नवीनतम
कला
tiger
phr@@
sant@@
bant@@
gian
fat
ult@@
facial
sonra
bust@@
staal
تى
seam@@
عن@@
सेवा
michael
class
princi@@
jap@@
ඛ@@
plc
akses@@
alice
tao
chro@@
hm
theo
पीसी
jamas
фт
logam
ಗ
Ù@@
traf@@
बॉक्स
ains
ısı
crane
stä
เป็น
лазер@@
미@@
barat
gast@@
parka
треба
tradi@@
खेल
хай
public@@
gie
opar@@
terminal
inos
adan
ети@@
hidr@@
क्ष
faucet
קטן
tamaño
bod
חי@@
chevrolet
kken
مې
basketball
arki
fotos
heid@@
تب@@
स्वेटर
路@@
peta
zza
mum
proto@@
مز@@
owy
vant@@
ث
unge
figure
ان،
hotels
유@@
normal
ferro
miş@@
देश
held
độ
ying
uw
odo
klein
ых
オ@@
ikan
오@@
eis@@
aplic@@
tê@@
butang
windproof
huah@@
ѕ@@
class@@
saco
бли@@
פלי@@
fibra
lapis
лук
finan@@
đó
ged
стиль
daf@@
доставка
超@@
남성
anto@@
tong@@
organ@@
vv
dle
klam@@
လ
cing
infrared
zhen
하는
berg
george
पट्टा
plain
еле@@
hơn
એ
元@@
agam
parede
send
энер@@
mixed
goed
dew@@
שמלת
наль@@
штаны
】@@
फो@@
jog@@
hoi
rea
ketting
آب
צבע
き@@
lus@@
ด
two
deal
stoc@@
ー
voltage
sieraden
cepat
suz
curta
ブ@@
ते@@
power@@
도매
cip@@
фор@@
mog@@
ім@@
सम्@@
gim@@
лем
opl@@
шам@@
bagi
david
quant@@
selfie
lek
сний
च्@@
體@@
個@@
nych
want
novia
geomet@@
меха@@
blouses
owl
jadi
لست@@
вся
lem
гах
द्वारा
動@@
bone
branco
hip@@
elka
gis@@
商@@
мато@@
check
stage
brincos
पाल
tema
jama
pintura
प्रे@@
प्रो@@
gn
قد
vere
гри@@
bili@@
ван
वाले
eco@@
الص@@
beberapa
पोशाक
mới
tentang
reb@@
ibi@@
function
digunakan
מיי@@
що@@
liner
connec@@
sweatshirts
watch@@
wurde
також
एम
דס
modul
row
二@@
clips
nike
qui@@
很@@
prodotti
unique
biru
لام
add
boc@@
đầu
half
fog
zul@@
mor
тів
toer@@
cách
iner
bản
लक
ス
аку@@
точ@@
جون
protection
master
હ
rep@@
èm
shin@@
hab
db
ady
range
dekorasyon
door@@
ages
مقا@@
xia@@
fashi@@
furniture
pam
стро@@
dare
segur@@
ठ
ких
vr
נעלי
情@@
stylus
ૌ@@
mechanical
эта
seni
output
州@@
рад@@
mont@@
ఛ@@
eon
mers
сталі
vent
sali@@
rain@@
luxe
غل@@
peru
нки
ஊ@@
ሲ
ère
jinal
list
plum@@
london
лей
diag@@
botol
aden
bij
ciu
بة
interface
مى@@
行
开@@
navig@@
пода@@
aplikasi
вин@@
uss
ฟรี
ৎ
deri
otg
оде@@
aly@@
tips
גודל
cup@@
ム@@
kamer@@
màu
आकस्मिक
公司@@
eer
ij
lead
רג@@
thai
рах
hà
евро@@
cour@@
right
prak@@
क्रि@@
james
बन
第
λ
时@@
סק@@
נקו@@
对@@
ขายส่ง
נש@@
beam
histor@@
भर@@
nama
dmx
помо@@
leit@@
purse
блок
مجمو@@
kualit@@
equipment
形@@
inge
trung
building
geri
ensi@@
품질
edi
punta
itos
só
lại
retro@@
pilihan
dubai
mix@@
feder@@
ât
bong
chop@@
plex
term@@
uman
pads
비@@
位@@
zona
ڏ
boa
está
odi
lies
ফ
gust@@
gir
counter
prof@@
رس
мор@@
horse
ging
бес@@
uali
バ@@
replacement
âm
当@@
chet
compressor
opel
ዱ
تل
đẹp
drl
уни@@
trou@@
bedroom
дисплей
alli
graphic
غا
kayu
도@@
pró@@
lind@@
ется
vaar@@
eis
فور@@
поч@@
ร@@
europ@@
duro
ינו@@
lent@@
balo
коре@@
可以@@
ети
щи@@
elev@@
ayn@@
trui
男@@
טה
taiwan
cả
dura
klip
borsa
tanpa
प्रकरण
去@@
optical
nicht
saint
navy
接@@
пу
langsung
просто
يد@@
כל
गुला@@
ızı
kiş@@
धक
брен@@
grosir
usia
ảnh
instru@@
kasar
老@@
reput@@
turn
орга@@
paul
ditambah
mann
slag
为@@
té
imper@@
stabil@@
stics
गुण@@
материал
hier@@
active
brasil
баш@@
จำนวนมาก
flor
点@@
nego@@
dino@@
piac@@
kontakt
jenis
ilia
教@@
visi
safety
chính
đồng
vino
geen
hợp
спор@@
า
مث@@
代@@
ır
skor
pop@@
우리는
bait
ers@@
tica
uch
ዱ@@
fron@@
צן
मं@@
perl@@
ഥ
ליין
shield
शरीर
ሀ@@
geg@@
mente
发@@
بات
estate
beu@@
سې
fü@@
कर्@@
نف@@
spor
rel
try
ologi@@
mount@@
aim
trousers
kee
表@@
latex
ורה
pixel
पत्र
laş@@
pit
сс
신발
não
סי
سى
group
pencil
obo@@
gado
сма@@
sens@@
пане@@
tags
lazada
spon@@
สำหรับ@@
gry@@
بق
ట
sound
сор@@
管理@@
êm
لىق
بح@@
ջ
дат
andro@@
टु@@
ских
mia
moderne
weave
slide
ствен@@
ogi
石@@
nico
kapal
versi
毛@@
argent@@
splitter
allen
uhf
klassi@@
straps
modu@@
wir
ffy
mary
вого
า@@
dapatkan
kabel@@
پا
rupa
kiri
кова@@
кабель
inc
רים
जर्सी
thành
stab@@
covers
ція
teur
चित्र
rut@@
she
buttons
пя@@
само@@
उपहार
eksi
вен
与@@
لام@@
artificial
ester
anel
pesca
liu
тип
baga
костюм
контро@@
發@@
निर्माता
טל@@
доби@@
ห@@
asy@@
ateur
cks
kleding
informasi
qc
spacer
хра@@
から@@
دور
moon
qin
bim@@
مەن
ඒ@@
सह@@
экра@@
paw@@
无@@
хала@@
ُ@@
éri@@
glaz@@
trolley
batang
няя
lotus
aci
جر@@
次@@
pakaian
menti
leder
ankle
ዙ@@
ඕ@@
गत
prat@@
aları
karton
duo
produto
пру@@
más
cional
कों
enne
чная
вод
bolt
ෂ
قى@@
production
thermo@@
sebuah
ят@@
jelly
adres@@
contact
लू@@
टरी
elles
weit@@
ल्ट
leri
fru@@
essed
دور@@
gé@@
integr@@
metall@@
mandi
省@@
abe
мин
vez
Ö@@
atie
yat
تار
ミ@@
customer
ذا@@
يون@@
mart
boya
авто
perfect
quar@@
cul
vida
dik
ङ
thong
xem
rock@@
न्
دة
menggunakan
blusa
дома
first
rẻ
לט@@
elas
bing
solu@@
сау@@
王@@
pabri@@
staf@@
רד
पां@@
plant@@
pv@@
viol@@
sl
दो
ං
yakin
لس@@
מנ@@
ंट
מס@@
ejo
gifts
anto
服@@
plástico
ender@@
ឬ
salah
accesorios
zar
ювелі@@
สีดำ
дете
систе@@
usion
йте
negara
rica
取@@
джа@@
demokr@@
पहले
pertama
打@@
pho@@
sub
atl@@
quet
enf@@
пита@@
malay@@
lg@@
ום
ware@@
syarikat
ables
्रा@@
트@@
chic
grid
temp@@
sne@@
tx
爲@@
rope
abri@@
oras
volvo
cord@@
ektor
acci@@
изо@@
धन
र्ड
oder
учи@@
bathroom
transpar@@
used
ian@@
ज्@@
komer@@
होने
좋은
各@@
nach@@
动@@
zep@@
tail@@
футбол
banda
saat@@
«
dekor
total
四@@
ebi@@
clin@@
dow@@
iliz@@
вод@@
केबल
ками
管@@
ماي@@
repar@@
projector
xbox
elegan
ăm
lake
faire
acon@@
प्रणाली
punt
завод
دى
मार्@@
المتحدة
pron@@
чко
мин@@
whitening
năng
ский
エ@@
corn
ፊ
itar@@
charge
visa
kalung
пе
rattan
вка
amas
estu@@
قه
真@@
тин
जाता
minnie
limit@@
rz@@
दे
jalan
crafts
maak
nexus
look
resistant
بىر
gprs
platinum
tao@@
light@@
cair@@
ney@@
ඝ@@
ჰ@@
noch
ск
üt@@
일
wine
shaft
enge
yol@@
posit@@
рубашка
tivi
लास
रों
colo
thread
ಘ@@
कारण
kje
iten@@
ление
flexible
domin@@
lij@@
khác
mosaic
duke
sach@@
tax
йо@@
后@@
coral
flashlight
sels
holo@@
chel@@
кап@@
मै@@
zas
bicicleta
做@@
ໆ
dream
cord
meas@@
ках
ikl@@
الما@@
感@@
wind
中国@@
econom@@
bronze
कं@@
scale
years
тому
екран
bilik
北@@
evi@@
copi@@
cupcake
建@@
ų@@
miş
phi@@
diamante
shor@@
उस
เป็น@@
diagno@@
שיער
лена
states
גברים
achi@@
起@@
wei
ald@@
алюми@@
moo@@
pelu@@
писа@@
ют
рай@@
fungsi
trap@@
muốn
bracket
rai
sev@@
cooler
wid@@
كا@@
ዩ
etr@@
布@@
perla
agoda
unk
painted
ethernet
shad@@
bele
low@@
sai
зер
tire
أن@@
details
abito
國@@
wool
favor
liquid
चौ@@
suk@@
accessoires
mey@@
heater
цу
alles
prata
dollar@@
ئە@@
ях
two@@
ఘ@@
могу
toko
lego
cần
М
вий
cleaner
अल
గ
тем@@
بول@@
christ@@
tex
रंग@@
ays
klasik
kertas
tutup
फ
ቹ
ቁ
laun@@
טיי@@
नै
зай@@
סטר@@
قت@@
нах
先@@
ຈ
doku@@
रचना
merk
prakti@@
leo
trailer
तीन
ト@@
topl@@
مري@@
teléfono
bä@@
import@@
було
heer@@
aker
medical
pal
드
bee
ive
信@@
isol@@
मामला
Т
pain@@
Б
الك@@
田@@
ета
bên
向@@
ौ@@
dental
rear@@
bijoux
paz@@
ники
reci@@
ሣ@@
لات@@
stuk
protective
tiva
điều
wei@@
ຕ
tip@@
оку@@
kür
escent
集@@
mur
था।
moi
cigarette
ナ@@
סטיק
bowl
loop
nati@@
ሃ
babydoll
days
सीडी
कै@@
brass
bbq
तल
sumber
вол@@
coming
مين
sneaker
gp
oyun@@
bka
чний
mee
circuit
cost
adhesive
хол
well@@
ئى@@
между
bằng
ंगा@@
ук@@
кат
moon@@
lier
긴
сол@@
bau@@
सुरक्षा
java
сад
sara
eyeshadow
unicorn
jai
burg
під
yaka
éal
crazy
thế
اع@@
rca
cant@@
โ@@
map
उपकरण
라@@
sendo
reduc@@
teddy
motion
дой
kanvas
тим
hardware
cover@@
sorry
outfit
chicago
тик
چى@@
数@@
收@@
hiện
intel@@
더
lanyard
lm
sian
عة
ability
bulk
ጤ@@
ples
част@@
판매
иг@@
нице
หนัง
ϊ@@
amer
רה
ними
antenna
लिका
manicure
great
hei@@
rf@@
ま@@
cbr
tren
רק
サ@@
rail
pü@@
stampa
shock
लन
poe
भारत
סנ@@
headlight
рек@@
개
ради
basket
amatir
наф@@
автомобиль
repair
доба@@
angka
stell@@
oculos
שרוול
call
зав@@
ों
adel@@
quer@@
profile
brooch
knife
ава@@
olina
保@@
кую
exter@@
#@@
bottom
ül
erd
מק@@
東@@
سى@@
ดี
bahagian
dv
лой
hals
ather@@
حي@@
touch@@
पॉ@@
cow@@
fici@@
igh@@
лето
iniz
nếu
axi@@
tb@@
стен@@
מי
trò
गे@@
mechan@@
cari
дали
格@@
quốc
अन्य
ชุด@@
वर्ष
인
う@@
上
个@@
した@@
kartun
ځ
ölç@@
flow
емо
kraj@@
cus
antara
agent
струк@@
book@@
हक
घो@@
shut@@
тора
ीय
ppen
निर्माण
Е
आर@@
民@@
стре@@
dna
silicona
होता
isch
age@@
него
ứng
ઢ@@
matt
aspir@@
wic@@
elen
fesyen
toshiba
پى@@
gratu@@
focus
nij
想@@
qua
ily
lie@@
dm
tart@@
peppa
illo
衣@@
дя@@
न्स
нал
enter@@
lisa
plak@@
бере@@
直@@
kompl@@
hist@@
brushless
strai@@
रत
eau
aquarium
висока
دد
lounge
일@@
ney
кет@@
حت
tray
famous
vill@@
celular
टोपी
नों
quette
wd
english
يج@@
north
zach@@
sarung
збо@@
fied
brief@@
mind
differ@@
Л
вки
auch
соб@@
champagne
combo
ssi@@
ئو@@
सेल
masi
asc@@
azy
voile
canada
офи@@
circa
iç@@
эта@@
japan@@
laba
yes
रक
目@@
tìm
מה
ፃ
mez@@
て@@
roc@@
paint
sug@@
ீ
lalu
vt
دع@@
ਥ
graph@@
۾@@
pov
소매
universit@@
צע@@
sao
çi@@
メ@@
casamento
onge@@
fio
сов@@
passat
gugur
ngày
색상
again@@
nhưng
ె
place
फिर
יש@@
כו@@
विद्य@@
kut
ール@@
line@@
ungen
ولا
marine
न्या@@
gate
welcome
أنت
carbon@@
الد@@
디자인
ї@@
flam@@
лан
hie
mung@@
kasa
erta
ขาย
هنا
past
evo
thomas
bawah
pria
membuat
roupas
osc@@
блу@@
ें
roh@@
supr@@
kir
mot
ृ@@
embo@@
chev@@
एल
เล@@
ฟ@@
ไฟ
giz@@
لار
房@@
टन
ського
بن
phuk@@
キ@@
ность
神@@
רת
основ@@
आज
вые
cũng
आ
relo@@
stati@@
мет
alumini@@
нок
precision
him
tc
anni@@
cera
sica
ald
ยาว
organis@@
نص@@
modal
маль@@
porcel@@
rent@@
хла@@
rek
खा
phải
nego
ение
cast
atten@@
منظ@@
खो@@
عد@@
лю
pej@@
italia
装@@
ورات
chet@@
लोगों
лог
लिंग
ych
prest@@
tric@@
इन@@
निय@@
ڑ
hanging
newborn
reli@@
更@@
omi@@
ニ@@
problema
ries
кун@@
제@@
stro
拉@@
pressure
बोर्ड
horlo@@
دى@@
케이스
здра@@
लोकप्रिय
pedal
ఏ@@
гаран@@
pulseira
lukisan
هاء
потре@@
dolls
工作@@
색
पह@@
dust
中國@@
swing
फ्रे@@
↑
ral@@
atis
тель
format@@
比@@
льная
علي
cyr@@
illes
compact
社@@
gg
ዬ
feed
ቃ
पन
tory
ፋ
постав@@
च्छ@@
vivo
amen
tenden@@
ှ
gladi@@
chron@@
вода
sich
anne
termasuk
ril
dus@@
county
condi@@
madeira
交@@
pajamas
jad@@
ส
kij@@
đang
program
dating
ート@@
indonesia
heat@@
zie
発@@
wayar
reloj
тку
pine
ков
atore
bret@@
укра@@
глу@@
kompon@@
infant@@
town
малы@@
iss
gó@@
ビ@@
ınız
icul@@
olim@@
الش@@
bisi@@
pula
ספורט
puzzle
ट्यूब
supp@@
wag@@
rate
sind@@
скры@@
风@@
deng@@
साइ@@
णा
вав
normal@@
tall@@
والم@@
delle
清@@
permainan
ኘ@@
محا@@
you@@
pix@@
音@@
गह@@
open@@
बद@@
itin@@
поло@@
kolek@@
попу@@
lara
humidi@@
lich@@
клю@@
agem
lucky
zion@@
גבוהה
ズ@@
ref@@
크기
ഇ
dash
erg@@
لې
nal
し
टू@@
ocean
pay
ッ@@
tour
ド@@
года
受@@
leopar@@
dunia
gav@@
шим
twist
將@@
систем
микро@@
verde
אפ@@
barra
jepang
вач
모든
rada
៍@@
тите
los@@
短@@
college
sym@@
그@@
aliment@@
egu@@
amaz@@
精@@
embroidered
austria
עג@@
學@@
minut@@
eas@@
doble
стар@@
lista
ಘ
melihat
пвх
vidro
beri
ژ
abel
paci@@
tey@@
थि
dil
ido@@
rasmi
ect
luc@@
ения
мери@@
قبل
yj@@
times
бага@@
bunga
tg@@
원@@
bảo
hout
這@@
माल
unic@@
badge
пери@@
निक
ными
vol
nostra
jeep
epad
ใช้
或@@
ване
angel@@
ร้อน
transporte
ਫ
dl
gek@@
quan@@
suite
に
tenis
سا
स्था@@
telefonu
ince
जिन
карта
शक्ति
لك
ssd
tennis
гно@@
kä
deluxe
cloth
Р
úa
naar
ên@@
fs@@
õi
科@@
shot
皮@@
blau
其@@
ዲ
bagian
자동차
etik
성
tian@@
bs@@
cp
ต
awi@@
五@@
оди@@
hydr@@
ску
silic@@
lihat
bga
автома@@
thì
روس
ሄ@@
через
cü
zak
podr@@
者
ror
axial
клі@@
пари@@
नल
selepas
pneumat@@
etiket@@
restoran
َ
новая
рези@@
microsoft
rus
सर@@
น้ำ
אל@@
aron
onder
ads
प्रका@@
goma
gsxr
सकता
يز@@
stamp@@
miễn
otong
stitu@@
especific@@
infl@@
peza
ах
тя
धान
khu
क्षा@@
inda
ሂ@@
ulang
מכנסיים
квар@@
roku
compr@@
jaar
डिंग
修@@
pita
olet
zna
klu
kum
cober@@
plaf@@
тися
ś@@
буд@@
rie
дати
gema@@
anth@@
گە
공@@
Ā@@
油@@
roy@@
ء،
naci@@
網@@
ये@@
velcro
ريد
jiang@@
אור
mike
레@@
haust
distribu@@
دائ@@
bien
nào
minyak
haba
zara
movie
jaqueta
tora
orta
xp
alli@@
आव@@
लम
lý
ילד
बं@@
real@@
توس@@
dent
broo@@
र्ट
zoo@@
inver@@
pela
dering
kaart
ekte
קה
esc@@
تان
tent
pist@@
फूल
кер
تم
mani
moderna
army
цвет
lift
лого@@
лик@@
後
ской
date
andre@@
خط@@
antar@@
台@@
รถ
lazer
image
waktu
бран@@
>@@
unde
дов@@
ність
內@@
amor@@
nước
ウ@@
izz@@
ghz
eter@@
माण@@
مثل
transfer
individu@@
新
භ
rated
bebé
batu
tipe
bandar
konstruk@@
كى@@
oria
yun@@
setiap
positi@@
kej@@
チ@@
dich
atri@@
ڇ
डिजिटल
trek
lover
лета
audi@@
קי
hiking
лак@@
空@@
บ
ров
бата@@
मुख्य
blac@@
提@@
ском
मूल
kw
леж@@
đây
पूर
風@@
unik
numer@@
finger@@
連@@
उनके
dslr
shade
चांदी
ığı
ması
vra@@
ismo
jackets
duty
ُ
bulan
زو@@
joy
sok
nang
çı@@
tore
зор
هار@@
년
inum
研究@@
那@@
จะ@@
lam
ఈ
мена
veste
fili
halaman
нь@@
ب،
น้ำ@@
prost@@
çanta
cabinet
industri
mario
フ@@
कोट
مال
bast@@
sigara
frequ@@
sé
gün
ré
тори@@
pry@@
장@@
lian
шах@@
अत्य@@
them@@
גוף
pose
grad
adaptador
turn@@
ogni
laut@@
jd
порт
بلا@@
용
вони
구@@
mannen
เรา
disney
heren
性
flops
cb
міні
family
latin
act@@
perle
بس@@
ucu
заряд@@
лег@@
alik
kof@@
element@@
invest@@
panasonic
offic@@
모@@
ature
enen
ово@@
force
هناك
一個@@
区@@
ट्स
hind@@
द्र@@
носи@@
៌@@
cung
ष्ट@@
шор@@
вал
kurang
amera
ارد
chọn
elastik
esis
モ@@
リー@@
sand
ء@@
ново@@
xuất
був
triangle
vig@@
плей
بې
estr@@
עני@@
pieza
ador@@
り
commercial
nc
धातु
xing
放@@
canbus
लिप
зы
wre@@
る
umge@@
prote@@
уча@@
ഈ
реа@@
fort
moul@@
ग्रा@@
volle
gets
inding
tự
presi@@
tracking
kosmetik
organizer
kec@@
urus
bina
тран@@
rez
pré@@
acid
circle
strat@@
oppo
點@@
chocolate
langsing
基@@
rag
adu@@
cuffl@@
kleur@@
لق@@
nên
designs
ської
bear@@
분@@
配@@
如@@
dek
ंस
पुरा@@
information
स्प@@
chc@@
pok@@
dokum@@
tibet@@
हुआ
ण्@@
enamel
sendiri
זה
iten
ורי@@
mest@@
preci@@
posi@@
üş@@
zhe@@
機
gula
хі@@
cr
telepon
包
кова
chair
tinta
ら@@
knee
atori
stem@@
…
מש@@
zhong@@
ориги@@
mungkin
สี@@
trek@@
ኃ@@
timer
рукава
очи@@
dryer
È@@
सुपर
で
lung@@
технологи@@
plan
phen@@
cand@@
करण
fairy
camouflage
उन्होंने
lands@@
於@@
гон@@
allah
контак@@
olta
ids
festival
män@@
जे
ंक
кож@@
вом
teri@@
أي
mous@@
тако@@
cahaya
周@@
bubble
buff@@
力
À@@
चाह@@
são
hybrid
wolf
kerana
ಈ
सरकार
зима
bere@@
swiss
ються
leisure
pantyhose
kurt@@
物
ڦ@@
plataforma
داد
лл
enzi@@
الأمم
achi
cic@@
fresh
다@@
poch@@
aten
แสง
ෙ
وجود
فع@@
पा
merah
女性@@
photos
改@@
carro
clamp
ıl
ِ
mation
міні@@
лом
жу
ഹ
кош@@
klin@@
iptv
tampilan
green@@
cela
؟@@
tutti
नो@@
cores
ський
volume
rain
ני
chuyển
江@@
feather
knit
astr@@
пока@@
puri@@
ô
pig
jant@@
тия
किंग
фа
سط@@
kartu
need@@
ผม
stik
अनुकू@@
ungan
fec@@
hats
arn@@
input
ज़@@
після
टे
यी
十@@
cran@@
russian
welding
再@@
ี@@
krit@@
mú@@
hoặc
ності
eks@@
هد
खाली
give
сер
sommer
блі@@
away
coats
tipi
tl
ляр@@
fiat
hf
၌@@
К
मारी
cama
スト@@
快@@
ساع@@
tecido
layanan
cosmetic
ריק@@
bpa
aft@@
線@@
horizont@@
flatback
juk
나@@
ჱ@@
nillkin
apo@@
pass
zzi
لت
uy
ผ้า
counter@@
hs
agar
onale
पट्टी
nordic
tempor@@
gere
部
ків
жена
utam@@
polar
द्य@@
tap
wild
イン@@
लगा@@
sof@@
สีขาว
cổ
연@@
khus@@
ോ@@
hall
ඡ@@
зни@@
titan
反@@
глав@@
lod@@
therapy
sesuai
gee
brief
מים
ements
prix
ंदा
velo
quat@@
seç@@
central
ления
yl
бой@@
pdf
rất
стави@@
春@@
लाइन
ép
つ@@
pretty
უ
pv
наш
william
profess@@
stam@@
decorative
deo
dul
saman
gothic
захи@@
kế
동@@
przy@@
maternity
meu
akces@@
timo
एम@@
йде
家
them
過@@
working
назад
azioni
महा@@
мой
àn
實@@
phot@@
count@@
श्@@
his
rick
الخ@@
бре@@
dispenser
bau
aplik@@
зим@@
swim@@
цю@@
мс
буде
pangg@@
опи@@
pneum@@
mış
remover
바@@
fruit
rolling
ভ
merk@@
senza
crim@@
east
website
星@@
специ@@
chiban
stret@@
arch@@
东@@
portátil
year
materiaal
시
使用@@
tuo
kamer
alist
тем
टल
cag@@
fino
sungl@@
gradi@@
rip
baar
persoon@@
entre
edor
куртка
заказ
ward
בגדי
accep@@
ኪ
malaysia
моду@@
були
ข@@
cking
ښ
collection
जीवन
bahag@@
ە
fantast@@
iet@@
liệu
joh@@
जाने
ativa
гада@@
ital
क्षमता
você
towel
itive
件@@
ların
apr@@
pamuk
hora
dilakukan
jump@@
cosa
解@@
blank
區@@
жина
خد@@
มี@@
शील
тра
chain@@
ቶ
यम
ഷ
asp@@
rent
ريل
bean
miss
opal
cada
مط@@
analy@@
huis
ריק
女性
own
가격
etui
arta
kup
π
ኩ
dock
ense
xt
ouro
तार
trí
वसंत
ral
project
publi@@
суаль@@
公司
شيء
vri@@
بم@@
под
ulasan
め@@
หญิง
फुट@@
เสื้อผ้า
bert
ック@@
bracel@@
won
beer
था@@
eld
aksesoris
العا@@
boh@@
門@@
доро@@
lure
handel
куп@@
板@@
ተ
شى@@
लोग
fiets
ජ
बै@@
breaker
todo
بري@@
folio
iras
banner
chị
account
头@@
شخص@@
amata
كېرەك
त्व
zw@@
從@@
rei
gues
foo@@
kết
자
зву@@
foc@@
пору@@
jou@@
jig@@
uzu
카@@
harley
udi
nazi@@
bath@@
熱@@
स्ट
fuel
генера@@
sg
קריסט@@
kuda
み@@
ጌ
papan
spod@@
raw
دود
know
‹@@
трен@@
कार्य@@
ग्रे@@
atan@@
import
ambi@@
sla@@
tide
секс
בינ@@
ພ
тори
stein
提供@@
зва@@
aver
सभी
araba
lap
việc
fris@@
تصا@@
pant
phi
dish
تك@@
step@@
頭@@
amos
إن@@
flash@@
ガ@@
спі@@
书@@
यू@@
năm
skoda
citroen
extensions
говори@@
कई
say
元
amy
extra
может
बीच
कवर
muro
百@@
camo
arc@@
धु@@
وع
pric@@
profil@@
सामान
производ@@
veel
buk
camisetas
divi@@
پې@@
ظ
panto@@
חדש
сам@@
حال
我們@@
bc
業@@
outlet
ıs@@
haus
đen
יר
station@@
представ@@
בד
بان
yelp
straw@@
stica
عي@@
يې
salt
thailand
ери@@
pub
liên
फर
ड़@@
ซ@@
ง
実@@
onna
cross@@
saia
acion
transport@@
다
לא
aros
dale
retrac@@
青@@
रिंग
artic@@
lever
matri@@
款@@
दीपक
शुद्ध
military
jaz@@
tiy@@
客@@
allo@@
ступ@@
გ
proses@@
inox
័
cose
ِ@@
acket
montre
eting
ዥ@@
adapt@@
кого
обу@@
生
cle
necess@@
क्टर
字@@
드@@
tong
ٿ
ofer@@
tatu@@
ember
porno
مۇ@@
fish@@
beni
使@@
اسم@@
chec@@
gelang
lycra
品
дре@@
spiral
rub@@
яв@@
цю
сь
високо@@
fora
grap@@
fais
ժ
mins
đặt
bill
ड़
近@@
rice
lp
фан@@
ruangan
ports
asian
photography
ん@@
उसे
ganda
klar@@
kerja
इस्@@
teen@@
кси@@
дата
мони@@
लिया
أس@@
ዮ
год@@
但@@
또는
قب@@
ونا
há
archi@@
effici@@
送@@
lantern
बल्@@
ory@@
وف@@
ites
container
°
דה
ارا@@
سىز
स्
бора@@
gay@@
نى@@
export
eles
wand
mostra
دې@@
فت
ช@@
دىكى
device
guna
milli@@
hast@@
常@@
ез@@
ינס
tà
modul@@
德@@
isto
סטרי@@
menu
skir@@
пта@@
internet@@
obraz@@
sür@@
neo
grá@@
iter
dera
থ
edel@@
rar
בעי@@
മ
proj@@
教育@@
клиен@@
अन्@@
ogen
desk
كم
imag@@
disposable
пти@@
surface
student
infin@@
valentine
مض@@
neh@@
смо@@
ไม่@@
impresi@@
dzo
ник@@
лися
사
фак@@
ýt
oral
書@@
adhesi@@
して@@
初@@
nl
tripod
bf
disse
camisas
eway
वर@@
тере@@
jack@@
zt
resol@@
evi
يى@@
मिश्र@@
керами@@
वो
hidro@@
robert
nhận
eos
מקרה
تت@@
机
esem@@
sweaters
prova
ल्ड
त्री
yard
स्टि@@
bonnet
luci@@
wel
bombil@@
بق@@
brazili@@
火@@
hammer
hü@@
川@@
अल्@@
muka
ingin
trực
cosm@@
jej
תינוק
道
gospo@@
pik
大
ред@@
파@@
sila
полі@@
प्राप्त
пальто
core@@
uomo
bearing
який
коль@@
مسا@@
стен
터
tigt
sweat@@
hier
dp
scu@@
hoo
स्पर्@@
bullet
natal
tower
recep@@
нні
tage
ship@@
mengenai
emen
batman
лия
код
raum
isy
важ@@
cảm
pped
แบบ
kate
agi@@
aine
thêm
pras@@
maan
करना
ब्ल@@
ノ@@
プ@@
ement@@
ジ@@
ශ
बंद
umbrella
фек@@
פינ@@
smart@@
paper@@
cola
vert
dos@@
harry
lich
провер@@
gold@@
เซ็กซี่
מל@@
deco
उसके
marr@@
ıc@@
studi@@
ボ@@
arth@@
斯@@
twin
lebi@@
england
skate
त्
than
apartment
vind@@
caf@@
ئۇ
लोगो
mang
ధ
ách
decoración
ета@@
kereta
airport
aş
eral
ৎ@@
сме@@
ベ@@
食@@
diffuser
бут@@
ува@@
vermel@@
मुझे
investing
rest@@
ique
米@@
chim
mesa
exterior
صد
وض@@
गी
О
kili@@
giúp
करा
gand@@
zel
quo
atte
ماس@@
яз@@
성@@
jaj@@
интер@@
رى
展@@
过@@
fund
ethy@@
चर
madrid
susu
качество
ماذا
maillot
shiny
trước
цей
км
pompa
डबल
позна@@
تها
resort
phòng
tn
ору@@
تز@@
inten
의@@
vot
also
buka
(
dont
์
pog@@
torch
ark
experi@@
piano
ቂ
ձ
мене
zero
أنه
einen
konum@@
mariage
jewel@@
bebek
fang
式
eras
uten
haben
menj@@
里@@
dali
gren@@
ité
خاص
refires
roma
element
ي؟
афри@@
古@@
bric@@
arma
המ@@
μ
ไ@@
teh
два@@
regl@@
vint@@
यों
uses
centre
zes
decorations
tast@@
table@@
preg@@
votre
apor@@
палі@@
dodat@@
sse
fav@@
func@@
óg@@
чехол
xiang
dex
esu@@
ሬ
анти@@
ṅ@@
chic@@
pusat
bota
xus
чі
片@@
éra
sensor@@
पीएस
anci@@
واحد
amazing
›
спец@@
nails
charles
terr@@
stars
заво@@
الل@@
مني
раз
personaliz@@
セ@@
dou
aton
лин
卡@@
ఓ@@
물
tier
野@@
ł
жка
chy
गई
todos
they
grip
सकते
pull
industria
чне
단@@
alter@@
ऊर्जा
dynam@@
פול
कप
batar@@
authent@@
engraving
ملا@@
figura
urt
세트
sup
fler
brac@@
mono
prac@@
ឃ
educ@@
室@@
colar
impor@@
dand@@
sr
lên
경@@
نائ@@
dır
gram@@
टॉप
senti@@
belle
ถุง
מעיל
тв
balik
חו@@
colgante
太@@
bhin@@
์@@
ќ
серти@@
carpet
karbon
газ
odu
vier@@
장
buz@@
uki
bras
pick
gloss
काले
promosi
punk@@
aksesuarları
ضو@@
noc@@
oes
कारी
miner@@
克@@
happy
вать
iteit
ット@@
ational
нення
पार्@@
把@@
ंत्र@@
ľ
記@@
ול
syst@@
بى@@
visor
scanner
digitale
يم@@
usb@@
גז
покри@@
मह@@
सौर
kimono
нку
sekolah
quale
could
appro@@
horn
fos@@
ћ
merupakan
eler@@
мали
เครื่อง
ፅ@@
song
нен
dùng
compatible
考@@
inha
collec@@
فة
著@@
vall@@
नई
idad
評論
doek
ласка
aves
세@@
tombol
ผู้ชาย
selec@@
ៅ@@
רוק
بىلەن
장식
ූ
tentera
onen
下
http
मोती
cing@@
stud@@
धि@@
louis
tif
ори@@
agua
ိ
bain
clean@@
сси@@
적
ern
ferr@@
рина
perfec@@
зд@@
ون،
tron@@
sock
apol@@
sour@@
球@@
udo
ular@@
שול@@
üm@@
كنت
exem@@
thực
brasil@@
lipstick
inclu@@
נ
page
batería
กางเกง
compon@@
قة
props
addi@@
infr@@
ones@@
balloon
almente
knitting
laborat@@
ión
phy@@
aber
版@@
donne
drone
drag
пом@@
ज्या@@
ainer
सबसे
beijing
मॉ@@
organic
신@@
yaş@@
свети@@
laur@@
院@@
xu
पूर्@@
april
sue
kelas
hoop
young
bridge
parça
inya
tempered
mongol@@
erde
ceram@@
קל@@
ppe
obd
idas
regular
इसके
loft
kies
porte
ology
бира@@
müş@@
jah
тели
phan@@
коло@@
лено
ache
تە@@
recor@@
ening
gr
فظ
cleaning
ट्रा@@
рук
бір@@
아기
maar
spare
меди@@
amplifier
system@@
доста@@
inks
srebr@@
해@@
зра@@
bê
長
east@@
stamping
वत
ዜ@@
林@@
keramik
broad@@
lir
求@@
उन्हें
kristall
быть
elektronik
okay
esh
低@@
what@@
giri@@
साहित्य
ረ
店@@
が
sible
striped
piercing
dash@@
『@@
бле@@
rot
ycle
mẫu
định
त्मक
egg
स्टे@@
डिस्@@
luminous
lolita
의류
車
лей@@
け@@
seat@@
nozzle
walker
diameter
money
conduc@@
bene
laut
言@@
lex@@
بين@@
vang@@
تې@@
jata
dollar
กร@@
лку
pozn@@
tras
học
mont
ళ
演@@
washer
скла@@
स्वि@@
kedua
तो@@
application
лиза@@
muff@@
гол@@
окру@@
centro
assembly
त्ता
lyn@@
sempre
सिक
sar
स्ट्र@@
wiki
viel@@
thro@@
monster
زى@@
َ@@
membr@@
תו@@
inten@@
grinder
ple
คุณภาพ
病@@
training
चार
navigation
cust@@
enos
स्ता
наша
sione
stig
giy@@
elec@@
今@@
fold
chas@@
carta
eran
curtain
ष
zenfone
petit
rü@@
लिक
после
benar
tunggal
recorder
ving@@
送料無料@@
xy@@
mats
nym
pf
реш@@
波@@
inov@@
penis
æ
proses
lü
електри@@
shine
impermeable
washington
yp@@
tnt
ሺ
स्टर
produksi
फर्@@
info
कार्टू@@
проек@@
ّ
tez
ู@@
切@@
quần
jewell@@
世界@@
لىك
शा
aanse
sud
آخ@@
cargo
mekan@@
业@@
ڭ
馬@@
करता
bonjour
由@@
boxer
يت
вил@@
duck
even
खि@@
nude
分
nero
кан
वॉ@@
antena
pú@@
kost
สามารถ
фра@@
思@@
wash@@
планш@@
gaz
дола@@
bella
여@@
angk@@
dịch
tất
запа@@
れ@@
tibet
pendrive
there
italian
році
akin
ông
recy@@
талия
cal
ഔ@@
ям
thấy
अप
定
타@@
dagen
กับ@@
stun@@
cards
jus@@
curto
gram
нержаве@@
vice
üh@@
lager
bent
engag@@
דל
aero@@
קל
كو@@
ลิ@@
ander@@
走@@
vela
aver@@
anche
ארוך
इल
愛@@
引@@
komputer
ilumin@@
وأ@@
ኑ@@
बारे
ኒ
perfor@@
素@@
exist@@
detector
enter
jaw@@
онлайн
silver@@
चन
pumps
ಈ@@
أع@@
ፔ@@
supaya
báo
fte
calor
enfant
read
सिंह
رون
網
iting
ጡ@@
нин
acces@@
grill
eux
aring
ጡ
wenn
說@@
buc@@
ська
behand@@
undang
ght@@
셔츠
اني@@
लौ@@
dvb
प्रि@@
深@@
kami@@
رار
cardi@@
ها،
جرا@@
ூ
무@@
години
enam
время
लों
favor@@
दल
draw@@
brill@@
teil@@
يست@@
nte
khusus
headphones
名
format
equip@@
stur@@
four@@
background
還@@
listrik
apabila
md
قا
一
件
moc
mx
world@@
cherry
regar@@
malam
hasil
भूत
đổi
夏@@
בע
чув@@
один
mop
बन@@
iec
naj
gloves
games
cac@@
couple
ढा@@
flexi@@
injec@@
control@@
तथा
termo@@
บาง
企業@@
inner
russia
ctr@@
П
lanc@@
विस्तार
jazz
aura
природ@@
joe
شار
यार
우@@
รองเท้า@@
thr@@
sexo
stelle
ofic@@
طي@@
doğ@@
mağ@@
коли
atı
ciri
trade
ترا@@
фото
מותג
амери@@
यात
進@@
üs@@
בה
base@@
الآن
banana
schoenen
lokal@@
ption
пози@@
اخت@@
साल
рей@@
sanit@@
scope
moc@@
plum
שחור
mall
buddha
stek@@
drap@@
cà
כותנה
에@@
рік
фла@@
ፅ
belly
้@@
тке
मन@@
ından
profes@@
usable
ะ
strong
फु@@
gratuit
lengkap
kö
haar@@
局@@
tz@@
anden
chry@@
cars
首@@
工程@@
أخ@@
envío
eropah
enkel@@
ahl@@
уро@@
icio
сбо@@
combin@@
ков@@
ソ@@
linear
penj@@
अन@@
điểm
innov@@
luas
커버
sharp
والت@@
ない@@
于@@
poliester
ury
acağ@@
أجل
smith
vorm
村@@
presid@@
वायर@@
buah
eleganti
กรณี
còn
posta
тие
योग्य
落@@
zast@@
garis
meccan@@
dn
clav@@
ultraf@@
її
save
теп@@
africa
ского
mira
प्रदान
scan@@
bly@@
спорт@@
oline
asz@@
פונ@@
आपूर्ति
petang
ality
ご@@
axis
éis
ху
भारतीय
حقي@@
cf
вый
डियो
सुंदर
กล@@
קיץ
unc@@
fone
вари@@
zone
junt@@
fre
ballet
oty
士@@
haut@@
nr
utiliz@@
bisnis
spesifikasi
entos
bandung
fog@@
wash
bers
眼@@
氣@@
ኞ@@
алю@@
itar
saiz
вже
אנג
種@@
tải
titik
baixo
دە
dela
бери@@
geometric
적인
unter@@
corolla
him@@
illos
zob@@
basi
seorang
шар
يتي
angeles
enger
安全@@
sä
chaqueta
deze
db@@
thị
набор
料@@
рів
ची@@
작은
ستا@@
вечер@@
telefoon
нет
alls
хро@@
telesco@@
пен
tamu
snap@@
cca
klik
當@@
क्षेत्र
тика
casting
vậy
sır@@
thanh
连@@
ओं
pim@@
gende
기계
방@@
bias@@
}
голо@@
gent@@
場@@
цього
projec@@
чем
жил
элеган@@
ಓ@@
bandana
นำ
сша
付@@
इंच
swimming
cold
qing
現@@
respir@@
pesawat
ಖ
উ
معلومات
legen@@
modè@@
zh
punto
ಶ
שרי@@
ekstr@@
시계
membantu
sual
thick
气@@
مك@@
бю@@
bebas
then
essen
гали@@
cage
транс@@
ጄ@@
piet@@
שרשרת
baking
candle
saç
又@@
मीटर
गए
رات@@
monit@@
꽃
sión
gec@@
caja
نظام
absol@@
前
دين
nada
вым
nhau
студен@@
إذا
biết
선@@
alih
像@@
roll@@
ਏ@@
耳@@
eit
強@@
블랙
bie
solar@@
proz@@
çiz@@
·
ваше
банк
arma@@
%@@
dvi
vie
kart
werk@@
flores
feed@@
लग
知@@
pizza
endo@@
vip@@
tener
万@@
инте@@
especi@@
suction
半@@
انت
lato
英@@
дите
alas
цію
house@@
선물
будет
rover
accessori
тин@@
فا
aang@@
ayu
igu@@
dari@@
pler
strap@@
smit@@
עיצוב
stof@@
право@@
купи@@
ceiling
fpv
باب
Љ@@
điển
ettes
香@@
र्म
nome
чай@@
gus@@
fibre
обо@@
tref@@
chten
chas
графи@@
سن
fica
verpak@@
lc
reel
parking
ผ้า@@
気@@
load
compan@@
diper@@
الاست@@
出
complete
युक्त
yun
diret@@
आभूषण
built
multimedia
आर
phần
global@@
friend
пора@@
meizu
adop@@
dijital
kow@@
tiết
מצ@@
वाला
nac@@
راي@@
госпо@@
trig@@
advanced
дне@@
only
شرا@@
yle
lina
ого
темпера@@
わ@@
kopi
amor
dekorasi
chel
две
brushes
lf
thoại
duur@@
taille
rich@@
clay
큰
tên
struc@@
福@@
助@@
ด้วย
ласти@@
화
အ
trường
सॉ@@
स्कर्ट
สาย
preto
फोटो
zebra
họ
總@@
styles
eken
curl
tian
보석
ඒ
ダ@@
軍@@
corpor@@
الص
чных
pasangan
क्त
фер@@
alem@@
kret@@
подарок
roy
blue@@
unis@@
بدون
거@@
ани@@
काम@@
아
можна
гна@@
yg
見@@
гля@@
perlindungan
بنا
באיכות
jne
ills
über
forme
hent@@
化
排@@
度
indo
كما
rc@@
щен@@
वास
मर्@@
ال،
elik
sek
резер@@
ฤดูร้อน
ዌ@@
cem@@
giảm
machines
фіка@@
gio@@
kabinet
applic@@
aten@@
ठोस
ister
sign
пря@@
đối
zaba@@
रोक
erd@@
col
sont
pill@@
ăn
ティ@@
aller@@
ولي@@
komp@@
類@@
pantaloni
має
respon@@
housing
实@@
helmet
服
ड्राइ@@
таж
rev@@
muk@@
коми@@
anten
zyon
بيا
disponi@@
hamp@@
щоб
stati
level
تس@@
lampara
woon@@
cafe
हाइ@@
сть
치@@
вир@@
melalui
cô
niki
ถ@@
kawasan
boxes
ลูกไม้
dah
patro@@
associ@@
film@@
ministr@@
urat
ጆ
производи@@
ней
кою
住@@
amai
рекла@@
crist@@
free@@
solutions
anza
фото@@
zaman
स्त्री
ध्या@@
bnc
aż@@
vì
тах
сп@@
gl
kler
语
ılar
कभी
grandes
*@@
weight
พิมพ์
कार्य
포@@
ider@@
将@@
نت
لى
理
vehicle
คุณ
princesa
zum
video@@
級@@
deu@@
telefoon@@
मेरे
профе@@
र्म@@
costumes
бки
tersebut
все@@
eyelash
होती
meis@@
jana
парамет@@
sive
بشأن
hệ
물@@
ૉ@@
間@@
sung
olie
ڳ
화@@
دي،
модели
tant
위해
revol@@
武@@
utar
atif
എ
amat
saan
день
опера@@
maqu@@
вид
ۋ@@
чита@@
ที่มีคุณภาพสูง
sewing
cek@@
크@@
kafe
лася
ความ
评论
え@@
ส่ง
아이
ดอกไม้
ще@@
हन
ਭ
figur@@
ਠ
дирек@@
ชาย
bisog@@
vídeo
ได้
fim
土@@
נה
לה
фран@@
kiem
паль@@
pk
hexag@@
nhân
פי
ठे@@
कृत
vendita
our@@
houston
времен@@
فق@@
datang
האופנה
kadın
atic
って@@
makan
ктор
قى
ፌ@@
ağ
लाइट
كانت
stock@@
อ
整@@
סל
デ@@
عت@@
subaru
orden@@
handlebar
量
boston
sere
najlep@@
पचा@@
taman
yet
wired
ቫ@@
微@@
czy
kemudian
wich
бикини
任@@
guide
여름
pillowcase
未@@
הק@@
зага@@
每@@
नै@@
server
вор@@
马@@
river
alen
że
dalla
uts
テ@@
когда
start
final
ciò
caj@@
此@@
용@@
час@@
лли@@
स्पष्ट
ليل
amber
จะ
okan
pers@@
لكن
裝@@
teles@@
bı@@
работа
ประ@@
wels
maju
tung
siniz
एन@@
ฟรีค่าจัดส่ง
бла@@
ratu
bout@@
impri@@
kontol
uniform
hend@@
lớn
قرر
camis@@
siyon
çant@@
นี้
ጉ
गी@@
esco@@
аж
מח@@
私@@
wii
luxo
исто@@
影@@
balls
materiale
redi@@
क्रे@@
нами
вона
arab
tiş@@
घु@@
dining
abrigo
门@@
pendek
bosch
brick
लट@@
muzi@@
见@@
trit@@
polarized
tiếp
berg@@
backup
سة
ener
報@@
лого
서
河@@
cheng@@
лии
ෛ@@
intro@@
lä
ቤ
woo@@
worden
ندا
giant
дело@@
gris
when
hiệu
共@@
werden
कां@@
った@@
personal
وين@@
seller
ネ@@
biasa
пови@@
ous@@
gm
aat
inal
attr@@
ũ@@
系@@
maat
victoria
frozen
esper@@
коле@@
palette
бизнес
dây
şir@@
टर@@
клад@@
ваку@@
estra
पक्ष
чих
bonsai
उपलब्ध
tale
רות
sors
nintendo
pow@@
עבור
}@@
perso@@
sebelum
mastur@@
kablo
eding
other
يە@@
ści@@
הר@@
jeden
kanada
atki
फिल्@@
पास
sson
моло@@
cken
натураль@@
套@@
tekst@@
раб@@
masalah
tm@@
จาก
shen@@
قان@@
ቡ
anı
ออก
kent@@
ዴ
न्न
компью@@
एच@@
awai
sling
naam
muur
penting
场@@
अभि@@
间@@
أح@@
acks
كي@@
cơ
قل@@
اللجنة
נים
ryn@@
reflec@@
ев
tp
inv@@
кем@@
elos
квадра@@
cùng
जैसे
인쇄
personalizado
cere
第一@@
jur
credit
umum
జ
plasma
must@@
विभिन्न
رب
ретро
ock
ground
bp
amazon
sehingga
stir@@
ø
adam
جار@@
slr
assem@@
जन@@
wp
ให้@@
polic@@
sukan
gì
コン@@
transmitter
olas
grafik
เม@@
texas
presa
habe
ские
natura
เครื่องประดับ
sher@@
laman
agricul@@
少@@
आवश्यक
产@@
trimmer
jauh
समर्थन
rotat@@
aust@@
ඞ@@
американ@@
校@@
제품
finder
вай@@
ever
damen
seluar
قرار
袋
eyeliner
ilan
Г
gers
porto@@
chr@@
bamb@@
digan
जाते
dung
hart
सफेद
شى
piston
mouwen
ار،
fest
dẫn
लगा
pun
бам@@
transformer
크
法
право
除@@
giu@@
大学@@
auth@@
етка
कान
าน@@
partido
stones
puppy
进@@
सामान्य
bd@@
нього
मिल
tok@@
fizi@@
एकल
茶@@
冷@@
並@@
कृपया
서@@
भो@@
ת
toilet
मे
imperi@@
gái
skor@@
полови@@
makanan
instit@@
线@@
yast@@
abor@@
دول@@
हुई
एवं
แ@@
мей@@
four
distri@@
או
начи@@
ราคา
nde
yarn
news
খ
cart
وجه
يش
knob
มือ
lor
bum
cambi@@
detail@@
яка
czy@@
प्त
ronde
市
awat
סינ@@
ution
بول
natuur@@
hast
vip
annya
衣
fare
cái
tengah
aktu@@
çok
wc
дол
fter
mineral
portu@@
peralatan
đi@@
ቷ@@
blaz@@
woofer
มา@@
ंबर
لك@@
피@@
devi@@
stabili@@
링
كې@@
дами
vinil
ort@@
يان
corpo
metaal
prefer@@
gafas
presente
collins
hati
maria
单@@
tori@@
waf@@
tec
ඍ@@
smar@@
bing@@
вес@@
ี
autor@@
satis@@
ауди@@
porte@@
መ
pn
הוא
чека@@
धू@@
вим
hát
لاح@@
hey
उनकी
ideal
kne@@
面
мотоцикл
ange@@
תי
ahli
bob@@
します
butt
japon@@
яти
裙
นิ@@
ноутбу@@
empresa
स्थि@@
illas
您@@
ጠ
cine
прес@@
trum
против
cotone
黑@@
registr@@
pg
طل@@
viv@@
सामने
кін@@
يجب
سأ@@
鞋@@
які@@
лье
якщо
teknologi
グ@@
stad@@
ผ้าฝ้าย
idor
vụ
цвет@@
रत@@
سې@@
良@@
टिंग
show@@
राज्य
pegatinas
ули@@
disi@@
roda
nella
ฤดูใบไม้ร่วง
wars
spro@@
чный
ديل
ліка@@
stamp
condu@@
nm
hell@@
ый
çelik
קצי@@
impi@@
jumper
dog@@
viên
sey@@
terra
temps
платье
abili
brinquedos
biqu@@
tings
onto
визи@@
crop
영@@
lapisan
стра
host@@
бка
product@@
instrument
uff@@
레이스
ツ@@
health
tol
гли@@
มาก
mexico
sert
้า
ब्रे@@
הח@@
nhật
isme
สามารถ@@
pelanggan
удоб@@
secon@@
段@@
gadis
gam
סתיו
çar@@
ෑ
kles
receiver
الط@@
전화
verse
thor@@
same
hava
speelgoed
island
trä@@
底@@
apping
पूर्व
ดี@@
حق
치
daily
richard
हमारे
arts
सल
pens@@
この@@
evol@@
famili@@
经@@
grafi@@
snake
kommen
bler
escal@@
memoria
फ्ट
型
ෞ@@
мети@@
带@@
поз@@
لته
lò
버@@
juan
comb
orecchini
tracksuit
spider
iel@@
polar@@
戦@@
nós
니@@
interess@@
especial
ників
rif@@
интере@@
диспле@@
мир
ント@@
categ@@
आरामदायक
коман@@
個
바지
hes
lembut
synthetic
ign@@
abile
طة
plana
mangas
цій
maat@@
hành
अगर
اله
क्षक
غان
damskie
就是@@
便@@
psy@@
енер@@
xay
ensi
ungi
minut
cej
anah@@
करा@@
ений
nio
только
ឯ@@
магни@@
phụ
новый
even@@
anse
hac@@
记@@
simpl@@
لان
coo@@
בים
rame
대
much@@
charac@@
案@@
这@@
phát
ecu@@
кампа@@
कस्टम
shadow
pinggang
minimum
mandala
סג@@
่@@
eléctr@@
hör@@
圖@@
應@@
مە@@
装
रुचि@@
sement
біля
ivo
trag@@
pling
aé@@
etu@@
tivo
germany
alian
islam@@
אי
paste
drawing
élé@@
وفي
caus@@
श्रृंखला
सब@@
gala
ኖ
awal
華@@
зам@@
ruang
sandalias
paz
थे।
घट@@
trak
कालीन
自己@@
tâm
wiper
publ@@
在
वर्ष@@
dé
licht
california
คุณ@@
лись
dav
套
perfume
تلك
טור@@
iniz@@
stim@@
chine
tights
acu@@
riman
gaun
hada
ides
미니
ait
skon@@
ഈ@@
वाली
mil
лая
сама
ellen
تعل@@
playa
perru@@
rado
gaming
स्मा@@
метри@@
более
marble
уч@@
多
reis@@
tony
biểu
beli@@
ھە@@
ล
chor@@
吸@@
вле@@
onom@@
يات
tata
dian@@
perusahaan
可能@@
ิ@@
ским
鞋
класси@@
ride
gwar@@
等
ंद@@
велосипед
amd
다른
joker
非@@
रह@@
إن
been
फिल्म
depil@@
uning
उन@@
meisjes
क्ला@@
eyes
eid
pelbagai
дон@@
차
reser@@
pendientes
호@@
增@@
cámara
विरोधी
करी@@
كن@@
draag@@
việt
راف
zapatillas
carregador
gauge
भर
послед@@
прин@@
fitur
nay
swarovski
klub
רגי@@
вна
बॉल
يع@@
теля
好
eyelashes
henry
مار
valent@@
स्टो@@
install@@
中心
개@@
ungs@@
「
يا،
คู่
вої
חם
ее
consul@@
lane
reali@@
cay@@
르@@
cetakan
alna
можно
八@@
иде@@
הש@@
فى
turquoise
крас@@
eerde
வ
primer
經@@
дове@@
astra
วัสดุ
dễ
brus@@
asis
antas
kek
relay
goud
थी।
feb
elimin@@
suhu
glow
優@@
pari@@
anjing
ตกแต่ง
vietnam
raya
روع
одно@@
precis@@
хо
jelas
shift
आदेश
网@@
мін
aven@@
willi@@
מד@@
ဌ@@
pour@@
мужчин
ню@@
千@@
jah@@
ulan
дов
계@@
率@@
safe
cil
акри@@
їх
grund@@
לו
vase
aram
coco
배@@
›@@
twi@@
ık
distr@@
血@@
corret@@
piel@@
ਓ@@
propor@@
host
tool@@
dien
талі@@
£
兩@@
หมวก
गे
menarik
आई
лив
版
入
remaja
ധ
дж
vern@@
giờ
ável
पण
console
mek
baño
edes
moti@@
тся
hub@@
jane
ञ@@
beho@@
ggy
popol@@
atter@@
kinder
elke
teraz
sud@@
מת
xing@@
す@@
hotel@@
sauna
שמלות
ót
讓@@
vertical
foundation
위@@
some
jej@@
рын@@
skirts
зада@@
ipad@@
dewasa
đu@@
items
carr@@
ជ
einem
ются
которые
중@@
pengguna
ump@@
बच@@
trình
наз@@
本
tete
emis@@
services
pelle
gä@@
פה
संपर्क
ئۆ@@
يف@@
heeft
ahkan
sized
explo@@
çantası
時
sq@@
access
bec
具@@
cantik
fred
igt
變@@
arduino
حة
кий
labor@@
mouth
puer@@
tün
صحيح
הד@@
ження
وز
sạn
स्वय@@
ऐ@@
節@@
libro
דק
ес
bank@@
descri@@
cookie
持@@
administr@@
داش@@
pais@@
發展@@
她@@
schi@@
ทำ
gửi
表
sı
σ
rein@@
ських
мень
naruto
лов
linea
philips
لىرى
造@@
ップ@@
abad
प्रक्रिया
eros
нува@@
abı
בר
джер@@
pequeno
bukan
된
lagen
каж@@
pihak
vamp@@
ła
bril@@
地
служ@@
बटन
ቨ@@
чник
roman
ロー@@
lâ@@
ऐसे
sans
ሴ
разли@@
shaped
い
ዶ
음@@
suc@@
transmis@@
соро@@
सब
램프
อุปกรณ์
sein
給@@
ther
Ү@@
тым
место
เงิน
מכ@@
발@@
toon
услу@@
мии
達@@
estar
lic
ней@@
ア
tér@@
aging
tambahan
geria
german
เ@@
ered
قائ@@
логі@@
comfort
ที่มี
पाठ@@
lamps
condition@@
stad
ール
çün@@
ших
गण@@
ไม่
然@@
ів
wet
nite
חולצה
สีแดง
tw
adet
uhan
boek
सो
제
đơn
gusto
ँ
вт
ディ@@
तों
是
tạo
tür@@
식
corte
ожере@@
тий
ഛ@@
stroller
optik
महिलाओं
sami
elde
категорія
extrac@@
кора@@
帶@@
hart@@
عندما
热@@
oxy@@
mayo
ック
кола@@
gina
meu@@
머리
etten
หรือ
jul
acja
양@@
لب
موض@@
цт@@
stimul@@
jp
fitting
virtu@@
elit@@
dawanda
webcam
ਏ
мла@@
facebook
isse
플라스틱
cargador
एल्यू@@
ход
าย
opener
jumlah
sey
compos@@
现@@
yêu
ões
voir
मज@@
води@@
soporte
уста@@
nghĩa
карти@@
гай@@
ube
男
專@@
intellig@@
reflek@@
होते
已@@
lol
bateri
види@@
線
claus
сенсор@@
推@@
сумки
еним
hồ
व्यापार
суд@@
סדר
قات
asal
afric@@
kole@@
animals
serat
さ@@
상
م؟
вот
bagaimana
женские
coklat
bulbs
construc@@
лит@@
vise
contin@@
akala
punch
ಎ
harmon@@
поль@@
haar
आदि
चू@@
luft@@
ży@@
حت@@
placa
وغ@@
minist@@
hyper@@
glue
शु@@
관@@
програ@@
tight
語@@
тами
상자
toàn
県@@
cole
konsum@@
לבן
水
else
isko
plas@@
chon
לש@@
यक
leon@@
standar
單@@
bond
بعض
carav@@
nyaman
tamp@@
кто
노@@
park@@
status
店
koper
ندو@@
早@@
чок
fans
esan
ऐसा
matrimonio
xm
jetta
suis
रूप@@
प्रिंट
brau@@
себе
memiliki
semasa
bour@@
eniu
коно@@
gim
reading
полиэ@@
ols
abili@@
실@@
板
lata
मिश्र
leta
sui
років
voiture
हित
شر
жки
sui@@
мето@@
dzieci
khaki
质@@
نة
دام
аген@@
粉@@
अमेरिका
energie
겨울
واس@@
ಛ@@
ód
гро@@
זהב
bawa
mental
beta
віль@@
캐주얼
ध्यम
अप@@
basket@@
син
simp@@
suka
kembali
sette
लेकर
requir@@
continu@@
ย
查@@
pok
blocks
màn
dictionary
景@@
合
جز@@
arriv@@
зелен@@
الات
สาว
ポ@@
diad@@
会
אחת
filem
konfer@@
생@@
дета@@
वार्@@
dji
regel@@
數@@
ماد@@
टम
жите
edin@@
mk
运@@
сигна@@
cone
marvel
شنى
ــ@@
дка
flamingo
tb
palm
pian@@
स्क
सां@@
نجا@@
kuat
洗@@
remov@@
रण@@
bangan
പ
列@@
ornament
indah
企业@@
模@@
ees
外
daje
aties
作
alcatel
材@@
camisola
vc
印@@
กัน@@
роди@@
ाई
const@@
etic
bull
aps
мало
دە@@
italy
sv
תחרה
сок
talon
chai
рез@@
poi
뜨거운
etro
กล่อง
sb
typ
生活@@
ंडा
도착
mobili@@
scen@@
यात्रा
disco@@
уні@@
giới
حتى
prints
adem@@
available
transfer@@
ภาพ
due
לב
cylinder
quin
новых
sponge
мом
調@@
bluza
لح@@
була
wij@@
ilk
nói
即@@
temperature
tind@@
强@@
maz
pies
гія
teknik
anus
प्रमुख
сени
ļ
парта@@
questo
產品@@
ног@@
abl@@
फी
minh
רזי
нача@@
gerne
Ө@@
yaz
च्च@@
اله@@
दर@@
sizin
psi@@
結@@
ඵ@@
intelig@@
dka
simil@@
ִ@@
tuyến
ඊ
keras
чного
diz
zes@@
文化@@
opy
colored
घे@@
alg@@
мину@@
konf@@
áp
quete
dasar
cubic
طلب
תי@@
tactical
เอ@@
olduğunu
magni@@
стой@@
架
puli@@
bande
terdapat
彩@@
pog
코@@
ं।
क्रम
식@@
षक
तः
luk
質@@
tz
جميع
antar
afro
phoenix
celana
сій@@
pantai
kosti@@
สไตล์
nature
hifi
ities
حل@@
语@@
hic@@
partic@@
paar
bero
说@@
ברו@@
साध@@
clean
mengambil
ês
pedra
一个@@
volt@@
dompet
ที่มี@@
onton
길이
noite
mam
desire
ppi
conce@@
muş
bibli@@
कोर
pels
стали
models
ición
akumul@@
nha
利用@@
щи
่ง
foli@@
музи@@
lık
ሌ
bathing
atos
بىز
filtre
otomatik
لين
док
감@@
dita
पृ@@
للم@@
九@@
concr@@
enkele
kins
embossing
비
selatan
sinh
entrega
freeshi@@
gri
stoff
colores
luces
스타일
батаре@@
frag@@
kunst@@
стол
mie@@
ตัว@@
၎@@
بها
अलग
sticks
ا؟
semula
จัดส่ง
beri@@
bian@@
إنه
阿@@
tiền
oneplus
高
טלפון
cooling
ële
धार@@
мед@@
ripar@@
są
лів
bade@@
選@@
轉@@
hz
xim@@
keluarga
ючи
ً
yani
陽@@
quer
pasar
гам
completa
сред@@
coun@@
درا@@
politik
ergonom@@
mf
mavi
saham
एफ@@
коро@@
ajust@@
taya
häng@@
क्षा
ір@@
zaino
तिक
साधन
반@@
आइ@@
足@@
beng@@
polari@@
kul
lentes
зара@@
movi@@
alternati@@
monte
september
inton
שמלה
fender
बोतल
ทารก
技術@@
resid@@
قىلىش
号@@
proy@@
где
כיסוי
zwart
aç
pagina
כסף
資@@
sáng
janu@@
ทำ@@
народ@@
вни
巴@@
regulator
захо@@
wim@@
materials
床@@
牛@@
ply
pci
적@@
登@@
пуло@@
whit@@
रख@@
massa
לוח
кг
آخر
steampunk
ecas
tm
speed@@
ശ
belakang
leur
вини@@
тті
essi
пробле@@
ฮ@@
present@@
าย@@
castle
hill
ayaan
update
ค
zka
요@@
留@@
spoon
भार@@
ڭ@@
ฤดูใบไม้ผลิ
sulle
şi@@
фон@@
asto
noir
प्रेम
dier
市場@@
liter@@
entas
bits
कह@@
taglia
ringen
елеган@@
blonde
samo@@
вк
vrouwen
चल
oly@@
дома@@
ప
taz@@
кали@@
dogs
декора@@
порт@@
istik
stencil
fetish
frank
режи@@
baris
bt@@
route
geni@@
טים
delic@@
ف،
черный
penn@@
سيا@@
סוס
düşün@@
змі@@
disi
سلي@@
nation@@
terug
干@@
jk
하기
चो@@
lock@@
вич
дів
_
identi@@
पत्र@@
حسا@@
員@@
україні
वर्ग
lique
説@@
effec@@
dres@@
сом
hubungi
לב@@
клуб
neces@@
आं@@
eld@@
매@@
ومي
주도
struktur
يل@@
cuba
aian
スタ@@
рия
ilik
लम्@@
cent
spinner
comfor@@
сах
syen
fill
zem
ಠ@@
benda
burn
种@@
нів
гроз@@
جم
לים
нада@@
insert
buf@@
その@@
沒有@@
grazie
并@@
विशेष@@
далі
अनुसार
座@@
컬러
크리스탈
ース@@
consum@@
שלי@@
pont
ograf@@
tule
inspi@@
에게
inizi
बन्@@
ashes
reis
nhanh
twee
איכות
leave
praia
मूल@@
sions
dora
调@@
赤@@
नेट
有
ఈ@@
campuran
capit@@
profil
甲@@
सुन
напо@@
जारी
shelf
tures
짧은
ライ@@
okul@@
lịch
रेट
בת
bren@@
cửa
compar@@
مية
प्राकृतिक
terap@@
पुलिस
mapa
єю
ಔ@@
גב
oce@@
הפ@@
plane
tahu
路
мото@@
bros
נסי@@
员@@
เจ@@
borg
萬@@
ـ
قانون
луч@@
運@@
支@@
sze
uren
פ
metre
balloons
号
über@@
soi@@
electró@@
نز@@
סיטונאי
тина
ebook
infer@@
yong@@
einer
муля@@
oning
läng@@
ених
rose@@
विवरण
beis@@
един@@
ditu@@
raad
break@@
越@@
여성의
을위한
piscina
ラン@@
cf@@
gros
grab@@
кле@@
зви@@
bby
jerman
alex
музы@@
november
pengu@@
ead
стере@@
・
ür
cü@@
powerbank
duy@@
volta
żu
ами
อร์@@
defen@@
สาย@@
재@@
世@@
originale
브랜드
لها
ผู้@@
шли
คริสตัล
कुल
adidas
uniti
komput@@
rich
विकास
חדשה
merchant
سوف
mene@@
ktm
נק@@
कर्ता
bilang
沙@@
pois
three
ngoài
toi
mobi@@
потреб@@
网
산@@
mouw
pres
ሙ
手
संरक्षण
카드
abc
help
ဿ@@
asses
הת@@
soy@@
sulaman
ワ@@
ручной
पन्@@
traffic
अपना
шен
分析
kategori
вид@@
бути
chris
komfor@@
kepala
पे
कल@@
ces@@
מג@@
eus
which
डल
culo
marina
bantal
inser@@
francisco
moet
чних
tasche
lilin
bersama
אדום
resul@@
消@@
حال@@
事
menina
位
мати
liers
服務@@
【
سە@@
electronics
він@@
людей
चम@@
perjalanan
达@@
egen
нт
bedding
ampli@@
ഊ@@
वल
institu@@
продук@@
monta@@
лих
lily
eia
बस
ंद
informa@@
pods
дале@@
하지
любо@@
יה
ته@@
luruh
두
uter@@
dex@@
cầu
cooper
يدا
зь
gümüş
pasta
óm
tapp@@
ไฟ@@
pij@@
inder
وسي@@
kuasa
вина
visu@@
кулон
ขนาดเล็ก
भाषा
quy@@
कम्प@@
asing
буду@@
fx
ஈ@@
ሎ
ム
क्का
blanket
chang
sters
वृ@@
elling
хлоп@@
flag@@
tier@@
dies@@
поро@@
ogen@@
chlo@@
इलेक्ट्र@@
נות
fren@@
mise
नाव
фли@@
ート
chuyện
serta
revi@@
ців
smooth
สั้น
लघु
textile
ว
acry@@
bakar
walaupun
knight
中心@@
cisco
구
जाती
модер@@
deer
tapi
الها@@
detec@@
riem
कंगन
lais
源@@
ezer
ações
vite
भु@@
คอ
anch@@
avengers
tinh
소
dani@@
hooks
爱@@
สีฟ้า
istan
kadar
ories
andere
థ
dı
часы
mother
lande
perlas
전
कागज
יכ@@
लिये
थे@@
near
saber
hotele
perat@@
сучас@@
กระ@@
кно@@
裙@@
तन
ቀ
หม@@
eiffel
siem@@
vlak@@
град@@
华@@
eds
cilin@@
studs
ち@@
עץ
게
мол@@
六@@
veren
protet@@
этот
hq
дизай@@
gunung
vinc@@
avis
tell
बां@@
izador
reco@@
產@@
를위한
と
ття
दोनों
दिवस
aux@@
دات
country
भ
tens
inci@@
تې
wird
conjunto
лены
пото@@
compres@@
league
compl@@
zimmer
verano
дви@@
flav@@
очень
أت@@
цик@@
信息@@
robot@@
boom
нити
בית
благо@@
экономи@@
fati@@
ʻ
wilayah
draad
thường
management
brin@@
مۇ
لف@@
нью
harus
العمل
satellite
этой
lük
ไฟฟ้า
thích
пки
comer@@
紅@@
承@@
glove
cadena
लै@@
म्म@@
ไป@@
بغ@@
あ@@
prij@@
beton
çe
dass
프@@
düş@@
dür@@
הג
сне@@
обувь
eric
होगा
kaar@@
網友
elettr@@
chia
рус@@
yö@@
เท@@
train@@
otur@@
ards
лося
eagle
concer@@
полу@@
grado
여자
ピ@@
toy@@
populer
langit
booster
bild@@
文
portat@@
sende
aller
zeg@@
museum
kompet@@
문@@
рных
термо@@
формы
elephant
七@@
ior
адре@@
ulti@@
초@@
sier@@
febru@@
何@@
umur
lighter
縣@@
ఏ
popular@@
biker
гии
льный
спек@@
목걸이
lips
als@@
сор
نعم
veux
ograph
grau
点
peg
шо
政@@
ホ@@
flot@@
матч
legno
ضي
annu@@
braided
คล@@
vagina
प्रति
בות
』
digh@@
raz
masturb@@
europages
cial
फाय@@
natu@@
ues
halsk@@
laar@@
patri@@
pest@@
장난감
bung
strate@@
ۍ@@
thú
contro@@
wedge
psp
jurken
прия@@
שה
ises
driving
akit
פת
brun@@
dades
ardo
elk
ини@@
sional
pelajar
гаду@@
posto
حد@@
vật
would
telev@@
أم@@
днев@@
יכול
motocross
خار@@
ード@@
робо@@
является
diu@@
comput@@
ıları
aper
張@@
вати@@
elef@@
كيف
inç
quote
bucket
мпи@@
رق@@
編@@
dres
קים
propri@@
bagus
dinosaur
vens
step
point@@
memberikan
पक@@
balance
batan
elé@@
期
confor@@
китай
keychains
различ@@
त्य
нс
从@@
шек
aroma
much
kann
sf
daftar
dodge
hoge
plaat
ству@@
فه
금속
fille
miniature
kleid
жем@@
רב
grund
каблу@@
управ@@
रम
glass@@
้
angin
must
กีฬา
есть
linux
masih
зроб@@
Î@@
lass
mico
गया।
став
لغ@@
ؤ
zed@@
eries
году
sent
meisje
花
baran
erin
дли@@
фільм
skim
perak
फा
thay
גה
neutr@@
lage
radiator
skar@@
lugar
לח@@
ader@@
obe@@
refriger@@
بما
kỳ
클@@
შ
طبي@@
menonton
dut
електрон@@
ciu@@
peach
हूँ
жива@@
гия
estab@@
मानव
因@@
affi@@
金
विभाग
背@@
гет@@
する
зали@@
iman
trẻ
ial
วน@@
認@@
sejarah
civic
tanto
deur@@
ультра
เร@@
hingga
актив@@
사용
vais
双@@
主要@@
מול@@
委@@
perempuan
groen
görün@@
博@@
amis
挂@@
كِ
triple
đặc
iden@@
जानकारी
delta
плю@@
parap@@
cou
李@@
topi
transparente
关@@
学生@@
bahu
shampoo
כובע
экс@@
щ
明
מת@@
terbaru
middle
mej@@
causa
induk@@
ніх
вания
rede
doo@@
steph@@
龍@@
ペ@@
городами
ड़ा
дуже
rasa
מחשב
라인
soap
曲@@
puas
зака@@
atar
karena
np
sw
dison
rp
raja
箱@@
ostat@@
红@@
酒@@
mascara
角@@
садо@@
الان
лише
ጸ@@
至@@
surf
вашу
झु@@
लिश
터@@
ayı
rona
nyata
داخل
region@@
션
टाइ@@
cke
гео@@
زار@@
कट
фона
섹시한
пунк@@
到
каби@@
тель@@
psi
front@@
כה
metro@@
라
böl@@
zim
бру@@
المع@@
ዛ
tain
tidur
ผสม
spiderman
прав
전체
partner@@
ished
दूर
ット
国
تىش
制
成
tabung
нове
external
caracter@@
मोटर
tep@@
túi
ಝ@@
ҷ
رە@@
հ
裏@@
вчи@@
မ
失@@
чета
akril@@
тебе
тив
бог@@
觀@@
sza
架@@
moment
mobiliário
тных
зова@@
ۇ@@
友@@
loro
cow
гото@@
يز
muslim
스틸
agt
sleep
أ
傳@@
construction
यूएसबी
控@@
поми@@
uten@@
couro
straw
تحد@@
sonic
angen
junior
kinh
เสื้อยืด
षण
льных
ताप@@
pilot
sch
menemukan
обе@@
тая
космети@@
taan
infinity
информа@@
החדש
餐@@
illy
çocuk
sons
सुन्दर
udara
batterie
ब्रि@@
đường
ées
ські
ponsel
jackson
граду@@
برو@@
सार
פנ@@
đầm
प्स
acet@@
如果@@
teil
भौ@@
scratch
automotive
מר@@
emergency
vila
hãng
こ@@
विश्व@@
dibu@@
网友
ण्ड
посе@@
medio
ladi@@
wings
angkan
warni
لاً
partner
फ़@@
hiz@@
school@@
waw@@
안@@
आवश्यकता
يمكن
धिक
screws
kumpulan
alpha
lucu
unting
hij@@
maur@@
mainan
图@@
wiel@@
ของขวัญ
果@@
रोशनी
satış
ศ@@
進行@@
hostel
सही
評@@
fiet@@
aler@@
meja
зво@@
бі
경우
eut@@
tanah
别@@
베@@
poli
קצר
속@@
monitor@@
อก
जार
ंस@@
font
לת
alog
floating
hãy
هيا
boca
більше
torn@@
buty
wier@@
scarpe
успе@@
उसकी
craf@@
روف
fork
治@@
akte
epis@@
рада
academ@@
بۇ@@
anne@@
change
כתף
温@@
atkan
carteira
причи@@
ओर
步@@
정
stag@@
rectang@@
ями
เบ@@
राष्ट्रीय
afir@@
iem@@
शुरू
스포츠
โลหะ
tháng
يك@@
опти@@
lands
كر@@
подо@@
komuni@@
方
लता
етки
шля@@
zet
suites
kiran
sial
сказав
askan
게@@
視@@
unas
edas
נת
cx
чий
aksi
mundo
jian
유리
scot@@
стоя@@
права
組@@
限@@
przez
المست@@
keti@@
様@@
carbur@@
ผม@@
emul@@
ลูก@@
вяза@@
הוביל
succ@@
demo@@
סוף
找@@
kích
crit@@
etek
देने
stopper
akrilik
차@@
initi@@
stef@@
çalış@@
ڱ@@
ły
ذه@@
pribadi
дже@@
画@@
وني
เด@@
דים
pakistan
stat
نوع
acrí@@
sty
ياخشى
प्रत्येक
enze
ۋا@@
conveni@@
富@@
모자
מסך
superman
सजा@@
бен
chiếc
rendah
bình
cowboy
запо@@
illi
열
looking
finish
ไหล่
र्थ
级@@
נעליים
marc
شخص
сту
kd
nghiệp
суд
אות
rm
транспор@@
bunu
러@@
雙@@
prove@@
投@@
นำ@@
selama
paraf@@
密@@
dapur
dez
広@@
hrs
жен
portes
penuh
ário
garland
dish@@
idea
яке
ఔ@@
naga
팔찌
razor
karya
통@@
brem@@
template
ically
şarj
sei@@
ahr@@
trail
व्य
zij@@
ター@@
winkel
秋@@
बिना
ไม้
herr
possible
avez
別@@
trợ
ícul@@
armor
fall@@
сів
न्य
طر
meli@@
vẫn
opera
חורף
milk
ода
電子@@
cette
phân
회@@
хри@@
ımı
mostr@@
datar
חה
bleem
程@@
당신이
calcul@@
वार
체@@
excel@@
лий
cec@@
freight
tham
ป้องกัน
payudara
tiada
남@@
oog
ppers
fleksi@@
अंग@@
eci
after
需要@@
เสื้อ@@
nose
werp
engan
אה
ключа@@
sast@@
gelombang
kolam
chave
сим@@
mw
altri
पीठ
noo@@
ologi
прак@@
thuê
kantor
แบบ@@
راء
있@@
madera
北京@@
תה
創@@
menunjukkan
shire
dono
명@@
rien
بالت@@
champi@@
поза@@
prior@@
staan
र्स
кие
perang
算@@
티@@
sage
वितरण
ับ
engagement
semi@@
कीय
स्थिति
owan@@
рф
talla
воро@@
chủ
nee
अह@@
histori@@
galaksi
kendi
给@@
potter
assor@@
ัง@@
ဧ@@
dante
тю@@
tekni@@
itis
파티
screwdriver
paint@@
класи@@
кар
أر@@
ancia
यदि
сь@@
我们@@
totoro
こと@@
ฤดูหนาว
كۆ@@
одежда
konven@@
बताया
princip@@
राज
спла@@
प्प@@
cock
स्वा@@
centrum
นิ้ว
eron
slipper
тільки
colle@@
bunny
布
klet
swim
द्वितीय
oren
rici
alex@@
जहा@@
製@@
resina
पूरा
wiko
ब्लॉ@@
akses
ارا
ング@@
使用
bd
カー@@
तब
ancy
spin@@
เต@@
rech@@
وح@@
acji
ド
ಚ
точно
قدم
xxxxl
→
địa
staf
rits
нес@@
único
umul@@
aces
stry
טור
sant
pokemon
pz
ين،
excellent
тична
alizu@@
eing
าร@@
dream@@
korte
示@@
orch@@
glia
gd
สบาย
स्ना@@
zur
报@@
dài
diaper
nasi@@
批@@
epil@@
перед
дри@@
象@@
ทอง
バー@@
पुर
מט@@
กัน
ंच
pion@@
fee
مب@@
प्रेस
deel
第二@@
phase
lao
jumbo
odor@@
iera
formas
جان
olymp@@
थि@@
조명
導@@
лся
चित
pingente
अति@@
tivit@@
행@@
pek
capacity
adesivo
変@@
docu@@
цар@@
टेज
予@@
tenda
carga
技术@@
release
阳@@
etor
heb@@
מות
negeri
memper@@
草@@
歌@@
сов
alet
cré@@
меня
端@@
体
cerca
ulas
сталь
zanado
פור@@
объ@@
чные
lah
aires
дия
धी@@
cono
review
cloud
direkt
口
נייד
لدى
inden
cocok
embre
人民@@
напа@@
存@@
dó@@
師@@
只@@
bk
voer
बैंक
vale
szy@@
insi@@
kategori@@
pee
試@@
』@@
circu@@
ทาง@@
bate
conden@@
mulheres
transfor@@
био@@
qr
ارات
бом@@
वन@@
커@@
activ@@
जिंग
速@@
гель
cak@@
ثا@@
венти@@
急@@
실버
kunci
나무
पता
הב@@
ตั้ง
핫
rusia
closure
проце@@
фло@@
client
gaan
inches
friend@@
vị
eju@@
永@@
soph@@
icy
operasi
章
craw@@
形
vier
เหล็ก
hung@@
motif
wheels
bouton
воло@@
天
ną
נצ@@
lers
летен@@
diskon
marsh@@
奇@@
fond
ู
cukup
ຊ
עה
maal
compra
ገ
titan@@
ñas
تك
sistemi
здо@@
ะ@@
बाबा
рю@@
принце@@
味@@
fren
walk
पु
เว@@
porter
kunnen
ඹ
stuur
рим@@
ticos
destin@@
يكون
туры
標@@
oak@@
spit@@
kende
burgh
स्टा@@
kapak
пого@@
gặp
vende
שקית
رقم
radio@@
boneka
balan
habitación
habit@@
cập
esso
льные
ết
свою
moto@@
сьогодні
ransel
requ@@
lote
sejuk
빛
efec@@
العامة
普@@
طي
ceny
büyük
กล้อง
袋@@
一般@@
aving
สร้อยคอ
ሾ@@
pedic@@
enor@@
zestaw
peso
àm
ै
เก@@
thương
tamente
例@@
箱
भाव
kılıf
स्वागत
barbie
bord@@
geo@@
свет
introdu@@
مس
कम@@
clear@@
corsa
מס
官@@
illumin@@
enten
注@@
סגנון
steering
joint
charging
чо
bub@@
ческие
메@@
esto@@
graphy
berdasarkan
尼@@
kuning
条@@
じ@@
bhinneka
проблем
דיגיט@@
मैंने
winter@@
ጁ
裤@@
zigar@@
ggle
виде@@
miet@@
camara
خلال
करें
liche
sampel
haus@@
ress@@
ให้
ać
키@@
ຄ
松@@
wanie
盒
pulso
جدول
già
красо@@
سرا@@
області
tuta
ของเล่น
فاع
بادل
тник
סילי@@
giao
ison
ئىش@@
슬림
докумен@@
宝@@
资@@
夜@@
acy
屋@@
juli@@
職@@
youtube
fern@@
cellul@@
غو
fornit@@
bellis@@
filtro
ሹ@@
ヒ@@
наи@@
cá
кран
吃@@
रता
meters
गर्म
млн
phong
行業@@
付
robo@@
क्षि@@
室
мера
пам
голов@@
цьому
after@@
حسناً
kleri
eden@@
مرح@@
empat
wolle
סין
чні
will@@
perancis
nutr@@
arrow
вет
नए
適@@
略
baar@@
कुं@@
دير
upan
urg@@
光
donald
wah
backpacks
依@@
доне@@
فه@@
остав@@
facil@@
kres@@
ост@@
بالا@@
ซม
gym@@
इलेक्ट्रॉनिक
images
тера@@
sudah
jump
jepun
chống
orn
porn
pijama
porto
buatan
रूम
้น
eper
été
ቼ@@
पाइ@@
ต่อ@@
соба@@
چە
复@@
ência
larını
продукт
dots
azu
letters
flex@@
班@@
gesch@@
בנות
ハ@@
मेरी
уг@@
tiara
kursi
wyso@@
화이트
fantasy
ostr@@
ington
vide
qash@@
automobile
朝@@
母@@
nh
मर
jewel
pozi@@
壁@@
trem@@
praw@@
imen
плі@@
ज्यादा
股@@
wä@@
ferro@@
orient@@
molds
वाद
務@@
social
peli@@
talk
apri@@
ously
אורך
всех
ชั้น
тко@@
presso
政府@@
sph@@
ઔ@@
tende
ئۇ@@
distribut@@
الأمر
jawaban
證@@
移@@
cir
หนา
爾@@
เน@@
だ@@
가을
진@@
kralen
रस
spring@@
conn@@
тут
लगी
प्रदेश
asas
ikin@@
đại
низ@@
марка
では@@
facile
environ@@
קת
विचार
ഐ
зка
यहां
deve
doc@@
的一@@
ऍ@@
했다
sound@@
edit
punkt
sugar
sı@@
было
kalis
节@@
idos
okr@@
definition
budak
ใหม่@@
roti
प्रश्न
المت@@
переда@@
ой
ліза@@
merc@@
المن@@
kah
sedi@@
agri@@
зия
冬@@
sains
раль@@
erotic
ungs
guest
percuma
fuji@@
цены
вши
словами
daniel
ष्ठ@@
रहे@@
הכ@@
peu
الى
تين
giai
buch@@
edy
бед@@
dikenali
حد
فل
vận
atmos@@
假@@
wech@@
trunk
請@@
aven
цир@@
tafel
coi@@
fait
ภาพ@@
玉@@
ហ
лож@@
कंपनी
тный
vaso
fabrik
плани@@
ी।
perc@@
上海@@
carrier
њ
kompres@@
eken@@
แขนยาว
它@@
ズ
ويل
adam@@
aktif
boss
หน้า
uche
שעון
рь@@
效@@
cloth@@
mendapatkan
escol@@
calz@@
birli@@
조각
mewah
עמיד
مىز
piec@@
医@@
pulse@@
維@@
فوق
設計@@
่ง@@
信息
almo@@
запи@@
cet
private
cı
дова@@
кос@@
अभी
être
破@@
액세서리
klav@@
nuc@@
cky
шно
atlet@@
phy
الغ@@
assist@@
dx
nhiên
instant
rug
works
oles
trọng
джу@@
bagno
ał@@
carte
letter@@
benef@@
הגעה
система
mier@@
plano
araç
tô
emy
numero
มัน
kamp
monkey
aceite
ंगे
зас@@
زات
निर्मित
гори@@
카메라
ريد@@
ß@@
論@@
насо@@
ขนาดใหญ่
总@@
ปก
选@@
आधार
hallo@@
сезо@@
source
шорты
jualan
веден@@
bilder
ires
集
leme
scrapbook
sın@@
peng
toda
ज्य@@
ลูกปัด
рой
दर्श@@
wonder@@
吉@@
plate@@
estándar
قىل@@
cont@@
داً
과@@
услуги
fusion
프
many
льного
ров@@
bandeau
품질의
วินเทจ
ذر@@
ة؟
penawaran
barcelona
mô
atta
motocicleta
interna
完@@
flying
pple
הצ@@
тей@@
фле@@
afor@@
المح@@
พลาสติก
lado
خدمات
nell
बढ@@
स्ता@@
kinderen
แขน
関@@
預@@
झे@@
modell@@
реги@@
through
tje
dito
แฟชั่น@@
มินิ
か
florida
还@@
mand
можемо
kę
alfa
япо@@
फाइ@@
аксес@@
商品@@
sukienka
专@@
工作
aries
setti@@
doen
personalized
anten@@
tế
ンド@@
내@@
gadas
тная
thuật
trust
ask
페@@
मेल
масса@@
tóc
मक
дина@@
才@@
position
lığı
بحث
premier
religi@@
है@@
pina
العام
quando
utara
ському
करू@@
mehr
aciones
ationen
display@@
xad@@
istan@@
inggris
洋@@
heating
حس@@
优@@
ğu
marker
้น@@
osp@@
stroje
مدر@@
seluruh
sekarang
ሑ@@
شە@@
童@@
المر@@
動
광@@
滑@@
검은
oraz
refle@@
prices
dail
vinilo
игра
kleider
ías
cv
search
tuy@@
мог
adis
jing
цио@@
아이@@
应@@
גנ@@
學生@@
atuur
دۇ
माइ@@
jr
bern@@
prz@@
पड़@@
новий
vestir
bres
दय
जरी
zapat@@
cheng
think@@
left
roze
bolso
lub@@
क्योंकि
द्ध
रिया
우리의
耐@@
置@@
дні
лени@@
bermain
cultur@@
lint
ዋ
alami
kr
nostri
esses
accord
ዣ@@
perubahan
鋼@@
เด็ก@@
jut
सौं@@
лась
городе
전기
comm@@
nilai
мала
stric@@
য়@@
boards
雪@@
इसी
akes
student@@
علي@@
bateau
點
patches
terus
хими@@
comme
dön@@
स्पे@@
вез@@
zmi@@
лок
barr@@
이다
उपयोग
khóa
портатив@@
่า@@
ਝ
เช@@
חמה
ident@@
龙@@
keys
pne@@
한@@
arena
juta
atom
stem
zit
пан
بد
طلا@@
酸@@
लने
dinding
组@@
لد@@
auc@@
нор@@
قال@@
יותר
ஓ
ト
alista
iger
thống
enco@@
люд@@
menerima
سىنى
лін@@
hẹn
夏
圖
ера
umen
remoto
kran@@
त्य@@
essere
拍@@
seus
elen@@
بص@@
방수
ज़
eras@@
comprar
namp@@
दृ@@
voy@@
तीय
maquiagem
Ы@@
balon
園@@
ील
교@@
correc@@
운@@
흰색
フィ@@
grote
スナップショット
تنا@@
ఠ@@
prop@@
airsoft
mantel
ท
業
tain@@
pinc@@
поста@@
timur
סטו@@
пуль@@
cruze
bekerja
片
ั@@
‘
призна@@
уже
тний
дозво@@
radar
bouquet
cab
디@@
الدول
eet@@
واضح
الة
ӯ
علم
เย็น
find
عل
програм@@
alko@@
hijau
globe
kly
grille
domest@@
café
cian
باد@@
배터리
साम@@
ходи@@
багато
echt
فية
carnival
нака@@
纸@@
arro@@
perkara
kiểm
أو@@
тур
नाइ@@
黃@@
ций
גבוה
aksesuar@@
тити
suit@@
kultur@@
黄@@
kpop
자전거
gato
รถ@@
президент
дии
نحن
changer
html
hidup
بيان
dial@@
icas
ẹn
rigi@@
stockings
geor@@
张@@
ใช้@@
infra@@
baan
достав@@
절@@
goede
فو
чку
giày
wordt
blus@@
प्ले@@
kinerja
restor@@
amar
פס
أف@@
سون
cabeza
بية
間
يق@@
stadium
repl@@
рні
हो।
мира
權@@
sehr
بأن
нейлон
lựa
matem@@
wrench
защи@@
swan
小
船@@
פרח
sato
關@@
gode
स्टिक
цион@@
günü
국@@
веро@@
супер@@
corp
мах
ጮ@@
wz@@
рож@@
basis
價@@
अनेक
singapore
söy@@
oferta
ます
नियंत्रण
मौ@@
विष@@
領@@
laat
레이@@
ĺ@@
berlin
mons
всі
アル@@
岛@@
formul@@
этом
compression
संस्करण
crocodile
गति
सर्वश्रेष्ठ
강@@
larda
вест@@
सफ@@
วิ@@
ผลิตภัณฑ์
тиза@@
singkat
هور
jaan
share
scott
makita
$@@
durante
時間@@
bois
복@@
сві@@
stuffed
arabic
karte
fair
عب
הג@@
결@@
活@@
ונה
ramp@@
çiç@@
люби@@
paras
masing
agul@@
बर्@@
тні
костю@@
eyebrow
pairs
שים
false
wow
вз@@
يح@@
키
jordan
tài
隊@@
secur@@
дово@@
나
プロ@@
ۋە@@
테@@
학@@
good@@
ሊ
склада@@
灯@@
당신은
нима@@
จาก@@
ग्राह@@
вс
komen@@
कट@@
सें@@
pipa
phar@@
alic@@
boda
hoog@@
работа@@
から
dead@@
גדול
мки
अमेरिकी
基本@@
มาใหม่
rail@@
tác
vola
zodi@@
تاج
बर@@
spain
등
насос
tram@@
quá
sheets
夫@@
दुनिया
kering
waar
miami
ghts
adat@@
saja
scrit@@
ря
сцен@@
플@@
klap@@
acou@@
distributor
ikal
전원
zenie
acer@@
容@@
behang
הס@@
क्षे@@
anın
प्रत्य@@
ções
यही
ولكن
porcelain
erte
huis@@
bè
ativo
показа@@
caz@@
rouge
موج@@
حي
accor@@
ением
brush@@
โทรศัพท์
gradu@@
высокое
科技@@
між
octavia
şey
형
لاش
patter@@
откры@@
prze@@
ध्यान
pomp
lüks
istri
शर्@@
יני
oter@@
figh@@
อย่าง@@
können
spat@@
toc@@
직@@
ذهب
أكثر
accu
bici
turun
ไป
пусти@@
स्टी@@
berbeza
ruby
poder
tới
marco
stile
costura
磁@@
hals@@
Ò@@
опреде@@
hỗ
التح@@
mát
kerajaan
中的@@
اق@@
pouvez
झ
adlo@@
precio
hydraul@@
гла
viens
पल
пей@@
사용자
สินค้า
pintu
किट
phin
meer@@
veget@@
coupe
gesi@@
सोने
oktober
जत
변@@
tiles
unya
ຣ
people
usar
были
मामले
含@@
topper
orie
niña
گى@@
playstation
شع@@
टेड
cats
hours
दारी
kadi@@
щодо
ינה
jones
श्री
乳@@
وقف
क्यू@@
사용할
చ
证@@
corda
декор
велосипе@@
kiss
torna
अच्छा
terdahulu
friends
знача@@
overalls
рва@@
הלבשה
vell@@
جم@@
דות
kı@@
雨@@
योज@@
裤
أنها
मंच
major@@
क्रो@@
ఇ
deko
sensit@@
зако@@
конструк@@
hoạt
proced@@
име@@
memberi
orts
roe
камер@@
north@@
dk
致@@
berat
voice
判@@
strand@@
archiproducts
xon
pumpe
संख्या
conven@@
truc@@
裡@@
為
manager
מכונית
düz
visit@@
nhỏ
靴
batterij
maison
廣@@
poker
ɓ@@
synth@@
liqu@@
麻@@
now@@
hoes
่า
कार्यालय
진
возду@@
frig@@
ност@@
ゴ@@
厚@@
헤어
婚@@
shark
신
чення
stripes
corre@@
đánh
नियमित
แหวน
最新@@
thức
master@@
แบตเตอรี่
語
ř
teile
kevin
органи@@
עמי@@
मिक
ケ@@
наро@@
зь@@
乐@@
мка
车
atka
ạ
области
बड़े
البلدان
處@@
تحت
往@@
рішення
automatik
карты
aide
ที่มีคุณภาพ
puan
レー@@
ємо
camp
系
text
जेल
हिर
Ф
پە@@
協@@
seur
отде@@
类@@
доступ@@
quả
hij
द्योगि@@
circul@@
dge
camel@@
shimano
cabo
אם
مام
rolo
pengunjung
以上@@
壓@@
elbise
stico
靴@@
oui
hoesje
参@@
skeleton
artifici@@
кад@@
комплект
어깨
ที่จะ@@
start@@
şe@@
राम
accessi@@
ป
motosiklet
emon
キャ@@
وإ@@
เค@@
enviar
測@@
lets
書
射@@
料
מין
microphone
pelindung
clá@@
carab@@
市场@@
काग@@
材料@@
तस्वीर
dibuat
ด้วย@@
unci@@
круг
forte
moderno
人的@@
giải
שיפון
biến
تىپ
לות
cups
ланд@@
ダンス
erti
dui@@
棉@@
кофе
زا
자동
fringe
inglés
teren
capelli
señ@@
wers
інстру@@
בלי@@
зро@@
camp@@
充@@
чной
etka
โคมไฟ
membawa
johnson
lino
番@@
oven
블루
micha@@
perman@@
сім
بە@@
кое
점@@
рами
时间@@
wanneer
छि@@
dee
carri@@
건@@
ть@@
тих
opol@@
बना
الدولية
smartwatch
upper
coff@@
照@@
ıt@@
情
marin@@
chưa
导@@
ًا
current
musik
чения
כרטיס
그
男性@@
사용@@
mean
أي@@
algem@@
इसे
केवल
ሺ@@
rồi
内
क्षण
क्यों
aie
ตัว
могут
kutu
الز@@
प्रभाव
저렴한
fikasi
ביותר
karet
etiqueta
הנ@@
ении
结@@
रं@@
tương
tình
gut
फॉ@@
tư
كە@@
선
allas
cres@@
อน
cruz
milf
hn
constru@@
بط
以及@@
໌
चीनी
salv@@
不是@@
nhập
круг@@
luôn
малю@@
later@@
ڌ
kron@@
заявив
progr@@
护@@
address
feel
license
diplo@@
atta@@
שר@@
हाथ
дамы
itz
zomer
조
पूरी
주
웨딩
พิเศษ
टीम
mengisap
백
토@@
familia
ኙ@@
लब
रित
cils
road@@
क्शन
uron
bility
fusi@@
بس
инди@@
尔@@
cando
вана
principal@@
प्रती@@
बाहर
ड़ी
thin@@
ఖ
منزل
巨@@
חצאית
thy
規@@
نون
儿童@@
跟@@
जूते
ross
นาฬิกา
графі@@
leben@@
fondo
ૅ@@
ider
дел
mahal
انات
포장
함께
추@@
аза@@
रच@@
engineering
תכשיטי
різ@@
नौ@@
志@@
bàn
दू
場
scrap@@
등@@
manic@@
анг@@
مشا@@
jour@@
港@@
יש
צמר
義@@
เตอร์
対@@
لاف
amenti
scor@@
तुम
ło@@
금@@
رية
דת
öl
चाहिए
lemon
avoir
dang
twin@@
год
дизайнер
bolas
nier
ได้@@
hari@@
фай@@
roof
naro@@
ете@@
しい@@
مقد@@
herren
害@@
креди@@
제공
sleeping
קישוט
renang
เดียว
变@@
حول
转@@
zed
leis@@
止@@
tudo
ئې@@
ุ@@
coc@@
quem
dni@@
यू
nhé
tuổi
ткани@@
电子@@
樂@@
mousse
поши@@
effet@@
بير@@
입@@
daar@@
ница@@
прогноз
девочек
ल्स
acia
mentar@@
प्ला@@
christian
금
तु
मर@@
spel@@
站@@
เรา@@
यहाँ
تكون
персона@@
lief@@
quel
गैर
日本
prince
ונ
mondeo
relojes
дії
belanja
президента
辦@@
дек@@
опа@@
vio
draul@@
humano
kiện
ど@@
vind
师@@
तं@@
זל
ням
lew@@
ğı
colum@@
เซ@@
보호
ቹ@@
ох
ష
имен@@
пок
felt
बड़ी
้า@@
lantai
لارنىڭ
施@@
khoa
تۇ@@
ැ
ablon@@
ファ@@
tero
缩小
fazla
deut@@
סקסי
способ@@
whis@@
סרי@@
mesi
睡@@
าม@@
ส่วน@@
horas
يە
oplo@@
久@@
मुफ्त
можем
palace
イメージプレイ
หนึ่ง
لاپ
comercial
farm
رض@@
arah
差@@
дей
breakfast
धो@@
sting
激@@
श्र@@
cros@@
यां
possi@@
апара@@
רום
nghệ
pared
lần
שלך
興@@
жд@@
职@@
кни@@
ズーム
центра@@
penggunaan
증@@
comfortable
という@@
้ง
جب
wild@@
witte
lotion
オイル
โดย
سبب
who
catcher
kunt
daerah
กลางแจ้ง
वाप@@
duğu
تفا@@
wania
hunting
edin
学
kağ@@
vitam@@
として@@
다양한
washi
adul@@
станов@@
ストリップ
electrical
खे
bài
आगे
液@@
vole
late
死@@
정의
дня
व्यक्ति
规@@
전자
kaanse
cheveux
advent@@
וב@@
влас@@
mango
musical
ficador
детей
одна
ший
conditioning
รูปแบบ
gadget
gần
tiện
들@@
close
號@@
ład@@
achter@@
فق
eton
नही
pantat
تد@@
ธ@@
心
ющие
doktor
knit@@
anchor
garmin
설정
लिकॉ@@
essential
출@@
мульт@@
چى
مور
ions
어린이
papier@@
ज्ञान
mạnh
ंग्@@
stok
相關@@
mieście
分析@@
garage
контей@@
previ@@
जाना
indic@@
oyun
pergi
eksport
पोर्ट
caboch@@
시간
budget
дено
безкоштовна
तू
저@@
тали@@
knot
ى@@
غان@@
قىلى@@
conten@@
ascen@@
born
ishing
bañ@@
дере@@
mercur@@
hubungan
务@@
ices
lines
bile@@
ять
bril
hangers
grass
וינ@@
colorido
dekoration
нее
تقري@@
פוס
inspir@@
ством
潮@@
ખ
मात्र
мультфильм
şek@@
】【@@
нная
เป@@
confir@@
كل@@
catal@@
fik
ць@@
समस्या
because
said
빈티지
systems
isten
mete@@
niños
ئة
прес
लाइ@@
masuk
комплек@@
гом
форм
ของคุณ
बाइ@@
україна
краси@@
chelsea
ตร@@
णन
малень@@
naut@@
figures
维@@
hebben
journal
çek@@
abbigliamento
bayar
assur@@
arium
ジャ@@
folie
voc@@
अनुभव
usaha
हिं@@
街@@
брита@@
kings
tiguan
biệt
think
ילדי
rome
дели@@
части
探@@
उनका
памя@@
contra
tập
शु
ージ@@
card@@
珠@@
itif
sağ
ekom@@
schuhe
paslan@@
неде@@
ឋ
联@@
หน้าจอ
colec@@
שי
corr@@
edward
lanterna
pep@@
قە@@
قدر
skie
jig
телей
bem
botella
milan
abaya
पर्क
coating
層@@
आवाज
размер
임@@
kleuren
exhaust
ances
боро@@
zek
���@@
ngh@@
ducati
rout@@
vd
погоды
네@@
告@@
لە@@
مؤ@@
区
された@@
фотографи@@
компания
рів@@
familie
indiri@@
principal
sedikit
fts
예@@
nipis
buck@@
rezer@@
图
worth
島@@
роки
时
madr@@
lady@@
款
manis
enig@@
來
مى
funktion@@
दान
時間
אר
ckets
स्ती
maya
collier
ጢ@@
член@@
يُ@@
居@@
telefo@@
eropa
oorbellen
خلي
प्रभा@@
лось
उ
payment
ຂ
джи@@
onze
त्वचा
issor
肉@@
gant@@
tend@@
depan
feet
chest
代表@@
لارنى
лло@@
ريا
terhadap
ketika
zne
брюки
stria
סנטימטר
riel
kast
两@@
doanh
এ
hijab
lokasi
casquette
适@@
ย์
ціна
chur@@
लाभ
perto
plo
ours
يخ@@
نية
的な@@
ło
kiti
juni@@
щу@@
td
новые
ń@@
embr@@
экспор@@
вдо@@
monu@@
đèn
ڀ
пів@@
发展@@
books
공급
升@@
pengantin
вида@@
桌@@
दिल्ली
कांग्रेस
усе
profesjon@@
छत
sej@@
chio
もの@@
продукты
kein
higi@@
न्य@@
rise
ปล@@
фен@@
обла@@
لية
atsu
¿@@
创@@
cryst@@
invit@@
คร@@
click
编@@
كار@@
ấn
สตรี
spanish
vui
स्वी@@
ሞ
бав@@
ecz@@
tanda
园@@
tích
fera
arti
आपूर्@@
社会@@
stoel
секун@@
cint@@
्यू@@
목@@
рик
ringe
екра@@
आपको
וני
testa
gouden
apartemen
الدولي
ballon
contacto
อากาศ
ٺ
chân
торго@@
prepar@@
스테인레스
गोली
militar
salto
fonte
concentr@@
heit
costa
торы
ठीक
veter@@
almofada
عدد
मनो@@
그것은
हमें
phili@@
metallic
history
например
kend
指の挿入
पोस्ट
resistance
работы
истори@@
bott@@
рос@@
निका@@
认@@
야@@
tı
chế
который
trol@@
ที่สุด
rence
бок
ឌ
農@@
號
خەلق
इसलिए
ogram
vento
ใหญ่
露@@
расстояния
perniagaan
됩니다
відкри@@
ับ@@
来
perkhidmatan
calcin@@
समान
birds
数
現在@@
ผลิต
middel@@
blanco
carolina
коне@@
victor@@
нали@@
벽
แม@@
stress
दुल्@@
clients
brands
وقد
状@@
держа@@
благодаря
ото@@
tassen
后
permet@@
hibit@@
กว่า
plex@@
configur@@
dair@@
एं
ዞ@@
eiras
tissu
schwarz
babe
활@@
хе
спро@@
牌@@
çal@@
mie
цию
lưu
बनाने
veil
降@@
вечер
पुस्तक
立
bangunan
オー@@
播@@
매우
최고의
industry
abol@@
बच्चों
問@@
ถุง@@
mary@@
بېرى@@
格
kenn@@
낮은
हवा
commande
вда@@
этого
礼@@
स्कूल
아이폰
समाज
อื่น
יים
這個@@
arus
群@@
紙@@
these
пожалуйста
kesan
パー@@
прекрас@@
تغ@@
ディルド
bies
rue
кт
iness
लय
ığını
인치
情报@@
температура
akat
dokon@@
แผ่น
добро@@
location
追@@
ارة
cintur@@
ورة
xanh
owania
firm@@
mã
命@@
้ง@@
стрі@@
Û
निक@@
sweat
qualità
업
смарт@@
роман@@
blanca
estim@@
nä
animados
вни@@
feito
gede
ตัด
有限公司@@
рождество
thermometer
قاء
звер@@
umn
cro
oem@@
เดิม
stato
抗@@
所
हरी
หล@@
heim
형@@
単@@
ию@@
христи@@
ステ@@
ceramah
econ@@
ручка
каран@@
चश्@@
吧
패드
लंबाई
่
공장
笑@@
薄@@
dyn@@
zzo
дик@@
свобо@@
jangan
קיר
neder@@
хоро@@
keu@@
nood@@
лип@@
핸드백
dop@@
טבעת
復@@
нные
iento
hospital
副@@
alità
योग@@
enzo
pemegang
weg
bury
aspet@@
ख्@@
子供@@
krak@@
สอง
क्सी
には@@
جديد
voit@@
runner
fras@@
пресс
รับ
kür@@
cui
roof@@
apest
portugal
plaza
completo
performan@@
ライブオーガズム
ーク@@
rey
walking
กระโปรง
لەر
كۈ@@
jpg
場合
мір@@
عية
ิง
גי
bảng
burger
слі@@
budd@@
aço
tripadvisor
條@@
אב@@
rober@@
стам
esqu@@
sağ@@
त्रा
мя
संयुक्त
וני@@
sudadera
desa
邊@@
所有@@
local
ลาย
जित
linda
議@@
त्रा@@
루@@
黒@@
corner
शामिल
nami
कैसे
ถึง
process
кера@@
шел@@
dane
dick
зні@@
צמיד
泰@@
mỗi
話@@
mắt
luận
très
keit
akom@@
luce
ź@@
ซี@@
言
ço
поча@@
reborn
нії
схе@@
ขึ้น
карди@@
ट्रे@@
biasanya
deporte
science
nummer
perbincangan
тый
effect
sog@@
ระ@@
pequena
革@@
למים
كة
플러스
目
ราคา@@
ヤ@@
acz
kayak
stän@@
بالم@@
裝
tampa
ofre@@
אביב
घि@@
sip
ezon
asse
約@@
酒店
暖@@
phiếu
טין
acqua
glit@@
เข็มขัด
chicken
nelle
smal@@
nea
กระเป๋า@@
अंतर्@@
該@@
flap
langkah
विशि@@
בתולה
जल
什麼@@
頭
двой@@
needle
בתוספת
plates
ischen
湖@@
internal
タバコ
手機@@
सामा@@
menu@@
菜@@
chemise
मृ@@
आकर्@@
massi@@
мага@@
aras@@
胶@@
kansas
संगीत
psa
래@@
อา@@
해
hoàn
bangkok
bí
воль@@
수있는
льні
kız
souvenir
cion
tingkat
レン@@
comment
标@@
การ์ตูน
stain@@
स्थान
위
llt
вос@@
carreg@@
уче@@
модуль
leon
agens
мента
alber@@
америка@@
dicion@@
哪@@
ников
nich
广@@
washing
alban@@
警@@
noti@@
acker
說
бой
voli
אתה
سيد
honey@@
藥@@
джинсы
frauen
ksz@@
セット
article
хру@@
atacado
oque
접@@
बाइ
항@@
besi
kosten
груп@@
suppl@@
sure
принци@@
מעל
deck
vou@@
การออกแบบ
प्रसिद्ध
рома@@
ζ
pain
士
росії
natale
mở
ढ
baratos
cang@@
๊@@
दूसरे
脚@@
ấy
siyah
violet
irs
будь
ecast
fila
зах@@
봄
fase
व्यवसा@@
cie@@
altre
gti
puerto
米
winkel@@
кови@@
captain
յ
聯@@
kullan@@
pasukan
देते
assen
ゲ@@
pussy
其他@@
휴대
мере@@
elij@@
doctor
катего@@
代
confer@@
adaan
易@@
جدا
impact
kacamata
fleksibel
사이즈
传@@
шоу
cooper@@
कपड़े
music@@
tess@@
chaussure
änder
อน@@
วัน
luggage
terletak
đăng
tractor
ئية
हृ@@
按@@
领@@
plugs
камеры
kowe
мест@@
ْ@@
тради@@
पात
uras
restaur@@
ۇر@@
bahar
usah@@
計@@
дела@@
five
seramik
eines
cooking
ቭ
بج@@
тни@@
游@@
acu
उठा@@
야외
ออกแบบ
टाई
إنها
育@@
next
parfum
จี้
promo
戰@@
ربما
服务@@
실
यल
nơi
sculp@@
petro@@
neve
obb
karat
широ@@
見
подоб@@
जिस
sân
शॉ@@
銀@@
yorum
waan
צבעים
зон@@
白
bizn@@
sail@@
县@@
程
eski
других
nhi@@
ส่ง@@
aksesu@@
ruc@@
index
shot@@
kingdom
onne
рубашки
kön@@
iter@@
แก้ว
đề
เสียง
depar@@
visual
एक्स@@
decorati@@
rô@@
kró@@
wul@@
ભ
مهم
שטו@@
tăng
đảm
akhir
延@@
ショ@@
links
şey@@
яких
нос
spac@@
thước
문
알루미늄
ilen
bởi
omega
tical
лав@@
metri
والي
стане
כחול
infrar@@
क्ति@@
खू@@
merci
strateg@@
кук@@
вести
sioni
קונ@@
bench
фей@@
तरण
ática
חת
gene
beso@@
coll@@
て
тим@@
ंद्र
zą@@
цо
besonder@@
체
sekitar
gebreide
幾@@
pasang
interruptor
परिवार
الية
чого
brinco
polishing
realiz@@
गौ@@
念@@
тних
planet
vre
sceg@@
avenue
次
mosquito
열@@
ሰ
lanka
เวลา
제어
igan
لا،
diving
больше
自动@@
тельно
цин@@
tropical
одного
cosmet@@
क्रा@@
race
outros
hoch@@
نع@@
tores
akar
มัน@@
pensil
थो@@
comple@@
manica
vietnam@@
מנורת
छु@@
백@@
owanie
internation@@
поку@@
niño
hitachi
الان@@
डिया
招@@
हवाई
шип@@
หน@@
ikus
難@@
горо@@
مجلس
sleutel
motorsi@@
सिल
кну@@
我的@@
ፉ
куль@@
建設@@
ياً
eurs
белый
bersi@@
tetek
embro@@
أيضا
فيما
停@@
зом
研@@
समुद्र
เลือก
xas
пара
щения
आने
งาน
terakhir
ejakulasi
наза@@
организации
ップ
ኸ@@
onun
ekonomi
ほ@@
tổng
मद@@
лых
kb
hấp
согла@@
keluli
ต่ำ
veil@@
домаш@@
рк
lustr@@
alien
papo
उसने
nieuwe
relógio
lamento
жор@@
plus@@
мін@@
unità
साफ
apartments
forms
─@@
podem
部分@@
zhang
carbono
מתכת
звез@@
अच्छी
primera
автобу@@
lincol@@
यंत्र
eerste
ション@@
قۇ@@
ellas
ۋى@@
atory
เมตร
ником
keo
pais
mikrofon
ติ@@
項目@@
zenia
liste
折@@
밀@@
ness@@
ń
케이블
पान
пункт
police
לפ@@
収@@
骨@@
نين
dallas
व्यापक
उद्योग
яви@@
laporan
दरवा@@
최고
str
gev@@
гети@@
leiding
lunch
чено
问@@
float
мир@@
chef
界@@
дума@@
stoff@@
brai@@
字
thing
ющих
пута@@
weer@@
लगता
truyền
dàng
監@@
gag
จักรยาน
หนัง@@
など@@
バイ@@
让@@
不能@@
تنفيذ
riba
pd
اعت@@
common
bất
肥@@
bundles
益@@
medias
arkan
酒店@@
manuel
memilih
peut
始@@
enterprise
islam
تۈ@@
анти
उसका
backl@@
司@@
dec
والأ@@
vang
非常@@
इससे
done
льт@@
número
anca
晚@@
ქ
poncho
kette
벨트
хто
於
備@@
обще@@
metr@@
جى@@
зки
icon@@
story
वन
फू@@
безопасности
том@@
eup
た
पर्या@@
kính
స
寶@@
브@@
аль
нию
льо@@
boxing
abend@@
零@@
hò
चर्@@
ditambahkan
褲
ชีฟอง
komplet
ัง
貨@@
若@@
कस्@@
слова
mün@@
산
후
ギ@@
ака@@
поса@@
ዬ@@
viti
wain
продажа
बच्चे
kapan
불@@
रिया@@
años
कत
bars
ثي@@
गा।
نې@@
세
provin@@
лено@@
сило@@
ether
望@@
가장
mé
および@@
도금
ôi
农@@
oire
formula
тури@@
الوقت
设计@@
จีน
产品@@
tico
туф@@
wasser@@
лений
лым
друго@@
alde
刻@@
nhiệt
галь@@
せ@@
drawer
пс
डाय@@
equipo
根@@
sele@@
deren
ткани
אחד
っ@@
ग्री
imm@@
स्र@@
iere
แสง@@
ديد
gewe@@
बॉ@@
zado
wardrobe
เส@@
hof
membeli
kostuum
позво@@
派@@
gens
球
міжнарод@@
fokus
apka
potongan
ocul@@
sắc
row@@
jari
لست
гір@@
經濟@@
チャ@@
kemudahan
ruko
ريب
eln
adres
acul@@
مها
stay
สู@@
angkat
úc
fes
pous@@
тные
これ@@
church
סים
रॉ@@
ческих
रह
ops
ቦ
cardboard
dall
約
ิน@@
स्वयं
최@@
cortina
hanc@@
development
sous
כדי
ጂ
biaya
двух@@
두@@
искус@@
мий
胸@@
रस्@@
了一@@
serum
ีย@@
ơ
зараз
ผ@@
nilon
卸売
earth
กันน้ำ
senarai
scat@@
polis
масло
هج@@
ฉัน@@
emente
灯
skala
員
원
hein@@
данные
phối
партії
binnen
กว้าง
”的@@
мите
دول
لي،
רך
relati@@
akku
कने@@
каже
ッチ@@
значи@@
чної
बता@@
quest@@
rine
ขนาด@@
हर@@
phục
giacca
ọt
舞@@
pavilion
frontal
自動@@
څ
석
説
京@@
feeder
قىلىپ
bull@@
телефона
bò
البي@@
ferramentas
עצ@@
dipasang
kỹ
стр
тела
estados
fahr@@
©
二
forest
護@@
ตา@@
vido
updat@@
ंगी
paras@@
课@@
انية
шарф
รุ่น
друг
उम@@
膠@@
teman
離@@
손@@
제공합니다
पढ़@@
hunter
мені
เอว
buat
нга
спра@@
mış@@
hóa
อย@@
więcej
побе@@
मुख@@
兵@@
веб
rup@@
enna
pendi@@
душ
直接@@
系統@@
ences
钢@@
공
person
marit@@
artikel@@
tepat
сели@@
冰@@
дней
尾@@
динами@@
kası
ילדים
cach@@
river@@
화면
ghi
حقوق
військо@@
فض@@
trả
bolsos
shop@@
тбу@@
アナルセックス
票@@
उल्@@
binnen@@
mesaj
isis
सौ@@
רכב
項@@
septem@@
キャメルトー
pulsera
trắng
sutera
кові
krem
ört
נפ@@
ቺ@@
occhi
區
راً
ต่อ
drink
noise
cables
tique
玩@@
散@@
صر
أنك
должны
dressing
insan@@
威@@
ванні
неза@@
words
gồm
quadr@@
디지털
oft
rezerv@@
ريق@@
kreatif
ціка@@
จ
ず@@
간@@
लं@@
camel
mọi
שמש
vàng
accia
ceg@@
kleine
ғ
авгу@@
chains
ผล@@
נשי
зло@@
»
veloc@@
lord
שרוולים
zeit
проти
ngay
전문
hướng
ضي@@
गर
rand
електро@@
torta
fuc@@
信
republi@@
बढ़@@
camere
بح
ห้อง@@
のための@@
ฝ@@
santi@@
чпу
siêu
イ
età
прово@@
важно
奶@@
tarik
遠@@
thứ
声@@
नीय
הרבה
chart
elá@@
دية
ition
тики
frog
люди
عا
tien@@
ዞ
必要@@
सकती
続@@
必@@
بىر@@
रै@@
通
jason
持
canto
מז@@
판
하게
kiểu
vehic@@
firma
diese
hilo
tante
सत@@
lunga
бесплатная
прем
硬@@
라이트
ួ
message
防水@@
наду@@
航@@
theme
вери@@
gesponsert
olio
भाग@@
cuero
carter
มิ@@
만@@
bắt
хво@@
אופניים
protein
党@@
форми@@
отели
ൊ@@
अमेरि@@
빠른
मों
देख
iklan
incl@@
форму@@
һ@@
كي
एफ
্
бек@@
muzik
penginapan
牙@@
lainnya
沒@@
schu@@
합
patio
國家@@
उत्तर
cuộc
robin@@
руб@@
ровать
면@@
họ@@
características
खोल
고품질
reas
去
squishy
ออก@@
ग्रह
soldering
线
elly
المنا@@
वेश
मेंट
chaussures
們@@
teras
близько
率
한다
जवा@@
exper@@
शहर
betul
навіть
bq
anno
ります
guy
щий
税@@
muse@@
פל
يې@@
预@@
представи@@
น่ารัก
فين
バイブ
他們@@
ड़े
코트
ограни@@
ologie
tokyo
टर्@@
женская
where
चाहता
각
kualiti
צווארון
問題
فس@@
restaurants
inici@@
鐵@@
ष्य
peche
roi
tiên
pets
regol@@
moy@@
yapış@@
conserv@@
sız
sơ
mencari
scissors
hội
mutiara
рь
ków
houder
rais
당신의
игры
arco
синтети@@
публи@@
urn
दौरान
ческий
חדשים
engrav@@
의해
複@@
טוב
глава
trail@@
houten
sering
компонен@@
contempor@@
seria
रने
السا@@
onos@@
acero
tiêu
graf
にな@@
rosas
ności
таль@@
unidos
후@@
komen
sekali
hands
आँ@@
断@@
даже
rur@@
mercado
ché
क़@@
स्थित
々@@
reas@@
маршру@@
produkty
satel@@
rece@@
senior
중
クリ@@
黨@@
rund@@
drie
hỏi
чук
kamers
飞@@
tien
सुरक्षित
olduğ@@
public
通過@@
brut@@
الأول
बहु
рем
台
exo
decoracion
tuc@@
tous
auriculares
قية
тета
damp@@
عد
invierno
टेल
striptease
È
día
vấn
тера
bisiklet
러
抽@@
норма@@
quet@@
dess@@
eiros
ऐसी
مُ@@
jaminan
彼@@
thir@@
palest@@
ental
beet@@
permukaan
方法@@
olarak
ears
тимо@@
тс
ชุดชั้นใน
proba@@
€
う
parac@@
martin@@
steam
sarà
pens
醫@@
uhr
pokro@@
とな@@
待@@
गल
말@@
ское
kele@@
टॉ@@
هام
انى@@
تعزيز
marqu@@
inner@@
블@@
gmbh
spinning
быстро
гли
ఊ@@
علان
профи@@
рования
обои
кими
स्क्र@@
جمي@@
minder
肩@@
سام
ению
पार
シャ@@
комби@@
的人@@
חרוזים
penutup
알@@
कहीं
ülü
หน้า@@
tramp@@
ضر
movil
acqu@@
吊@@
expan@@
нази@@
dä
zeit@@
harness
isir
wait
哈@@
ろ@@
בציר
和
obro@@
schn@@
fridge
lesbian
edisi
亞@@
zest@@
sleev@@
раніше
оте@@
養@@
ساي@@
mature
潮吹き
हों
스트
如何@@
werking
forum
الأس@@
miles
explorer
дети
चिन्@@
seed
superfic@@
协@@
сей@@
maken
nord
라이@@
具
garten
bóng
सुन@@
саме
menyediakan
lấy
專業@@
雲@@
सूर्य
าน
ملة
典@@
亮@@
avant
agama
‘@@
купаль@@
किया।
व्यवस्था
jarak
sportage
casaco
ologia
desde
lose
أك@@
大家@@
baca
corta
封@@
อัตโนมัติ
offre
bambu
term
longgar
slim@@
wik@@
roleplays
corn@@
clientes
amik
أحد
gou@@
leben
是一@@
emblem
дости@@
gomma
лені
melakukan
视@@
жел@@
आकर्षण
أج@@
chup@@
lenie
articles
压@@
คอ@@
ארנק
ois@@
multiple
каб@@
बेच
ชั้น@@
ष्ठ
ît
บัตร
mã@@
assi@@
ومن
경쟁력있는
thre@@
arios
אח@@
卸売@@
く
ț
tembaga
veri
популяр@@
lòng
frees@@
तृ@@
argentina
нуж@@
collana
diab@@
フォ@@
まで@@
احت@@
acciaio
पदा@@
arcade
aggi@@
季@@
roses
इसका
virginia
percetakan
просто@@
समारोह
лизи@@
没有@@
molto
智@@
макия@@
beweg@@
عاً
मार्ग
dedi@@
چې@@
喜@@
cụ
오
ۈرۈ@@
информации
job
חולצות
병
óleo
lico
는@@
互@@
وك@@
สร้อยข้อมือ
ано@@
อง
eliz@@
дки
owych
き
تىنى
티
imer
nato
مختل@@
sche
nicos
rooms
зне@@
staat
стату@@
días
зм
memb@@
เพื่อ
服務
вклю@@
为
kupi@@
ชา
להגדיר
dubbele
井@@
maquina
それ@@
alur@@
atem@@
strut@@
conec@@
试@@
行业@@
ية،
châu
पर्य@@
vệ
bedel@@
можуть
adjust@@
sống
turkey
apakah
ंडी
tutte
ños
溫@@
사이@@
smoke
ống
허리
feest@@
colore
могли
약
true
เครื่องมือ
אים
نفس
ब्ला@@
pháp
सेक्स
隨@@
एका@@
단
令@@
掛@@
월
section
마
पें@@
pirate
보드
वाह
हरि@@
etf
कार्यक्रम
occas@@
פרי
dado
pary@@
пк
boru
ध्य@@
สีเขียว
귀걸이
форме
makine
投資@@
บน
करती
价@@
keuken
aloi
sushi
ば@@
ขาย@@
лять
לך
braid
better
設@@
експер@@
ível
orto@@
ihre
될
タイ@@
thun
nb
partir
cji
distance
طار
أخرى
desk@@
compac@@
גד@@
преду@@
deux
воды
nera
парк
画
sulla
يين
रानी
관
філь@@
ddy
펜던트
工
โร@@
sevimli
купить
onderste@@
الآ@@
دا،
介@@
лист
collares
capsule
อง@@
pokoje
trova
कोण
lensa
실리콘
าก@@
jong@@
ść
割@@
цве@@
परिणाम
ஏ
골드
غي@@
сія
ኮ
лайн
diego
techni@@
title
hộp
디스플레이
sailor
anter@@
ept
ング
voer@@
choice
מר
orologio
चुनाव
الض@@
song@@
ผู้หญิง@@
rispon@@
steen
गं@@
علق
aça
ร
view@@
दै@@
была
trị
د؟
itter
ycz@@
न्यू@@
ств
fixed
pics
גלי@@
jogging
stata
術@@
료
चयन
rahat
stadt
kedi
araan
免@@
다이아몬드
questa
sosial
моя
زل
รูป
社會@@
متا@@
kimia
taylor
町@@
बा
दन
臨@@
snack
espon@@
самы@@
ताओं
आपके
thermostat
אונ@@
方法
opak@@
olur@@
леты
กล่อง@@
पुरु@@
compte
belum
minute
promot@@
ጻ@@
데@@
поме@@
бель@@
管
hotelu
ጊ
कला@@
thảo
ương
pierre
проект
khas
プレ@@
киї@@
teka
времени
колек@@
тного
能
pernah
бизне@@
decoração
ۈ@@
fully
perangkat
雷@@
mekanik
scho@@
palsu
讲@@
veya
만화
dike@@
عليه
牛仔@@
chỉnh
إي@@
district
따라
blind@@
pesta
寫@@
iec@@
فيها
נעל
lower
org
veilig@@
यत
maklumat
guin@@
льно
пп
camicia
तियों
צוואר
esig@@
brother
중국
complet@@
wlo@@
zwis@@
得
trở
verre
した
寧@@
toronto
пуска@@
demos
คน@@
daten@@
حسنا
ट्टी
स्टार
pony
שקע
tunnel
रवि@@
minuten
खुद
contoh
sito
自然@@
질@@
जनता
话@@
break
рія
parl@@
שליח
acion@@
購@@
mamp@@
ś
ولة
以下@@
femmes
philipp@@
מלא
ללא
soket
コー@@
iris
şar@@
pé
campan@@
삼성
визна@@
สั@@
edia
suo
房
зв
ватися
قتصا@@
بهم
ญ@@
máquinas
캐@@
frut@@
sách
cucina
atlas
мани@@
ванная
нный
microwave
紫@@
각@@
toal@@
قار@@
狗@@
堂@@
lemak
מגפי
表示@@
สแตนเลส
flower@@
наступ@@
hôtel
brag@@
menta@@
верси@@
dings
mulher
tulen
ۇرۇ@@
伊@@
cliente
marketing
horloge
handy
ビー@@
bambini
вани@@
zegarek
लेख
科技有限公司
dern
레드
تحقيق
armat@@
manag@@
phim
توا@@
denti@@
установ@@
расстояние
south@@
geh@@
财@@
체인
यर@@
тури
inté@@
الإنسان
มือ@@
invisible
wych
iphone@@
ガーター
패@@
كر
mrs
โดย@@
uel
rico
menjual
cincin
‹
söz@@
engin@@
jenama
strada
bandara
сайт
兴@@
бок@@
fabrics
sở
म्ब@@
อุปกรณ์@@
편@@
sát
มาก@@
lingkungan
survival
atti
圧@@
danh
keluar
均@@
जगह
чение
لىرىنى
cocina
cron@@
compro@@
trump
different
例
padr@@
ıza
補@@
招聘@@
州
ቄ@@
cari@@
aime
樣@@
нев@@
dence
원래
ilmiş
會
नेता
inglese
fácil
acryl
autres
valley
undi
varn@@
ข้อ@@
कुर्@@
מטען
питання
楽@@
tín
göz
перу@@
شقا
çin
शब्द
puma
tır@@
सिर्फ
разо@@
kannya
ству
ذات
чена
gummi
律@@
プラ@@
teria
alte
вин
观@@
国际@@
值@@
mỹ
itare
liar
lati@@
большой
終@@
谷@@
หรูหรา
decoratie
malı
ھەر
менти
connect
вро@@
durch
paw
ỉ
setelah
turkish
परिचय
manta
มา
youth
zien
核@@
ن؟
щение
üst
pobliżu
semin@@
自己的@@
based
雅@@
지갑
브
hut
фе
師
واء
trip
scul@@
brow@@
独@@
ונים
細@@
תח@@
突@@
काफी
espan@@
चै@@
skle@@
руса@@
homo@@
退@@
เหล@@
固@@
着
والد@@
фитнес
venta
льной
边@@
зап@@
bic
effic@@
新款@@
alexander
bidang
larg@@
piel
breve
則@@
बड़ा
аппара@@
丁@@
grow
vement
臺@@
आवेदन
masker
haut
هدف
hardcore
вою
record
看
源
folder
marie
गृह
เข@@
lichen
mentos
dorf
ጄ
keping
ሷ@@
부드러운
locat@@
स्थापित
kargo
нський
geel
لىشى@@
アイ@@
plastico
ois
berh@@
터치
ปี
honey
стів
받@@
לק
упа@@
дми@@
passe
某@@
следу@@
生產@@
village
nổi
श्री@@
slaap@@
fic
erung
류
우아한
lashes
ayakkabı
israel
schne@@
ション
тис
aquí
פלסטיק
सुर@@
yol
リア@@
كى
banyo
สีชมพู
विद्या@@
販売
espor@@
oms
شئ
rucksack
cuff@@
siti
notre
долла@@
agram
domu
يدۇ
透@@
תיבת
conto
сексуаль@@
knu@@
yüksek
독@@
orden
bagaimanapun
broderie
爆@@
집@@
verke@@
新しい@@
akadem@@
слова@@
धन्यवाद
nữa
mochilas
ורות
pion
физи@@
头
elf
무선
daki
ಭ
bukti
果
saddle
ваша
ፓ
пону@@
cuc@@
tecn@@
हटा@@
декоратив@@
acier
檢@@
bbc
двух
बे
icia
lez
题@@
तैयार
cosmetics
memastikan
活動@@
guru
inem
모델
prime@@
सीमा
เล็ก
ファッション@@
systeem
ytu@@
ئۇنىڭ
cycle
ง่าย
ppo
หน้าอก
комбине@@
фер
машини
віду@@
컵
เล็บ
守@@
rete
פים
nghỉ
请@@
ปก@@
vely
عق@@
legg@@
галу@@
约
unsur
ضع
ّة
bedrijven
मंत्री
metho@@
लागत
carp
ways
वाता@@
ً،
만든
び@@
конкурен@@
tato
מכירה
чі@@
남자
terbuka
याद
dire
pomp@@
กลับ
تاق
ensemble
проте@@
ánh
ione
suave
michelin
制品@@
oting
meningkatkan
zum@@
sudut
極@@
echte
दित
소녀
gez@@
observ@@
izen
อด@@
phố
녹색
ホテル@@
жения
приня@@
вает
都是@@
чик
holes
lạnh
deix@@
ayr@@
jakarta
món
附@@
किए
ijke
構@@
كا
nger
פט@@
חזה
latihan
廠@@
wetter@@
week
otom@@
אישית
estrel@@
健康@@
bleu
karakter
percaya
Ì@@
스트@@
corak
pemain
ìa
красный
trid@@
ał
mahar@@
jantung
ቾ@@
пв@@
โม@@
クラ@@
fax
課@@
ходить
minuti
transm@@
बाजार
hond
созда@@
eyel@@
прийня@@
poland
смер@@
ogos
述@@
клет@@
हैंडबैग
صو@@
шлан@@
lực
wagen
проводи@@
決@@
док@@
czech
whole
reflective
伝@@
шими
بك
installation
بويىچە
tingen
acab@@
шла
анд@@
tebal
團@@
ธรรมชาติ
מט
呢
flight
appen
льний
упо@@
chuyên
момент
kheid
略@@
स्वीकार
작@@
หลาย
ejas
เข้า@@
簡@@
yum
รั@@
motosi@@
información
aussi
ister@@
inside
barri@@
esco
fountain
keer
بولىدۇ
кої
gies
quot@@
वान
हल्@@
государ@@
surat
أريد
luksus@@
们@@
cactus
корпус
صد@@
acara
улич@@
boucle
memori
った
vakum
повер@@
жение
extreme
يلي
fita
modell
plastica
社
tiene
•
предмет@@
bild
cles
しました
образ@@
قلي@@
الت
합금
abilir
ucuz
利
دون
سىنىڭ
luvas
heu@@
史@@
шапка
арти@@
spel
nghiệm
khol@@
cremall@@
kelamin
joseph
kann@@
أعتقد
файл
dạng
transit
飛@@
宣@@
ufl@@
وية
देखा
meat
शं@@
produsen
станови@@
のお@@
hav
hisz@@
confi@@
cita
голь@@
적으로
manier
ורת
บ้าน
दिया।
منذ
جاي@@
longue
stasiun
formation
rund
ajar
tyl@@
заги@@
旗@@
लगभग
豆@@
coraz@@
בגדים
lost
tucson
קול@@
示
تُ@@
筆@@
мона@@
学校@@
emir@@
볼
يف
дили
미
leuke
negra
saluran
تقديم
mềm
сил
وقع
melhor
життя
економі@@
standaard
grö@@
rằng
手机@@
выда@@
叶@@
备@@
सुविधा@@
يول@@
inggeris
разви@@
muj@@
चरण
heads
erot@@
نە@@
пов
ऊपर
ڭىز
ชาร์จ
carret@@
tommy
цій@@
consol@@
weather
डिजा@@
nombre
бук@@
anggur
ോ
эти
アン@@
الث@@
ए।
siye
traje
न्त
unter
кото@@
穿@@
ancang
tutto
cambio
olive
escola
برنامج
вір@@
пі
ogro@@
jacke
hoof@@
abaixo
丝@@
thao
télé@@
contri@@
リー
달@@
nhựa
matrimon@@
ніж
گەن
זכוכית
المتعلقة
сю@@
第三@@
交通@@
ผิว
capas
홈
ıy@@
sexu@@
окре@@
structure
أعرف
embl@@
스타일의
اً
periode
ဈ@@
ancora
要求@@
िया
натуральная
mujeres
aikan
gung
istanbul
節
सक@@
cock@@
战@@
ürünler
іні@@
dưới
щих
盒@@
צה
หลัง
mục
città
trà
अध्यक्ष
태@@
вое
системы
दुर्@@
ፈ
discus@@
סמסונג
universiti
पिछले
ンの@@
ढ़@@
kiz
เพื่อ@@
לנשים
склад@@
bluet@@
बहु@@
כרית
відбу@@
离@@
spa@@
ഠ@@
analiz@@
ساق@@
quir@@
докла@@
шку
dier@@
사진
nodig
мов@@
ต้องการ
노트북
robi@@
कहते
escolar
简@@
recl@@
होना
dirancang
gui@@
皇@@
들
chos
editor
السيد
ılı
заяв@@
ბ
माध्यम
विज्ञापन
sacs
krim
घ
ganti
браслет
estamp@@
हू
ブル@@
אוויר
같은
羅@@
посте@@
branca
題@@
лян@@
seragam
ilha
меры
ंगा
汽车@@
smoking
المادة
vitamin
vente
団@@
पावर
рії
मध्य
vestito
เจ้าสาว
ссо@@
арен@@
много@@
лежа@@
aldo
ולה
صي@@
badkamer
butan
beeld
kelly
boneca
업@@
scrat@@
لەرنى
brist@@
iles
хер@@
toil@@
ሔ@@
่น
dành
pequ@@
instruments
уль@@
कुमार
בסגנון
trading
國際@@
erle@@
anivers@@
osos
cycl@@
stesen
seti@@
वाहन
часу
деше@@
قات@@
журна@@
stampi
כלה
玻璃@@
כפ@@
tuyệt
comunic@@
smile
вой@@
हरा
亚@@
pegatina
daar
вто@@
holz
лампа
插@@
ситуа@@
قول@@
〜
cinc@@
鱼@@
jaringan
zou
selesa
догово@@
पक्ष@@
ใบ@@
สม@@
turk@@
סה
वारी
חולצת
участ@@
लागू
าด
шей
sole@@
thor
televis@@
मीडिया
eurosport
листо@@
返@@
colch@@
काल
guer@@
cole@@
בייבי
【送料無料】
boite
رر
тинг
الم
sejak
pression
sebahagian
魚@@
聲@@
mars
ยาง
swift
circular
שמי@@
thật
所以@@
landa
동물
测@@
pulang
veng@@
près
विश्व
หัว@@
жі
perfet@@
utc
木
गै@@
휴대용
cash
gamma
mặc
说
dự
سات
controle
metalen
oyuncak
уго@@
สอง@@
icz@@
石
ницу
maus
章@@
blibli
ье
кілька
шов
향@@
kosong
bersih
uç@@
โล@@
을@@
ความยาว
estos
dead
간
מצלמה
vetement
ֆ
אן
sederhana
役@@
بعة
biscu@@
diş@@
cout@@
ceria
भारी
robes
розо@@
até
why
таких
saudi
kuarza
мають
geniş
年度@@
собствен@@
bunun
macchina
vene@@
заку@@
compati@@
द्ध@@
옷
стики
jose
審@@
प्रमा@@
thủ
卫@@
navidad
หรือ@@
номер
continental
чить
ឹ
incre@@
hoteli
換@@
todas
أق@@
fır@@
山
австра@@
симпа@@
today
chắc
さん@@
tepi
кому
察@@
よ@@
berkualiti
سائل
杯@@
роботи
טול
ưu
adian
מזדמן
информация
sürü@@
остан@@
आम
bts
pacifier
dentro
ческой
hoek
इस@@
魔@@
kredit
вами
tible
шь
より@@
fred@@
ทร@@
degre@@
fazer
मात्रा
шения
custo@@
ध्व@@
finden
minutos
єр
純@@
康@@
आता
фре@@
jamin
toilet@@
eaux
панели
kolu
rond
cuci
adulto
warm@@
написа@@
impl@@
mens@@
योगी
snor@@
כבל
hoofd@@
خصو@@
दिनों
فع
تعلي@@
sicur@@
jug@@
勝@@
親@@
ッド@@
คว@@
blas@@
वाल
грн
свитер
баль@@
스크린
ארו@@
perles
manusia
ilos
molde
скри@@
стаби@@
оши@@
объек@@
起
부츠
berbagai
lebar
สน@@
jang
스티커
fles
шабло@@
يان@@
кольца
환@@
трико@@
diter@@
โทรศัพท์มือถือ
frames
koleksi
peni@@
विक
cây
tuk
przed@@
market@@
pulgadas
ตา
hidden
عدم
坐@@
vú
даль@@
лео@@
लते
买@@
человека
فعل@@
espec@@
meil@@
ส่วน
hion
ඊ@@
Х
כוח
nvidia
qashqai
excel
cen
fiyat
burada
chez
长
ixe
consider@@
alco@@
년@@
รอบ
私
speciale
adventure
搭@@
campo
ถัก
vực
ขน@@
있다
stabil
нных
الأمن
exerc@@
seattle
費@@
eż@@
swo@@
tượng
لماذا
สูง@@
يام
เต็ม
休@@
vicino
eigen@@
tunic
кус
воен@@
著
fleur
leş@@
туру
dove
מן
sức
handel@@
argent
योजना
第@@
อร์
oversize
damska
nacht@@
ather
capsul@@
pengalaman
кожи
crema
ступа@@
tersedia
menawarkan
róż@@
ใจ
करके
货@@
модель
浴@@
lampada
खिलाफ
ือ@@
रखा
よう@@
ванной
cobre
生产@@
磨@@
العم@@
Ю@@
……
elizabeth
eland
partment
쉬폰
泡@@
bier@@
व्यक्ति@@
가지
специаль@@
before
крім
dolar
svilup@@
вую
fantasia
ketten
几@@
โรงงาน
manchester
дба@@
комі@@
eerd
пор
üst@@
も
身
lucht@@
hàn
购@@
isra@@
yeni@@
adhesivo
퍼@@
では
בור@@
twitter
عاون
pleas@@
sens
cực
वृत्ति
bedo@@
ği
시스템
моз@@
еще
голова
eft
сну@@
ความร้อน
larına
問題@@
strips
спаль@@
盘@@
другие
أخبر@@
กา@@
एन
вини
ств@@
ます@@
سية
turtle
絲@@
traducción
heden
тимошенко
运动@@
домо@@
suporte
리는
менты
즈
ควบคุม
जहां
पुनर्@@
चाहते
parab@@
дій@@
เปิด
食品@@
ホテル
قاي@@
цев
腰@@
tooth@@
interno
couleur
чити
يوم
bior@@
logotipo
円@@
đá
grup
进行@@
סוודר
illustr@@
aksesuar
вій@@
політич@@
anillos
功@@
adaptat@@
triển
saati
บริสุทธิ์
控制@@
agrad@@
डू@@
doors
투@@
tumbl@@
berkata
otto
secret
छोटे
sahaja
sakit
inny
así
孩子@@
può
ឿ
statue
muito
peluche
외@@
宿@@
анали@@
압@@
军@@
יצי@@
європей@@
ไล@@
cài
event@@
unds
teclado
bestem@@
цією
abat
hearts
바랍니다
sydney
belang@@
高品質
streaming
almacen@@
แจ@@
republic
tampon
供@@
funcion@@
ี่
怎麼@@
जान@@
minions
قرار@@
pendidikan
personalizz@@
유
نعم@@
жем
relogios
ٍ
bahwa
technolo@@
ทาง
àng
eigen
สำหรับผู้หญิง
zoek
統@@
peux
קו
chile
خدا@@
nition
हमारी
berjalan
pago
窗@@
từng
末@@
내
pasti
нить
جە@@
dollhouse
講@@
spark
नेटवर्@@
nội
环境@@
gunakan
他
ดำ
ៈ@@
フェ@@
меж@@
bek
bendera
旅行@@
ßen
ัก@@
ग्राम
答@@
環@@
تست@@
jalur
アナルプラグ
berikut
trời
teks
ጪ
poder@@
सील
elim@@
чолові@@
дь
छा
homem
empresas
φ
кожа@@
naturale
degli
diccionario
модные
depen@@
walau
bdsm
vừa
лям
maske
צעצוע
تحا@@
ြ
具有@@
ורוד
핑크
ठि@@
أب@@
لنا
ิน
फै@@
ổ
वहां
opin@@
tuur
determin@@
zac@@
聚@@
naklejki
đôi
संघ
sari
жела@@
porsche
คำ@@
menet@@
afas
لإ@@
duvar
после@@
старо@@
conector
项目@@
leash
铁@@
without
دها
kongr@@
जबकि
elektrikli
יח
aiut@@
formu@@
药@@
hebat
美
उपचार
서비스
יום
הנשים
bz@@
escur@@
quý
발
воду
trov@@
зго@@
música
minutes
стенд
sack
アナルパール
orte
роби@@
অ
meri@@
мая
ряд
cra
chung
ריינ@@
羊@@
моно@@
тых
القا@@
ซิ@@
trai
勢@@
pesan
جع
tego
dilengkapi
akcesoria
정장
âu
शादी
rakan
polí@@
して
펜
geb@@
لىقى
加工@@
גים
शायद
identific@@
هما
scal@@
група
çev@@
สิ@@
荷@@
tối
пом
القانون
принт
仕@@
примен@@
pacific
프레임
реаль@@
eenvou@@
已經@@
香港@@
скоро@@
couture
antal
klasse
тро
kelem@@
両@@
लना
धित
дорож@@
רופ@@
层@@
beyaz
कहना
تض@@
afin
wish
재킷
maior
elin
膜@@
도구
еты
ในการ@@
демокра@@
sese@@
plut@@
てい@@
欧@@
гип@@
チェ@@
换@@
tecnologia
tugas
electric@@
tempoh
纯@@
يتعلق
外套
kh
許@@
糖@@
стран@@
można
פס@@
डिग्री
ürün@@
อก@@
zł@@
減@@
스웨터
قول
persewaan
फल
لكن@@
осіб
वली
ferramenta
hawaii
כלי
hollywood
ザ@@
знаете
харак@@
spiel@@
لق
англи@@
順@@
pantalones
ต่างหู
cinema
diferentes
很多@@
toothbrush
classi@@
owana
户@@
אינץ
payung
संचा@@
beleza
لۇ@@
lung
kiếm
हाल
brille
musica
vertic@@
売@@
поче@@
организа@@
방지
camin@@
mahu
hanno
kuar@@
tow@@
мані@@
velocidade
석@@
설@@
ères
брон@@
رق
сегодня
आया
कन@@
संबं@@
अना@@
syarat
figurine
질
narod@@
اعتماد
bague
нужно
soon
même
acak
शै@@
แร@@
cami
ዥ
erto
também
frau
रोध
परे@@
tekst
拿@@
院
paintings
شك@@
міста
軟@@
knop
ಞ@@
स्वास्थ्य
城市@@
filo
但是@@
commerce
ขา
vòng
啊
동
terjemahan
่น@@
scania
異@@
ối
blad
admin
mn
speel@@
सहायक
чек
ność
วัน@@
انها
않@@
قام
ialah
الشر@@
กิ@@
hút
评@@
приро@@
计@@
غۇ@@
sizes
antonio
取り@@
печати
clusive
מוצר
심@@
gebor@@
الرا@@
組
фигу@@
sri
văn
赤
entrada
ücretsiz
지원
上的@@
fascia
flug@@
гран@@
स्य
특@@
섹시
천
kunst
천@@
struttura
ضا
tific@@
ซ
最高@@
нения
amsterdam
mavic
kets
와이어
videos
韩版
점
фир@@
cre
поді@@
dann
구슬
减@@
dedo
กรณี@@
दौ@@
毒@@
难@@
sah
ቴ
xác
iczne
usen
letto
סרט
weiß
bian
设@@
उपा@@
mando
squir@@
駅@@
ख़@@
virtual
있는
otel
чехлы
tắm
שמ@@
项@@
sokken
reven@@
आरो@@
態@@
хен@@
forn@@
insec@@
까지
кафе
dostawca
тые
تب
douche
konfigur@@
것입니다
grandi
ベル@@
واج
申@@
曾@@
нение
อยู่@@
yağ@@
bungkusan
عملية
הדפסת
称@@
почи@@
sedang
illon
quali@@
компаний
doc
더블
mesmo
carre@@
लोड
への@@
納@@
return
чей
chase
opini@@
empty
gọi
만
chức
ספר
üm
tablecloth
‐@@
стве
nối
부품
cong
रज
heroes
dormir
professi@@
berkaitan
养@@
नीचे
סוג
persona
sokongan
ющий
似@@
hotéis
слов@@
الفر@@
terjamin
second
ปากกา
域@@
піль@@
herr@@
utch
research
agak
vetro
wynajem
schul@@
mobiele
золо@@
adı
œ@@
云@@
हम@@
bly
ชั@@
appartement
скар@@
berada
종이
एँ
属@@
газо@@
муль@@
chambre
tahap
الفقرة
corporation
فيه
希望@@
jogo
cartera
blauw
romeo
pearls
宁@@
スク@@
objec@@
tiba
beoordelingen
خارج
主
ceinture
eat
サイズ
кружева
义@@
керів@@
поля@@
skrin
необходи@@
stwo
น้ำมัน
דר
재료
族@@
輸@@
вис@@
补@@
แบรนด์
notes
गयी
वादी
男性
carg@@
alman@@
研究
ذلك،
desenvol@@
tym
منه
sisa
दों
regal@@
taxi
kucing
畫@@
atrak@@
removal
khoảng
rapido
גם
الى@@
शिक्षा
toán
nghĩ
광
żar@@
таки
klus@@
בק@@
antarabangsa
材料
pile
дву@@
ringan
ดิจิตอล
ẩn
المد@@
menino
話
약@@
angani
ída
роль
ปรับ
related
אמיתי
toko@@
чому
่าง@@
hakkında
贴@@
dormit@@
role@@
नोट
ظم
passer
inet
mẹ
แค@@
슈퍼
धर्म
עת
危@@
pirang
ahat
aud
事业@@
कारों
חיצוני
입
보
त्न
सुन्@@
pły@@
兒@@
検@@
プ
tatto@@
язы@@
ниж@@
здесь
pavi@@
leverancier
цент@@
labels
demand@@
सेना
kland
टै@@
घटना
kilomet@@
cuisine
ผลิตภัณฑ์@@
े।
noel
боти
лез@@
ึก@@
combien
शिव@@
barber
brillante
र्फ
đủ
esmal@@
שולחן
품질과
gonna
pastel
حيث
yczne
росій@@
hiểu
stige
produits
once
мало@@
เพชร
混@@
החורף
añ@@
avent@@
סוללה
câu
保護@@
relev@@
隔@@
omen
фильм
прий@@
сила
庫@@
ске@@
鎮@@
खर्च
bakan
כדור
៊
週@@
bimbit
ので
ฝ้าย
أش@@
vải
転@@
arasında
되@@
ሏ@@
đình
água
espe@@
nét
hund
مرة
накле@@
pico
easy@@
スト
gamer
мок
昌@@
amanan
也是@@
örü
दबाव
проблема
kasih
imiz
ータ@@
mission
alizz@@
भाई
jangk@@
기능
чере@@
ร่างกาย
वित
внима@@
左@@
แสดง
gesi
輪@@
occhiali
gew@@
diamonds
learning
медицин@@
tjes
论@@
สำหรับการ@@
ส์
volgens
섬유
bomber
또한
плен@@
sandalen
wörterbuch
бори@@
цем
条
đều
ด้าน@@
ตั้ง@@
इसमें
копи@@
wej
samples
राजा
讀@@
案
혼합
त्या
лога
คอมพิวเตอร์
머@@
гов
عليها
adio
talian
neem
toeg@@
lucht
повідомляє
ថ
misi
lập
sekol@@
страны
त्त
dekoratif
arbeit@@
буди@@
boul@@
центр
İ
ซื้อ
परिवर्तन
आश्@@
производители
הקיץ
timent
alexand@@
весна
zich
інших
стом
khí
られ@@
pann@@
局
psych@@
teknikal
박@@
資訊@@
ഒ
بإ@@
dâm
jogg@@
ונות
macho
mich
الجمعية
bekas
稱@@
लोक
وضع
gudang
споко@@
spé@@
official
हूं
שקיות
प्रथम
dziecko
ቧ@@
peringkat
พร@@
唐@@
cret@@
virus
أين
ปร@@
modulo
葉@@
nied@@
חומר
المج@@
體
lightning
到了@@
сторо@@
насто@@
corona
समु@@
นี้@@
beide
dán
telefone
ihr
cią@@
ระบบ
☆@@
nf
iç
utes
sterne
posisi
ัน
ْ
มั@@
販売@@
غى@@
mamy
重要@@
loop@@
inho
قتل
кроме
translation
oud
разу
ące
합@@
miesz@@
당@@
quarto
đầy
מחיר
क्र
ट्रोल
任
still
nghe
жить
робі@@
осень
爲
pelekat
وة
表示
six
volta@@
そ@@
пол
門
फी@@
ة؛
luka
处@@
йти
гляд
زة
النا@@
वास्तविक
мере
médi@@
dage
keselamatan
thân
националь@@
vrien@@
rental
जै@@
盤@@
catalo@@
importante
าม
британ@@
вели
饰@@
tons
森@@
стая
زور
लाने
cô@@
проблеми
ください
kanan
아름다운
трубы
прозра@@
modelos
盛@@
рюкза@@
प्राचीन
सूचना
emoji
enden
детек@@
thẻ
georgia
ร์@@
禮@@
glie
vere@@
vic
约@@
שירט
仙@@
息@@
krij@@
schl@@
уника@@
cetak
uñas
superi@@
erc@@
stellen
sereia
seite
סם
书
вало
kawalan
輕@@
kraan
iert
してい@@
vibrador
gour@@
films
giữ
grazi@@
seguridad
क्ति
摩@@
ต์
projek
环@@
englisch
救@@
porta@@
亲@@
خە@@
ंगे।
נירוסטה
nasional
szcz@@
समझ
참@@
mech@@
consi@@
portal
fırç@@
синий
监@@
международ@@
mendapat
汽車@@
ئورۇن@@
leur@@
写@@
цвета
sapat@@
사람@@
таким
ческого
anlar
हू@@
वट
dispositivo
คน
яза@@
概@@
眾@@
เสื้อผ้า@@
bianco
ья
値@@
管理
र्थ@@
색@@
ській
rápido
आर्थिक
tavolo
стране
wick
衛@@
value
意
퍼
הז@@
мотоцик@@
ăng
加
अधि@@
办@@
материа@@
комен@@
议@@
メンズ
cancelar
उल@@
takip
검@@
endang
लड़@@
thái
लेने
เกาหลี
ไร้สาย
arme
рукав
活动@@
suff@@
ئاي@@
制造@@
масо@@
anggap
alaman
dữ
ยัง@@
sunny
홀더
kaum
event
كذلك
якість
品牌@@
אל
кварти@@
呼@@
haft
sempurna
애@@
лети@@
وات
sver@@
chiến
عليك
petite
наций
ัด
љ
развития
corri@@
sene
ماء
bourg
ферен@@
komt
arse
achu
lợi
тонкий
inal@@
เส้น@@
니
ชุดว่ายน้ำ
часо@@
alya
держав@@
going
indien
encial
אופנת
聽@@
ينبغي
dilihat
ผนัง
poste
европей@@
permanent
eck@@
ệt
다시
าก
reno
tindakan
oreille
ظي@@
знак
eń
바
разде@@
गांव
chiff@@
には
zro@@
стя@@
makinesi
конкур@@
需@@
washing@@
megane
around
تظ@@
竹@@
少
puede
革
راق
geç@@
bureau
issance
완@@
जांच
пояс
пластик
abiti
doty@@
вр
лату@@
公告
สนับสนุน
uygun
ード
серед
المجلس
immer
веду@@
выпу@@
買@@
дає
الأطراف
واج@@
vb
кини
完成@@
схо@@
너
рамки
ลำลอง
soviet
サー@@
luxus
シー@@
슬@@
мужские
немає
icular
аби
тиче@@
springs
tangg@@
金融@@
рованные
mijn
กระดาษ
同
acı
اليوم
йки
відповід@@
кому@@
apartamento
智能@@
ראש
الأم@@
תליון
напи@@
каче@@
лиз@@
uchwyt
кандида@@
están
hồng
afstand
能力@@
huile
解
bathtub
future
務
碼@@
sexe
इतना
जग@@
poss@@
hacer
doos
розмі@@
ресур@@
penilaian
ezen
раст@@
trì
dipilih
тивно
皮
태양
albert
molle
anillo
देशों
miasta
sever@@
situs
อาหาร
illa@@
zus@@
seta
ۈرۈش
訂@@
helm
แต่งงาน
لىرىنىڭ
zig
озна@@
ają
conse@@
ริ@@
quiero
З
cja
वर्तमान
ยู@@
dinosa@@
êt
样@@
蓝@@
viamichelin
йому
butter@@
ждения
음
marque
связа@@
อร@@
cias
nacional
१@@
품
ไม้@@
архи@@
中央@@
بون
الار@@
juguetes
什么@@
環境@@
temos
mante
漢@@
しています
всего
衫@@
필@@
участь
belts
迎@@
درات
问题@@
сіль@@
kolczyki
ሟ@@
рити
subj@@
高品質@@
fell@@
цер@@
кухня
batt@@
converse
wiel
資訊
около
сделать
」の@@
保护@@
सामग्री
помогает
portatile
cuarto
объединенных
найти
columbia
วี
antin
infec@@
wł@@
khoác
casacos
alamat
ขาว
ذب
ẽ@@
大的@@
lót
تصال
тоді
ဍ@@
może
량
waterdicht
bati@@
दक्षिण
บน@@
грани@@
ปิด
измен@@
compri@@
crav@@
лях
eing@@
цией
शेयर
ketua
갤럭시
hire
жити
दिखा@@
통
presiden
tuy
ทิ@@
pine@@
сами
сдела@@
ภายใน
เก็บ
ติด
nguyên
curtains
atian
commun@@
레이저
sepanjang
вироб@@
chuẩn
权@@
ทั้งหมด
cozinha
embar@@
manch@@
רצועת
країни
fiori
席@@
位置
jeu
respec@@
象
rakyat
really
でも@@
produit
correa
gł@@
रहने
משי
klok
наде@@
고품질의
निष्@@
bardzo
שת
chaveiro
salut
usz@@
音
dados
imento
む@@
罗@@
menit
รูป@@
viagem
diện
影
عو@@
ทุก
ตล@@
dahil
ตรง
pulau
signific@@
jean@@
selamat
campur
остро@@
法律@@
шем
като@@
חום
target
имеет
cest
платья
edific@@
เพ@@
аксессуары
thép
นัก@@
berdekatan
스커트
חדשות
traspar@@
ئار@@
费@@
spy
達
ँच
copy
johan@@
electron@@
maglia
водонепроницаемый
melayu
クト@@
berita
­@@
plastique
fico
พิมพ์@@
украшения
wales
фрон@@
पर्यावरण
barbecue
تقرير
oter
silber
продол@@
वेयर
kurtka
부
ả
רו
оно
เวอร์@@
komm@@
disewa
腳@@
右@@
ඝ
ี่@@
giraf@@
الذين
fornecedor
ઉ
材
完全@@
狀@@
шення
solution
提高@@
impress@@
cof@@
puls@@
andia
медици@@
ffe
แขนสั้น
द्वा@@
衆@@
رض
кафед@@
存在@@
delen
resistente
描@@
kussen
diş
себя
flora
ß
мна@@
задово@@
ряд@@
버
三
aeroporto
応@@
mất
трак@@
豪@@
دىغان
esas
falls
tetap
開
лона
攻@@
समाप्त
batik
平成
建築@@
馆@@
quantity
кристалл
запро@@
惠@@
семей@@
leva
акти@@
sırt
spodnie
будут
unggulan
phù
passe@@
достат@@
される@@
งาน@@
หย@@
ว่า@@
contas
communic@@
dasi
जैकेट
bebê
aktivit@@
大學@@
baix@@
snel@@
ウェ@@
penna
січ@@
акаде@@
berlian
grond
帶
패널
moden
المش@@
终@@
जिसमें
sł@@
офі@@
फ्रा@@
行政@@
haute
şer@@
汽@@
मां@@
singap@@
业
nâng
суду
ھى@@
भर्@@
细@@
藍@@
keep
mande
ireland
機械@@
綿
лля
zü@@
trasparente
tangga
свой
国家@@
zug
चक
ቆ
стола
ขน
rentalcars
leher
bumi
vero
تقد@@
शो
хом
racer
家庭@@
專案@@
पहली
考
png
course
خص
技@@
kowy
迪@@
脱@@
blad@@
カー
gelar
地方@@
вського
귀여운
keadaan
однак
вается
अफ@@
لاح
balkon
kateg@@
เสน่ห์
ваний
kowa
와@@
regen@@
मजबूत
باً
viết
nóng
藤@@
최신
vector
instruc@@
春
旅@@
온
dầu
ٌ
שרו@@
権@@
ड्रा@@
sap
cork
इच्छ@@
წ
순@@
שם
вести@@
پارتىيە
जाए
ją@@
ohr@@
哥@@
teori
табли@@
minecraft
收纳@@
opas@@
unidade
зок
ース
ラ
bantuan
enfants
велика
dato
ơi
нив
พิ@@
える@@
homens
зазначив
kuchen@@
ஈ
klima
धि
datos
増@@
塔@@
excelente
wać
thử
оке@@
정품
posti
đóng
drah@@
темно
imperial
rias
hombres
भा
banho
рамках
पिंग
शल
حدث
masyarakat
прова@@
сса@@
memek
مشروع
该@@
gant
ः
托@@
ơn
мог@@
現
masturbasi
遊@@
пев@@
ligne
klein@@
ปุ่ม
流
dipanggil
гаря@@
кона
ורי
качества
назва
maschine
merek
internasional
표@@
困@@
adeira
karaoke
异@@
翻@@
логи
ーン@@
atrav@@
soff@@
许@@
航空@@
ة@@
평@@
creek
kipas
ornaments
viaggio
ณ@@
स्कू@@
champ@@
至
соло@@
тч
أيضاً
migr@@
แท@@
trainer
קד@@
上衣
เท้า
света
शाली
دۆلەت
abby
sakura
tipos
נייר
нові
ידי
вален@@
اث@@
חות
ventilador
ブラ@@
فيد
แท้
机械@@
гей@@
кисло@@
snij@@
đúng
ожи@@
твер@@
alfom@@
鉄@@
झू@@
滿@@
१
hoteles
kilometer
ків@@
armo@@
दर्शन
чої
bangun
宗@@
迷@@
chs
obraz
القرار
srebro
leggins
alphabet
кост@@
мех
策@@
marke
вів
juste
報
pedia
логотип
сем@@
berlaku
momento
يع
ラー@@
teeth
urban
maksimum
ôt
उसी
ブ
accessoire
отель
обви@@
มม
weer
ดู
่อน
ירוק
นุ่ม
cutlery
科
กางเกง@@
mv
investig@@
cav
argento
волос
सवाल
idee
plek
แต่@@
crem@@
желез@@
จริง
bouw@@
открытый
售@@
bahkan
الأمين
です@@
倒@@
รี@@
schen
đông
pls@@
陸@@
связи
وط@@
верса@@
帝@@
odpor@@
的“@@
蘭@@
मना@@
pejabat
peti
व्यक्तिगत
قوم
cidade
秋
ซี
ध्@@
безопас@@
پۇ@@
विश्वास
سري@@
lijk
เงิน@@
modific@@
nhìn
ล์@@
bracciale
isation
смарт
veis
による@@
gigi
ốc
rộng
いた@@
coul@@
реши@@
lupa
כת
מגן
निश्चित
嗎
ờ
their
свяжитесь
нега@@
סקסית
porti
भाजपा
acao
vestiti
klem@@
镜@@
nest
igus
nba
מוד@@
toria
suara
numbers
şim@@
شۇ@@
مكان
พลังงาน
필요@@
رجل
पीछे
佛@@
hülle
voed@@
ồng
कृति
轮@@
moletom
더@@
обрабо@@
ìn
産@@
jednor@@
錢@@
質
fried@@
へ@@
चार@@
باش
mukaan
редак@@
送料无料
повідомив
确@@
автоматиче@@
ตุ๊กตา
參@@
gibi
고급
दिल
크리스마스
polos
amel
ói
मगर
sampai
學習@@
스크@@
dente
熊@@
świ@@
awam
قوي@@
投资@@
कोशिश
الإن@@
รถยนต์
льта@@
گۈ@@
בצבע
kesehatan
远@@
氏@@
coast
colorado
batteries
tionen
парт@@
होगा।
paparan
бума@@
可能
montag@@
aand@@
素
salle
رج
limpeza
italiano
wany
でき@@
隆@@
нина
载@@
legs
स्थापना
सहज
bewer@@
Ş
लाख
lui@@
prise
giản
предло@@
तौर
часто
krom
namun
하드
unis
אביזרי
content
伸@@
stern
dinner
autoradio
판@@
راج
니다
לת@@
الذ@@
váy
autob@@
взя@@
参加@@
quartos
zki
gibt
євро@@
银@@
друга
ทุก@@
สิ่ง@@
matah@@
tumblr
融@@
กั@@
ใจ@@
تۈزۈ@@
города
Њ@@
biolog@@
dispositi@@
การจัดส่งสินค้า
现在@@
staten
sipar@@
ประตู
صدي@@
ป้องกัน@@
gevo@@
lavoro
عرض
милли@@
monde
יות
топы
mli
ता।
schmuck
aksesori
меш@@
потен@@
интернет
наві@@
الثاني
spedi@@
合作@@
刀@@
تقل
camelo
עליונה
yard@@
добу@@
จุด
반
परीक्षण
thư
pemandangan
पाई
袖@@
مجرد
cido
קריסטל
วง@@
टने
कित
योग
मल
zing
pezzi
карма@@
خى@@
escape
arang
าง
ทน
mener@@
состоя@@
perawatan
impre@@
ью
रियल
钱@@
소재
mappa
你的@@
блузка
عم
загаль@@
रीज
וידאו
емые
गये
ทั@@
بولۇپ
感
избе@@
kollu
ۇرۇش
guerra
özel
situation
bronz@@
तत्@@
goods
posizione
症@@
経@@
ґ@@
ました
recu@@
ньої
替@@
ciones
ستى@@
corrente
hamster
סק
донець@@
券@@
osoby
criança
يېڭى
фици@@
종@@
燈@@
座
ilet@@
nouveau
津@@
cuadros
दृश्य
сейчас
ら
रल
begin@@
porque
kobiety
cropped
ذا
ቼ
瑞@@
fig
목
ука@@
بەك
mężczyzna
决@@
地址
セット@@
サン@@
시리즈
pistola
फ़
tùy
prä@@
terlalu
متع@@
данных
นอน
拼@@
ванта@@
якого
gante
أفضل
의상
מחו@@
branch
financi@@
itable
組織@@
ल्ली
cameltoe
हिन्दी
►
제조
的是@@
देखने
kitchen@@
applications
щие
جعل@@
ต้น@@
pièces
berwarna
सरल
hiver
קר
या।
ชิป
準@@
rosso
目前@@
döv@@
явля@@
دولار
marin
segundo
сили
猫@@
린
تتە
alfab@@
没@@
משקפי
охо@@
congr@@
गई।
受
tả
bếp
спу@@
savoir
असर
üç
vendre
油
손
wisata
faktor
全
sesi
舉@@
مجال
全球@@
ньому
wysy@@
important
ชนิด
بدأ
ิล
اللا@@
笔@@
piscine
стки
інші
одне
cinto
ธ
招標@@
jeśli
软@@
توق@@
icon
lampen
cultura
niem@@
بلغ
透明@@
众@@
ukur
verstel@@
أص@@
iveco
ışı
กล้อง@@
дова
місце
tuan
अलावा
ลูก
connection
ของผู้หญิง
้ม@@
rodas
nursery
제공@@
свід@@
卻@@
намі@@
keur@@
Ш
measur@@
теат@@
разме@@
mức
פונ
หลอด
chti@@
минима@@
קצ@@
песни
экрана
סיליקון
ما،
يەت@@
êu
甘@@
ibis
燃@@
สินค้า@@
хло@@
individual
стю
lampy
бесплатно
المعلومات
minggu
製品@@
ấm
作者
ウォ@@
תק@@
cuar@@
клапан
ior@@
стана
תית
ностей
єди@@
แล็ปท็อป
фанта@@
maniche
amateur
ały
轻@@
bilità
мужской
静@@
浪@@
الخاص
внимание
вают
beter
muzy@@
ۇ
навы@@
समझ@@
ሯ@@
โย@@
aret
bottles
أنني
极@@
ใด
wlan
сні@@
個人@@
bertemu
juego
esz
चाहिए।
題
katil
господар@@
precisa
רכ@@
нями
çift
acle
ร้อน@@
кален@@
मन्@@
кабель@@
віта@@
باي@@
tüm
الوطنية
ጁ@@
hộ
韓@@
зму@@
dòng
緊@@
ရ
tuin
muy
فإن
чів
euse
waren
विषय
productos
лабора@@
эффектив@@
things
optimi@@
पेट
brio
नगर
tooth
운
מבו@@
залиши@@
叫@@
一覧
фір@@
पित
بشكل
should
bilir
brid
kajian
वों
hkan
आदमी
ллер
रखे
aqui
تىنىڭ
село
סקו@@
リング@@
毛
biedt
гаре@@
huur
hết
ፉ@@
劇@@
łącz@@
дорог
ケット@@
段
역@@
ต้อง@@
semu@@
側@@
पू
satın
अतिरिक्त
ท่อ
мов
perro
لدي@@
ん
โอ@@
programa
述
पूरे
히
стала
財@@
использова@@
apis
幕@@
衫
раху@@
บรรจุ
ーム@@
आत
benang
млрд
ln
بولغان
आरोप
較@@
खाद्य
고무
قىلدى
гостей
разом
السلام
سۇ@@
easter
тельства
جداً
imperme@@
binder
novel
одним
güç@@
penerbangan
kier@@
اتفاق
卡
torno
fiel@@
เรือ
щення
gni@@
terkenal
шого
אישה
жінок
mania
вий@@
宮@@
않습니다
комната
служба
туфли
коммер@@
库@@
ubr@@
calendar
falda
ürün
กว@@
maps
绿@@
取
समाधान
भूमि
pembe
memorial
ขึ้น@@
資料@@
ماً
memakai
corto
noche
بەر@@
당
beaut@@
дні@@
grupo
постави@@
зокрема
bres@@
нового
бит@@
כוס
çor@@
ኤ
luci
一些@@
льник
नता
rolex
францу@@
關於@@
階@@
包括@@
obat
ंडा@@
우리
豐@@
pilih
נית
ческая
ído
нях
ample
อิน@@
或者@@
אופ@@
seine
ffen
価格
หลวม
ready
siap
план
kı
presidente
ถ้วย
bmx
सात
подар@@
oblig@@
traditional
licht@@
telephone
пляж
дека@@
嘉@@
жные
mascot@@
זמן
داء
topeng
価格@@
ajes
coti@@
balas
jaguar
lời
錄@@
वालों
織@@
設計
ع،
padu
بذ@@
otti@@
karty
レディース
stamps
moe@@
quản
جات
woj@@
мари@@
prima@@
tertentu
suspension
刺@@
боку
чис@@
será
ходя@@
าว@@
dalaman
desta
buurt
platte
pub@@
travel@@
خې
готу@@
holding
konsen@@
pharmac@@
rekomen@@
振@@
чну
innen
scher@@
şu
latma
لذا
والا@@
ജ
reserve
aos
province
корпу@@
экспер@@
따뜻한
ombr@@
フラ@@
uitstek@@
كت@@
tih
되어
artis
ently
будуть
настоя@@
लगे
журналі@@
リ
椅@@
управления
portugu@@
capital
扣@@
dijamin
얇은
demon@@
לס@@
प्रसा@@
력
想
回
використову@@
dłu@@
मूर्@@
מלא@@
מגע
ordenador
mondo
prezzo
stuur@@
standing
أَ@@
sungai
ච
образова@@
aliran
方式
ดิ@@
은@@
classe
อั@@
abd
发
पहा@@
एं@@
sylvania
дене@@
bambo@@
ketat
customers
หลอดไฟ
закры@@
encore
tử
koron@@
相关@@
xếp
공기
שר
posit
neue
вайте
каму@@
neopr@@
thou@@
kartı
pistol
運動@@
instruk@@
боле@@
mainten@@
קצרים
bagai@@
легко
blog
paleta
fils
yeah
की।
pliers
europcar
อะ@@
スの@@
amg
靠@@
scel@@
である
ukra@@
खंड
المس@@
pencarian
ئۈچۈن
観@@
sjaal
acessorios
khả
藏@@
服务
strad@@
戦
option
ערב
voyage
форми
cavo
beat
マン@@
basso
बैठ@@
מדבקות
ृत
schwar@@
наших
phiên
पति
زوج@@
쉽게
budaya
场
商
bambino
होटल
urai
bathrobe
bik
автомобильных
टों
terbang
stuff
กระจก
熱
сса
тиме
альбо@@
المرأة
marc@@
칩
plants
프로@@
visualiz@@
วัด
レス@@
कौ@@
جانب
staff
泉@@
vegas
�@@
돌
ektif
phương
横@@
nhiêu
dimensi
ダー@@
kedai
范@@
देता
groß@@
開始@@
जरूरत
zealand
fuck
『
keamanan
chard
于
chạy
друге
мене@@
โก@@
ático
tober
средства
дити
eldi@@
mampu
zombie
แบ@@
нову
институ@@
ദ
yön@@
総@@
dân
spann@@
因為@@
رئيس
紙
ahora
確@@
队@@
언@@
sạc
estado
maaf
piezas
thermo
giov@@
上衣@@
área
tây
spazi@@
rectangular
coba
кот@@
kent
친@@
פר
ቄ
menos
рур@@
tumit
兰@@
ולים
لىك@@
หูฟัง
schw@@
lunak
ayat
倍@@
लें
mentar
onc@@
ۆ@@
ตาราง
фу
бога@@
основа@@
บริการ
ナー@@
伴@@
प्रयास
casio
還是@@
ecran
neon@@
chester
lotte
вань
테이블
貴@@
สุด
טה@@
ئور@@
ഴ
север@@
відо@@
nền
하여
desi@@
顶@@
柔@@
について
определять
укла@@
พับ
kadang
corps
댄스
находится
企業
セン@@
keine
家用
المو@@
shem@@
อบ@@
句@@
ಒ
pembangunan
चला
Й@@
cermin
ยาว@@
ंडर
rait
प्रमाण
स्ति@@
白色@@
날@@
кафе@@
chương
діа@@
пише
хранения
燈
выпол@@
कह
liverpool
comand@@
єк@@
प्रवेश
їз@@
מכונה
หัว
restaurante
parç@@
dinam@@
ceo
때
wonder
степен@@
kebanyakan
cookies
방
forno
фона@@
mạng
חוט
습@@
עלה
장치
팅
境@@
studi
grafo
릴
магази@@
unjuk
totale
สาม@@
จับ
wied@@
boot@@
学生
encontre
ษ@@
breast
tủ
kiralama
墙@@
माय@@
美國@@
แบน
ьте
樓@@
للت@@
топли@@
tradisional
gebi@@
記
largo
ني،
daun
деся@@
cep
вание
magnets
встанов@@
أل@@
ốt
насе@@
move
สไตล์@@
חל@@
belajar
杯
тепер
牌
mädchen
鏡@@
tanie
तरफ
soh@@
ยืดหยุ่น
تعرف
teste
تحدث
тором
建设@@
üstü
извест@@
stanza
يبدو
での@@
ustr@@
त्व@@
perdagangan
आधारित
sevi@@
confetti
قانداق
soy
visita
一定@@
更多@@
código
dostęp@@
저
침@@
kapı
זר
рики
koffer
मुख्यमंत्री
แพคเกจ
आपकी
ประเภท
तरी@@
принима@@
perkataan
pintar
republik
החדשה
อยู่
צת
регу@@
національ@@
організа@@
णि@@
ئۈ@@
圆@@
hour
держ@@
म्बर
капита@@
נר@@
które
zie@@
れる@@
efek
перший
atures
营@@
丹@@
经济@@
чет
하나의
เธ@@
їх@@
territ@@
모
조끼
posters
דם
валю@@
vestimento
стання
वती
teres
الخاصة
intensi@@
तर्@@
sticos
過
बल्कि
pembuatan
küçük
sepak
टीवी
plaj
informatie
wasser
firmy
сері@@
programma
ською
ào
đáng
edt
貼@@
冲@@
мощ@@
míni@@
要求
satz
工業@@
cáo
edelstahl
конкре@@
שחורה
nombor
mengi@@
ijen
лению
since
粘@@
ที่จะ
mosa@@
पुरुषों
צינור
snowboard
cihazı
футболь@@
жать
ません
education
生物@@
sleutelhanger
lows
jardin
रहते
dicht
leder@@
הר
לג@@
kılıfı
bulldog
テー@@
poni@@
ời
expl@@
胖@@
уніан
作品@@
naval
枚@@
シン@@
убе@@
perhatian
习@@
deutschland
жизни
安
йор@@
हरा@@
catena
헤드
الب
ของขวัญ@@
hosp@@
方面@@
нець
ቪ
alph@@
带
both
всегда
rę@@
ขวด
hampir
etwa
apron
waiting
ξ
नजर
capuch@@
posteri@@
avel
ยี่ห้อ
活動
條
qué
dlu@@
ecek
について@@
好的@@
respons@@
奥@@
mái
شكە
leist@@
neum@@
inat
抱@@
自由@@
圓@@
نح@@
紧@@
deporti@@
києві
ético
случае
dáng
menulis
larla
wegen
製造@@
รา@@
процес@@
мости
указа@@
стари@@
піс@@
eering
жив
时间
अधिकारी
taş@@
글
玩具
ठो@@
jung
ньо@@
broche
меся@@
guitarra
excep@@
poo
範@@
수영복
plegable
donc
ствие
頁
lodge
这个@@
أد@@
送
図@@
ética
comm
vời
лити
方式@@
להיות
комер@@
edad
jour
pochi
recur@@
шая
спеціаль@@
owane
практи@@
सुविधा
всіх
ยุโรป
vrouw
пома@@
ımız
bánh
strip@@
श्रेणी
用品
januari
ạo
תיקי
地域@@
途@@
емся
automático
คลาสสิก
pah
изу@@
adesivi
午@@
tamam
تجا@@
blauwe
ناء
ً؟
commen@@
urban@@
신부
बाँ@@
ไอ@@
צעיף
tanggal
للا@@
सहित
your@@
пси@@
أعلم
חוף
cuis@@
хід
زە@@
mengajukan
housse
laundry
แบบพกพา
ולד
bağlant@@
такі
随@@
cứng
kungan
tekanan
الفريق
jongens
rangement
durch@@
飾@@
केंद्र
graph
暗@@
using
पाकिस्तान
boş@@
苦@@
चिकित्सा
בד@@
سيكون
이름
جيل
szu@@
servizi
선택
motel
송@@
ארוכה
ถือ
рование
тива
zilver
wij
dispon@@
載@@
इसकी
номера
кій
ハイ@@
韩国@@
essenti@@
chụp
ーム
ницы
节
秀@@
tables
meninas
员
blood
begitu
oriental
ต้อง
อลูมิเนียม
भी@@
संबंध
geld
нагадаємо
لىقىنى
люб@@
brook
जाए@@
blond
britain
конди@@
المائة
lúc
间
силь@@
tradition@@
décoration
用品@@
ıyor
注意@@
ئاش@@
psy
konsumen
积@@
إدارة
tinggal
lapangan
gamento
मण
جور@@
ingt
汉@@
반지
informations
हिंदी
ridge
gallery
หมึก
айфон
hippie
كات
bingkai
企@@
אני
परा@@
musun
पिता
ลง
trans
สัตว์
انيا
пейза@@
ิด
���@@
भूमिका
गो
เตอร์@@
���
nhớ
ราคาถูก
lokal
קסם
ふ@@
chino
ፎ
sexi
โปรด@@
bébé
だけ@@
наши
सिंग
رح@@
signi@@
输@@
жно
דיו@@
态@@
optim@@
노
들어
lipat
သ
코드
残@@
enz
케이@@
резу@@
جل
जों
див
lauf@@
इस्तेमाल
relax@@
lithi@@
prendre
ŕ@@
פרווה
макси@@
суб@@
み
disember
वजह
데
できる@@
gói
שות
stü@@
nın
міністр
मिला@@
洛@@
लत
ську
draai@@
вши@@
賽@@
fasilitas
есте@@
に関する@@
چۈ@@
mangu@@
paulo
知
系列@@
happ@@
ему
にも@@
हरे
двох
一次@@
pautan
孔@@
纳@@
canlı
ène
ffel
حات
nacht
asyon@@
độc
裁@@
正
pedido
ths
क्ट
קריקטורה
허@@
올@@
ีย
冬
워@@
єн@@
余@@
bombon@@
верх
системи
принтом
ق،
нием
rood
coup@@
unidades
shoul@@
запад@@
科学@@
قويۇ@@
emballage
bileklik
faro
servis
환경
שנ@@
축@@
ליים
luxem@@
महि@@
предлага@@
tức
金属@@
points
รวม
束@@
individu
हीं
जाल
홍@@
패턴
плення
통해
rena@@
ด้าน
tắt
れた@@
straat
миро@@
ليست
calon
califor@@
oż@@
fragr@@
लती
ฉ@@
строи@@
קרו@@
does
سير
توص@@
भोजन
สาร
приз@@
अर्थ
戶@@
bước
المف@@
every@@
ク
ibiza
виси@@
จัด
suất
central@@
vinden
crystals
accu@@
報告
wszystkie
valor
ัก
rami@@
דיסק
गी।
ysty@@
໋@@
candi@@
конститу@@
립@@
закін@@
reviews
evalu@@
प्रस्ताव
coches
مما
ثم
тисяч
แฟชั่นใหม่
폴리
ถุงเท้า
梅@@
всем
काउ@@
כפול
מסגרת
diğ@@
лія
スペ@@
лове@@
कविता
城
会社@@
ukraine
досто@@
кування
置
cartrid@@
activit@@
джен@@
ricul@@
อย่าง
ellt
sands
acessórios
вь
постоя@@
עים
diperlukan
bỏ
配件
прива@@
розгля@@
妹@@
chter
завер@@
陳@@
compress@@
tijd
فعل
испа@@
anty@@
belgi@@
ڄ
duduk
kandungan
рюкзак
goda
ankan
мешок
ają@@
ยา@@
嚴@@
beb@@
лла
safari
दूसरी
потому
产业@@
menem@@
pillow@@
berus
generasi
חים
ね@@
hơi
dose
наборы
страхо@@
屏@@
ниче@@
akhirnya
担@@
设备@@
draadloze
solit@@
piala
packs
fornec@@
मुख्य@@
aspec@@
banding
tikan
mant
澳@@
스트랩
проте
voll
platz
실크
ที่เป็น@@
двига@@
บั@@
जाये@@
шокола@@
바디
민@@
ੁ
风
גדולה
necesito
분
fach@@
છ
ज्ञा@@
вча@@
מזדמנים
מש
黑色@@
현@@
туаль@@
उद्@@
bier
personalis@@
давно
操作@@
ตะ@@
dert
トップ@@
開發@@
كن
染@@
キー@@
kehidupan
लेख@@
ลาย@@
ниці
ówki
сії
щу
ผู้
漫@@
충@@
०
होगी
tetamu
ኙ
вій
гляду
कदम
blau@@
वृद्धि
กรอบ
потім
पांच
膜
إطار
місце@@
ngủ
チ
pots
미국
イル@@
футболки
kalem
بالن@@
عدة
riêng
تَ@@
architec@@
livre
rome@@
други@@
treatment
чным
מתנת
đàn
मांग
클립
פות
ssing
мыш@@
재
حيا@@
दै
راض
الرجل
인형
ducha
אופני
процеду@@
教學@@
richi@@
обер@@
橋@@
ài
giấy
verenigde
змен@@
ткань
חגורת
索@@
既@@
朋友@@
תחתונה
terutamanya
อด
carlos
ровка
haiwan
reden
estoy
ゼ@@
dưỡng
لۇق
वुड
вні
以上
experience
מאר@@
어댑터
borstel
вані
สติกเกอร์
ficar
aniu
itiner@@
出口@@
则@@
capinha
nhạc
충전기
المق@@
ئىككى
зма
week@@
строен@@
เอง
ئىلگىرى
缺@@
carcasa
cepillo
रियों
重
chines@@
lâu
ستې
бюджет@@
авиа@@
gratuito
營@@
strom
tapis
irrig@@
щей
óculos
يەر@@
such
近
bont
haven
secret@@
besoin
مېنىڭ
решение
知道@@
wajah
乗@@
นา@@
عمليات
organik
correo
nguồn
ayna
סד@@
nossa
宜@@
新的@@
analisis
軽@@
alkohol
музе@@
गन
beper@@
fornitore
reply
penduduk
סול@@
不可@@
budget@@
commis@@
้อน
ไว@@
府@@
calvin
त्रीय
jarum
我
menyokong
लगातार
कीमत
anello
ונית
灰@@
xuống
泳@@
韩版@@
ambiente
テン@@
управління
правил
pompe
ಥ
鄉@@
вибор@@
verg@@
ває
เครื่องแต่งกาย
سۈ@@
बने@@
bole@@
gior@@
รัก
베이@@
rower@@
ผล
खरीद
संदेश
ends
tarif
матеріа@@
تمل
hatan
ፒ
पिछ@@
עיבוי
тебя
осуществ@@
влади
גביש
में@@
хлопок
producten
іва@@
вому
महत्वपूर्ण
herfst
дный
صة
screw@@
streng@@
跑@@
クロ@@
sierra
jupe
ắc
giống
tenaga
cook
зя
检@@
质
community
विदेशी
習@@
guantes
डॉ@@
дала
獲@@
瓶@@
majlis
يەت
مۇھىم
भाव@@
peper@@
itten
чним
グラ@@
шено
винтаж
वही
砂@@
價格@@
боти@@
spiegel
लोक@@
huur@@
dieser
biliyor
ھې@@
दिए
річ@@
theater
випад@@
אנא
результа@@
поя@@
כות
wikkel@@
вський
ricerca
师
会社
зая@@
crianças
团@@
ój@@
yıl@@
一直@@
anahtarlık
नत
달
lỗi
primo
व्यव@@
isso
止
专业@@
оле@@
ẩm
дання
学习@@
animasi
णों
우리가
xuyên
असली
дя
rapid@@
館@@
树@@
language
daire
вок
серед@@
製
tỷ
ئەڭ
แจ๊กเก็ต
स्कर
승@@
beau@@
штани
haak
ئىل@@
शान
lưng
яна
禁@@
osas
羽@@
coton
עי
harian
กลาง
จัด@@
ื@@
온@@
план@@
greek
खर
конвер@@
hamilton
ไม่มี
صيل
sadece
効@@
thấp
збро@@
hilton
करे@@
bant
देव@@
колиш@@
แพ@@
ền
imej
нена
чили
フレ@@
센@@
tapete
אוטומטי
ários
星
風
casque
bloemen
соответству@@
dll
מתנה
stij@@
agora
래
बदल
מרו@@
授@@
הלי@@
政策@@
julai
لدي
компьютер@@
düny@@
माना
รหัส
crimin@@
รับ@@
غير@@
비디오
жная
стиле
luva
租@@
มาถึง
umawiaj
提出@@
bouw
दूध
pompom
خاص@@
ด้านบน
вне@@
레이
वहाँ
ंसी
שלנו
بىزنىڭ
biển
शास्@@
randki
batteria
^@@
dvd@@
karan
ない
inhas
انك
gratuit@@
semble
映@@
fois
huruf
gabungan
عين
цький
отрима@@
ประเทศ
qualité
gorra
กรรม
türkiye
gereja
suitcase
โด@@
eleri
遇@@
каса@@
зей
संर@@
джо@@
оці@@
mengem@@
प्री@@
vrij
disfr@@
الأخ@@
carros
선택@@
एच
schaft
شىنى
统@@
を行@@
cini
傷@@
perbandingan
loss
кількість
початку
पैसे
력@@
играть
溶@@
होकर
स्टेशन
اض@@
لەرنىڭ
czne
utilis@@
meias
новое
устойчи@@
สร้าง
quay
совет@@
ที่ดีที่สุด
집
म्प@@
angkatan
ำ
orial
poznawaj
ماددا
raspberry
這些@@
свої
liter
части@@
вали@@
більш
ıda
누@@
chatuj
यता
綿@@
คลิป
similar
logistik
surveillance
dieren
напря@@
واقع
tutucu
контра@@
२
ماذا؟
แว่นตา
leaves
нє
возмож@@
туа@@
penyimpanan
ย์@@
驗@@
viso
जब@@
麗@@
एक्@@
мл@@
тили
cili@@
голови
книга
ۇرۇپ
가지고
keer@@
تەشكى@@
halus
китай@@
extrem@@
แข็ง
៉
icamente
restaurantes
顧@@
orgasme
丽@@
フ
doccia
anderen
brinquedo
club@@
guarda
doch
وع@@
nah
gewicht
ツ
幅@@
ถูก@@
опас@@
नाग@@
duh
компанії
matahari
션@@
َّ@@
趣@@
spraw@@
ขนสัตว์
करीब
אית
reste
stes
odal@@
दुकान
があ@@
包装@@
benim
motoc@@
जान
epas
basen
họa
जनक
ניות
jatuh
இ
חג
निंग
ยาง@@
儿@@
жень
міс@@
최대
banco
want@@
concep@@
유럽
獨@@
бог
цієї
dewan
gere@@
ล้อ
리를
निकल
инстру@@
مكن
している@@
เวลา@@
怎么@@
sopr@@
كَ
şiş@@
ково
ולי
拖@@
механиз@@
अर@@
น้ำหนัก
adlı
знаю
katalog
rezerwuj
ड़ों
칼라
痛@@
סופר
город@@
ที@@
мав
japon
майже
勤@@
enjoy
region
teki
지를
adults
полага@@
ඨ@@
डोर
يعني
informazioni
盟@@
bitcoin
volgende
мою
جۇڭگو
जीत
能力
знай@@
產業@@
muncul
करी
anhänger
матема@@
าง@@
lees
厂@@
ассамбле@@
aufkleber
компози@@
pillar
boost
เย@@
กระเป๋าถือ
dud@@
ragaz@@
piat@@
키트
מון
जंग@@
khá
conex@@
קטיפה
새
показать
ły@@
kiến
tân
menginstal
jesus
農業@@
注
學
berl@@
ጎ
内容@@
聖@@
विधानसभा
מאוד
damski
öp@@
menampilkan
प्यार
социаль@@
klimat@@
протягом
gug@@
ţ
tabl@@
männer
链@@
밴드
הל@@
valu@@
建立@@
najlepsze
黒
頻@@
โค@@
มาตรฐาน
згідно
tafel@@
कहानी
капюшо@@
sesuatu
भ्र@@
เล่น
매트
uhan@@
旧@@
ilhas
hasta
代理@@
iros
echo
charg@@
рий
वैसे
uskan
fotografia
채@@
बिजली
peluş
phía
battle
cắt
أه@@
疑@@
нена@@
特別@@
peł@@
kün@@
dispen@@
しま@@
ماس
飾
krismas
komunikasi
すること@@
植@@
बनाया
ниця
rolle
查
lijke
兒童@@
वापस
देना
macht
काश
hòa
chứng
출
sinyal
บาง@@
лении
อ่อน
quel@@
ーツ@@
ひ@@
jardim
oceny
stutt@@
tienda
нез@@
daten
m²
turist@@
пові@@
습니다
慢@@
宫@@
места
kaji
jobs
丰@@
files
тема
трени@@
गति@@
tisch
वहीं
رفي@@
daf
却@@
tylko
дження
ئەت
seit
суда
mùa
म्
ồn
вають
móvil
建筑@@
מתאם
ước
หิน
يمكنك
deki
повседневное
ഖ
touran
vices
towels
ຼ
सों
hobby
этих
bật
명
seven
farmac@@
أغ@@
магазин
珍@@
жите@@
bilir@@
cache
級
tarafından
ough
يَ@@
لىپ
व्यक्त
тона
술
bunyi
đâu
製品
مكتب
setengah
занима@@
扣
solic@@
servic@@
amour
tires
些@@
зал
оцен@@
パン@@
קוד
tujuan
motiv@@
golf@@
حية
фаль@@
rode
खी
满@@
धार
审@@
chắn
tốc
menambah
werd
maybe
ترك@@
祝@@
자의
ヨ@@
同時@@
لىدۇ
etnik
समर्थ@@
요
schutz
assass@@
फर@@
र्क
агент@@
decorativo
kleidung
світу
खरी@@
корот@@
scienti@@
thuốc
gözlük
●@@
itori
髮@@
원격
जन्म
紀@@
دائى@@
disponible
주문
אלומיניום
lunettes
opla@@
システム@@
besch@@
verlichting
कौन
רצ@@
ровки
आउ@@
astron@@
ว่า
kıyaf@@
佳@@
закри@@
כפולה
drei
訪@@
させ@@
不要@@
depor@@
人員@@
ブロ@@
الدول@@
لىرى@@
んで@@
وأن
üz
เปลี่ยน
halt
зві@@
ตาม@@
весь
вано
حب
網路@@
ступи@@
aynı
поки
costo
hôm
fotografi
chaquetas
kişinin
לוי
cze
善@@
membandingkan
ضمن
kleed
ços
клас@@
kkan
ዘ
çak@@
생산
coper@@
लियों
خل
автомобиля
lubang
รายการ
ۈرۈپ
파
mooi
��@@
健@@
patrol
anugerah
instant@@
akta
pockets
サービス@@
tki
бать@@
حالة
ठे
mandarin
자수
sarı
metropolit@@
郵@@
디
ۈر@@
מכונת
속옷
colombia
وهو
residence
avoc@@
люкс
曲
adakah
дом@@
acess@@
rodz@@
которая
peças
रखने
念
erini
ライト@@
beard
unca
वहन
creme
cele@@
ئاپتونوم
डन
億@@
membolehkan
との@@
против@@
supreme
규@@
auri@@
influ@@
मदद
hertz
cocuk
нська
즈@@
루
폭@@
использовать
除
กรัม
cushions
ıyor@@
西
anahtar
ontvang@@
мана
जिसे
ックス@@
وتن@@
ละ@@
오일
interesse
aproxim@@
oplader
ەت
tiss@@
latina
федера@@
zeu@@
размеры
справа
べ@@
metallo
羣@@
أليس
стей
очки
srl
après
casco
針@@
inglês
horiz@@
chess
満@@
ท์
chall@@
عض@@
otten@@
ウィ@@
لجنة
dresser
россии
بيل
quo@@
нових
且@@
ジェ@@
должен
acordo
वरी
современ@@
chers
最大@@
립
manakala
sabun
設備@@
價
سك@@
sunduğu
giochi
together
สีม่วง
자연
bescher@@
грузо@@
تاش@@
للە@@
rint@@
tussen
政治@@
कल्@@
pendente
поня@@
мяг@@
貼
ผ้าใบ
सामाजिक
апре@@
एजे@@
thiếu
ภา@@
chien
jungle
महान
плаття
akomodasi
飲@@
청@@
إلي@@
जाएगा
सुनिश्चित
क्
khẩu
crow@@
аниме
èche
لىق@@
支援@@
кордо@@
続
thern
また
바닥
đỏ
ミニ@@
웨@@
забо@@
克
llc
ometro
स्थ@@
спальня
alü@@
drama
姐@@
ئۇلار
pix
calle
reise
をお@@
weet
диван
पट्@@
море
фикации
ไข@@
демон@@
ำ@@
菌@@
रहता
ಬ
成功@@
администра@@
типа
ம
思
가발
panama
회
vento@@
piedi
internacional
電話
цих
hiburan
schwe@@
อะแดปเตอร์
moldes
khiển
свои
手机壳
лист@@
proxim@@
모양
asos
खी@@
크기@@
مىسى
спів@@
क्स@@
hiển
ими
층
ئال@@
обяза@@
بالنسبة
年的@@
мель@@
женский
المص@@
взуття
ぶ@@
انة
ideas
راد
morning
更新@@
orida
בעל
dois
राष्ट्र@@
bà
共同@@
prosi@@
היא
дітей
מנוע
хре@@
chào
verso
शाम
المعا@@
چىقى@@
양말
ezza
vê@@
waż@@
torre
качестве
arias
хотел
получи@@
хочу
็@@
准@@
taten
течение
كانون
ตร
мови@@
لەش
icin
构@@
член
บร@@
cứu
採購@@
analysis
продажи
ضاء
тео@@
นาฬิกา@@
แจ็คเก็ต
layan
adresse
tertinggi
مىنى
גבוהים
รูปแบบ@@
beit@@
zaman@@
formy
apps
塑@@
競@@
судо@@
सूची
southern
ياكى
ieren
国内@@
obten@@
क्य@@
אפוד
meninggalkan
alc@@
하십시오
рестора@@
南
ढ़
플래시
лії
disfraz
الناس
子供
يۇ@@
pied
спорту
ihnen
ルト@@
zoals
جاء
प्रचार
التع@@
歐@@
സ
قاً
직물
नया
gitar
arası
写真@@
cier@@
ành
アップ@@
çer@@
cobal@@
知名@@
bordo
शिया
卷@@
मित्र
टि
masks
mattress
клад
網絡@@
czas
碼
מוצרים
आर्@@
議
custodia
देश@@
मिले@@
газу
मार
份@@
tarih
उससे
attività
ឆ
puerta
поперед@@
чений
interesa
служби
어떤
cảnh
เหล็ก@@
vostro
כל@@
ремонт
лами
olah
broken
圈@@
चर्चा
筒@@
튜브
ชุดแต่งงาน
встре@@
niñas
onique
सुबह
帽
ग़@@
전력
β
मिला
축
stär@@
üret@@
詞@@
자신의
atmosfera
cameras
тою
ัน@@
속
لديك
вей@@
客户@@
седа@@
брати
ـا
гового
品質@@
влада
لأ@@
report
码@@
족@@
hữu
понад
trekking
cray@@
걸@@
패키지
зона
墨@@
schro@@
كېيىن
офіцій@@
️
ppel
직
niveau
जहाँ
当
therm@@
込@@
ינים
acz@@
御@@
бою
発
ตาข่าย
anders
단일
ெ
чески
topu@@
torne@@
gilet
배
バッグ
시스템@@
£@@
العالم
全国@@
قانۇن
رها
लिखा
有效@@
अरे
छूट
мови
幅
उत्पाद
kies@@
pertengahan
rifle
하나
cuk
מתח
langu@@
ivos
поверну@@
ayak@@
insignia
дело
लवा@@
赛@@
료@@
אנדרואיד
hommes
버튼
temu
tano
групи
กระเป๋าสตางค์
стви@@
nagel@@
्यता
אוזניות
giả
uży@@
ahşap
げ@@
свого
טלוויזיה
ドレス@@
ключ
浮@@
有一@@
nuovo
стол@@
nowy
המכונית
للح@@
fach
창@@
动
समूह
الأطفال
травня
शनल
ถัง
ностью
منى
표준
الكثير
חליפת
picasso
सक्रिय
посо@@
alkan
볼@@
паро@@
jaqu@@
особ@@
談@@
примі@@
affari
业务@@
รวดเร็ว
हालांकि
情报
펌프
另@@
casino
tiempo
зов
skop
別
koel@@
тема@@
โซ@@
सिं@@
ризи@@
мои
가능한
técn@@
использу@@
тельный
diser@@
핀
التق@@
浦@@
enty
meet
rękaw@@
важли@@
である@@
kste
archit@@
विकल्प
kekuatan
织@@
belgium
螺@@
ชาย@@
系统@@
sebenar
繁@@
ramai
lớp
ujian
recherche
يەنە
چە@@
omdat
招聘
渡@@
правила
듀얼
טו
алек@@
верти@@
לנ@@
значение
尿@@
autre
माने
поле
colom@@
śni@@
問
विरोध
qual
sarapan
rapport
積@@
hadapan
ज्ञ@@
ปฏิ@@
تصل
request
dentelle
seterusnya
koffie
إد@@
siyon@@
estrella
ター
हमेशा
hlen
منها
producto
हजार
декс
bıç@@
khó
ресторан
ชุบ
シル@@
콘@@
ngắn
yout@@
網站@@
ไฮ@@
लकर
트를
高速@@
โฟ@@
rujukan
armbanden
السي@@
animais
گەن@@
экологи@@
หนึ่ง@@
tement
стены
password
סגסוגת
ньо
سوت
מתאים
ことが@@
廠
bijo@@
พื้น@@
шло
แดง
採@@
wurden
шение
gerek@@
แข่งขัน
kilat
нашу
グ
biznes@@
形成@@
不同@@
투명
อล@@
fond@@
vue
ouvido
процен@@
מסו@@
трима@@
йка
套装
вважа@@
樹@@
закон
aż
준@@
柜@@
المؤ@@
menyer@@
أنتِ
sites
регули@@
sẵn
itech
motore
beel@@
zej
perlen
руко@@
ยัง
ける@@
父@@
organizador
ówka
indicator
vedere
linie
ダイ@@
ค้า@@
дія
mencapai
бассей@@
вирі@@
供應@@
中国
perkahwinan
الحا@@
zn
buffet
бабо@@
सरकारी
мова
लंबी
canal
ילדה
धे
яку
directo
軍
تكە
kilang
sche@@
certa@@
occo
ชื่อ
粉
alleen
sente
계
كس
puedes
ขั@@
ො
數
sintet@@
מערכת
piso
текст
крем@@
دىم
เซนติเมตร
tagli@@
בט@@
गांधी
ประสิทธิภาพ
データ@@
bondi
應用@@
州市@@
later
país
phép
тить
」を@@
aanbieding
बद्ध
nurse
екс
столи@@
اذا
愛
пес@@
चना
안전
จั@@
انظر
अग@@
恋@@
लिख@@
السيا@@
memerlukan
劉@@
نيوي@@
found
pengeluaran
وما
soort
मत@@
членов
プリ@@
टक
剛@@
देव
imiento
соответствии
वरण
persegi
atac@@
topol@@
bermula
січня
ảng
cerita
хран@@
punti
הגברים
鼓@@
銷售@@
帽@@
المساعدة
ۇن@@
徒@@
चने
बैठक
演
parc
đưa
מוצרי
pyjama
الدولة
暴@@
втра@@
王
cạnh
อย
אמי@@
rück@@
zh-@@
terra@@
industrie
вересня
alny
上一篇
versch@@
kach
півден@@
ingilizce
áveis
미터
рем@@
jahre
libero
צינ@@
란@@
מותניים
покры@@
ผ้าพันคอ
avail@@
chtige
дить
menyebabkan
phổ
voet
पद
र्य
помі@@
아크릴
поверх@@
都市@@
перебу@@
again
用户@@
altı
เพล@@
ekat
meningkat
airlines
तय
세라믹
لارغا
cấu
शित
ladybug
стекло
직접
스터
포함@@
americano
طريق
円
ระยะ@@
plage
악@@
dział@@
juegos
폭
slime
lỗ
防水
enjin
학
旅遊@@
санк@@
tempatan
februari
餘@@
ditampilkan
maggi@@
拡@@
너@@
dục
сить
अग्र@@
候@@
території
خاصة
배달
울
门
berhampiran
розмір
obiek@@
segi
他们@@
복
bür@@
ंदी
額@@
ticas
ưa
циф@@
บอล
ئوي@@
cộng
volle@@
大型@@
capp@@
мого
крі@@
بيت
schon
ጪ@@
organisasi
रचना@@
cię@@
пожа@@
आनंद
الأح@@
constitu@@
影響@@
every
незалеж@@
kulaklık
שימוש
ต่าง
通过@@
寸@@
¡@@
ومن@@
벽@@
ە@@
проведення
خىزمەت
ฉัน
rápida
guid@@
дизайнер@@
scotland
परी@@
יוקרה
diğer
tục
ــــ@@
своїх
بناء
מום
бойо@@
тне@@
البر@@
clio
güneş
direct@@
borse
kue
أُ@@
ombro
ارى@@
санд@@
nymi
death
quest
תכשיטים
旋@@
ۋې@@
交流@@
users
जवाब
ため@@
babies
ترك
عامل
न्द्र
result@@
आपने
tido
рыба@@
їв
他的@@
连衣裙
kamus
मंदिर
invoice
зії
теперь
ideale
жене@@
тепло@@
الطا@@
tawaran
cáp
справи
stec@@
фля@@
ביו@@
nuevo
標準@@
दौर
dudu@@
เลเซอร์
diễn
linder
льна
página
芸@@
météo
ไม่ได้
势@@
仍@@
gerakan
никами
大码@@
también
техниче@@
บลูทู
ยุ@@
गीत
女子@@
кіль@@
moteur
لدينا
sudaderas
向
dopo
exchange
あなた@@
leren
сфер@@
компании
ditem@@
لأن
경
nant
hujan
blo
snel
serikat
挑@@
أيها
ży
폴@@
었다
kaedah
據@@
neckl@@
يكن
дови@@
internationale
balcony
nähe
التعاون
结果@@
gönder@@
שני
शाल
подготов@@
nukle@@
∙
×@@
जिससे
≤
швей@@
disebabkan
жной
ือ
aratın
答
zow@@
dzie
дю@@
용량
україн@@
щая
桃@@
bloem
mirr@@
mejor
вибра@@
हार्@@
로고
가슴
dù
기를
篇@@
khoản
印刷@@
amiento
안경
eger@@
कमर
攝@@
็อก@@
أنت@@
ثير
ज्यो@@
ذكر
получа@@
सामना
英語@@
กำ@@
dow
bloc@@
важа@@
캡
вка@@
जाग@@
potong
mostrar
แล@@
самый
אנחנו
पाने
نحو
cawan
див@@
масшта@@
açık
menghasilkan
宝宝@@
冠@@
村
bole
рення
kaufen
direction
длинным
великий
ngực
adolesc@@
feest
być
sweden
загру@@
холо@@
してください
samping
рели@@
komentar
zubehör
puzz@@
없습니다
التن@@
电话@@
iglia
zwei
كۆرۈ@@
llavero
детские
mengatakan
maquillaje
счита@@
منع
plaats
殺@@
कू
стран
bermuda
щі
єс
immer@@
منظمة
抓@@
truy
quotation
보다
เลนส์
精神@@
ствовать
בחינם
足
iler@@
ether@@
продуктов
карте
童
aliti
век@@
claro
aktiviti
vistas
igli@@
ziel@@
看到@@
aperto
徐@@
deling
lere
गार
konsensus
الكا@@
マー@@
serangan
ออกแบบ@@
التنمية
วี@@
または@@
संस्@@
означа@@
량@@
calen@@
आती
период
разрабо@@
타
kéo
كون
सारे
जिसके
sluiting
нять
לוב
發
없이
grátis
מצו@@
واحدة
дого@@
ambung
盤
япон@@
الأعضاء
намага@@
ページ@@
سىزنىڭ
يېزا
כפפות
apparaat
світ@@
Ọ
पत्@@
cuối
xách
czapka
дея@@
컴퓨터
добав@@
양
follow
templ@@
कल्पना
大学
ragazza
แสดง@@
зня@@
danse
горя@@
serve
ขา@@
тной
ตัด@@
prijs
पुन@@
患者@@
bangkan
對於@@
池@@
kedudukan
грудня
مە
mengikut
березня
أستطيع
รองเท้าแตะ
ญ
деятельности
جار
command@@
نات
thuận
วง
cewek
منا
يۇقىرى
황@@
mentre
対応@@
rhinest@@
disem@@
keuangan
opening
ấu
舒@@
गए।
バー
ჳ@@
печата@@
telinga
рід@@
कोर्ट
ঁ
さ
़@@
카
目的@@
児@@
電話@@
кух@@
سيا
이나
montr@@
owego
मुद्@@
feld
insur@@
капюшоном
occu@@
również
бре
ayah
геро@@
ທ
caneta
يرا@@
نفس@@
amigo
ซิลิโคน
सिद्ध
종
팬티
язку
andare
寺@@
निम्@@
clienti
युवा
้อม
sukienki
pegawai
绝@@
عادة
банку
chỗ
linha
pement
儀@@
מה@@
あり@@
เดินทาง
زى
ตั@@
quali
alimentos
чисто@@
плану@@
免費@@
الجنس@@
pagar
dingen
tajuk
המק@@
मारे
главная
दिशा
รวม@@
พวก@@
числе
dremel
merhaba
жінки
booking
belle@@
hostelworld
熟@@
keseluruhan
چوڭ
文字@@
велоспорт
włosów
שוט
вик
estrada
boek@@
胡@@
كۆپ
hoesjes
국
українсь@@
遮@@
კ
करोड़
刷@@
zircon@@
cje
משו@@
giyim
丸@@
сою@@
比較@@
負@@
جة
ляет
parete
際@@
prodotto
большие
ạn
जन्म@@
蘇@@
потрібно
envoyer
생
cüzdan
quand
崎@@
히@@
우수한
perfil
饭@@
吗
장갑
ходу
อิเล็กทรอนิกส์
庆@@
を见@@
chuyến
rencana
女童@@
biust@@
ष्टि
น่าสนใจ
зоны
肌@@
якості
לייזר
privac@@
отлич@@
خذ@@
蒙@@
ジュ@@
ሦ@@
ься
lederen
而且@@
поэтому
antwo@@
preço
薬@@
ежеднев@@
是否@@
motorrad
secador
программы
diambil
kerst
جمهورية
комитет
ュー@@
جيد
ję
berkel@@
군@@
необходимо
электри@@
сфор@@
虎@@
ừng
melbourne
peribadi
вища
ijk
学校
тети@@
pusingan
षित
銷@@
כדורגל
読@@
매력
ンダ@@
книги
工具
masakan
集團@@
бассейн
distancia
mobili
вався
פנים
райо@@
البح@@
जय@@
ציור
airs
文件@@
пері@@
gambar@@
快照
ครัว
मनुष्य
ولوج@@
vô
aines
watak
ayar@@
hạn
липня
عيد
也不@@
คลุม@@
disponibile
願@@
唱@@
ค้าปลีก
حسناً،
เสีย@@
여러
ทำด้วยมือ
шпи@@
अध्ययन
филь@@
השחור
kèm
대형
ışık
塑料@@
커
חדר
축구
bund@@
【送料无料】@@
oorbel
폰
пале@@
zij
набо@@
詳細@@
испол@@
clic@@
kır@@
अल@@
шел
दृष्टि
menyimpan
วาง
мести@@
रुपये
必要
แน@@
cân
音楽@@
залу@@
orno
джин@@
ешь
צ
본@@
sewa
gereed@@
pakai
impac@@
經營@@
²
일반
孕@@
ような@@
нуть
silam
послу@@
מעו@@
귀
ół
bâ@@
companies
ってい@@
展示@@
兼@@
ezer@@
dowe
даними
fikir
deter@@
внутрен@@
그림
सफाई
שמן
latar
강
살@@
चुके
详细@@
單
dibina
renkli
ंद्र@@
巾@@
pompon
ае@@
strona
farbe
يوجد
夢@@
ฐาน
вважає
스틱
רזה
소년
laluan
pez
znajdź
bây
ーター@@
女装@@
czas@@
الأخرى
寄@@
мире
חזי@@
ルの@@
מקשה
订@@
ဝ
keputusan
额@@
sais
観光@@
려@@
kemeja
功能@@
אנו
个人@@
represent@@
розташо@@
ھەر@@
bebes
初
guil@@
magli@@
מפתח
ketiga
आते
床
تعا@@
portemonnee
זי
擊@@
komik
رك
רשת
pengi@@
℃
ناول
рекор@@
calcetines
ино@@
quadro
direka
rasp@@
आए
відповіда@@
玩具@@
ваши
peman@@
apoio
เก็บ@@
список
يه@@
zjednoczone
ái
的小@@
אט@@
хви@@
衣服
여행
ativos
petrol
труд@@
顺@@
충전
現代@@
quanto
自分@@
執@@
mengandungi
рова
工程有限公司
kebangsaan
kombinasi
比
предложения
gels
넥
렌즈
装饰@@
elektrische
ट्रो@@
cặp
soleil
chant@@
наше
terima
תר@@
месяц
kuant@@
जिला
サイズ@@
вияви@@
垫
бюстгаль@@
پې
keiten
피부
усіх
หลาย@@
hungary
usse
точки
концер@@
долж@@
أنّ@@
制度@@
wiz@@
茶
פנס
借@@
一起@@
عند
accommodatie
conna@@
kiệm
んな@@
zonder
нено
聊@@
ดัน
содержа@@
жовтня
quảng
ประมาณ
хотите
ลูกค้า
אמ@@
mern
ように@@
đức
夹@@
mı
carac@@
你
відді@@
dança
गठ@@
دەپ
finale
странице
;@@
calidad
ของเล่น@@
県
आत्@@
इतिहास
קב
voudrais
ванням
голу@@
慶@@
rios
タイプ
호
человек
환
zosta@@
cerem@@
ساعد@@
informationen
schö@@
また@@
jego
atil
необхід@@
החל@@
cubierta
풍@@
tahunan
тным
располага@@
aantal
ライン@@
selesai
nicy
manche
moleton
ह्@@
علينا
rele@@
bergaya
逐@@
near@@
дося@@
oles@@
penutupan
giặt
rangkaian
atrice
reserv@@
フル@@
thiệu
투
formen
español
lurus
utili@@
夏季@@
stany
าส@@
instagram
尚@@
waterdichte
镇@@
裝置@@
ยืด
สาร@@
writing
української
간단한
ністю
memu@@
sayang
תחתוני
作用
червня
饮@@
широко
sĩ
것은
мых
пят@@
daging
нсь@@
kanten
explor@@
seeds
hạng
提供
диви@@
קליפ
schar@@
ária
جاز
海外@@
local@@
utensil@@
打底@@
リン@@
任何@@
lã@@
gelas
ส์@@
selain
zeer
refrigerator
역
أسا@@
mại
ственной
ッシュ@@
デザイン@@
קצרה
впли@@
nieuw
löschen
กรุณา
ontwikkel@@
גרבי
सला@@
koszulka
nhẹ
భ
вог@@
існу@@
ติด@@
utilizz@@
захис@@
진주
içinde
увер@@
किस
anyi
відомо
wó@@
blick
юк
фестива@@
заслу@@
услови@@
entre@@
disponibles
장비
нути
פלו@@
aque
dantel
buiten@@
تەرەققىيا@@
탄소
بهذا
hamburg
取得@@
乾@@
ـة
perse@@
づ@@
bordado
園
美容@@
rvs
ajout@@
pegat@@
rezerwacji
eben
ಜ
仁@@
бізнес
складу
אורות
grow@@
سۆ@@
บุ@@
เบาะ
ウン@@
समी@@
ตาม
vagin@@
חלו@@
фы
kenderaan
السل@@
ถุงมือ
ปรับ@@
ग्री@@
しか@@
怪@@
путем
震@@
навча@@
كون@@
demonstr@@
escu@@
autobus
toepass@@
照
وهي
kask
ורים
permanente
संबंधित
數據@@
يمكن@@
것@@
rekod
trái
xử
衝@@
своей
ללבוש
กุ@@
qualidade
нного
เต็ม@@
обі@@
край
全面@@
неф@@
gracias
ała
zabawki
อม@@
恐@@
ขนาดบวก
義
跳@@
망@@
ยืน
clusi@@
أني
łka
lungo
หู
cano
хоча
стати@@
stove
奈@@
acrilico
mexic@@
бюст@@
buenos
蓋@@
команда
görüş@@
بالإ@@
하나@@
婦@@
يۈ@@
अधिकार
bepa@@
ֿ
чином
ゆ@@
bransoletka
tern
洞@@
maupun
gry
silla
موت
пользова@@
dikeluarkan
cuanto
結
отношении
造
svil@@
dụ@@
鲜@@
sạch
thoải
幹@@
สัมผัส
menurut
成人@@
ज़ि@@
りの@@
책@@
quelle
влаж@@
bew@@
sif
possibile
气
colgantes
memenuhi
прият@@
根據@@
demi
швид@@
ลวด
شۇ
衣服@@
ड़ने
แปล@@
tanaman
เจ้า@@
ефектив@@
dipakai
preis
flä@@
collo
anced
페이@@
birth@@
algun@@
问题
села
venir
wym
cuscino
구리
รอย@@
격@@
판매@@
桥@@
ね
تاج@@
प्रशिक्षण
ư
zwier@@
组织@@
coli
derni@@
medan
नाओं
ヘ@@
erca
худож@@
ข้อมูล
cuore
mayor
팬
แปรง
蒸@@
賣@@
ที่ดี
pembayaran
खाने
twar@@
컨@@
євро
kondisi
bệnh
delhi
przy
tamento
szy
atih
彈@@
우
डॉ
ingl@@
탑
אלחוטי
乎@@
sztu@@
त्रों
보증
ปัก
minit
प्रतिशत
tấm
ضية
mediev@@
आग@@
директор
ому
torebka
焼@@
interested
巾
stivali
人気@@
ช
छोड़
英语@@
суще@@
ceket
सहा@@
diterima
مەسىلى@@
lusso
بذلك
думаю
召@@
auricul@@
seoul
bonne
thuộc
безпеки
الاقتصادية
laden
квітня
रिपोर्ट
病
交易@@
почина@@
exclusi@@
ช่วย@@
ቭ@@
寬@@
ствен
कारात्मक
下一篇
ሶ
aktivitas
quart@@
靈@@
назна@@
фин@@
작업
pengem@@
bulat
サイト@@
опто@@
mev@@
prowad@@
洲@@
study
думку
sehen
ссия
采@@
スター@@
辦公@@
sebab
تريد
สีเหลือง
одяг
moins
छोटी
düğ@@
ѐ@@
届@@
noleggio
outside
氣
طلاق
яко@@
าะ@@
тесь
soll
laine
offici@@
prach@@
損@@
тиру@@
सीट
koruyucu
전에
заклю@@
suiv@@
наці@@
साधारण
stempel
装飾@@
wyposaż@@
vermo@@
תחתונים
жив@@
jassen
時代@@
जमीन
шру@@
mismo
гости@@
妻@@
देर
глоба@@
ซู@@
अम@@
民族@@
stazione
muur@@
comida
ぎ@@
नुकसान
सक्षम
melindungi
страница
लड़की
ristorante
скую
キャン@@
penulis
侵@@
प्रधानमंत्री
pakej
แม่@@
mông
стка
conta
затрима@@
otro
สล@@
सागर
संकेत
يىلى
오토바이
סית
verão
캔버스
edores
塞@@
展
йно
kelihatan
triệu
estamos
되지
oce
라운드
מיק@@
тично
ซิป
цями
מכירת
従@@
kutusu
тический
เหมาะ@@
والح@@
percorso
spanyol
quy
ecer
sofia
fz
今天@@
राजनीति
サイ@@
недо@@
ページ
סקי
值
によって@@
громад@@
ews
раді@@
があります
selen
vectra
запла@@
ี้
كان@@
ỡ
лили
ביקיני
里
angkutan
ฟังก์ชั่น
spiaggia
教
褲@@
держави
owej
陰@@
сухо@@
ตอน@@
boncuk
mengu@@
प्रौ@@
बैटरी
idades
cev@@
छे@@
なら@@
займа@@
لما
ंज@@
的に@@
רוחב
ensiklopedia
передба@@
भगवान
ज़ा@@
情況@@
alahan
tente
colori
lery
सुधार
خطر
penghantaran
город
רון
đô
ولكن@@
waji@@
famosa
게임
जाएगा।
einfach
シェ@@
改革@@
never
aknya
ئىگى@@
バッグ@@
lông
jeux
充电@@
ติ
トラ@@
ھوقۇ@@
flus@@
เคลือบ
वक
省
лізу@@
ẻ
jetzt
विज्ञान
зеркало
스탠드
срав@@
lanter@@
ниць@@
kacang
терна@@
bett
腕时计
철
特
фут@@
begin
несколько
आपका
付き@@
पट@@
二手@@
غم
сив@@
persone
राशि
ئالدى@@
armband@@
руку
बह@@
gỗ
गृ@@
build
member
neka
шить
วิดีโอ
أننا
cứ
близ@@
選擇@@
내부
려
사용됩니다
표시
choo@@
calça
lepas
дій
לרכב
faut
ilai
產品
柄@@
дою
가격으로
flü@@
屋
kemas
开始@@
●
ंडे
fers
تأ@@
khô
indung
بولسا
francia
纹@@
計
ჟ
опла@@
ện
方向@@
щем
liqui@@
proteg@@
финансо@@
часом
aggi
жили
giữa
нагру@@
газа
chí
भार
岩@@
ظة
bread
києва
楼@@
фоль@@
водя@@
営@@
spiel
آ
أكون
повтор@@
פו
駅
ohne
trưng
лега@@
görüntü@@
หัวใจ
chữ
縮@@
progressi@@
ส้นสูง
וי
жерт@@
gover@@
ymi
процес
偏@@
mez
शौ@@
داش
produt@@
لول
мія
гоно@@
削@@
乙@@
ك،
ковые
炎@@
儲@@
distanza
품@@
маршрут
cani
จอ
吹@@
導
말
ڼ
reinig@@
деревя@@
קות
לון
продукти
أخذ
волосся
росі@@
kloc@@
чені
레
الموارد
ब्रांड
ковий
تىن
купальники
childr@@
африкан@@
无料@@
介
باشقۇرۇش
小型@@
coupon
系統
समर्@@
इतनी
servizio
шего
มืออาชีพ
अवसर
※@@
особи@@
vegetarian
藝術@@
תיים
mahasiswa
фотографии
צור
camion
सोच
ストラ@@
寒@@
карто@@
vẻ
giáo
nung
बने
בסי@@
koord
חז@@
家用@@
가운
域
wanna
מית
遊戲@@
ブラック
montessori
盘
בקבוק
סמ@@
подіб@@
техно@@
ので@@
माँ
growth
juguete
liere
โซ่
tranh
อุปกรณ์เสริม
בגד
空
莫@@
زيادة
комфор@@
сере@@
procur@@
bantu
протоко@@
pasaran
לר@@
bền
группы
अला@@
เชื่อมต่อ
كز
蛋@@
ahiran
態
بولدى
mulai
техніч@@
น์
bulgar@@
nv
hilang
佐@@
สาม
करे
창
」と@@
육@@
fuß@@
tiến
kunden
menyel@@
休闲@@
browser
यान
حاول
göster@@
노란색
테이@@
銀行@@
houd
탄성
침대
cuaca
दु
skmei
天然@@
ปี@@
厂
yüz@@
клавиа@@
恩@@
вашего
дитя@@
अधिक@@
ждение
йдеться
進
регіонів
頂@@
支持@@
sebagainya
beaucoup
ately
類
dương
מתנות
seku@@
קטנה
новой
nasıl
ète
bereich
vindt
dieses
ствам
ックス
kjes
flesh
abila
מחזיק
oyster
を持@@
consig@@
maleta
삼@@
पत्नी
номер@@
jabatan
segar
확@@
hoog
只是@@
تىكى
plaat@@
幼@@
אמנות
arak
orios
canc@@
기가바이트
ainda
部門@@
แผ่น@@
сказа@@
تبر
тное
使
articul@@
יהלומים
命
พร้อม@@
vermelho
چىلىق
वाई
いて@@
чать
найкра@@
斯
术@@
개의
يمكنني
ốp
科學@@
泥@@
бург
наруч@@
mengetahui
penetr@@
sacch@@
ресто@@
poll@@
teurs
fragen
אס@@
स्थ
потер@@
запу@@
nuit
feathers
施工@@
ファイル@@
ジョ@@
guys
tranqu@@
eceğ@@
ộc
文章@@
ที่มีสีสัน
roul@@
marki
dido
laarzen
隊
redondo
нила
hamil
אדם
验@@
tels
봉@@
دوا
תמונה
проти@@
המולד
bercakap
можли@@
플
ある@@
विकसित
знову
терори@@
zwarte
инструмент
відповідно
cậu
eczki
pincel
तहत
хода
的大@@
đeo
institut
ಊ@@
לבנה
底
recensioni
気
सरा@@
っと@@
ك؟
weiss
票
рію
регулиру@@
טרי
hostels
zgod@@
روا
casi
อุ@@
artesan@@
упако@@
серпня
รถจักรยานยนต์
dikem@@
ukrain@@
muster
апе@@
學校@@
планет@@
include
livraison
郡@@
かな@@
orgasmo
獎@@
thủy
킹
мку
xima
ментов
paill@@
ספק
совета
essence
خذ
ekli
dün@@
cci
bulun@@
deutsch
олександр
ác
圍@@
profissional
okulary
기타
передає
поко@@
ซ์
жах
ceramica
прой@@
राष्ट्र
pertempuran
istas
валися
التقرير
顯@@
ssen
phút
汤@@
設定
باست@@
продов@@
hnya
permintaan
chau@@
岸@@
anahtar@@
हमने
机能@@
bizim
בש
工业@@
bietet
奧@@
стратеги@@
радя@@
كۆر@@
stronie
tanya
prezzi
berdiri
ське
页
geschen@@
hado
enix
спортив@@
повинні
ਉ
ปั๊ม
похо@@
зеленый
โลก
estão
०@@
evet
cyj@@
故@@
bonus
屬@@
किना@@
炭@@
мит@@
느슨한
mekanikal
cater@@
序@@
אוה@@
이상@@
ництва
spielzeug
శ
нато@@
२@@
ować
hills
quyền
เฟ@@
ティー@@
عقد
粗@@
มีความ@@
забезпе@@
sambungan
verwen@@
बेहतर
refri@@
業務@@
ルー@@
นั@@
полностью
rozpo@@
盆@@
حين
안
chambres
鬆@@
moscow
활
탈@@
pandangan
специа@@
problemas
לין
categoria
мужская
पिक
่าง
frei@@
тків
ов
стало
rugzak
显@@
短袖@@
перед@@
あなたの@@
дуть
普通@@
порту@@
muscul@@
राजनीतिक
פת@@
것을
tropez
jongen
כי
gdy
костюмы
निर्धारित
pijat
公共@@
entemente
ที่กำหนดเอง
кружево
록@@
ארוכים
ongeveer
鹿@@
ضة
दम
months
आउट@@
нержавеющей
้ว@@
antung
длинные
женщины
двер@@
handles
美国@@
commerci@@
苏@@
스카프
कल्प
لىكىنى
laguna
яй@@
cortador
stuff@@
делега@@
الانت@@
रक्षा
panoram@@
젤
конферен@@
ชิ@@
田
少女@@
disediakan
вимо@@
มือถือ
modellen
जैसा
cuando
刊@@
guo
บริการ@@
нато
pellic@@
sementara
belangrij@@
溪@@
database
tessuto
sửa
dibeli
תכ@@
सम्बन्@@
смысл
profesor
والإ@@
ilgili
тщательно
雄@@
iets
วิกผม
访@@
מבר@@
terdiri
деле
ciona
penyelidikan
küpe
places
ภ@@
канада
श्रम
güzel
淡@@
ferrari
cuad@@
पालन
simulator
alimenta@@
прош@@
vasos
संभा@@
segun@@
لىكى
зму
deals
плечо
niej
suatu
स्था
schap
ワー@@
إنشاء
чоловік
쉬운
населення
моро@@
全國@@
ails
diversi
kolej
ไซ@@
لىكى@@
manteau
реак@@
เห@@
прокура@@
นิยม
memuat
игро@@
هذ@@
ditubuhkan
למעלה
document
्रे@@
แปลง
تري@@
้าย
الولايات
kursus
찾@@
ileri
palma
ows
اك@@
џ
гостиная
marcas
schap@@
ebbe
蔵@@
题
ingat
противо@@
จับ@@
lago
chiều
وتر@@
綜合@@
любы@@
инвести@@
toren
светодиодный
农业@@
kobiet
sowie
увели@@
battlefield
nicz@@
क्षित
sofá
niej@@
贴
พรรค
yczny
गहने
وق
chịu
동안
תיבה
chance
perbezaan
zeich@@
धीरे
כים
الشا@@
mencipta
terbesar
טבעי
ھازىر
materiali
רטרו
からの@@
您的@@
daraan
줄@@
téléphone
konuşmak
卸@@
블루투스
соціаль@@
ık@@
правам
فترة
houses
keperluan
棒@@
标准@@
瓶
mediterran@@
консульта@@
stecker
contat@@
نچى
faz
category
tahanan
informat@@
еха@@
bungkus
ארי@@
закон@@
種
luchthaven
סת
梦@@
चुका
ầm
verschillende
¥
チュ@@
ก็@@
школа
laras
komponen
번@@
turysty@@
敏@@
ปั@@
佈@@
잘
케@@
минут
гром@@
यें
기에
meter@@
tokopedia
여
कानून
trajes
รับประกัน
быст@@
그리고
необ@@
กลาง@@
ofertas
成為@@
나는
північ@@
baller@@
मोदी
erno
塗@@
дополнитель@@
שב@@
dianggap
今年@@
町
초
czarny
帮@@
bernafas
телевизор
включа@@
kopen
комму@@
ikat
ballerina
들이
공주
тенден@@
pregn@@
ذار
dağ@@
綠@@
लंबे
नाथ
לילדים
sedia
แบตเตอรี่@@
טיים
ألا
ぐ@@
번호
烟@@
イン
אחסון
baseus
법@@
восто@@
袖
permite
припи@@
필름
azza
الأسلحة
晶@@
обнов@@
deep@@
胜@@
fiore
포함
رير
смен@@
่าย
ไม@@
місті
避@@
เตียง
mengobrol
ancas
kulak@@
หร@@
オン@@
客
artes@@
dowa
צהוב
goedkope
angnya
pizz@@
kerst@@
็ด@@
вець
作為@@
question
гривень
تە
тельные
proven@@
четвер@@
絕@@
ої
parkir
रिश्@@
dựng
لاق
ою
临@@
缩@@
cote
ئېلىپ
arnya
موظ@@
医疗@@
摆@@
媒@@
personale
dias
aturan
todd@@
outras
烏@@
расположен
солне@@
hạt
際
pouco
васи@@
ฟุตบอล
ข้อมือ
poco
ayd@@
घू@@
garan
ขั้น@@
錯@@
煙@@
bergerak
ဋ@@
스타일@@
牧@@
empel
parten@@
posito
तह@@
バス@@
พลิก
पैदा
yczna
pener@@
possono
שירות
підписа@@
вашем
листопада
เหมาะสม
каждый
manila
nút
銅@@
विधि
chargeur
équi@@
विश्ले@@
פול@@
нили
генераль@@
देखते
почти
férias
lido
inteligente
лизации
회사@@
侧@@
animali
द्या@@
売
عائ@@
लाल@@
食
ỏng
хімі@@
okaz@@
דלת
מעצב
keren
ಠ
району
원피스
меро@@
gece
شىمىز
mutfak
น้อย
lyon
‧
पत@@
termurah
agenda
ライト
否@@
雑@@
siliconen
दर्ज
दबा@@
antenne
encontrar
nhu
တ
либо
tend
magas@@
बारी
seseorang
ハンド@@
填@@
手淫
berjaya
חתיכה
尺@@
форму
แกน
лютого
sluit@@
सिद्धा@@
アー@@
licz@@
speakers
вці
kosz@@
โบราณ
เขา
değiş@@
สีเทา
दें
ユニ@@
напрямую
kablosuz
족
tarikh
bruin
znajduje
मिली
무늬
образом
sữa
halb
maları
典
सच
viel
継@@
нув
ือน
充電@@
لهذا
ocz@@
самых
क्षता
שעונים
теж
ढू@@
資源@@
検索@@
fatto
еко@@
barco
ชา@@
sento
सुझा@@
الأعمال
transparant
tulis
لىنى@@
ഓ
นก@@
geïn@@
мами
ระบบ@@
sóc
راق@@
הכחול
娘@@
גובה
なく@@
оон
เขา@@
vaqu@@
anki
नहीं।
쪽
phuket
國
單位@@
gancho
bluzka
kamery
łu@@
ミリ@@
closed
נו
прилож@@
vài
codi@@
kuala
ลิ
atmosph@@
आउटडोर
契@@
เมื่อ@@
리아
つの@@
إلا
已经@@
ofrece
лондо@@
における@@
doll@@
ئىش
ต์@@
培訓@@
สถาน@@
ziyar@@
lobi
المحا@@
brel@@
dinasti
tours
жено
บวก
commander
作品
סלו@@
ชุดนอน
绒@@
चलते
dino
ayam
toutes
合金@@
垫@@
रियर
candle@@
宇@@
חשמל
stoffen
斜@@
強
kampung
สีดำ@@
หลัง@@
עגילי
랜@@
粒@@
ỏ
価@@
їм
นา
صندوق
रेल
diverse
görüşmek
controll@@
жей
ンク@@
衞@@
globos
tambah
À
тім
ड़ा@@
bondage
elektro
आग
बजे
☆
ਛ
tricot
설
चुकी
到着
gü
जिम्मे@@
鼠@@
אופנוע
قان
детская
訊@@
ambil
вської
infanti@@
漂@@
เซอร์@@
dedor
дві
колір
наж@@
การออกแบบ@@
وعلى
координа@@
بسبب
แผง
adesi@@
spieg@@
에너지
ערכת
报告
acquist@@
碎@@
腹@@
мекси@@
تنا
йся
вектор
客戶@@
إست@@
湿@@
たい@@
處
ทำให้
верхов@@
확장
手机壳@@
temple
ฟ้า
лые
贵@@
凉@@
靜@@
景
bilangan
تح
jouet
adultos
弹@@
קשת
valut@@
адміністра@@
तरी
phá
ئىشلە@@
выми
ئىن@@
получить
색상@@
ئادەم
टुक@@
kwiaty
edah
擔@@
schei@@
풀
cati
ပ
พลังงาน@@
팔@@
峰@@
простран@@
멀티
ują@@
режим
तै@@
النظر
尖@@
denen
識@@
चले
werken
근@@
koff@@
eventos
değil
პ
צות
生的@@
ताकि
סקס
أست@@
成立@@
राइ@@
분의
takım
网络@@
バック@@
українських
володимир
其中@@
샌들
chtig
коробка
جنوب
lifull
עות
المجتمع
植物@@
freno
ได@@
lando
môi
bedrijf
משקפיים
आराम
renk
आन@@
नीति
タン@@
橡@@
zien@@
जैसी
合同@@
ผ้าไหม
spółki
spéci@@
tulang
якому
อิ@@
wohn@@
אספקת
свій
viaj@@
szyb@@
pomi@@
рован@@
شكراً
मुख
기본
пав@@
bedrooms
arim@@
delijk
meletakkan
सारी
ไฟฟ้า@@
כס@@
斷@@
kampus
доступ
يادة
supporto
스를
باء
romania
महीने
acje
หั@@
围@@
जिले
executive
catalogue
площа@@
जर्@@
gaat
特别@@
diseg@@
бов
zwe@@
푸@@
centrale
마이크로
祖@@
lạc
제품@@
郎@@
철@@
พรหม
скачать
xây
ियों
zwischen
київ
อุณหภูมิ
apkan
สาว@@
กำมะหยี่
关于@@
스위치
ผู้ใหญ่
สวมใส่
вості
接
معي
giác
емых
解決@@
protect
cemerlang
妇@@
camufl@@
große
anniversaire
毎@@
eczka
iczny
описание
getah
لوب
холод@@
utt@@
코
партнер@@
האביב
กางเกงขาสั้น
因为@@
يىل
بېرىش
सत
硅@@
blumen
كلا
शिकार
家居@@
ඥ@@
बातें
สะโพก
сукні
exac@@
erik@@
범@@
diberikan
價格
stylo
порта@@
lumpur
емый
sicher@@
вопро@@
cours
柜
erano
інтер@@
站
лучшие
самсунг
brou@@
correspon@@
전구
également
parce
لع@@
adoras
mannelijk
岁@@
飯@@
시간@@
üş
attu@@
никогда
≥
cố
質量@@
כמו
xinh
遺@@
baterai
照明@@
엔@@
іде@@
처리
thôi
lapan
소프트
śmy
купальник
네일
तुलना
всь@@
나비
빨간색
首頁
koh
wife
owany
مير
マイ@@
听@@
ـا@@
טר
備
측@@
кажу@@
cuid@@
offerte
толстовка
スイ@@
нику
kopf
pancuran
راضي
lakukan
้าย@@
摄@@
boven@@
الحكومة
dowy
모피
rantai
自身@@
قص@@
بير
hygi@@
treo
altın
이드
كُ@@
ख्या@@
能夠@@
【送料無料】@@
क्रिया
执@@
ículo
samochodów
उचित
desen@@
दाय@@
ùm
अंतिम
館
рки
склад
agne
निरा@@
lish
acco@@
ชน@@
spritzen
esperi@@
違@@
لۈك
ość
踏@@
что@@
दस
頁@@
แห้ง
สุด@@
切
چىلىك
знать
मौसम
חלק
شري@@
袜@@
менше
봄과
vegan
ئاساسىي
贩売@@
лятор
risultati
ським
إح@@
kalendar
phím
kesihatan
розвитку
расчет
fail
користу@@
cek
senjata
sơn
решения
タ
सीबी@@
etiqu@@
satell@@
파이프
قال
recomen@@
mesti
皆@@
yüzük
quit@@
生活
kısa
pasek
hamil@@
मौत
메쉬
场合@@
dikan
kostu@@
chauff@@
יפה
पौ@@
exam@@
连衣裙@@
виріши@@
စ
https
智慧@@
formato
drog@@
θ
giocattol@@
उठ@@
kemasan
工具@@
руху
イル
chav@@
zö@@
строй@@
budapest
ฟร@@
ถูก
escrit@@
משקל
зби@@
wieder
convi@@
ĩ
шие
鮮@@
ristoranti
ماية
мое
memenangi
幸@@
ماڭا
글@@
只有@@
札@@
ทำความสะอาด
кві@@
громадя@@
ของเรา
套装@@
захід@@
แรง@@
умо@@
gây
בעבודת
หนังแท้
downtown
utma
mende@@
cort@@
bột
вська
幫@@
入れ@@
كول@@
zee
хід@@
рису@@
психо@@
peranti
caratter@@
仪@@
ئېچى@@
chóng
рения
tegen
各種@@
часто@@
moule
harap
año
フロ@@
पत्थर
hızlı
особли@@
pensi@@
menten
ฟรี@@
culture
fahrrad
conh@@
ядер@@
mulut
をご@@
ethnic
診@@
везен@@
suche
מיד
различных
некоторые
施
căn
भावना
實現@@
سودا
短
penyakit
pepejal
דפוס
ข้าม
onie
找到@@
очевид@@
однако
rõ
hutan
國內@@
角
沿@@
choose
negocios
contain@@
消費@@
ischer
quarti@@
अनुमति
بالح@@
刑@@
弾@@
druck
anha
bloem@@
carbone
raggi@@
ョ@@
플러그
นั้น
焦@@
迷你@@
handy@@
commer@@
외부
वं@@
जमा
действия
chaus@@
повы@@
رأ@@
hler
شىغا
hochzeit
漫画@@
าด@@
十分@@
itto
含
ственный
затвер@@
スカ@@
предоставляем
корей@@
니트
كە
陈@@
شنىڭ
maksi@@
стороны
godz@@
対
deel@@
بخير
図
ง่าย@@
卡通@@
っている@@
перен@@
מכשיר
netherlands
ब्लॉग
限
處理@@
gioco
應該@@
يىل@@
atör
parf@@
oyunu
ニング@@
поряд@@
ноя@@
数据@@
ferien@@
报
doos@@
edade
鏡
वक्त
لكي
諮詢@@
менту
급@@
тонн
apren@@
cadeau
درة
собі
ści
枚
फीता
النساء
comes
жный
दोष
лить
milano
枕@@
內容@@
jawa
য়
戒@@
hồi
論
єв
boden
located
処@@
लेखक
kien@@
alors
pagi
多少@@
다이@@
tits
gọn
clé
סגול
статисти@@
助
kosten@@
resolusi
這樣@@
تنى
vlieg@@
تقدم
бажа@@
メートル@@
跨@@
בוי
किये
председа@@
almof@@
orlando
يىغى@@
możli@@
fucking
envio
maktadır
与
mataharimall
वासी
промышлен@@
وأنا
พล@@
啟@@
españa
歩@@
扶@@
מלאה
outro
향
ढी@@
içi
้ว
отнош@@
niez@@
現在
мів
netz@@
حسب
圈
पसंद
rossi
난
ốn
gratuita
ذي@@
новинка
chem
antai
बढ़
panduan
schrei@@
ũ
指
สุนัข
ที
війни
keru@@
항목
льних
様
밝은
載
เพศ
電視@@
stali
буты@@
드라이브
віктор
चाहे
month
阶@@
розумі@@
厚
มอง@@
dicionário
违@@
ثة
samaan
크로스
relax
graci@@
머리@@
اتفا@@
기술
애완
ถึง@@
地区@@
सव
viet
zentr@@
ória
لوا
casas
unser@@
इच्छा
proper@@
quen
zę@@
ório
wür@@
גבירותיי
海
促@@
ประกอบ
banheiro
खों
gebre@@
สัญญาณ
ây
這種@@
medida
ריים
budgetplaces
оборо@@
क्त@@
wiąz@@
角色扮演
vestig@@
ื่อ
помощью
оскільки
kissen
צריך
เปลี่ยน@@
القر@@
schnappschuss
piazza
안티
buh
сооб@@
kelompok
人の@@
являются
giorn@@
юсь
림
такого
something
가격@@
підприєм@@
спортивные
законодав@@
谈@@
권@@
particip@@
leurs
أنشطة
pemu@@
vanaf
定的@@
الرئيس
냉@@
أنّ
оборудование
изготов@@
艾@@
ジ
ará
ירו@@
selon
burung
positif
pembinaan
properti
коллек@@
דיג
需求@@
répon@@
etiquetas
돌@@
ملىق
était
роботу
frais
strategi
primeiro
estrat@@
็ก
पूछ@@
पैसा
เล่น@@
ów@@
पाया
确认@@
kład@@
coussin
רכיבה
잠금
вище
馆
저장
gluten
모두
들은
בצ@@
教師@@
envelope
فريق
ล้าง
低
บุรุษ
penden@@
估@@
menikmati
توفير
ئۆز@@
ذك@@
coins
посети@@
informações
ận
ناصر
착용
ciudad
ニュー@@
المعني
平
якої
तान
wiele
อัล@@
이상
총
taki
gegevens
ዑ@@
patch@@
偷@@
發展
हल
ринку
盖@@
تحسين
سيد@@
ニー@@
■@@
penger@@
autocollant
kalıp
滴@@
दिव@@
貓@@
étr@@
istiyorum
容易@@
финанси@@
цен
تشرين
่าน@@
งานแต่งงาน
filters
自
ваться
криміналь@@
универси@@
企业
ague
討@@
vibro
saudara
肛交
ศิลปะ
开発@@
turqu@@
새@@
altro
及び@@
dizionario
одной
perum@@
しく@@
entri
elho
ጩ@@
ئاممى@@
window@@
अभ@@
eyes@@
โป@@
питань
lasci@@
passport
bekerjasama
bianca
שאתה
भीतर
ดาว
股份@@
bluse
包裝@@
מקורי
犬@@
فات
zı
คลื่น
высокого
акку@@
kadin
буду
plantas
सहयोग
naklejka
มนุษย์
czę@@
생산@@
מברשת
praktikal
kalı@@
où
автомобильная
像
因爲@@
кнопку
负@@
병@@
स्तान
歲@@
โต@@
áu
伯@@
난@@
出来@@
ضافة
การ์ด
采用@@
grove
시트
reich@@
المعنية
atro
心理@@
रती
ชี@@
gebied
ते।
な
지퍼
الفا@@
indir
lọc
यु
стати
操@@
زاء
烈@@
及
український
dedos
nostro
yağ
←
แถบ
ลู@@
menteri
ويت
minuman
sied@@
الج
hô@@
клима@@
味
penyer@@
מלאכותיים
טובה
живопи@@
วั@@
cadeira
menge@@
volte
่ว
perfum@@
حسن@@
goth@@
heids@@
організації
hangat
름
ורית
kompleks
宽松@@
สา@@
сезон
产
отно@@
bapa
ولم
meia
ห้องน้ำ
almak
kırmızı
dayan@@
भाष@@
persatuan
ナイ@@
이트
تەربى@@
grafi
группа
леди
싱@@
chủng
политиче@@
หญิง@@
aimerais
파란색
осве@@
filipina
เหน@@
ただ@@
sposa
邮@@
ष्टि@@
tưởng
牆@@
можливо
calca
onte
斗@@
伤@@
有關@@
цветы
уряду
кухо@@
хорошо
flies
基礎@@
والع@@
หน้ากาก
gelegen
тация
objek
גלי
tır
تىگە
inizi@@
亿@@
çevir@@
interest@@
visto
そう@@
ፌ
acheter
बहा@@
develop@@
ダー
thegioididong
事务@@
chanel
already
fiche
หมอน
nier@@
감
продукта
frage
darah
sesetengah
będzie
ปิด@@
זול
terkemuka
брас@@
מיו@@
nguy@@
віт@@
文章
сування
दी।
■
avion
owym
ходит
khuôn
فقد
웨어
ダン@@
barbe@@
온도
ใ@@
menyatakan
dokter
처@@
다기능
taschen
คืน
руки
پۇل
quang
良
눈
教育
financial
거
قاتل
負責@@
короткий
ulah
穩@@
หมาย@@
риа@@
setu@@
óc
pays
количество
poka@@
шука@@
szych
ıkl@@
вими
цін@@
chú
触@@
ۇن
hren@@
드를
расши@@
kurs
carne@@
найбіль@@
گە@@
улуч@@
ጴ@@
सल@@
cuello
тыва@@
तेज
жов@@
ています
корпора@@
옷@@
באופן
婴儿@@
의자
がある@@
التد@@
庭@@
종류의
чь
районі
浙江@@
ставка
следует
制作@@
आयोजित
ขยาย
ている@@
нію
מקרית
ダ
הוד@@
spitze
bunuh
liegt
серьги
bios
לית
బ
większ@@
rapide
าร์@@
bbw
вік@@
أمر
staw@@
筋@@
่ม@@
terraz@@
تهم
押@@
電腦@@
здійсню@@
biraz
ılık
レス
เรีย@@
सार्@@
陵@@
อบ
커피
모듈
lassen
عزي@@
落
comel
exc@@
turut
міністрів
tü
회전
ью@@
cana
гами
сцена@@
หวาน
הב
прием@@
颜@@
팔
طق
cầm
ebalan
сплуата@@
подходит
prestasi
บอร์ด
проверять
כלים
opport@@
मिलने
above
ネック@@
輔@@
tarjeta
envelop@@
ruban
ariel
сут@@
kategorie
enfer@@
asis@@
قارا@@
gorro
alnya
dahan
ченко
dibuka
לאחר
शर्मा
benut@@
оптом
ставить
khid@@
schoen
프로
бачи@@
картина
ุก@@
бель
ชิ้นเดียว
مجموعة
luis
buiten
त्ति
завжди
maschio
举@@
studios
现代@@
moeten
賞@@
menang
अस्पताल
letras
nasabah
туре@@
возра@@
אש
针@@
แม่เหล็ก
مىز@@
filme
zorg@@
tujuh
तुम@@
витра@@
önce
tomorrow
другим
прове@@
技術
قيد
agni@@
between
톱
tempahan
dollars
่ว@@
męskie
laat@@
كلا@@
cottage
ienne
ケー@@
وغير@@
bagaj
которых
告
discut@@
пали@@
yakınında
ajaran
телем
mige
трикота@@
found@@
け
распо@@
graphi@@
서비스를
memimpin
tanzen
업체
ساء
чное
farfal@@
prachtige
veer
ポリ@@
囲@@
шкі@@
化学@@
instan
frankfurt
conjuntos
हमारा
damento
Я@@
ෘ
membu@@
присут@@
選
낚시
ネット@@
토
patung
いい@@
побу@@
янукович
ጹ@@
arat
측정
צים
블록
המו@@
อนุ@@
liburan
ozdoby
디자이너
物流@@
تُ
理解@@
멋진
जॉ@@
clair
ידי@@
ต้องการ@@
युग
зробити
країн
esci
מראה
シューズ
가격과
ато
गों
ственных
연
заяви@@
خىزمەت@@
संस्कृति
membentuk
耗@@
mật
โคมไฟ@@
events
номе@@
tür
และการ@@
acyj@@
nouvelle
linh
niemow@@
ם@@
ノ
tubuh
сму@@
治療@@
벤@@
ซิลิ@@
jogos
poby@@
君@@
migliori
кових
เส้น
知識@@
筆
पहुं@@
deniz
रिक्त
墊
部分
환영합니다
мые
방법@@
суль@@
мость
韩@@
дешевые
alguns
оптовая
дія@@
risiko
लेते
bố
คริสต์มาส
parque
ọc
秋冬@@
biet@@
предложение
عاد@@
بموجب
बू
מטר
قىلد@@
放
leştir@@
紋@@
昨@@
подвес@@
соеди@@
remove
kanie
부터
กลับ@@
圖片
מונ@@
नेताओं
ソフト@@
série
єм
เจ้าหญิง
खास
ኦ
cihaz@@
मां
ュ@@
過程@@
дистан@@
nagel
太陽@@
зовніш@@
ospiti
品牌
meses
ร้าน@@
تط@@
הלבן
регі@@
keret@@
дому
communication
emni@@
alah
勢
ياء
แขนกุด
брю@@
recht
にあ@@
ضل
органі@@
患@@
結果@@
select
الفترة
mensen
universale
כת@@
सीमित
tarj@@
चला@@
khiêu
політи@@
miento
szkl@@
وهذا
ходе
đất
مكن@@
encontr@@
атмосфер@@
希@@
міністра
有的@@
คุณภาพ@@
ياردەم
ี่ย@@
רכה
园
pengarah
будів@@
ucu@@
chaise
籍@@
电动@@
个
elbis@@
아연
되었다
日本人
ayakkab@@
착@@
शोर
มีด
บันทึก
жк
وليس
maquillage
하시기
配件@@
goedko@@
포
compren@@
つ
dziel@@
українського
khăn
이브닝
ตู้@@
ющей
обслужива@@
قاتارلىق
المالية
colla
להת@@
blon@@
لاحظ@@
unhas
cantid@@
виру@@
asz
tặng
rhin@@
~@@
أخذ@@
تۈر@@
domain
mori@@
안정@@
челове@@
تؤ@@
koltuk
ไม่มี@@
ục
通信@@
尊@@
争@@
염@@
ссы@@
覆@@
сети
读@@
dacia
눈@@
スキ@@
่อ@@
kler@@
保证@@
など
englis@@
잠옷
得到@@
manajemen
稅@@
części
казы@@
治
berubah
mahkamah
recht@@
європи
kalan
ッキ@@
อม
gente
하지만
सत्ता
مشار@@
charak@@
вики
占@@
stift
แบรนด์@@
ervar@@
้าง@@
纪@@
ጾ@@
розроб@@
폐@@
淘@@
zyć
druck@@
фінансо@@
amé@@
學院@@
甜@@
قىلىدۇ
半身@@
रहती
diso@@
락
habitaciones
卓@@
комна@@
ayakkabi
जिन@@
курс
委員@@
пр
ڭى@@
패치
กาแฟ
साइकिल
犯@@
băng
모터
terang
第四@@
presse
निया
洪@@
団
khung
виде
บรร@@
לחות
쿠@@
сказал
cych
מעי@@
โทรศัพท์@@
duğ@@
완벽한
cał@@
גומי
khuyến
membaca
瓦@@
那些@@
inflat@@
оказа@@
справ
تصالات
纸
क्लिक
soğ@@
חמוד
двери
redonda
世界
berfungsi
רכי@@
我國@@
kematian
вной
felpa
pvc@@
성인
vraag
вашей
mengurangkan
絵@@
plecak
משחק
플립
bico
sep
انتها@@
قاتنا@@
father
न्द
भवन
kobieta
זוג
palab@@
ext@@
iques
смі@@
już
으@@
มัลติฟังก์ชั่
保
леген@@
blij@@
олек@@
розовый
薄
laku
permit@@
當前@@
تقوم
الشرطة
شتا
التص@@
박스
诊@@
etwas
попро@@
untungan
مۈ@@
дные
paid
حفظ
alf@@
особен@@
जाति
नतम
mogą
다운
merken
बचा@@
आशा
पों
심
обов
glio
姓@@
zung
呼
宽松
تەر@@
lahir
เพียง@@
ऑनलाइन
ื่อ@@
怎@@
değ@@
renov@@
apenas
दीप
закону
בייס@@
صاحب
ruimte
拓@@
anelli
pember@@
xion
른
드롭
wart@@
любой
ชุดราตรี
先
заборо@@
stenen
orgasmus
录@@
ثار
villas
ミュ@@
sztuk
戸@@
大量@@
yatak
หนังสือ
pekerjaan
แขวน
忘@@
센서
الاتحاد
固定@@
oferuje
จอ@@
єте
教学@@
penu@@
प्रतिक्रिया
חשמלי
鎖@@
ร่ม
wiesz
ạp
verjaar@@
ליות
必須@@
卧@@
であ@@
працю@@
غل
juvent@@
最後@@
точный
अंत
सर्व@@
खबर
스마트
wanted
otot
краї@@
boulevard
ריינסטון
geçirmez
ojos
сторон@@
ковая
影响@@
poket
wald
ौ
ホーム
magneet
놀@@
煤@@
استخدام
principale
غة
卒@@
เกม
شىپ
метрів
выше
нарко@@
ئەمەس
महसूस
ذات@@
नियंत्र@@
などの@@
スポ@@
קשר
hum
beast
tekli@@
تحديد
商品
敬@@
atir
保持@@
совет
haken
akıllı
jbl
figur
vans
ại
涉@@
доларів
ליל
ồ
誠@@
блоки@@
кате@@
हिस्सा
ทน@@
较@@
ِّ@@
มะ@@
ケース
คู่@@
bilgi
셔@@
усі
typu
ئۇچ@@
plans
عر
מור@@
blanche
підтвер@@
피
حقاً
कथा
ッチ
цим
ريف
spazz@@
אלגנטי
正式@@
휠
ことを@@
berkembang
屆@@
้ม
ooo
наприклад
」「@@
appartamenti
केन्द्र
하
謝@@
็ด
paznokci
جز
ของคุณ@@
toch
उनसे
єм@@
幻@@
требо@@
גברת
สด
жных
także
nueva
рн
madre
чика
iaitu
охра@@
توخ@@
dokonaj
अंग्रेजी
льное
ทำให้@@
menye@@
лампы
łat@@
พระ@@
diken@@
साहब
머
雕@@
调查@@
otomobil
murale
誰@@
牀@@
ленные
능@@
引
incontra
सिर
cadangan
บริษัท
冈@@
фік@@
вные
portatil
ऑफ
mother@@
코어
逆@@
번
涂@@
hemat
उसमें
東京@@
naszyjnik
satelit
豊@@
める@@
قق
vêtements
calcio
transl@@
trop
निर्णय
taglio
dania
bắn
풍선
§
说明@@
ihren
أعمال
腐@@
반바지
었@@
कु
ביק@@
заря@@
мень@@
t恤@@
kaç
सम्मान
boucles
吧@@
чего
爭@@
поез@@
め
噴@@
зрозумі@@
懷@@
ישר
sonnen@@
nghiên
الخا@@
apart@@
місто
सके@@
पारी
plaque
電
кости
איפור
pew@@
태블릿
伦@@
юриди@@
schil@@
민소매
đo
लि
gend@@
thiên
хоте@@
mirrors
圣@@
益
compañ@@
巧@@
постача@@
perché
тельных
קופסא
코팅
विशाल
بالق@@
hren
треть@@
allem@@
gak
ट्रै@@
quattro
邦@@
工程
sebelah
вопросам
ฝา@@
ลล@@
سيدي
herramientas
専@@
乡@@
áng
الاتفاقية
บิน
ंश
称
arkadaş@@
ถือ@@
аналі@@
と思@@
제품은
справ@@
責任@@
росія
カラー@@
gangguan
โลหะ@@
quyết
braun
облас@@
่าย@@
高校@@
тей
терито@@
ые
还是@@
управление
باشقا
воздуха
ditulis
廣告@@
艦@@
نۇ@@
usando
разно@@
gila
линии
ось
最近@@
viene
cukur
น้ำมัน@@
สุภาพสตรี
สวย
идеаль@@
biciclet@@
sesi@@
nenek
sleutel@@
chiave
아동
플레이어
успі@@
дать
пау@@
ลำ@@
باط
共和@@
후드
kekal
ิก
veja
volante
เข้า
комісії
keter@@
सम्मेलन
ナ
และฤดูหนาว
بلدان
золото
konsep
แขน@@
सान
בור
почему
تلىك
办公@@
jangka
іспа@@
उम्र
kecantikan
อาหาร@@
масла
fiyatlar
змі
pokok
الـ
бесплатный
朗@@
تِ
मती
страте@@
sepenuhnya
ças
प्रस्तुत
ที่คุณ@@
товари@@
沉@@
виступа@@
sagen
팩
buruk
yah
família
lleg@@
pregnant
dublin
탄@@
렌@@
своих
почки
kategor@@
कमा@@
ריות
cachorro
trabalho
思想@@
такий
유형
종류@@
باق@@
machen
caric@@
同时@@
बनी
ตรง@@
ةً
川
planner
موارد
ค่า
chứa
적합
perubatan
현대
kelajuan
ทองแดง
znaj@@
आराम@@
프트
unuzu
गां@@
季
региональ@@
hewan
韓國@@
الحصول
المخ@@
され@@
уряд
可
sinar
เสือดาว
منز@@
หว@@
instantâneo
портативный
人才@@
比较@@
relacion@@
staande
wards
رايون@@
devel@@
ۋاقى@@
lampad@@
הכותנה
מנורה
位置@@
項目
스타
بك@@
वेबसाइट
verwarming
lobby
élec@@
повідомили
बत
विस्@@
בין
写真
بولۇ@@
รัด@@
адже
müş
秘@@
valutazioni
สำ@@
還有@@
замі@@
रोड
一部@@
україну
وذلك
збір@@
вместе
апартаменты
chaque
透明
rollenspiele
kauf@@
включая
मुंबई
计
êtes
类
вибу@@
गलत
손목
пыта@@
כיס
دەرىجىلىك
quân
イヤ@@
メンズ@@
atang
تحاد
التر@@
therap@@
ئۆزى@@
услугам
تېخىمۇ
높이
gesam@@
لىقى@@
ها؟
張
愿@@
дані
parcheggio
pokrowiec
figuras
ฯลฯ
стек@@
ляє
फायदा
літера@@
俄@@
れば@@
טני@@
帽子@@
ваго@@
水平@@
편안한
сохра@@
seja
xã
採用@@
ทำงาน
ผิว@@
経済@@
公式@@
ลี
付き
勝
mosqu@@
קפה
рекоменда@@
प्रतिनि@@
出現@@
كار
sicurezza
הם
đựng
醫院@@
yếu
裏
çiçek
弱@@
закла@@
sombra
pengangkutan
ئادە@@
готов@@
してお@@
藝@@
品質
redoute
倫@@
нських
contribu@@
ственные
unduh
งาม
แรง
偶@@
الاتفا@@
cumpleaños
स्वरूप
fotoğraf
者の@@
торів
dziewczy@@
вере@@
phú
turki
затем
่ม
buch
bien@@
ূ
auen
พลาสติก@@
れ
詩@@
ubic@@
зупи@@
cuch@@
仿@@
ếm
кость
寿@@
بېرىپ
kreis
hohe
bebi@@
bersaing
tı@@
अधिकारियों
équ@@
워
cash@@
เห็น
快速@@
рукавами
сотруд@@
menjaga
чив
ateurs
угле@@
ฟ
गुरु@@
luaran
мих
giorno
одежды
suchen
ubrania
єї
学院@@
ौर
markt
Ẹ
剧@@
beim
küche
soli
людини
цеп@@
リング
รักษา
ające
แต่งหน้า
أفريقيا
лый
חיישן
קום
pages
כולל
belas
поду@@
meme
õ
ội
وف
दिखाई
ổn
لذلك
ท์@@
竟@@
toile
paradise
เช่น
mação
际@@
magne@@
favorit
защиты
प्राथ@@
ожерелья
地區@@
込
hampton
моск@@
לחץ
外套@@
towe
الخدمات
ไวน@@
･@@
출산
прямо@@
เครื่องประดับ@@
阻@@
schein@@
жіно@@
sixt
minum
中古@@
schrau@@
หมุน
роскошные
גלקסית
державної
anzug
保護
تني
대해
fauc@@
hưởng
mangkuk
arrive
ती।
handschoenen
центру
экраном
mengen@@
放送@@
帯@@
парламен@@
fakta
dobne
boîte
رائع
หมวก@@
काउ
erke@@
评価@@
लंब@@
تۇر@@
жений
kich
ตกแต่ง@@
perruque
свобод@@
キュ@@
lệ
ลด@@
映画@@
торов
ój
hadir
สูท
perintah
володи@@
ัย
ّا
menjadikan
большая
spezi@@
становить
บราซิล
温度@@
кемпинг
кове
vespa
สัตว์@@
价格@@
ज्ञ
मि
女性の@@
ครอบ@@
नदी
才能@@
їха@@
ційного
стві
казах@@
หลัก
фору@@
così
עשו@@
зазна@@
כלב
५
thiện
सदस्य
berkualitas
네
칼
메신저
زال
entfernt
fingern
isasi
เง@@
็อก
спаси@@
밍
споді@@
ですが
おもちゃ
苗@@
прогре@@
ainsi
เมื่อ
เคร@@
घंटे
勇@@
تۆ@@
دۇ@@
בעלי
¯@@
peraturan
늘
contro
консу@@
співробіт@@
大き@@
層
柄
ロン@@
ุ
תצוגת
pencer@@
lins
जीव
이는
เดิน@@
रख
จีน@@
berikutnya
लाया
єдна@@
とい@@
huy@@
कृषि
huaw@@
hemd
शाला
baum@@
रोग
тельство
艺@@
猪@@
帽子
abbiamo
ngăn
ኗ@@
tapak
pubbl@@
taş
gelap
す
って
乳
zelf
montage
apart
आवश्य@@
подробный
निजी
تاپ@@
while
ました@@
extremer
didn
المه@@
へ
पढ@@
怕@@
้อ@@
duy
रोज
использования
sıcak
usted
пись@@
ኬ
灾@@
souha@@
कहा@@
培@@
ürü@@
の中@@
귀@@
烤@@
verb@@
這一@@
मुताबिक
פחמן
חתיכות
كىرى@@
измер@@
गू@@
כ
lanjut
岡@@
фінан@@
얼@@
生命@@
fahren
ี้@@
ниже
벨
sez
часть
ホーム@@
рейтин@@
シュ@@
ب؟
цького
ьер
होगी।
encaje
фрук@@
modèle
черво@@
ハン@@
famiglia
딩
tisch@@
במיוחד
плоским
мум
informacje
rauchen
진짜
largos
الفي@@
스티@@
أعضاء
ayak
רוכסן
kalau
مىي
搞@@
寝@@
扇@@
श्य@@
sepanyol
يؤ@@
летние
々
يولغا
エン@@
するため@@
菲@@
वास्तव
قلت
息
holz@@
เปลือก
описа@@
แพลตฟอร์ม
مەمۇرىي
榮@@
징
끈
กรรม@@
词@@
ጓ
שכ@@
представить
personen
универса@@
マ
культур@@
वरिष्ठ
הים
يتم
相
úp
سيق
anteri@@
ดา@@
гти
价
подроб@@
łem
करें।
край@@
換
刘@@
僅@@
кия@@
paradi@@
클래식
तुम्हा@@
凝@@
קבו@@
سبة
вул
avaliações
ột
האח@@
nhôm
المحكمة
unsere
брендо@@
סנדלי
симво@@
नज@@
приложение
trabal@@
事業@@
جەھە@@
толстовки
按照@@
기술@@
harek@@
pochette
สว@@
основе
正在@@
施设@@
喷@@
考え@@
Ы
雜@@
гів
歷@@
berkhidmat
כף
존@@
ウ
המקורי
pension
arqui@@
kablo@@
hä
原因@@
район
đạo
เสียง@@
아웃
ค่า@@
jahr
הובילה
תרמיל
stwa
semulajadi
santiago
الدورة
נמר
scatola
碳@@
楊@@
skarpetki
基
उम्मीद
cubo
weitere
频@@
트럭
нений
התאמה
карпа@@
โปร@@
מצופה
履@@
cappu@@
views
protetor
देती
匯@@
เปร@@
pizzo
thinkstock
เปิด@@
קרמיקה
セル@@
bambina
버클
りました
潤@@
hôtels
sensi@@
存在
טת
креп@@
acial
вес
無料@@
רגל
ुक
स्थानीय
ป่า
options
हासिल
夫
性的@@
giardino
дет
viera
機能
memegang
दूरी
categorie
состав@@
유지
цветок
nhấn
кожен
вців
işletme
עקבים
귀하의
исследова@@
नने
француз@@
堂
звичай@@
member@@
العالمي
电脑@@
источ@@
motocy@@
道路@@
сайті
سىدىكى
私たち@@
жизнь
ביב
تۇرمۇ@@
horloges
สตร@@
לילה
diterbitkan
wykon@@
ັ
마우스
टू
特殊@@
verjaardag
нашей
игрушки
депута@@
沢@@
ответ@@
ทอง@@
stijl
๋@@
вимага@@
функции
ทดสอบ
נסיעות
إل@@
तना
kelab
kemas@@
指定@@
志
yürü@@
costumi
ทั่วไป
правда
גלגל
lerin
crème
stellung
בז
electrique
pergerakan
partici@@
快
鼻@@
jeszcze
ዐ@@
蜜@@
араб@@
алюминие@@
неї
擬@@
могла
機能@@
ถนน
昭和
viaje
曜@@
ก่อน@@
ブランド@@
phản
verwar@@
внеш@@
لىنى
ประเทศ@@
meest
disesuaikan
atikan
كىر@@
bordeaux
阴@@
坚@@
خىل
motos
新品@@
אווי@@
מנו@@
пути
แรก
систем@@
獲得@@
尽@@
مليون
protezione
долгосрочный
сток
ඤ@@
trovare
朱@@
paksa
menyertai
้าน
кв
累@@
الحق
كمة
เซรามิก
ケース@@
نعم،
شيئاً
simples
створення
kostüm
全部@@
пога@@
ゾ@@
בח@@
제거
khủng
深圳@@
sheep
पड़ा
шую
يتها
ዌ
kauçuk
dki
нной
aange@@
來的@@
טון
庫
борь@@
воротник
мії
班
ców
資料
ниц
bơi
batas
击@@
고객의
лением
קול
ngoại
besten
ؤول@@
طلق
interrup@@
knives
kapi
менш
гиб@@
अंक
سيما
itunes
한국어
วรรค
ваших
grün
सभा
मतलब
方案
offr@@
प्रभावित
四
のレ@@
لىش
pokaż
لهم
自治@@
різних
kebutuhan
พื้นฐาน
допол@@
zegarki
tàu
شتى
móc
tism
welt
الأساسية
练@@
pessoas
लैंड
زام
ירך
麦@@
執行@@
jawatankuasa
lanj@@
腿@@
चिं@@
opberg@@
профессиональ@@
閉@@
疾@@
ใบ
كبير
моди
ذكر@@
ผู้ชาย@@
الحكومية
सड़क
izu
futebol
תוך
हाँ
etli
uple
металли@@
швейца@@
ที่ย@@
욕실
melhores
회색
鬼@@
탱크
เดรส
แล้ว
प्रकाशित
property
kostü@@
президент@@
منىڭ
הערה
такие
madı
виборів
adır
背景@@
ブーツ
mengapa
ခ
sistemas
perjanjian
ремон@@
לנו
كذلك؟
zonnebril
державного
đạt
严@@
ắn
zei
đài
днів
buôn
מתו@@
अर्थ@@
征@@
portachiavi
déta@@
้อง@@
єв@@
यानी
결혼식
できます
陶@@
截@@
बावजूद
ดัง@@
刀
segn@@
حالات
майбут@@
الأص@@
מהירות
відчу@@
дав
josé
законо@@
perm@@
شتىن
تكلم
soir
проведен@@
नरे@@
액@@
النظام
旅游@@
유니폼
纱@@
aziende
漏@@
бізне@@
jours
tổ
fotoğraf@@
न्यास
म्स
adaptateur
संगठन
tradu@@
提升@@
ဃ@@
擴@@
werpen
มาร์@@
матер@@
ติดต่อ@@
르
근
downlo@@
북@@
namen
नें
ر؟
ночі
etki
दायक
classific@@
ющенко
समिति
kesatuan
หลังจาก@@
핸들
자기
chiavi
segurança
tuhan
собра@@
rower
nằm
שח@@
sayfa
resmi
depuis
طلع
록
ịt
écran
กางเกงยีนส์
บล็อก
คง@@
berambut
mãi
ሹ
preta
ทีวี
свер@@
모바일
бороть@@
仅@@
berapa
bergen
เจล
tries
криму
液
हजा@@
العالمية
프로젝@@
эко@@
отра@@
plein
perdana
חיים
害
フラン@@
placement
appartamento
mittel@@
لازىم
діяльності
厅@@
सारा
kelu@@
entro
甚至@@
וה
mandar@@
ลง@@
круп@@
держатель
शह@@
上げ@@
スマ@@
ياش@@
стить
stoking
แก@@
устройство
gantung
ście
сессии
ș
לכל
付け@@
шеи
雞@@
dựa
林
هيئة
때문에
这样@@
toujours
слід@@
menyem@@
électrique
กำหนด
辛@@
таке
모조
ème
kongres
程度@@
البرنامج
роман
헤@@
déjà
результаті
эту
krót@@
jadual
зберіга@@
อาบน้ำ
bangsa
caram@@
हुआ।
積極@@
pantolon
מסי@@
인간의
another
доволь@@
अच्छे
राय
животных
мальчиков
अक्ष@@
基金@@
แม่พิมพ์
літ@@
ลม
bericht
doğru
pentadbiran
رئي@@
סר@@
ผิด@@
viele
penampilan
נקבה
交
झा
맞@@
תיקון
terdaftar
廳@@
mengumpul
ảy
pań@@
niên
항목@@
관리
übersetzung
不斷@@
quic@@
추가
΄@@
ketinggian
효과@@
maç
ئۆز
auan
harta
ना।
tường
绩@@
тех
перегово@@
собо@@
أرا@@
puncak
hebt
벨벳
negatif
створен@@
पेशेवर
灵@@
вышивка
لـ
ليات
이며
neden
ผ่าน
помощи
不會@@
由於@@
디자인@@
بوع
gop@@
얼굴
חומ@@
विश्वविद्यालय
ड्यू@@
इला@@
韓国@@
าะ
स्लि@@
haber@@
membuka
บา@@
nazion@@
karang
malet@@
पना
molet@@
レット@@
обсу@@
โน@@
에이@@
माता
отеля
llave
으로@@
諸@@
верну@@
motocic@@
hinter@@
خەلق@@
เปล@@
travail
ухва@@
feu
ציוד
高等@@
崗@@
自行@@
независи@@
อากาศ@@
จุ@@
สิ่งแวดล้อม
граждан@@
ติดตั้ง
الدعم
ودة
аспек@@
który
הודעה
พี
則
通常@@
accueil
ด์
kelabu
泵@@
russ@@
резо@@
ئېلى@@
援@@
‌
기가
geschi@@
nemen
abilirsiniz
טריקו
發現@@
मैच
길@@
报告@@
понима@@
empatan
мной
アプリ@@
titel
適
סיטונאית
arahan
游戏@@
にお@@
guida
土地@@
बिहार
snapdragon
chiang
lavor@@
ئارقىلىق
เย็บปักถักร้อย
кового
ۇق
年代@@
דו
बाकी
इतने
鏈@@
носить
erotik
رّ@@
프로모션
ل؟
pedro
ทั้ง
nghi@@
پى
puis
ฆ@@
постанов@@
生日@@
ต่ำ@@
prinsip
разі
нці
拆@@
muss
spand@@
працює
考試@@
واعد
orologi
diber@@
פרפר
ยีนส์
כושר
semana
verwij@@
menjalankan
É@@
kritik
सक
形式@@
gráfico
檔@@
мим
ộn
тельной
łóż@@
terrace
官方@@
כפתור
moeder
стосу@@
berik@@
istilah
कृष्ण
पेश
요구
клада@@
म्मत
schlaf@@
र्च
стані
कै
proget@@
สี่@@
ตรวจสอบ
schalter
жит
จำ@@
จำนวน
ącz@@
학교
धियों
مبا@@
كۈنى
अगले
asci@@
sóng
мовля@@
vay
hujung
वीं
צד
تنظيم
야
iczna
lokaliz@@
अंदर
面的@@
पि
스피커
ходять
decorativos
संभव
ư@@
内容
เสื้อกั๊ก
พุ@@
защита
헬@@
랙
संदर्भ
قارى@@
قۇرۇ@@
gebruikt
รอง@@
селі
掲@@
пункту
색상을
gili
ayrıca
पहचान
ंखला
rahmen
उत्पादों
cadre
مؤتمر
ejaculation
basuh
ـي
dinamakan
ستطيع
mehr@@
елек@@
बढ़ा@@
乱@@
types
החולצה
алюмини@@
ינת
губер@@
أكد
아트
천연
塊@@
ặn
夾@@
행
าว
新聞@@
noire
מקר@@
брали
президен@@
欲@@
چىڭ
달러
ئىقتىسادىي
техні@@
默@@
דור
مة،
період
잡@@
krysz@@
стий
wilt
桶@@
عها
pół@@
髪@@
那麼@@
베개
ユ@@
剪@@
mengekalkan
anları
ập
शासन
ontmoet
하이@@
מכנסי
אלי
แมว
​​@@
ulus@@
艺术@@
льві@@
напад@@
중간
אבזם
phạm
довги@@
聯繫@@
игре
कैं@@
오디오
รูปร่าง
akkan
أث@@
戴@@
נרתיק
타이어
เสริม@@
نائية
ผง
संवेद@@
業有限公司
требу@@
wiadomość
dahulu
コ
yaşında
란
כון
出版@@
концеп@@
قانۇن@@
بىرى@@
loket
lujo
puter
рави@@
รอบ@@
섹스
звіль@@
मंडल
indeks
żyw@@
커넥터
없@@
विष्@@
додав
perkak@@
خانى@@
כב@@
柳@@
ệm
усили@@
출력
スポーツ@@
схід@@
burgo
arkib
btc
потуж@@
に関@@
істо@@
เมล@@
ohrringe
tablette
託@@
ชนิด@@
дку
etler
мілі@@
屋外@@
วัว
装飾
orgas@@
собира@@
людина
खड़े
メント@@
รร@@
भ्रष्टाचार
сенсорный
комитета
ยา
olik
опози@@
ざ@@
costru@@
东京@@
مَ@@
results
ẳng
रुप
情況
สก@@
דקה
เสื่อ
верховної
chocol@@
biarkan
lieb@@
cajas
provide
джи
الموا@@
ไมโคร@@
तभी
дівчи@@
ถ้า@@
wody
bắc
ンド
에서@@
숙녀
แหวน@@
殖@@
교체
sukar
그들은
אד@@
bekalan
歌
לצ@@
速度@@
sprzedaż
akvar@@
ręcz@@
水晶@@
צבעוני
刚@@
แสดงผล
крова@@
설정@@
芝@@
प्रिय
dank
पश्चिम
掉@@
tokoh
供应@@
खान
นาฬิกาข้อมือ
نېمە
कर्ताओं
אור@@
월@@
徵@@
asianmarkets
частини
ственно
[...]
