</S>	10000000001
<UNK>	10000000000
a	66462817
n@@	54963399
i	54661978
o	51617558
ա@@	49064024
്@@	46053168
k@@	45936640
t@@	44763738
,	44105373
m@@	43235647
u	43206865
်@@	42713461
ی@@	38194604
e	38183697
a@@	38002067
de	37297807
i@@	36762402
.	36653905
h@@	35194025
்@@	34745681
1@@	34741114
d@@	34589336
ک@@	34257435
s@@	33696424
u@@	32909772
្@@	32790221
ა@@	32666894
o@@	32252819
್@@	30091226
j@@	29329903
v@@	28912793
0@@	28912561
l@@	28868532
g@@	28843859
r@@	28463946
p@@	27685107
్@@	27666079
y@@	27498701
ka	27175256
্@@	27026573
া@@	26079468
e@@	24955067
na	24924543
א@@	24001236
-@@	23905139
க@@	23755990
z@@	22963766
ი@@	22817630
்	22740849
ַ@@	22721782
ា@@	22532781
ku@@	22446943
း@@	22195928
w@@	21836421
ப@@	21646625
f@@	21047822
ү@@	21040271
્@@	20882767
э@@	20837723
ക@@	20742814
ე@@	20720165
s	20609385
in@@	20505315
ி@@	20334841
ə@@	20086209
ո@@	19984071
sa	19950078
2@@	19936205
ಿ@@	19915815
b@@	19889995
а@@	19811697
л@@	19680442
ા@@	19661603
an@@	19651951
ی	19650238
ി@@	19640640
t	19629723
ာ@@	19563182
q@@	19558885
က@@	19550550
n	19532055
ʻ@@	19315802
in	19270148
ا@@	19164657
x@@	18987603
š@@	18884321
it@@	18883001
ാ@@	18793450
ak@@	18545680
ե@@	18474523
ု@@	18354920
am@@	18338302
ర@@	18241523
н	18196323
پ@@	18191913
ր@@	17674296
5@@	17655349
at@@	17624231
ar@@	17467358
ө@@	17463401
ි@@	17413641
්@@	17247972
v	17234387
ն@@	17168556
ိ@@	17165136
r	17156272
3@@	16890461
g	16863782
র@@	16695782
ೆ@@	16659755
da	16625206
al@@	16600278
ი	16509331
ರ@@	16501088
j	16313307
్	16203332
ா@@	16157132
င@@	16142251
ి@@	16078196
ட@@	16055213
и	16033547
រ@@	15966241
τ@@	15949088
த@@	15934577
რ@@	15822448
ေ@@	15748336
ko@@	15679540
is@@	15626767
di@@	15593222
ke	15531208
ā@@	15184340
ن@@	15138197
ಾ@@	15063086
ર@@	15019716
l	14889332
ా@@	14877238
le	14871431
ក@@	14862960
α@@	14830142
ນ	14751536
ه	14649237
la	14585121
je	14499064
မ@@	14478815
්	14385631
20@@	14350295
و	14337326
an	14324523
ლ@@	14314982
ம@@	14308215
್	14116935
ల@@	14105468
ë	14095767
ad@@	14075704
m	14046231
د	14013174
т@@	14007292
ပ@@	13994136
en	13951504
တ@@	13829862
aw@@	13824562
ប@@	13796000
ar	13775108
න@@	13736570
ر@@	13675930
ர@@	13617300
4@@	13563234
ga	13537520
р@@	13434382
ு@@	13401181
po@@	13356120
č@@	13352708
క@@	13310860
.@@	13309208
ක@@	13304950
te	13301877
ch@@	13290862
wa	13286970
d	13210416
c@@	13158263
ি@@	13153597
ਾ@@	13138766
ana	13102714
მ@@	13075429
b	13068555
ស@@	12995350
ε@@	12971512
າ@@	12961927
di	12945537
ස@@	12893931
ර@@	12876240
ho@@	12839201
പ@@	12755465
as	12706279
ന@@	12700885
്	12690602
on	12655151
ko	12621615
на	12563623
en@@	12500695
အ@@	12455521
le@@	12418110
ž@@	12409038
ത@@	12407279
ο@@	12341193
ു@@	12315043
г@@	12274724
ے	12261468
6@@	12236399
ы@@	12191162
y	12158436
li@@	12087891
န@@	11898127
et@@	11878084
si@@	11874218
స@@	11853250
st@@	11842715
פ@@	11816140
á@@	11791592
ina	11775187
ව@@	11764934
as@@	11707965
س@@	11684121
ba	11678072
ម@@	11647152
ல@@	11638090
к@@	11632493
8@@	11612556
ಸ@@	11591014
ම@@	11588516
ক@@	11582475
un	11518700
ਰ@@	11506339
ਸ@@	11492064
ಕ@@	11484092
ai@@	11482343
у@@	11471790
կ@@	11392983
er	11385396
о@@	11334734
il@@	11221169
ន@@	11214098
സ@@	11139888
h	11118571
re@@	11081797
ag@@	11054411
ti@@	11030895
ọ@@	10999272
ງ	10963905
ja	10959483
ಲ@@	10925489
ક@@	10841952
is	10827735
el@@	10821727
с@@	10813177
ે@@	10809908
м@@	10807558
ര@@	10797662
வ@@	10723326
و@@	10721039
ත@@	10717300
ro@@	10670976
ј@@	10644011
un@@	10634785
ন@@	10609456
ప@@	10599249
റ@@	10593220
ta	10591640
ek@@	10573103
ನ@@	10569006
သ@@	10566902
ָ@@	10565335
vi@@	10558534
ಗ@@	10556348
lo@@	10522895
ბ@@	10516754
న@@	10506525
ო@@	10504107
7@@	10474206
\	10450766
ട@@	10446094
um@@	10442484
ს@@	10422965
on@@	10388140
za	10363025
та@@	10351629
ා@@	10289068
ತ@@	10288415
se	10247322
se@@	10227888
ւ@@	10225468
er@@	10194836
ap@@	10190935
വ@@	10165569
ل@@	10126831
н@@	10108461
ব@@	10067974
ে@@	10048735
ma@@	10016921
ు	10016215
т	9939117
ni@@	9938669
ι@@	9922157
ya	9898333
σ@@	9835720
સ@@	9771424
ol@@	9769636
ਿ@@	9757524
စ@@	9753140
ట@@	9694386
на@@	9686530
ျ@@	9686165
મ@@	9611504
ر	9606447
sh@@	9606025
প@@	9602489
mo@@	9589995
ન@@	9585463
ba@@	9551725
ڪ@@	9529485
im@@	9518558
ρ@@	9506431
ri@@	9498808
led	9460676
ნ@@	9384938
স@@	9380712
new	9380265
to	9371729
ка@@	9359492
ν@@	9338792
់	9336832
ັ@@	9335377
ab@@	9310335
ள@@	9266630
ရ@@	9242105
ం@@	9230741
ვ@@	9228738
ਕ@@	9217619
au	9148694
ອ@@	9115268
့@@	9089622
م@@	9083129
д@@	9071033
am	9037576
დ@@	9027104
we	8990444
પ@@	8971320
য@@	8966438
گ@@	8962760
us	8908831
hi@@	8901618
మ@@	8879328
so@@	8865601
μ@@	8864616
ສ@@	8835950
е	8835761
ಟ@@	8835716
k	8824423
ի@@	8807204
(@@	8806643
π@@	8801126
р	8799684
ke@@	8791716
it	8772700
et	8750203
ს	8729285
ප@@	8717512
ni	8699513
વ@@	8686770
ma	8628069
ia	8623306
í@@	8620439
യ@@	8596695
л	8593289
າ	8576655
ు@@	8570097
ಮ@@	8560678
да@@	8549160
ச@@	8534023
մ@@	8530959
de@@	8529962
қ@@	8523636
უ@@	8517674
9@@	8515870
ki	8500758
ල@@	8488083
ು	8486630
ش@@	8484709
േ@@	8462926
ë@@	8400523
ot@@	8388730
no@@	8385525
ai	8385232
ir@@	8371127
ြ@@	8342430
ن	8332012
ne@@	8328139
ш@@	8326791
и@@	8308686
ọ	8308141
የ@@	8305510
free	8287438
ະ	8281421
త@@	8249110
κ@@	8237525
bo@@	8204461
а	8176070
ki@@	8144267
ှ@@	8137517
at	8129855
ing	8107644
es@@	8092855
ي	8070216
em@@	8056141
te@@	8054054
ма@@	8037230
si	8017198
be@@	8001488
α	7999738
ti	7995907
ເ@@	7994811
ត@@	7990423
മ@@	7988380
ੀ	7956671
ak	7955310
ਲ@@	7925774
ු@@	7923417
ె@@	7921469
ла@@	7919548
av@@	7913343
ಯ@@	7910336
ೕ@@	7909813
ն	7841761
ല@@	7837636
ੇ	7832233
ne	7830760
me@@	7822908
me	7801348
ম@@	7798519
bi@@	7794288
ng@@	7781584
ಪ@@	7772404
"@@	7772201
й@@	7756067
ut@@	7752366
th@@	7727101
ល@@	7708852
ত@@	7687614
с	7685783
ა	7683949
je@@	7673100
0	7671066
tu@@	7669903
al	7631888
ur@@	7630715
ul@@	7610130
ka@@	7607765
ກ@@	7568330
િ@@	7561001
to@@	7550843
ang	7535845
տ@@	7502030
ho	7487478
ল@@	7482153
ah@@	7473221
လ@@	7460738
ּ@@	7458111
య@@	7436642
к	7433675
ு	7412706
es	7390331
ਦ@@	7373644
ವ@@	7299140
ು@@	7279318
or@@	7273346
ટ@@	7247908
ра@@	7244805
ā	7241020
у	7238034
do	7233068
র	7212259
յ@@	7201317
5	7181899
do@@	7176782
fa@@	7172003
д	7163278
ਨ@@	7158073
ી	7144850
ೂ@@	7123850
ч@@	7113101
వ@@	7110683
ດ	7105649
ī@@	7049912
ង	7045614
zi@@	7029636
ħ@@	7026381
ដ@@	7023742
ற@@	7014546
י@@	7005329
ய@@	6993464
fashion	6963357
/	6911751
،	6888104
ra	6886180
pi@@	6881220
ab	6853293
nga	6851466
mu@@	6841809
ny	6833600
mi@@	6829752
લ@@	6811384
ба@@	6773559
he@@	6770262
ය@@	6751688
om@@	6749468
sk@@	6725629
λ@@	6718235
iz@@	6717440
ਪ@@	6705254
ب@@	6673104
af@@	6664056
ો@@	6654594
ä@@	6633756
ெ@@	6626079
ລ@@	6594609
б@@	6588063
su@@	6587548
ay@@	6573131
ئ@@	6573012
?	6524670
е@@	6523103
ta@@	6520281
за@@	6517985
თ@@	6515151
ം	6494955
ji	6493871
no	6489946
ur	6489711
ע@@	6476648
kar@@	6468310
co@@	6438595
ಂ@@	6411035
ွ@@	6406373
ad	6388686
us@@	6383224
x	6374838
ਮ@@	6369560
ς	6365395
ຫ@@	6357207
గ@@	6320286
ன@@	6313670
া	6308484
í	6289034
ੱ@@	6287479
в@@	6277561
да	6266648
bu@@	6264242
ه@@	6262451
ha	6254114
)	6249988
ж@@	6233177
ē@@	6230791
um	6218488
ុ@@	6210725
ু@@	6205221
ခ@@	6202810
са@@	6201694
hi	6172159
жа@@	6157651
bo	6133585
ز@@	6132053
lu@@	6119749
ை	6095178
'@@	6094825
:	6079863
آ@@	6078386
ū@@	6074622
х@@	6068226
ບ	6053579
з@@	6052906
du@@	6051206
й	6050146
ದ@@	6040708
os	6033703
ਵ@@	6027256
ف@@	6013622
خ@@	5995525
ી@@	5985950
2	5974960
ព@@	5970911
au@@	5967511
8	5958247
ົ@@	5956081
c	5952354
hot	5950211
не	5943278
ಬ@@	5938403
່@@	5932123
li	5920194
ද@@	5916492
ụ@@	5907505
ph@@	5904144
ս@@	5900536
gi@@	5890506
man@@	5874836
ir	5869077
හ@@	5865116
з	5863285
ва@@	5848815
ូ@@	5835846
ны	5831120
pr@@	5810720
డ@@	5802594
د@@	5800676
el	5798577
è@@	5775337
pe@@	5774361
ci@@	5758529
ine	5752884
vo@@	5749813
ಡ@@	5722884
ed	5714020
ទ@@	5705381
ان@@	5704832
ú@@	5702647
ט@@	5695419
за	5680119
ing@@	5679496
ិ@@	5676184
ን@@	5664132
െ@@	5662001
ே@@	5660371
ტ@@	5653752
w	5640566
yo@@	5637892
ை@@	5635583
ਤ@@	5621579
ಿ	5618662
1	5614516
ા	5613744
ន	5613158
kh@@	5587438
መ@@	5559193
ત@@	5531016
em	5522372
ီ@@	5502302
س	5485564
ach@@	5478917
រ	5470741
fi@@	5462370
ր	5456184
ə	5454011
for	5446382
z	5444577
ે	5418362
ا	5412236
ι	5390806
pu@@	5388423
ny@@	5374096
he	5372222
վ@@	5370231
ua	5369098
ት	5366065
ন	5344437
kon@@	5343037
ada	5340988
бо@@	5303464
в	5298488
م	5296225
ت@@	5283028
ru@@	5279849
aj@@	5273311
ẹ@@	5271336
ి	5269197
è	5260521
г	5249988
î@@	5243606
dan	5235838
shipping	5235742
sa@@	5218494
ver@@	5213354
eg@@	5210273
ည@@	5202261
ါ@@	5189972
ය	5174283
ي@@	5172731
້@@	5152691
ແ@@	5151245
გ@@	5142791
pl@@	5138943
p	5138836
ay	5127482
ғ@@	5116879
ਹ@@	5115124
3	5112014
ig@@	5102947
ಳ@@	5096765
چ@@	5096014
ik@@	5094544
υ@@	5092068
ხ@@	5088888
ụ	5086395
ண@@	5084853
id@@	5075335
ট@@	5073564
ן	5071737
па@@	5066239
գ@@	5064452
tr@@	5056792
га@@	5052754
ં@@	5047367
ku	5039562
ಹ@@	5038277
val@@	5038210
ни	5035504
é@@	5033116
usb	5026366
ի	5024940
kl@@	5015523
አ@@	5011478
ਾ	5011212
ò@@	5003974
à@@	5000605
ந@@	4978401
ក	4962027
6	4960784
ி	4958993
చ@@	4950251
ọn	4939582
ٹ@@	4935517
ҳ@@	4929734
ద@@	4909115
ជ@@	4895576
ve@@	4892704
mi	4891101
hu@@	4878925
ہ@@	4876986
બ@@	4872874
mat@@	4858471
par@@	4850748
ί@@	4847017
ා	4843613
ц@@	4837361
ic@@	4837211
æ@@	4836000
ed@@	4821192
ṣ@@	4807196
ل	4794842
ມ@@	4791931
ch	4791809
ce	4788215
ນ@@	4785970
sexy	4782927
7	4782860
м	4779636
ለ@@	4770634
aj	4770428
ye	4767235
ુ@@	4742859
শ@@	4736966
я@@	4727771
va	4714876
ר@@	4705104
я	4694870
19@@	4690711
ק@@	4690693
то@@	4686301
та	4684079
კ@@	4677094
ി	4675353
4	4641456
ስ@@	4626985
or	4615138
ini	4599177
਼@@	4578230
å@@	4568582
ਟ@@	4563670
ን	4563309
mas@@	4561979
mini	4557550
pa	4554204
່	4553120
du	4552695
yo	4515753
йн	4515679
ំ@@	4514587
ong	4511880
έ@@	4506693
እ@@	4496421
ਰ	4489211
la@@	4483380
ယ@@	4482657
ച@@	4480626
na@@	4480172
ি	4480019
ങ@@	4467990
ė@@	4465731
ø@@	4453854
ẹ	4451294
ೆ	4448209
ທ@@	4445384
ੀ@@	4441765
հ@@	4437053
we@@	4431711
ان	4423462
ર	4410086
ੰ@@	4409401
جي	4406850
pro@@	4402481
ala	4395741
pan@@	4393903
ຂ@@	4389419
uk@@	4387937
ت	4374014
អ@@	4360757
mar@@	4354686
ਬ@@	4334728
ati	4321498
high	4320212
dr@@	4309694
od@@	4307010
о	4305479
ju@@	4300979
ge@@	4289230
sp@@	4285618
ara	4283424
బ@@	4276332
ກ	4272860
pag@@	4264005
and@@	4263310
ali	4261881
ų	4256396
ag	4239242
id	4236961
ха@@	4236194
nt@@	4236088
ang@@	4231311
ά@@	4226391
ă	4216083
om	4215837
ν	4210148
ැ@@	4204552
bi	4202527
fo@@	4195578
ona	4193947
ט	4181629
ា	4177438
ка	4174477
mo	4162780
պ@@	4160871
ach	4159792
ត	4149423
pcs	4147055
ੁ@@	4142543
ли@@	4131166
pa@@	4123062
pri@@	4120001
ડ@@	4113910
ో@@	4112804
wa@@	4106856
op@@	4093388
ў@@	4092537
ea	4079772
п@@	4078203
para	4075014
ຄ@@	4054819
vi	4049786
ី	4048928
kan@@	4042836
ണ@@	4041218
pu	4041100
በ@@	4035657
জ@@	4035299
ס	4028446
ş@@	4026319
ള@@	4010666
bag	4010371
f	4007509
qu@@	4004014
ට@@	3999680
il	3995835
ფ@@	3995460
ד@@	3990353
ো@@	3989651
ber@@	3988238
jo@@	3983334
п	3973737
q	3970458
br@@	3966565
ро@@	3959496
ö@@	3958325
ග@@	3956797
per	3952851
dress	3950420
iphone	3946606
ਨ	3946086
η@@	3944285
ac@@	3940296
ra@@	3933561
γ@@	3919750
ور@@	3918029
би@@	3917984
mal@@	3915149
ច@@	3909851
eng@@	3891854
/@@	3891249
ੂ@@	3889579
pre@@	3885898
но@@	3883194
ng	3882185
ੋ@@	3861624
ੈ@@	3853476
ქ@@	3837821
ти	3833658
ata	3827453
é	3826821
ha@@	3826324
ez@@	3825711
δ@@	3823642
до@@	3821246
era	3818019
ဆ@@	3810928
ే@@	3807308
ы	3801496
យ	3800351
pe	3793738
kul@@	3793506
ٽ@@	3793308
ok@@	3791457
ار@@	3783086
দ@@	3782301
נ@@	3778982
az@@	3778220
શ@@	3776088
av	3770231
мо@@	3769799
ко@@	3765590
ි	3765396
ံ@@	3764114
ο	3763770
်	3763063
go@@	3758787
ໍ@@	3756762
bal@@	3751269
ෙ@@	3748352
ao	3738476
њ@@	3736465
ры@@	3728582
ס@@	3722757
ער	3716617
for@@	3708962
bar@@	3704325
ъ@@	3693698
គ@@	3690323
қ	3686417
ဖ@@	3681388
լ@@	3670327
ಚ@@	3669192
ු	3669111
chi@@	3668364
ែ@@	3662146
ન	3653954
ີ@@	3637284
ር@@	3615239
ê	3612512
թ@@	3608233
ណ@@	3601677
ant@@	3595672
ে	3583945
kom@@	3583102
ri	3582986
ð@@	3578483
tu	3570774
ች	3568552
ό@@	3558888
ג@@	3558688
ج@@	3555406
়@@	3553525
ີ	3552232
ji@@	3549313
per@@	3539071
plus	3534673
ע	3532016
ተ@@	3527452
women	3526791
ય@@	3525832
ਲ	3524562
ం	3519180
the	3517913
sin@@	3515844
á	3509203
wy@@	3502928
og	3486386
ale	3484342
shirt	3472017
ດ@@	3463351
گ	3458841
ਜ@@	3452594
შ@@	3445297
лу@@	3438635
і	3436852
air	3434401
eng	3433760
के	3432466
ል@@	3423748
ali@@	3413918
ഷ@@	3409567
men@@	3408539
à	3406239
gr@@	3400387
ک	3397185
ç@@	3388812
си@@	3386404
[@@	3385909
å	3382588
ш	3372896
han@@	3365634
ị	3362977
ira	3361415
go	3357134
mak@@	3351887
mm	3350599
kw@@	3350416
sam@@	3347067
ש@@	3345542
ង@@	3333507
ша@@	3332209
ز	3329917
iti	3326232
້	3312079
ຍ	3310713
গ@@	3307882
হ@@	3302991
var@@	3297581
ິ@@	3291067
be	3289404
ти@@	3287782
ھ@@	3286013
ef@@	3283989
ਗ@@	3274980
os@@	3249026
េ@@	3245640
ူ@@	3244985
ov@@	3236170
не@@	3232361
]	3229019
zi	3226827
դ@@	3224997
pak@@	3223558
ча@@	3216778
ob@@	3211110
ó@@	3206962
ք@@	3206477
ile	3206387
der	3204192
ela	3196402
ва	3195498
ဲ@@	3191629
ੇ@@	3191581
ter@@	3191120
ei	3190642
nu	3190451
ວ@@	3189384
ພ@@	3188400
ગ@@	3186606
ju	3180712
х	3179976
har@@	3173089
ic	3169756
ita	3169151
kat@@	3162730
kal@@	3162376
set	3160389
ದ	3157944
ល	3157242
diy	3149898
ama	3146921
ik	3144491
ී@@	3140460
ди@@	3139606
ബ@@	3138955
re	3137631
ри@@	3135100
kr@@	3134729
ল	3131898
ມ	3131738
ون@@	3130989
ീ@@	3127098
wh@@	3124904
bat@@	3122967
চ@@	3122238
gh@@	3121937
ഗ@@	3120185
samsung	3119569
බ@@	3117492
aka	3105225
ie	3103053
ຕ@@	3101554
xi@@	3101141
лы@@	3093384
ge	3093080
ీ@@	3092769
una	3089146
ר	3086339
ը	3085281
ć@@	3068725
វ@@	3066331
kor@@	3064759
ל	3062900
ли	3055263
fr@@	3047450
ഡ@@	3040615
19	3039500
top	3032566
ზ@@	3026699
bl@@	3026592
رو@@	3023849
fu@@	3023495
eta	3020242
ε	3019734
jo	3017858
yang	3015757
ent@@	3015738
int@@	3011875
ó	3009034
case	3003325
ו@@	3001599
ни@@	2997508
ere	2995319
բ@@	2988179
ны@@	2967501
ты@@	2959987
ve	2958679
ӣ	2956456
ou	2950456
ປ@@	2949674
அ@@	2949439
air@@	2949188
ড@@	2947981
با@@	2943757
ൽ	2942747
ថ@@	2941620
im	2940970
आ@@	2940296
ac	2940098
sal@@	2938749
न	2936977
ati@@	2934993
min@@	2929117
וו@@	2923515
nu@@	2920491
те@@	2918258
ä	2918106
га	2911706
ло@@	2907035
ں	2902594
china	2898608
ំ	2891577
oni	2891510
gu@@	2891501
fe@@	2881809
ខ@@	2881371
est@@	2874583
ો	2873905
det	2869940
so	2867839
aha	2863776
ਫ@@	2858144
slim	2851273
ז@@	2850866
وا@@	2849831
ោ@@	2839703
da@@	2837989
අ@@	2834750
ah	2833022
9	2832653
pc	2830447
ផ@@	2830252
men	2830205
ক	2828550
po	2827119
ol	2825107
ð	2824943
dd	2820297
sen@@	2818099
ani	2811700
00	2808297
را@@	2807402
ep@@	2807184
ца@@	2804787
আ@@	2804642
को	2799840
ౖ@@	2798800
ష@@	2797047
yn	2795733
)@@	2794004
ü@@	2790818
kol@@	2790774
ker@@	2787952
ይ@@	2785579
હ@@	2785262
го@@	2777645
χ@@	2775954
of	2775601
ើ@@	2771431
ле@@	2768279
ды@@	2763038
ә@@	2762616
ማ@@	2761233
kun@@	2755555
С@@	2748808
ই@@	2743385
"	2742372
те	2734560
ту@@	2728298
ც@@	2726392
៉@@	2725249
ಣ@@	2724525
જ@@	2722913
ચ@@	2718152
wan@@	2715835
cover	2714126
во@@	2711426
kas@@	2710464
для	2709955
ven@@	2706712
ite	2705772
kut@@	2705758
gy@@	2704135
ӯ@@	2701995
ફ@@	2700906
dy@@	2696917
ê@@	2694047
ક	2692204
ху@@	2691491
oa	2690332
со@@	2688889
кі	2686292
su	2682301
-	2681680
ർ@@	2677743
ൾ	2675474
ղ@@	2672246
ist@@	2671957
су@@	2670626
pal@@	2663134
ги@@	2659982
quality	2659508
ር	2654634
း	2653401
ili	2651308
anda	2650342
по@@	2648142
lar	2646049
mag@@	2642883
long	2642482
bil@@	2638931
ړ@@	2637481
ટ	2635303
К@@	2634764
up@@	2634453
అ@@	2631918
car	2628945
න	2626994
kam@@	2626680
ake	2624388
პ@@	2619935
ګ@@	2617302
ຮ@@	2613558
kan	2611741
чи@@	2610729
dh	2609551
ላ@@	2607937
den	2603376
van	2603022
ੰ	2600350
st	2599433
દ@@	2598603
asi	2597734
ý@@	2594889
ō@@	2593490
ку@@	2591485
շ@@	2584797
ena	2584673
vel@@	2581583
are	2572354
гу@@	2570080
of@@	2564382
ġ@@	2564355
ਈ	2557519
ໃ@@	2556954
die	2554528
এ@@	2548048
bon@@	2543418
ки@@	2541839
կ	2540836
લ	2539259
ban@@	2533296
man	2530892
ො@@	2528140
ې	2527274
fl@@	2524711
ં	2521476
kel@@	2521095
ij@@	2520452
ست@@	2520046
lcd	2516692
atu	2511937
θ@@	2505063
ts@@	2499790
cr@@	2495632
ev@@	2494858
ون	2492213
zo@@	2486367
ane	2480292
ණ@@	2477804
10	2475157
ek	2471857
isi	2468852
va@@	2463377
ց@@	2461692
pol@@	2460796
sy@@	2460262
ce@@	2456778
的@@	2455417
ре@@	2455060
ל@@	2454942
ங@@	2454156
ਅ@@	2453368
ռ@@	2452593
ate	2451933
ບ@@	2450699
uma	2446361
مو@@	2442380
но	2439583
ထ@@	2439398
gar@@	2437490
del@@	2434910
இ@@	2434752
ви@@	2434395
wear	2433848
og@@	2418832
car@@	2418761
kak@@	2418045
ме@@	2416044
ар@@	2414886
black	2414554
ста@@	2410922
бу@@	2409921
ო	2406241
dar@@	2402567
се	2394306
bu	2391919
one	2388274
ഫ@@	2387668
uch@@	2386146
tar@@	2384541
эр@@	2382093
ڈ@@	2381011
ff@@	2380870
մ	2378977
ور	2376653
ል	2375756
ඩ@@	2375101
జ@@	2372902
ado	2367785
del	2363805
ten@@	2354991
wo@@	2354853
ele	2348466
tak@@	2343132
سا@@	2338958
isa	2338036
ன	2337612
ా	2335314
ফ@@	2334354
η	2333542
ነ@@	2333141
sil@@	2330443
ण@@	2327132
ش	2327103
ị@@	2324638
met@@	2323493
ያ@@	2322949
М@@	2322884
fan@@	2320636
מא@@	2320175
hd	2317319
fer@@	2315725
moda	2315511
ili@@	2312964
ду@@	2309572
hal@@	2308187
Б@@	2306848
ீ@@	2302301
ze	2301460
لا@@	2301041
સ	2300834
chiffon	2298549
por@@	2294704
ർ	2294688
ਕ	2292470
ми@@	2284491
ট	2282124
ყ@@	2278932
lo	2278541
ant	2274041
tan@@	2273286
od	2272933
ع@@	2272778
vin@@	2272337
ete	2270806
то	2269971
ла	2264836
aga	2261581
mer@@	2258513
А@@	2257597
:@@	2256217
ut	2255777
ला@@	2252164
ழ@@	2251105
ື@@	2249359
ari@@	2249227
est	2243868
त	2241016
û@@	2240696
ca	2240158
क@@	2238627
שי@@	2238430
pen@@	2238338
han	2236626
ឹ@@	2235694
ω@@	2234565
ው@@	2230703
cm	2229860
تو@@	2224257
ከ@@	2223466
де@@	2221981
î	2220550
ಶ@@	2213924
ру@@	2212962
ਡ@@	2212902
ינ@@	2212721
str@@	2212657
ica	2211344
bak@@	2209530
ਚ@@	2208900
ura	2207161
ክ@@	2204988
غ@@	2201721
ም@@	2198879
brand	2195461
ung	2193692
uk	2190636
ung@@	2187431
ಉ@@	2186330
ci	2181301
lam@@	2178184
ఫ@@	2178026
ex@@	2177403
бе@@	2175357
der@@	2175081
õ@@	2173367
lan@@	2171833
mah@@	2171143
gratis	2170677
ڊ@@	2170355
vintage	2170310
lub	2170037
mon@@	2169887
sak@@	2167910
અ@@	2166816
ൻ	2164590
ම	2162182
ગ	2161167
ේ	2160532
tam@@	2160274
ስ	2158880
न@@	2155354
ч	2155202
ول@@	2152737
П@@	2152435
pro	2150203
ċ@@	2147909
^	2147660
ши@@	2147424
ಜ@@	2146953
ze@@	2146923
ብ@@	2146635
ק	2145903
kur@@	2145459
lace	2144369
ಫ@@	2144188
ul	2143519
ino	2141146
ल@@	2138613
ួ@@	2136502
tel@@	2135624
jen@@	2133372
में	2133331
sol@@	2127925
ق@@	2126244
му@@	2125580
ஸ@@	2120126
all	2120019
aan	2119819
tal@@	2116405
size	2116353
ծ@@	2114419
φ@@	2109266
की	2105390
pap@@	2102087
ري@@	2101440
ano	2100796
style	2099725
tur@@	2093240
sz@@	2093198
ဘ@@	2092906
wi@@	2092297
ហ@@	2088265
kap@@	2087474
ઇ@@	2084505
உ@@	2083933
fi	2083254
ም	2082110
ຊ@@	2081699
წ@@	2081654
ма	2080395
ູ@@	2079008
െ	2077857
ý	2075323
ຈ@@	2072202
យ@@	2071395
tor@@	2071016
ہ	2069414
ен@@	2067827
യ	2067434
ម	2065226
એ@@	2065018
ore	2063373
lu	2062883
сы@@	2060017
ра	2058422
ៃ	2055645
kin@@	2051401
bor@@	2049938
ec@@	2049803
son	2047344
ح@@	2042089
խ@@	2041882
త	2040407
cl@@	2039604
ව	2036046
ет@@	2035322
ù@@	2032789
gal@@	2027069
oem	2026990
થ@@	2026657
ស	2023926
mot@@	2022302
ግ@@	2022063
all@@	2021905
ַ	2021683
ਟ	2019689
ұ@@	2019431
pat@@	2016714
sale	2014098
హ@@	2013450
ga@@	2012128
awa	2010988
š	2003748
רי@@	2001751
хо@@	2001537
ൂ@@	1990205
and	1989157
ਤ	1987669
out@@	1987666
ky@@	1986379
ញ@@	1986001
क	1985711
ٹ	1984707
ਆ@@	1982372
far@@	1982203
ॅ@@	1979818
ወ@@	1978829
les	1976650
לע@@	1976598
љ@@	1974817
mel@@	1974271
con@@	1974108
ين	1973594
sl@@	1973334
ښ@@	1972991
gl@@	1970442
que	1969988
cy@@	1968891
ari	1966206
ب	1965967
pvc	1961809
ז	1957772
lar@@	1956322
tha	1954640
tin@@	1953972
ys	1953441
by@@	1952317
ал@@	1952294
զ@@	1950814
rau	1949754
য	1949477
hel@@	1947704
io	1947577
ొ@@	1947517
sti@@	1946958
ě@@	1943300
э	1942377
ene	1939892
ቀ@@	1938978
ey@@	1938547
ке@@	1937353
mai	1936931
my@@	1936616
com	1934613
ඳ@@	1933956
tag@@	1933313
ւ	1932432
प@@	1931739
ໄ@@	1931071
sel@@	1929717
לי@@	1928735
cu@@	1923929
ూ@@	1921674
ਗ	1920012
ल	1918530
ң@@	1918247
wholesale	1917786
light	1917383
υ	1915626
crystal	1912872
ረ@@	1911589
र	1911583
nan	1909568
ວ	1908525
aa	1905934
ຸ@@	1905589
хэ@@	1905152
پ	1904703
ਇ@@	1902117
ty@@	1901866
van@@	1901583
լ	1901353
ύ@@	1897347
pas@@	1895842
ή@@	1892015
ຍ@@	1891877
ய	1890940
ese	1890572
ser@@	1890344
ៅ	1886968
baby	1886658
לא@@	1885892
ers	1884429
ു	1882988
ja@@	1881822
ಅ@@	1880892
ط@@	1878810
క	1878740
ী@@	1878367
isi@@	1877589
፡@@	1876467
ú	1876397
ен	1873960
ما@@	1873954
ры	1871537
ky	1871367
။	1870230
اس@@	1864454
അ@@	1863276
፡	1859983
vis@@	1859421
ll@@	1858549
ste	1857915
ך	1857343
म@@	1855334
mod	1852655
har	1852492
ure	1850867
dis@@	1844356
yak@@	1842394
fan	1841411
android	1841045
տ	1839933
able	1838938
ૂ@@	1836968
ీ	1836766
жи@@	1836727
co	1835180
com@@	1833875
her@@	1833719
ud@@	1832897
bel@@	1830732
wer@@	1829467
ish	1828444
ì@@	1827505
ба	1827001
нь	1826935
din@@	1826262
gu	1825824
به	1824213
ole	1823739
хи@@	1822171
ци@@	1822050
ٽ	1821765
উ@@	1817947
ř@@	1817096
des@@	1816326
ټ@@	1816095
dz@@	1815414
untuk	1814454
ter	1813686
!	1813046
مر@@	1809907
aci@@	1809288
ind@@	1808104
ភ@@	1808059
don@@	1807833
bluetooth	1807456
ರ	1806315
ম	1801073
ষ@@	1800307
ice	1800242
jer@@	1799869
ट	1799691
hat@@	1799203
til	1797967
ди	1797319
ገ@@	1795492
ent	1793143
uz@@	1792940
dh@@	1792297
の@@	1790442
vo	1789929
sleeve	1788668
ais	1786619
כ@@	1786336
مي@@	1785571
con	1784286
تا@@	1783979
casual	1783660
፣	1783412
वा@@	1782636
war@@	1782412
ё@@	1781307
white	1779668
ዎ@@	1777491
any@@	1777254
lin@@	1767284
кі@@	1766394
gi	1765622
box	1765073
iri	1760290
den@@	1760185
ми	1757326
ಷ@@	1756576
bol@@	1754799
mad@@	1754422
зо@@	1750849
fun	1749717
ation	1749589
ms	1748312
dal@@	1747584
lat@@	1746933
má@@	1746230
טי@@	1742654
zo	1742638
स@@	1742043
ні@@	1741337
shi@@	1740003
gel@@	1733473
pam@@	1732665
pon@@	1731655
ֿ@@	1730162
ನ	1726338
ൈ@@	1726081
ೖ@@	1724831
és	1723074
ձ@@	1721221
ص@@	1719859
ii	1717626
ү	1714840
sta	1714784
ෝ@@	1713714
ት@@	1712241
ং	1710746
៊@@	1710704
న	1709074
uni@@	1707494
por	1706772
ip@@	1705960
design	1705888
med	1704689
تر@@	1701880
hair	1701230
מע@@	1700796
ito	1699414
hin@@	1698887
ته	1698437
ain@@	1693483
mis@@	1693137
hy@@	1692607
္@@	1688584
summer	1687050
ք	1686086
сти@@	1685758
super	1683637
ባ@@	1682160
វ	1681368
ី@@	1681109
ui	1679774
auto	1679318
ভ@@	1678774
hand@@	1678519
ఉ@@	1675578
়	1670221
ă@@	1669802
asa	1669279
ינג	1667915
cal@@	1667334
aki	1666672
ઉ@@	1664785
هي@@	1661112
пра@@	1660644
ਸ	1660153
ው	1660152
רא@@	1659839
phone	1659493
uy@@	1658408
ڪ	1657901
rhinestone	1656664
ail@@	1653678
galaxy	1652270
up	1651709
בא@@	1649726
ী	1648568
Т@@	1648527
ell@@	1646913
ደ@@	1644978
ຜ@@	1643688
ڑ@@	1643552
ika	1642839
ം@@	1639676
len@@	1637678
ки	1636767
party	1635640
vest@@	1633679
bet@@	1633634
вы@@	1633584
ત	1633012
tv	1632379
ye@@	1625615
лі@@	1625245
ال	1624649
се@@	1623493
cha	1623321
kum@@	1621789
af	1620837
ban	1619253
pul@@	1618951
при@@	1617402
bul@@	1617310
cor@@	1616645
som	1616622
screen	1616271
ula	1614733
dan@@	1614567
بر@@	1614213
ан	1611589
ме	1609635
ራ@@	1608600
ما	1608440
tat@@	1607374
ጥ@@	1606602
ό	1606479
ប	1604898
anga	1604086
hl@@	1603767
tas	1600390
elo	1599542
art	1598778
vir@@	1598736
ono	1598312
ly@@	1597087
ত	1596697
ан@@	1595227
ри	1590660
color	1589237
ee	1588991
ე	1587844
aya	1586013
alta	1582903
mor@@	1582112
wedding	1580904
ያ	1579414
ះ	1578110
жо@@	1577369
ann	1576809
എ@@	1575735
pel@@	1574486
mul@@	1573705
án	1570776
yi	1569256
red	1568582
का	1567549
ћ@@	1567397
Д@@	1566869
chi	1566169
ў	1565675
fa	1564395
ሰ@@	1562164
ко	1562026
من	1559991
ben@@	1559250
watch	1558604
mit@@	1558308
है	1557487
स	1557339
gps	1557018
silver	1555622
ich	1555526
ok	1554935
ць	1554588
mu	1551929
ூ@@	1551690
ket@@	1551371
mol@@	1547779
kang@@	1547521
ora	1546275
yu@@	1545439
machine	1545261
pot@@	1545124
alo@@	1544673
ال@@	1543638
wah@@	1543034
ට	1542717
lot	1540426
ღ@@	1539893
ж	1539765
ker	1539441
tom@@	1539248
க	1536139
ने	1535380
का@@	1535070
ശ@@	1534975
cnc	1533259
च@@	1531671
hu	1531197
ና	1530815
ast@@	1530326
وي@@	1530308
ila	1529892
ru	1529457
ో	1527367
ं@@	1527116
си	1524565
ava	1524451
lan	1523817
ish@@	1523010
зи@@	1522860
hotel	1521317
aut@@	1521182
ca@@	1519773
kin	1519757
ow@@	1519734
by	1519710
ken@@	1518616
vak@@	1516182
ė	1516159
din	1516061
ታ@@	1515802
ٿ@@	1513703
ធ@@	1512562
ks	1511227
pin@@	1509961
نه	1508551
bag@@	1507450
bar	1505952
ning	1503415
וי@@	1496294
ဝ@@	1495820
,@@	1495418
ro	1491582
bur@@	1491480
wal@@	1490490
ჩ@@	1490382
oto	1488726
फ@@	1486813
rohs	1486440
ст	1485807
san@@	1482846
pil@@	1482220
mil@@	1481244
सा@@	1480763
ды	1479631
ځ@@	1477831
ht@@	1477829
esi@@	1477358
बा@@	1474932
ણ@@	1473807
ini@@	1471965
kho@@	1471697
دا@@	1470820
ד	1470489
ळ@@	1470000
anti	1469734
ත	1468620
ജ@@	1467628
ori@@	1467430
نو@@	1466150
metal	1465344
त@@	1464936
எ@@	1464841
ŝ@@	1464007
sit@@	1463831
من@@	1463330
व@@	1462985
ве@@	1462008
ක	1461553
ud	1461531
пре@@	1461400
স	1460918
ला	1460577
ಯ	1460196
ns	1460104
hol@@	1460033
ori	1458728
oo	1458096
ero	1457822
ты	1456262
ring	1454830
во	1453230
ਮ	1452296
kir@@	1452246
ળ@@	1451559
asi@@	1450986
से	1450835
vol@@	1450490
blo@@	1450015
kot@@	1448262
في	1448090
આ@@	1447578
produk@@	1446642
op	1446588
са	1445979
ஆ@@	1445253
tro@@	1443583
ڻ	1442726
wen@@	1442574
des	1442114
ear@@	1441232
لو@@	1440898
vr@@	1440438
azi	1439431
ಎ@@	1439039
ae	1437945
pi	1437773
्या@@	1436140
ons	1435248
line	1435059
ෂ@@	1433520
che@@	1432517
ين@@	1429451
एक	1429337
kus@@	1428524
ဒ@@	1427904
adi	1426647
лы	1426597
वि@@	1426139
iso	1425859
ሚ@@	1424217
ong@@	1423648
ato	1423626
set@@	1423332
ջ@@	1421918
bre@@	1421902
kab@@	1420500
vor@@	1418591
iy@@	1418074
oh@@	1417733
blue	1417447
ну@@	1416946
ច	1416895
alibaba	1416621
kit	1416040
inn	1415496
dat@@	1412254
û	1411654
сы	1410213
ť	1408332
fun@@	1407806
steel	1407249
ده	1406936
ot	1406083
ż@@	1405738
xl	1405169
jewelry	1404462
ේ@@	1403017
β@@	1401385
bir	1400695
த	1400002
ડ	1398833
sun@@	1398639
vy@@	1398575
ser	1398127
bot@@	1394891
mm@@	1394439
wel@@	1394103
ώ@@	1390455
kas	1388275
cho@@	1387995
kah@@	1387681
nam@@	1387082
fy@@	1386162
ту	1385724
pang@@	1385721
tab@@	1383793
ధ@@	1382362
ර	1381451
ह@@	1378334
эн@@	1378145
ধ@@	1376724
ger@@	1376625
؟	1376500
дар	1376318
hr@@	1374787
او	1374714
unt@@	1374332
ශ@@	1373640
ца	1372518
een	1371481
ill@@	1369721
mas	1369398
ви	1368237
big	1367731
det@@	1366828
son@@	1365839
ez	1365542
ਣ@@	1365052
ний	1364917
ste@@	1363420
र@@	1362839
ap	1361603
ഹ@@	1360696
ran@@	1360654
ג	1360618
अ@@	1360191
full	1360084
iro	1358987
tes	1357071
dc	1356433
let@@	1355079
శ@@	1354578
ska	1351908
min	1350545
ulu	1350231
ά	1348613
نا@@	1348077
ദ@@	1346909
logo	1345830
קו@@	1343001
ጠ@@	1342735
پا@@	1342523
ڙ@@	1341876
lab@@	1339126
sat@@	1339077
ts	1338882
თ	1338452
lal@@	1338321
ib@@	1337642
pin	1336278
છ@@	1335109
ug	1334527
पा@@	1334437
ඇ@@	1334389
из@@	1332533
sar@@	1329430
অ@@	1328613
ı@@	1327987
ڏ@@	1326005
мен@@	1324182
ngo@@	1323938
де	1322731
das	1321972
تي	1321472
lit@@	1321043
ول	1320905
sul@@	1320662
adi@@	1319233
ב@@	1318962
bro@@	1318662
diz@@	1317567
הא@@	1313093
і@@	1312006
טע@@	1311815
और	1310208
ഞ@@	1309923
tri@@	1307325
eni	1306693
ҷ@@	1305910
sv@@	1305222
ల	1303782
די@@	1303517
sm@@	1303471
ໂ@@	1303103
pad@@	1303022
מי@@	1302720
ճ@@	1302014
fil@@	1300289
ළ@@	1299798
سر@@	1299280
wo	1297885
cho	1297647
б	1297039
гі@@	1296410
met	1295614
gol@@	1294878
>	1294563
ഉ@@	1294483
هي	1294382
ds	1294131
yon	1292716
wifi	1291989
።	1291915
nak@@	1289842
ና@@	1289699
hor@@	1289502
lik	1289361
ю@@	1287980
ന	1287741
che	1287326
thu	1283180
zh@@	1283031
wall	1282173
dengan	1282024
oro	1281248
zu@@	1280380
ಕ	1278072
sab@@	1277465
ड	1277418
cap	1274622
đ@@	1273928
ف	1273778
ድ@@	1271957
័@@	1271897
ड@@	1269399
tas@@	1269396
мо	1269017
ري	1268535
ą	1264474
ု	1262486
sy	1262142
ц	1262114
spring	1261298
ire	1259129
ham@@	1258982
لي@@	1258437
bes@@	1257831
ब@@	1256763
ډ@@	1256426
ст@@	1255741
ски	1255695
mp@@	1254317
سي@@	1253678
smd	1253473
ör	1253113
ath@@	1252966
ise	1252944
best	1252761
home	1252513
न्@@	1252254
ή	1252199
ң	1251568
ሪ@@	1251452
usa	1250668
mens	1249399
kit@@	1249252
ej@@	1248574
aus@@	1247723
mai@@	1247053
ais@@	1245918
փ@@	1245572
can@@	1242821
об@@	1242322
ля@@	1242002
nov@@	1241650
iv@@	1241187
ຖ@@	1239511
ор@@	1237632
power	1236953
ها@@	1236245
про@@	1233299
*	1232448
cer@@	1231700
महिला	1229975
<@@	1229307
san	1228939
kli@@	1228165
ני@@	1227718
az	1227460
੍@@	1226482
wat@@	1226311
ilo	1225754
amp@@	1225574
mus@@	1224631
wak@@	1223052
mir@@	1222611
ĉ@@	1222154
olo@@	1221904
print	1221321
ке	1220095
jersey	1219974
ካ@@	1218089
ө	1217973
att	1216593
ቶ@@	1216546
né	1216204
ድ	1214937
ה@@	1214382
ឆ@@	1213196
ץ	1211865
эй	1210431
silicone	1209323
tä@@	1208285
sn@@	1207674
oo@@	1206095
ді@@	1204409
put@@	1204026
ಆ@@	1203206
шу@@	1203006
ही	1201941
े	1201806
custom	1199796
vestido	1195682
ski	1195493
jak@@	1195256
ש	1194872
ሳ@@	1194616
ün	1193780
پار@@	1191966
لاء	1191901
ਉ@@	1191711
lum@@	1189831
ball	1189537
ин@@	1189146
ძ@@	1188703
th	1188055
stat@@	1187172
ten	1184425
iga	1184252
фа@@	1183476
ax@@	1183111
eh@@	1183012
eu	1182986
ణ@@	1182573
ema	1182562
ф@@	1181852
ry@@	1180997
ಾ	1179340
मो@@	1178833
amin	1178795
हा@@	1178295
څ@@	1177454
bang@@	1177109
tai@@	1177087
tun@@	1176905
gen@@	1176507
fer	1176404
dresses	1173777
gold	1173361
þ@@	1171643
nit@@	1169792
મ	1169343
צ@@	1167261
मा@@	1166223
band	1165961
nat@@	1165835
bin@@	1164762
tit@@	1164659
nd@@	1164519
tre@@	1164027
ная	1163076
्या	1162522
sem	1160115
dia	1160017
кар@@	1159835
xa	1159291
ő@@	1158697
'	1158131
haw@@	1158097
Н@@	1157471
ло	1157118
dhl	1156800
չ@@	1156767
thi@@	1156416
nis@@	1155607
und	1155152
inga	1154962
mer	1154807
pir@@	1154044
سو@@	1153140
anti@@	1153097
ց	1152350
factory	1150508
ጣ@@	1150313
пи@@	1149075
fas@@	1147968
сі@@	1147584
olo	1146898
kau@@	1146867
бы@@	1146320
yn@@	1146141
סט@@	1145764
jet@@	1145529
ist	1145162
sim@@	1143508
original	1141962
اي@@	1141767
wi	1140472
apa	1140158
ator	1139180
bas@@	1138273
ព	1138264
רו@@	1137636
ધ@@	1136920
til@@	1135629
ola	1135593
ತ	1134875
ች@@	1131969
nova	1131697
sc@@	1131544
tau@@	1130713
hau@@	1128272
ણ	1127019
zin@@	1126902
uta	1126802
art@@	1126081
any	1124395
nag@@	1124235
ded	1124218
пу@@	1120908
ើ	1120184
ên	1119487
zu	1118749
dol@@	1118538
nar@@	1118265
vestidos	1117664
ල	1117251
var	1116928
ţ@@	1116480
back	1113971
tra	1113466
fur@@	1113174
උ@@	1112681
gam@@	1112492
ty	1112459
جا@@	1111674
sand@@	1111339
ņ@@	1110720
fal@@	1110505
ega	1109044
ino@@	1108698
ani@@	1108635
ave	1108314
ਖ@@	1107532
rgb	1107480
eti	1107469
tal	1107187
ih@@	1106904
eri@@	1103730
برا@@	1103549
ණ	1102528
دو@@	1101870
bah@@	1100659
ret@@	1099955
kn@@	1097921
О@@	1097505
cable	1096534
cas@@	1096321
laser	1096262
bri@@	1095502
vit@@	1095240
ಣ	1094385
ean	1093543
kun	1093205
gor@@	1092583
lel@@	1092002
är@@	1091285
prom	1089731
Ц@@	1089475
ј	1087810
ජ@@	1086833
ξ@@	1085770
plat@@	1085579
tap@@	1085337
це	1085141
short	1084284
от	1083750
وم@@	1082981
hat	1082973
pun@@	1082968
ਣ	1082482
И@@	1080345
rat@@	1080152
ipad	1079922
sim	1079666
pen	1077503
در@@	1075055
ند@@	1074684
هن	1074562
زا@@	1074527
мен	1073728
za@@	1073148
nh@@	1072827
col@@	1072485
جو	1071880
ò	1071462
net	1071331
cap@@	1070637
ആ@@	1070564
ੜ@@	1070075
shoes	1069769
ि	1069445
ፍ@@	1068761
प	1068305
श@@	1066855
pet@@	1066168
uri	1065606
ී	1065015
glass	1064299
от@@	1063881
गि	1063051
ભ@@	1062389
ver	1061806
kai@@	1061699
ቅ@@	1061073
vet@@	1059620
tpu	1059526
зу@@	1058831
چې	1058706
kil@@	1055037
retro	1054915
edi@@	1054733
य@@	1054287
ਚ	1053123
het	1053062
eb	1053022
од	1052829
som@@	1051624
ാ	1051478
video	1051443
non	1051044
ug@@	1051005
ጥ	1050802
ao@@	1049862
че@@	1048340
зі@@	1048221
+	1047562
ĝ@@	1047242
like	1044826
gan	1044506
의	1044146
oc@@	1043755
шин@@	1043652
kids	1043496
ছ@@	1043130
mod@@	1042242
ги	1041422
ള	1041407
inter@@	1041167
ይ	1041089
ej	1041058
sti	1040955
oli@@	1040750
imo	1039971
ा	1039489
zoo	1038863
उच्च	1038674
you	1036395
mut@@	1036215
دا	1035737
сто@@	1035288
kaw@@	1034653
fre@@	1034159
ா	1033984
dir@@	1033870
fit@@	1033380
ль@@	1033009
ren@@	1032354
cheap	1030740
panel	1027591
ler	1024237
די	1024229
ļ@@	1023852
क्@@	1023490
hem@@	1023097
diamond	1023076
hä@@	1022646
ер@@	1022612
খ@@	1022080
wu	1021287
star	1020968
tion	1020769
бі@@	1020421
ladies	1019682
fe	1018552
daw@@	1018425
ញ	1018425
ච@@	1017693
sto@@	1017101
hon@@	1016986
hot@@	1016841
י	1016686
бай@@	1014763
ං@@	1014369
ps@@	1014356
qi@@	1013635
č	1013143
лі	1013080
له	1013022
එ@@	1012704
fin@@	1012439
une	1012074
camera	1011837
ľ@@	1011817
۽	1011263
än@@	1010889
mam@@	1010152
Л@@	1009066
ér@@	1008718
mobile	1008388
cam@@	1007620
tor	1007138
ну	1006877
ig	1006108
ál@@	1005955
ω	1005632
۾	1004298
dom@@	1004069
ਈ@@	1004005
जा@@	1002250
ер	1000910
гар@@	1000732
Р@@	1000652
vá@@	1000188
let	999847
anta	999405
ឡ@@	998024
flower	996850
ram@@	996195
itu	995841
res@@	995304
fol@@	994859
ो	994497
ip	994328
lá@@	993313
iki	993058
бар@@	992808
girl	992578
ဂ@@	991602
hè	991191
ආ@@	991096
ı	991091
smart	990384
pos@@	989220
म	989117
ले@@	988550
ખ@@	988042
ዲ@@	987856
נע@@	987628
ev	987474
bir@@	986227
мы@@	985258
ку	985256
स्@@	983664
ör@@	983468
че	983100
nem@@	983031
xo@@	982850
gan@@	982289
ew@@	982139
ຽ@@	982108
ट@@	981826
मा	981623
fit	981554
ле	981327
_@@	980927
وت@@	979896
ੈ	979181
ě	978913
she@@	978476
ann@@	976679
ity	976337
ໍ	976044
dro@@	975569
net@@	975291
zz@@	975175
ide@@	974319
է	973213
до	972780
би	972422
ഇ@@	972296
hur@@	971163
rak@@	970869
шо@@	970673
oe	969865
ता@@	969571
los	968480
ole@@	968475
sen	968112
lak@@	967365
nau@@	967237
oni@@	966774
pad	966739
ጋ@@	966531
ஒ@@	966503
pres@@	966141
פי@@	965803
cu	965543
لا	965058
aba	963969
aus	963695
tir@@	962781
alo	962687
dam@@	962491
पर	962217
ton@@	962131
rin	961749
aro	961554
bra	961333
нд@@	960921
digital	960484
cotton	959985
angi	959589
ken	959470
eli@@	957472
pur@@	956691
ער@@	956673
।	956652
ly	956549
las@@	956172
го	956063
ris	955803
तो	955715
ې@@	955612
pit@@	954749
ultra	953944
bil	953694
winter	953558
ય	952591
chu@@	952112
့	952104
با	951754
lap@@	950539
film	950460
lamp	949670
soft	949618
ry	949609
ei@@	949415
vil@@	949412
yan	949406
jas	949063
leather	948152
inch	944490
gro@@	944428
тер	944282
hen@@	942398
flash	942284
ras@@	942190
ূ@@	941343
ζ@@	941313
alim@@	941231
ulo	940902
card	940761
huawei	940326
py@@	939406
cin@@	938107
motor	937519
ו	937052
kali@@	936561
ೕ	936267
meg@@	935146
чу@@	934929
dalam	934764
ón	934595
hit@@	933912
nap@@	933850
pendant	933555
gas@@	933280
kaz@@	932865
тер@@	932666
usi	932527
ധ@@	932503
Ọ@@	932331
leg@@	932079
sor@@	930637
ິ	930483
bez@@	930296
pada	929903
ढ@@	929524
В@@	929459
नि@@	929428
डी	929174
avy	928709
ग@@	928413
ຼ@@	927082
her	926513
ժ@@	925795
dual	925295
ня@@	925251
sap@@	924887
mata	924226
with	923325
jum@@	922641
ۍ	922228
pp	921381
hn@@	920983
hom@@	920690
hum@@	919790
يا	919656
rem@@	918783
के@@	918378
ass@@	918301
plastic	918030
gy	917883
ো	917838
oi	917538
ici	917355
וא@@	916669
ဟ@@	914760
mé@@	914143
що	913173
sem@@	913053
ens	912945
ament	912630
סי@@	912308
eli	911508
mur@@	911388
၏@@	911096
हि@@	909246
ઝ@@	908886
price	908634
Ж@@	908375
شا@@	908131
lag@@	907869
was@@	907089
aku	906900
sko@@	906742
вы	905652
sli@@	905336
ست	903493
hang@@	903012
port@@	902913
ঙ@@	902619
ler@@	902058
sum@@	901693
cute	901675
ಸ	901243
ž	900872
ego	900865
چ	900418
dur@@	900415
iti@@	900256
ना@@	899333
ൻ@@	899314
ዋ@@	899130
ែ	898753
tek@@	898429
же@@	897071
mar	896959
sho@@	896863
par	896706
ô@@	895896
פון	895332
ئي	895191
hou	893619
ता	893539
מ@@	893470
ail	892974
ion	892428
در	890681
ली	890359
kom	889719
ליי@@	889294
wn	889142
gel	888777
bis@@	888756
لي	888630
ding	887885
bit@@	887548
कर	887336
вя@@	887196
नी	886412
ill	886274
ם	886060
сты@@	885809
rit@@	885349
мар@@	884796
azi@@	884376
sw@@	883588
age	883359
пе@@	883013
bad@@	882979
cai@@	882161
فا@@	881672
gad@@	881444
esi	881271
but@@	881023
“@@	878858
ace	878623
sur@@	878269
sin	877305
has@@	877284
उ@@	876809
way@@	876527
wad@@	876414
ет	875631
سي	875099
ף	874628
hai@@	872809
;	871888
oli	871599
med@@	871483
raz@@	871411
सं@@	871163
bikini	871067
freeshipping	870321
sty@@	870117
ले	870051
dag@@	869952
ज	869598
maj@@	869367
neck	869366
ु@@	869282
ume	869146
gir@@	869052
ာ	868620
dari	867260
ना	867152
sta@@	866751
elegant	866716
هو	866129
idi@@	865657
ա	865593
ай@@	865072
ans	864990
ima	864150
بن@@	863762
ber	862088
cre@@	860533
lav@@	859853
ծ	859569
ine@@	858797
eri	858657
tube	858376
tá@@	857889
ue	857485
ton	856511
ج	856353
vas	856301
kle@@	855555
uv	854788
ші@@	854363
ني	854224
ting	854134
ador	853843
يو@@	851324
zam@@	850427
và	849964
dil@@	849182
ard@@	848696
ade	847921
hip	847634
ൽ@@	847214
ئي@@	846274
sport	845772
ሽ@@	845767
kre@@	845655
ам@@	845267
fat@@	844989
eke	844616
dig@@	844585
ဥ@@	844272
бар	843650
ard	843138
dat	843019
rin@@	843000
dad	841679
fac@@	840699
ment	840243
có	840128
pls	839804
चे	839054
fu	838357
ад@@	838257
eto	838080
ھ	837938
ិ	837755
mt@@	837595
heart	837375
zir@@	837354
ँ@@	837160
flip	837098
по	836982
sav@@	836793
=@@	836673
toe	836632
ග	836351
eg	836081
nem	835732
භ@@	835136
anya	835120
mach@@	834036
ner	833804
ні	833310
سم	832553
עק@@	832314
cur@@	830478
ple@@	830087
ఆ@@	829184
pp@@	829015
ሴ@@	827966
pus@@	827870
मि@@	827697
lady	827207
است@@	825590
און	825567
hab@@	825560
ी	825504
gri@@	825111
pas	823689
਼	823598
раз@@	823500
ile@@	823385
$	822756
display	822685
cum@@	822500
ō	821896
jon@@	821459
ඉ@@	821089
waterproof	821012
hana	820622
?@@	820405
tan	819973
nor@@	819762
eb@@	819636
ano@@	819314
kamera	819299
ণ	819171
ອ	819164
kay@@	819066
jam@@	818928
плат@@	818834
وار@@	818537
ല	818466
&	817760
wanita	817513
als	816982
ota	816335
bas	816274
dekor@@	815644
gen	814845
uni	814659
со	814342
eka	814190
aba@@	814027
bun@@	813893
board	813826
ូ	813757
end@@	813601
jen	812916
sis	811952
dri@@	811888
bon	811029
tim@@	810858
ті@@	810583
nen@@	809416
cartoon	809403
laptop	809333
bus	809263
ட	808919
ger	808711
тар@@	807433
mun@@	806906
tablet	806810
tul@@	806500
%	806491
ary	805765
aan@@	805074
בע@@	804831
ps	804822
iri@@	804069
dy	802901
ዳ@@	802654
dem@@	802065
ster	801716
់@@	801526
tet@@	800873
pink	800402
bata	800351
бо	800255
lis@@	800190
প	800170
jan@@	799574
ши	799340
tis@@	799212
ami	798388
лу	797907
haz@@	797405
مع@@	797096
sek@@	796884
רט	796459
loo@@	796425
пар@@	796410
הו@@	796276
gh	795697
ро	795484
chin@@	795447
dor@@	794412
を@@	794241
ڈ	793227
ın	793084
тар	792811
ഴ@@	792342
ብ	792304
lig@@	791826
yan@@	791717
бол@@	791389
ín	790658
touch	790346
री	790052
ак@@	789825
ড	789535
och@@	789404
cá@@	789373
ска	789364
ante	789140
фи@@	788931
ධ@@	788515
atau	788205
सि@@	787826
ੋ	787533
gb@@	787484
ಭ@@	786995
ess@@	786821
umi@@	786804
girls	786497
нов@@	786230
đ	785796
ٻ@@	785795
dig	785277
ക	785023
taw@@	782932
rang@@	782192
بو@@	781250
دي@@	780613
max	780216
bike	779162
izer	778704
مل	778516
fut@@	778398
ಇ@@	777744
을	777733
mü@@	777661
stainless	777624
ಮ	777571
don	777285
ത	777221
ीन	776637
yar@@	776079
autumn	774909
kim@@	774605
core	774372
ll	774337
nek@@	774237
הי@@	773648
চ	773468
Г@@	773433
hd@@	773377
int	773148
jed@@	772948
ран@@	772800
model	772599
angan	772512
mit	772277
fabri@@	772101
мі@@	771849
ज@@	771627
hdmi	771291
off	771205
су	770769
থ@@	770712
nei	769512
toy	769303
रे@@	769187
ષ@@	768829
wireless	767351
У@@	766949
ए@@	766520
ኛ	766127
pant@@	765055
pants	764967
my	764162
apple	764154
vas@@	763159
دي	762858
lad@@	762377
ру	761363
king	761085
jacket	760336
telefon	760062
ya@@	759902
tin	759710
dim	759610
utu	759512
round	759499
tot@@	759430
pet	759193
ڊ	758188
ŭ@@	757553
aw	757345
վ	757164
nie	757050
tem@@	756658
ці	756612
رب@@	755759
ќ@@	755736
大@@	755706
ஜ@@	755595
에	755239
жен@@	753949
пла@@	753888
ahu	753726
”	752705
clip	752658
pano	752568
accessories	751950
double	751772
pre	751060
kat	750856
mode	750130
प्र@@	749964
ль	749594
pes@@	749369
ени@@	749242
ss@@	748999
cil@@	748666
į	748587
tank	748519
spr@@	747770
piece	747689
flo@@	747376
kes@@	747354
ဇ@@	745993
iz	745972
uti	745478
lí@@	745437
дер	745273
akan@@	744760
green	744630
hil@@	744152
זי@@	743290
ፈ@@	742599
hak@@	742377
char@@	741169
ді	740958
ণ@@	740685
shu@@	740435
па	739816
بل	739672
promo@@	739585
ette	739555
ī	739533
sad@@	739208
kai	738614
од@@	738458
new@@	738077
backless	737171
dai@@	737097
vu	737068
ચ	736863
fam@@	736592
nav@@	736546
plast@@	735444
بي@@	735362
moto	735223
ше@@	734279
ਧ@@	733711
jin@@	732774
ans@@	732695
ves@@	731677
nas	731574
if@@	731515
Х@@	730794
ched	729952
कि	729625
lem@@	728688
lang@@	728597
neg@@	728562
charger	728291
aluminium	728199
ៀ@@	727781
ಲ	727752
mó@@	727571
post@@	727568
ஷ@@	727548
है।	727000
portable	726645
ڇ@@	725945
ont@@	725557
ite@@	725369
ş	725017
៌	724877
wed@@	724710
ain	724271
cali@@	724137
gift	723852
uv@@	723667
dvd	722980
lig	722598
ክ	722050
याँ	721985
gre@@	721487
भी	720678
шта@@	720270
bạn	719687
ings	719680
ղ	719271
ሁ@@	718960
gab@@	718877
ган	718663
mid@@	718442
sony	717033
या@@	717032
nom@@	716967
jar@@	716902
sch@@	716886
ķ@@	716773
ళ@@	716324
tran@@	715660
ಧ@@	715546
atomizer	715216
xiaomi	715149
fir@@	714696
tus	714427
ൺ	714395
ь@@	714209
fak@@	713498
mes@@	713428
của	712552
may	711188
law@@	710364
tag	709833
dra	709783
ben	709463
හ	709444
سم@@	709236
inte	709095
ash@@	708002
kost@@	707871
gur@@	707797
dav@@	707677
iya	707428
foto	707394
battery	706990
ات	706318
сан	705583
टी	705489
iko	705114
key	705104
ਦ	704238
kä@@	704025
bisa	703752
зна@@	702874
ft	702346
uli	702150
â@@	701691
يا@@	701437
ia@@	701402
eu@@	701042
र्@@	701004
ner@@	700748
cel@@	700479
maka	700246
ein@@	700244
not@@	700149
made	699487
had@@	699323
asta	699290
poly@@	699068
ງ@@	698731
este	698499
dar	698346
ען	698177
тор	697925
oy@@	697658
mat	697294
beach	697122
yam@@	696716
panas	696535
jeans	696233
ian	696099
luxury	696084
ژ@@	696083
denim	695861
ated	695466
holder	694724
नव@@	694620
adapter	694112
over@@	694018
gs	692872
тор@@	692809
aq@@	692572
ast	692307
לו@@	692063
wood	691743
ahi	691192
bus@@	691075
тан@@	690865
ще	690617
kri@@	690033
sterling	690009
ġ	689217
бор@@	689210
multi	689088
wr@@	688482
qualit@@	688459
ча	688184
سان	688120
ación	687943
ህ@@	687861
cad@@	687739
ሊ@@	687314
रा	687090
ù	687047
dzi@@	686101
це@@	686001
ຟ@@	685633
ڻ@@	685303
akan	685277
مت	685256
lis	685058
cat@@	684465
ende	684413
zak@@	684327
sleeveless	683770
stri@@	683447
গ	683347
bli@@	683258
гі	683154
eo	682597
ван@@	682361
end	681921
ຸ	681781
ਡ	681630
ण	681490
cht	681237
Ç@@	680997
شر@@	680479
aded	679872
वा	678909
ූ@@	678171
ster@@	677917
nä@@	677047
sig@@	676759
ه،	676395
yi@@	676097
mav@@	676040
oh	675734
zen@@	675476
ws	675309
kö@@	675092
cat	674824
ឺ	674294
tar	673960
oda	673899
भ@@	673877
cosplay	673782
પ	673529
eth	673330
jal@@	673177
produk	672894
ৃ@@	672599
kar	672126
jó@@	671961
jes@@	671690
strapless	671122
رس@@	671076
nad@@	671012
bay@@	670920
product	670779
rose	670138
shell	669847
ink@@	669772
ħ	669676
eci@@	669433
ਆ	669413
ге	669287
က	669242
छ@@	669059
ás	668399
naj@@	668394
ख@@	667979
ই	667595
clo@@	667586
zit@@	667527
چا@@	667253
Е@@	667233
ஃ@@	667164
пры@@	666777
ris@@	666665
=	666482
xe	665414
wy	665256
sie@@	665194
zan@@	664098
dem	663666
kaf@@	663087
shirts	662728
ឥ@@	661522
在@@	661253
rel@@	661212
eme	660899
ques	660619
enta	660583
ഭ@@	660068
out	659498
ис@@	658771
inta	658687
кра@@	658575
zen	658519
les@@	658306
ኤ@@	657784
low	657601
द@@	657247
hua	657238
day@@	657140
dum@@	656852
ږ@@	656816
ս	656794
zon@@	656535
coat	656402
indi@@	656330
кан@@	656036
tay@@	655896
فر@@	655337
the@@	655289
İ@@	655196
cul@@	654998
alt@@	654658
נט	654589
xxl	654512
organza	654240
jat@@	654142
star@@	653797
wang@@	653737
יל@@	653453
مش@@	652928
map@@	652691
ems	652380
multi@@	652224
hul@@	651892
ski@@	651695
ves	651044
electric	650837
או@@	650579
ί	650558
ob	650556
say@@	650380
Ž@@	650297
enti	649981
קס@@	649645
sd	649608
лон	649241
band@@	649193
fai	649155
ּ	648152
ets	647975
eco	647881
mau@@	647786
ità	647766
els	647139
abs	646537
lite	646332
eva	646111
rad	645700
ket	645652
dit	645429
land@@	645399
sing@@	644903
för@@	644864
ຢ@@	644296
ठी	644162
ram	643978
dre@@	643690
#	643649
tee	643456
sky@@	643206
ím	643127
nail	642886
ì	642759
mermaid	642668
head@@	642055
रा@@	641606
speci@@	641427
रंग	641147
ವ	640746
solar	640617
ē	640104
decoration	640083
seg@@	639425
het@@	639126
rad@@	638790
लि@@	637966
ឈ@@	637889
bang	637741
سن@@	637473
nd	637009
anan	636885
هن@@	636816
مي	636748
लिए	636422
chain	635520
בי@@	635483
pis@@	634874
জ	634715
ell	634470
дан	634272
дра@@	634117
nas@@	634081
plug	633857
مف@@	633697
عم@@	633375
nes@@	633279
aji	633048
に@@	632921
aur@@	632891
avo	632734
lah@@	632184
fur	632158
ق	631886
né@@	631805
人@@	631711
зы@@	631419
sam	631022
té@@	630722
bank	630547
natural	630505
male	630462
anas	630432
xx@@	630312
tôi	629237
ble@@	629097
мы	628489
व्@@	628164
dot	628120
wis@@	627984
fon@@	627977
stu@@	627955
ale@@	627099
ለ	626999
он	626924
mä@@	626652
гра@@	626370
ost@@	626326
eno	625876
gas	625337
dio	625122
ნ	624576
dru@@	624534
chip	624132
aal@@	623477
tak	623411
etti	623235
sai@@	623112
may@@	623031
ting@@	622791
lac@@	622702
dvr	621744
kulit	621373
бер@@	621317
sas	620998
drop	620839
adalah	620824
mac@@	620662
ett	620498
لو	620494
ener@@	620058
stand	619951
بل@@	619670
sr@@	619575
rc	619209
ጫ@@	619099
gil@@	618427
bodycon	618420
tang@@	618386
ळ	618303
أن	618229
qi	617920
וו	617759
ria	617552
مح@@	617363
boots	617251
bridal	616824
лен@@	616352
rap@@	615796
डे	615264
spo@@	615219
ዘ@@	615075
ден	614872
asan	614593
án@@	614386
mang@@	614209
port	613553
tt	613272
nik	613175
wiki@@	612610
جي@@	612544
venda	612391
sed	612301
kt@@	612179
vu@@	612064
боло@@	611851
一@@	611814
mau	611527
зе@@	611187
ু	610924
ती	610906
из	610766
עט	610652
على	610347
ং@@	610178
بال@@	609963
htc	609862
dé@@	609742
चा@@	609627
مان	609540
ෑ@@	609164
च	609011
ml	608468
ando	608022
पि@@	607971
mei	607788
dl@@	607116
zar@@	607002
ື	606885
amo	606821
real	606678
hard	606641
wat	606542
wur@@	606540
remy	606486
lä@@	606317
ingen	606275
ዝ@@	606156
vapor@@	605641
ю	605504
aq	605306
ٺ@@	605137
emo	604735
cro@@	604726
रो@@	603985
ض@@	603910
cha@@	603910
fel@@	603842
drive	603761
bilan	603701
sau@@	603461
vé@@	603359
vat@@	603239
عل@@	603070
kini	603029
ble	603019
pli@@	602781
ታ	602722
tos	602479
тра@@	601940
៍	601804
kad@@	601644
ಒ@@	601513
hp	601450
צי@@	601395
ahan	601287
ե	601252
ос@@	601154
inen	600937
gown	600831
tru@@	600421
vis	600056
ها	599032
zim@@	599005
jos	598907
dak@@	598265
gin@@	597365
ente	597211
вам	596954
кол@@	596816
ес@@	596763
poz@@	596578
या	596566
។	596228
uj@@	596211
як	596055
zel@@	595709
مه@@	595701
parti@@	595533
mek@@	595361
или	595340
sie	595193
sir@@	595141
cum	595106
נד@@	594928
plated	594805
ide	593882
pedi@@	593860
शन	593661
cross	593250
spor@@	593250
ön@@	593230
kontro@@	592697
emo@@	592365
sub@@	592106
कप@@	592090
tut@@	592036
gun	592033
bh	591738
jn	591729
esa	591611
pul	591565
ჭ@@	591156
ঁ@@	591121
kita	591110
ሆ@@	590394
teg@@	590205
ät@@	590167
фо@@	590076
micro	589292
oz@@	589164
ек@@	589094
ring@@	589054
plastik	587512
eleg@@	587480
bos@@	587340
kwal@@	587033
can	586995
proof	586600
סט	586293
bracelet	586269
mis	586233
чо@@	586215
جو@@	586020
ved@@	585620
sten	585488
सु@@	585188
kem@@	584514
עם	583797
atu@@	583553
pt@@	583448
ith	583358
झ@@	583340
ше	583133
cru@@	582916
ses	582837
gran@@	582560
ute	582373
ks@@	582183
गुणवत्ता	582161
ኪ@@	581983
ун	581962
adh@@	581512
ፋ@@	581437
libr@@	581413
اني	581341
patchwork	581257
េ	580658
नहीं	580629
gul@@	580617
ಳ	580335
ou@@	580277
see	580176
नेतृत्व	579920
ין	579806
nach	579576
мат@@	579515
inc@@	579447
yim	579341
aire	578975
run@@	578867
ర	577916
awan	577849
pá@@	577338
ர	576896
ů@@	576467
single	576379
sticker	576361
ਥ@@	575916
אי@@	575837
ví@@	575766
length	575531
व	574648
ጌ@@	574294
ical	574218
ળ	573903
ав@@	573868
घा@@	573383
ச	573284
डा	573276
tí@@	572881
use	572739
ര	572549
post	572538
mani@@	572162
ici@@	571886
shenzhen	571412
和@@	571345
हैं	571296
ella	571238
sapatos	571138
sha	571129
mana	571096
universal	570702
ే	570600
mem@@	570499
భ@@	569349
ູ	569214
tidak	568961
نا	568872
lon@@	568559
led@@	568256
uru	567973
solid	567948
bru@@	567652
sweatshirt	567638
pai	567378
ੌ@@	567316
تن@@	567133
tra@@	566588
slu@@	566432
classic	566415
gsm	566059
ڼ@@	565752
bam@@	565670
ub	565566
imi	565529
ספ@@	565284
пад@@	565228
jag@@	565004
ሮ@@	564490
घ@@	563913
ping@@	563696
في@@	563477
jan	563411
ਛ@@	563285
nes	563253
ונ@@	563182
control	563066
flat	562989
arri@@	562896
xu@@	562702
kis@@	562402
ഒ@@	561900
dost@@	561554
lg	561250
ඔ@@	561202
satin	561007
ré@@	560625
bay	560350
ase	560312
pod@@	560287
acc@@	560266
лер	560019
pearl	559655
ві@@	559121
yat@@	559031
win@@	558906
ex	558904
lum	558749
prod@@	558516
ৈ@@	558432
handbag	558403
лет@@	558313
cowhide	557352
ڌ@@	557229
ime	557105
мода	556613
وي	556602
tav@@	556442
बे@@	556441
aza	556193
enti@@	556068
օ@@	555952
dade	555886
sis@@	555636
शिपिंग	554855
female	554243
цу@@	554161
مت@@	554086
ning@@	553991
unisex	553240
lau@@	553139
लो	553114
tw@@	552801
прода@@	552722
ust@@	552504
fis@@	552307
پت@@	552048
ys@@	551893
rai@@	551752
rec@@	551420
leng@@	551281
пр@@	551242
ss	551240
sili@@	551217
ђ@@	551211
ash	550856
isha	550805
stone	550657
breathable	550534
und@@	550397
он@@	549582
चा	549291
ઓ	549196
aja	548672
oper@@	548153
яс@@	547997
water	547417
kt	546890
hav@@	546504
dr	546353
मी	546195
ទ	545967
alle	545963
zer@@	545465
rf	545399
ني@@	545396
hair@@	545356
aug@@	545225
į@@	544859
وات@@	544679
uc@@	544474
pic@@	544053
aki@@	543950
ар	543525
ame	543410
ਹ	543367
ຣ@@	543344
ਪ	543275
ін@@	543012
shi	542914
liber@@	542465
هر	542303
là	542196
ቃ@@	542017
ಟ	541915
key@@	541640
ami@@	541272
less	541142
fem@@	541098
ess	540939
pra@@	540689
З@@	539782
vil	539535
ных	539515
onal	539403
fro@@	539145
suit	538973
kia	538931
بي	538886
cot@@	538814
不@@	537809
ఎ@@	537731
fai@@	537494
rag@@	537477
дар@@	537320
tie	537245
ige	537144
ره	537117
jor@@	537002
tion@@	536971
woman	536364
square	536246
ع	536172
envi@@	536139
пі@@	535946
downlight	535915
tam	535833
ading	535293
pou@@	535116
wing	534630
outdoor	534570
tur	534215
wai@@	534185
сло@@	533989
мм	533904
way	533354
rab@@	533328
cut@@	532722
professional	532217
appli@@	531978
fum@@	531871
को@@	531648
ات@@	531583
super@@	531242
ģ@@	531203
nic@@	530874
ዕ@@	529827
ша	529752
sensor	529399
قا@@	529173
ষ	529075
nen	529074
ū	528970
mab@@	528743
yor@@	528706
الم@@	528202
system	527785
ros@@	527738
dec@@	527607
ları	527598
org@@	527494
៏	527438
eni@@	527425
room	527404
ב	527246
polyester	527083
ron@@	526893
ब	526763
чи	526559
Ф@@	526547
mand@@	526435
ep	526394
sports	526237
decor	525997
sel	525907
umi	525647
է@@	525328
нар@@	524860
ats	524654
fah@@	524506
mma	524483
dt	524323
सी	524170
يل	524054
ls	523858
jam	523753
jet	523743
tum@@	523667
دن	523605
bs	523438
sus@@	523346
hun@@	522718
lari	522548
nice	522215
中@@	522183
балан@@	521667
pour	521103
tom	520999
zipper	520437
telef@@	520074
sé@@	519893
fet@@	519851
是@@	519514
ın@@	519500
anak	519387
ized	519362
ቤ@@	519246
các	519003
hay@@	518960
warna	518759
tol@@	518496
קס	518476
هم	518113
ළ	517518
rfid	517309
charm	517215
ද	517158
order	516915
nam	516358
हे@@	516355
ዝ	516312
stan@@	516004
necklace	515918
ƙ@@	515614
illa	515606
cus@@	515483
een@@	515137
हे	515070
ண	514831
oka	514750
cc@@	514657
ونه	514616
ጭ@@	514529
tl@@	514528
ix@@	514314
ط	514147
sweet@@	513873
siy@@	513752
דו@@	513517
kro@@	513112
कर@@	512722
무료	512485
tah@@	512448
christmas	512271
tai	512200
ء	512079
uh@@	511976
ڳ@@	511785
ich@@	511678
تص@@	510180
uan	510113
зи	509949
red@@	509888
сук@@	509262
ल्@@	508899
plaid	508740
प्रकाश	508579
ሌ@@	508458
ፍ	508218
бан@@	508059
ورت	507933
свя@@	507823
بر	507812
cardigan	507789
euro@@	507647
्@@	507589
ő	507180
wil@@	506974
ier@@	506877
land	506546
קי@@	506114
gn@@	505940
series	505846
tea	505694
modo	505585
小@@	504512
lor@@	504486
ium	504405
ck@@	504270
ous	504091
ogo	504059
دار@@	503979
лек	503816
ero@@	503490
én	502602
mujer	502526
nt	502045
ቢ@@	501796
сли@@	501744
ele@@	501399
ౌ@@	501240
vie@@	501156
لن@@	501093
kristal	500829
Ẹ@@	500706
frame	500678
مون	500555
ман@@	500307
tura	500247
kabel	500237
ቁ@@	499709
دو	499669
princess	499326
pper	499222
stro@@	498943
आकार	498877
òn	498773
lé@@	498447
ራ	498408
cool	498185
elektr@@	497970
gest@@	497924
mesin	497638
ric@@	497634
وار	497596
thi	497515
sing	497268
ظ@@	497198
barang	497161
cen@@	496641
virgin	496612
taf@@	496493
ও@@	496326
ግ	496053
bara	496023
ኮ@@	495611
bat	495509
ჯ@@	495476
canvas	495453
ൾ@@	495250
ቦ@@	494950
eto@@	494685
خ	494651
mobil	494624
ful@@	494610
를	494465
kup@@	494280
эй@@	494248
mix	493564
dad@@	493545
وب@@	493241
ሎ@@	493135
ሲ@@	492456
이	492409
eza	492319
ска@@	492096
ح	491680
ins	491575
gem@@	491284
tool	490832
cup	490740
aran	490714
paper	490620
чки	490227
body	490088
배송	489485
arka	489385
gb	489312
gg@@	489200
rok	489091
ند	489040
meng@@	488813
ਯ@@	488781
шка	488544
वी	488189
ат@@	488185
dog	487844
log@@	487726
biri	487706
chil@@	487551
ణ	487284
mal	487107
inf@@	486993
年	486985
ges	486779
ू	486619
data	486445
emi	486440
dd@@	486308
ذ@@	486274
tho@@	486251
drag@@	486050
мі	486004
गर्@@	485976
dos	485926
bed	485879
tis	485815
wan	485772
autom@@	485713
tri	485686
ropa	485503
ਭ@@	485244
मु@@	485149
via	484747
button	484715
onu	484704
ൃ@@	484377
ген	484340
pele	484324
वे@@	484231
ете	483932
korean	483744
جد@@	483651
ሉ	483612
front	483370
online	483299
م،	483267
ុ	483153
ida	482909
nun	482566
handmade	482006
belt	481995
zap@@	481904
ָ	481885
kalite	481772
्र@@	481759
ies	481145
sun	481018
person@@	480981
kad	480530
head	480526
wig	480505
них	480468
wer	480179
фу@@	480172
tä	479796
bow	479644
boy	479583
ુ	479486
संग	479437
فون	478932
bom@@	478485
छ	478485
ef	478214
iny	477579
ዛ@@	477550
रि@@	477359
ई	477346
stock	476963
korea	476805
festa	476574
lot@@	476477
有@@	476434
wallet	476280
мет@@	475158
сан@@	474992
ngu@@	474883
top@@	474865
бра@@	474855
ico	474652
pla@@	474507
وال@@	474291
carbon	474287
ږ	474281
ሞ@@	474224
gun@@	474186
ती@@	474115
dit@@	473946
מפ@@	473905
tulle	473870
pri	473743
vel	473670
ем	473501
dun	473440
ull	473381
יד	473281
eller	473148
انه	472823
ീ	472794
has	472637
fo	472533
rom	472457
harga	472165
its	471880
xo	471767
гла@@	471551
وس@@	471548
ҳ	471520
non@@	471339
ود@@	471336
get@@	471148
ün@@	471070
ണ	471002
年@@	470977
कु@@	470937
faz@@	470770
pc@@	470538
zon	470014
sö@@	470010
oma	469952
مخ@@	469818
が@@	469794
side	469617
sag@@	469521
long@@	469514
тен@@	469393
nal@@	469207
lay@@	469165
saf@@	469038
cav@@	468663
amat@@	468618
bare	468456
ህ	468407
зу	468352
rá@@	467880
raf@@	467685
alloy	467608
छा@@	467608
dab@@	467518
مه	467408
غ	467386
दर्@@	467160
aku@@	466881
bel	466869
ที่	466733
стра@@	466371
diy@@	466340
damit	466311
cia	466237
reg@@	465989
ಥ@@	465199
table	465037
ór@@	464482
pah@@	464402
لم	464230
quartz	464109
quad	464021
glo@@	463721
wire	463407
ros	463404
ware	463131
mum@@	462596
مار@@	462492
hle	462328
ो@@	462247
лан@@	462191
öl@@	462171
!@@	462151
sco@@	461747
ду	461728
गि@@	461576
हो	461071
vest	460943
wu@@	460571
נו@@	460544
ап@@	460287
ઓ@@	459785
stand@@	459736
上@@	459693
omi	459619
ве	459214
voor	457919
شي@@	457682
ዶ@@	457535
ę	457332
radio	457315
paypal	457275
baju	457089
skirt	456847
ву@@	456707
ઘ@@	456596
sep@@	456593
plan@@	456517
diri@@	456454
ква@@	456439
fen@@	456407
care	456327
сте@@	456245
alar	456217
avi@@	456166
elle	456038
ने@@	455886
sex	455753
ling	455230
שע@@	454947
yem@@	454921
ıl@@	454854
չ	454852
kualitas	454852
zad@@	454723
ύ	454279
пер@@	453987
tops	453914
produc@@	453799
audio	453639
floor	453444
вер@@	453126
legging	452665
ır@@	452573
нда@@	452131
ates	451977
ব	451919
”@@	451917
shorts	451396
mobil@@	451293
شت@@	451183
는	451136
las	451112
hoodies	450839
motor@@	450783
krist@@	450266
materi@@	450159
custom@@	450018
ዊ	449544
يم	449450
fair@@	449433
skin	449343
vari@@	449258
დ	449244
ఇ@@	449141
dis	448713
american	448662
ник	448393
ден@@	448244
ors	448209
lle@@	447754
ents	447333
bili	447196
पुरुष	447151
aste	447004
popular	446944
उत्पादन	446873
pot	446785
על	446521
ау@@	446487
peng@@	446166
nokia	446146
gat@@	446096
ля	445964
را	445948
inan	445808
candy	445771
ár@@	445623
under@@	445402
डि@@	445266
कार	445004
stil	444742
ול@@	444318
photo	444246
inde@@	444142
سل@@	444118
nai@@	444041
दा@@	443921
टा@@	443581
anna	443417
इ@@	442917
म्@@	442887
дол@@	442832
kalit@@	442589
faux	442513
fé@@	442507
với	442469
קע@@	442295
filter	442151
rau@@	442083
му	441939
จัดส่งฟรี	441801
bed@@	441436
sia	441340
ín@@	441251
xi	441224
yt@@	441107
pieg@@	440978
prin@@	440818
ጉ@@	440732
cri@@	440563
pom@@	440535
yen@@	440272
sh	440267
لم@@	440166
apar@@	440023
은	439996
lı	439786
खा@@	439708
משלוח	439545
club	439442
down	439274
cit@@	439265
inn@@	439222
lingerie	438806
は@@	438593
iska	438590
ቅ	438549
iş@@	438532
ሸ@@	438182
лах	438121
kü@@	438038
fiber	438017
aty	437822
تح@@	437719
ско@@	437684
wol@@	437587
bola	437490
gö@@	437436
خا@@	437220
road	437143
medi@@	437106
modern	437084
ψ@@	436971
ста	436793
aca	436590
yen	436442
・@@	436389
usi@@	436153
spag@@	436101
hand	435681
สำหรับ	435618
cut	435567
oak	435397
jar	435315
жу@@	435222
sau	435179
lt@@	435065
yel@@	434890
इस	434792
ck	434696
ens@@	434567
estas	434507
सर्@@	434490
hin	434350
ds@@	434296
ech@@	434170
बि@@	433984
unu	433837
king@@	433716
không	433673
ដ	433585
hop	433384
plush	433379
bags	433232
य	433227
ille	433103
had	432718
कि@@	432427
lamp@@	432248
ec	432193
ford	432026
sto	431961
טר@@	431844
ukuran	431837
toyota	431668
odm	431553
dn@@	431496
von	431458
किं@@	431288
lock	431240
mesh	431142
ዚ@@	430852
panjang	430812
ü	430419
gum@@	430184
ance	430125
warm	430022
polo	429999
dir	429986
door	429773
anja	429360
אין	429089
ales	429084
forma	428905
ff	428898
mos	428710
שו@@	428639
مص@@	428476
ቲ@@	428013
mua	427831
दा	427818
ț@@	427470
pan	427413
вет@@	427315
شي	427176
ober@@	427083
доб@@	427070
дан@@	427056
funk@@	426941
acrylic	426693
io@@	426629
ፊ@@	426539
nin@@	426330
ті	426104
standard	426041
ion@@	426031
hy	425839
uro	425837
saw@@	425666
elet@@	425517
ond@@	425245
نس@@	424908
time	424826
وا	424646
ges@@	424499
أ@@	424439
ameri@@	424395
ك	424259
การ@@	424213
тан	424069
ras	423751
stud	423673
meter	423513
pos	423235
pê@@	423118
nan@@	423043
tina	422947
best@@	422915
ling@@	422911
cli@@	422806
cab@@	422784
ony	422601
strap	422545
ك@@	422490
wir@@	422321
acht	422114
oil	422090
є	422077
bl	422070
uz	421826
гу	421765
len	421642
mill@@	421610
ción	421555
Ş@@	421524
ሙ@@	421360
stick	421019
sä@@	420982
rs	420955
oor@@	420881
baseball	420847
uur	420681
pack	420396
може	420339
चि@@	420144
painting	420002
tiv	419970
ede	419880
cle@@	419770
aaa	419727
game	419716
ted	419554
kop@@	419222
ming	419127
ఒ@@	418895
swimwear	418793
aliz@@	418532
ټ	418464
ברי@@	418444
lima	418101
ሻ@@	417795
sah@@	417724
roz@@	417495
material	417429
isk	417302
टर	416991
yuan	416913
הע@@	416749
mb@@	416731
ного	416708
чка	416542
وت	416507
messenger	416406
गो@@	416382
yet@@	416334
daj	416239
lava	416112
रु	416069
ї	416043
kov@@	416009
azz@@	415858
pt	415586
fri@@	415552
evening	415438
val	415400
moq	415373
daya	415325
ĵ@@	415257
ran	415255
ல	415202
ote	415173
так	414913
off@@	414831
roll	414537
ello	414522
pek@@	414511
دې	414466
શ	414448
kel	414436
และ	414432
xin@@	414397
kos	414280
mes	414130
gle@@	414118
fm	414003
ניי@@	413713
дру@@	413622
ړ	413304
تر	412936
ते	412823
alu@@	412688
חינם	412613
được	412539
ной	412318
tü@@	412277
ship	412245
ин	411731
form@@	411543
loose	411483
ім	411444
app@@	411397
nah@@	411123
jes	411117
honda	411025
pullover	410817
જ	410815
womens	410776
рас@@	410651
спа@@	410598
alan	410584
फोन	410461
Ј@@	410363
से@@	410342
arti@@	410267
cob	410136
प्@@	409964
ub@@	409857
aliexpress	409835
anc@@	409813
note	409807
back@@	409710
sapato	409661
פל@@	409598
मे@@	409553
trong	409337
fil	409303
dek@@	409302
sas@@	409253
gra@@	409156
cos	408810
hoa	408730
تا	408339
toys	408301
мета@@	408269
ృ@@	408159
sur	408093
ulu@@	407693
फ्@@	407676
model@@	407623
पी@@	407488
ూ	407476
ubu@@	407404
фур@@	407135
pay@@	407065
сер@@	407028
mara	406834
як@@	406707
ie@@	406597
lang	406493
ቆ@@	406459
arm@@	406455
ft@@	406403
سائ@@	406383
eve	406315
pav@@	406288
electronic	406277
кор@@	406269
ren	406176
keychain	405410
một	405210
ير@@	405116
elast@@	404969
वर	404575
של	404459
ჟ@@	404351
ώ	404024
ሉ@@	403997
ios	403910
ew	403835
bos	403784
mus	403714
telah	403589
ğ@@	403448
dur	403330
osi@@	403201
amu	402989
сла@@	402436
pw@@	402367
work	402104
អ	401885
kho	401792
dau@@	401503
laz@@	401235
ई@@	400815
zur@@	400771
sweater	400682
num@@	400547
kami	400513
vinyl	400495
ঘ@@	400300
nia	400078
थ@@	399666
тт@@	399596
चीन	399310
lights	399302
anime	399208
ным	399042
ที่@@	398838
vor	398780
haf@@	398704
giá	398696
وش@@	398693
xs	398299
خت@@	398131
plasti@@	398087
plo@@	397915
micro@@	397778
ऊ@@	397716
fic@@	397504
पु@@	397221
ере@@	397152
गा@@	396982
grand@@	396840
кон@@	396815
ီ	396703
лет	396676
ron	396573
ange	396465
hang	396410
pantal@@	396349
umu	396174
ía	395612
mater@@	395482
nica	395335
sk	395110
dır@@	395058
popul@@	395031
ня	394985
punk	394869
floral	394717
под@@	394641
yeni	394205
сте	394097
itas	393415
ics	393380
ث@@	393308
bent@@	393212
مون@@	393210
द	392965
auto@@	392867
ця@@	392624
ઈ	392358
त्@@	392337
ឿ@@	392254
нан@@	391876
ደ	391851
yin	391454
dre	391437
ધ	391375
heel@@	391323
get	391246
ी@@	391205
ento	390854
beads	390702
bei	390568
مل@@	390538
વ	390392
clu@@	390372
tahun	390361
ئ	390293
js	390105
earrings	390079
ation@@	390042
bab@@	390028
हो@@	389993
tional	389985
сти	389938
ස	389841
ह	389707
collar	389653
hö@@	389551
lab	389505
dag	389369
cctv	389141
polit@@	388944
рі@@	388898
dimmable	388590
press@@	388153
strip	388099
лер@@	387926
sang@@	387841
ș@@	387555
ኛ@@	387549
papa	387392
إلى	387315
ov	387174
ട	386882
zav@@	386840
بد@@	386770
param@@	386682
rar@@	386465
player	386430
dara	386411
ein	386097
ası	386088
pem@@	386054
kon	385936
وم	385925
בר@@	385810
sus	385635
bali	385160
vag@@	385001
nis	384871
sigar@@	384817
novo	384635
lenovo	384594
oran@@	384588
शि@@	384467
aa@@	384321
fab@@	384190
ও	384093
agi	384091
ಖ@@	384082
bai@@	383957
switch	383824
पे@@	383712
ort	383688
Ṣ@@	383612
kes	383585
bal	383558
ሁ	383535
دار	383509
elek@@	383445
alit@@	383439
aş@@	383432
akt	383310
了@@	383119
аб@@	383063
Э@@	383059
аф@@	383002
zn@@	382953
رف@@	382926
ഓ@@	382655
jel@@	382636
انت@@	382559
የ	382515
more	382427
bao	382380
api	382340
xperia	382308
oso@@	381900
fon	381700
ses@@	381573
fram@@	381461
же	381419
ray	381268
dum	381201
&@@	381181
rt	381052
ፕ@@	380916
нии	380817
ولا@@	380794
estilo	380678
פרו@@	380654
tunt@@	380362
alla	379993
vers	379916
frete	379806
bras@@	379590
wall@@	379531
ዓ@@	379417
buk@@	379384
dim@@	378928
tik	378927
шт	378897
что	378830
issi@@	378771
ust	378733
دت	378691
sle@@	378628
dla	378249
ám	378214
zem@@	378212
thu@@	378101
тка@@	377815
ஹ@@	377749
longa	377605
halloween	377455
uit@@	377378
טי	377362
ሜ@@	377352
avo@@	376954
fot@@	376927
शर्ट	376887
ष@@	376877
џ@@	376741
ża	376719
ֆ@@	376630
lens	376422
لل@@	376387
cree	376319
جن@@	375693
sion	375546
designer	375180
ੜ	375158
block	374968
rah@@	374953
том	374946
shir@@	374923
بار@@	374895
desain	374783
house	374540
besar	374530
क्री	374478
ൗ@@	374460
ट्र@@	374372
cell	374354
past@@	374275
test@@	374261
pipe	374186
diam@@	374136
высо@@	374101
link	374101
ь	373698
tv@@	373622
出@@	373474
नु@@	373155
кара@@	373052
新@@	372982
ment@@	372958
ный	372732
alt	372628
рен@@	372374
dv@@	372227
sion@@	372154
यह	372150
ዎ	372073
sid@@	372028
radi@@	371552
igh	371222
hé@@	371135
brush	371112
ox@@	370736
िक	370586
日@@	370551
ган@@	370518
ores	370470
स्व@@	370342
costume	370325
тро@@	370182
át	370167
poli@@	369815
lash	369726
wal	369644
usd	369627
ෘ@@	369593
нг	369243
lei@@	369091
clothes	369082
veg@@	368920
ሽ	368909
eti@@	368848
rus@@	368814
bmw	368558
tab	368388
sleep@@	368358
jim@@	368320
ጨ@@	368268
،@@	368150
ating	368141
tre	368046
lus	367994
aju	367988
vw	367908
taj@@	367782
jack	367711
thể	367629
bin	367597
onda	367591
фе@@	367547
flu@@	367523
foto@@	367381
fik@@	367260
saya	367111
für	367103
jin	367023
と@@	366779
pru@@	366619
свет@@	366520
cas	366500
تي@@	366045
fran@@	365981
travel	365978
ላ	365587
地@@	365362
сен@@	365163
noiva	365125
Ə@@	364870
ठ@@	364810
hah@@	364658
femme	364582
ध@@	364564
gt	364219
электро@@	364129
ओ@@	364103
bor	364087
last@@	364044
जा	363946
doll	363885
plate	363860
voi	363847
auta	363734
if	363663
pend@@	363543
мя@@	363507
blu@@	363433
lak	363410
ؤ@@	362920
isti@@	362771
cigar@@	362649
mic@@	362465
digitizer	362339
suits	362339
ick@@	362205
кон	362163
stre@@	362025
good	361996
لون	361856
chrome	361838
ះ@@	361612
protector	361585
bb	361402
машина	360970
水@@	360962
णा@@	360425
ф	360402
ley	360373
mae	360207
ਐ@@	360098
ंग@@	359556
vet	359535
ਜ	359422
rom@@	359387
سب@@	359296
elli	359124
dua	359054
„@@	358991
dah@@	358897
aar@@	358820
dames	358720
enda	358595
ຶ@@	358533
ago@@	358514
gön@@	358420
view	358317
eth@@	358312
вання	358281
glu@@	358129
bic@@	358127
mc@@	358094
хи	357179
open	357125
gaya	357115
حا@@	357101
ग	356960
эк@@	356929
的	356836
ਘ@@	356643
ery	356636
lampu	356575
ody	356532
क्र@@	356419
जी@@	356336
ном	356269
ii@@	356236
ier	356102
km	356059
tangan	355974
पूर्ण	355817
цы	355800
inverter	355772
ados	355479
ጊ@@	355479
ping	355473
zer	355173
amerika	354959
দ	354372
هذا	354299
base	354218
קט@@	354013
ске	353978
ኝ	353830
sets	353586
صل	353568
ची	353562
री@@	353382
bling	353373
small	353296
spec@@	353244
stic	353200
lever@@	353147
olen	353145
uno	353113
chem@@	353111
ഥ@@	353040
aluminum	352970
rol@@	352939
beh@@	352762
ונג	352759
ć	352607
סו@@	352588
stickers	352541
ord@@	352531
pengiriman	352406
arrival	352330
maz@@	352302
dob@@	352126
velvet	352114
oleh	352070
handle	352036
are@@	351978
cd	351956
jem@@	351885
सी@@	351830
main@@	351763
mid	351611
ekran	351354
ਊ@@	351321
kau	351303
cuir	351171
ät	350874
ltd	350868
用@@	350560
kav@@	350475
ть	350408
ара@@	350272
жа	350260
сту@@	350109
вра@@	350101
stor@@	350065
azo	349246
թ	348930
gener@@	348895
вар@@	348600
દ	348536
yer@@	348461
سب	348302
ск@@	348259
ೃ@@	348198
رام	347939
supply	347823
кла@@	347801
बु@@	347714
boys	347653
ey	347649
lek@@	347509
ż	347326
tex@@	347179
ал	347130
pac@@	347113
vos	346836
ные	346618
stas	346583
sist@@	346537
vy	346504
nej	346447
ற	346231
dik@@	346061
जू@@	346049
epi@@	345978
висо@@	345972
dij@@	345929
ations	345546
вен@@	345542
bora	345477
pcb	345258
тка	345194
ථ@@	344964
das@@	344895
עו@@	344866
श	344795
ering	344673
kie	344539
war	344539
ech	344419
ved	343670
ቸ@@	343560
chinese	343520
emu	343517
tools	343473
dun@@	343433
dev@@	343299
tej	343124
fá@@	343120
zor@@	343043
have	342948
قي@@	342937
ጀ@@	342696
hui	342592
silikon@@	342533
trav@@	342495
dic@@	342461
ू@@	342108
well	341944
лек@@	341912
ሪ	341862
abo	341740
inflatable	341665
ઈ@@	341341
אר@@	341272
iii	340934
arr@@	340855
got@@	340841
有限公司	340763
router	340511
той	340342
tshirt	340323
nos	340266
роз@@	340139
수	339966
mari@@	339891
jun@@	339880
nou@@	339874
ці@@	339829
ding@@	339728
trans@@	339702
zhou	339612
type	339603
glas	339567
ties	339400
ဗ@@	339394
cc	339319
кры@@	339278
gru@@	339135
pec@@	339069
tip	338934
clear	338880
european	338621
prem@@	338516
train	338161
telefon@@	338135
large	338091
nin	338046
مس@@	338042
गु@@	337387
pret@@	337260
пой@@	337231
हु@@	337229
siz@@	337221
ניו	337042
به@@	336634
ние	336537
sneakers	336379
дук@@	336335
థ@@	336288
ਵ	336277
kab	336203
res	336198
ement	336107
сі	335921
手@@	335878
ony@@	335839
hal	335755
over	335739
kim	335651
sistema	335637
nya	335514
fast	335445
guangzhou	335395
yang@@	335210
hir	335183
aro@@	335153
tic@@	335110
শ	335105
were	335065
chan	334937
sten@@	334860
మ	334827
rechargeable	334811
اي	334749
proces@@	334320
их	334291
tir	334256
ፖ@@	333846
spar@@	333831
alma	333746
ဉ@@	333556
rac@@	333334
как	333256
metal@@	333157
وج@@	333113
про	332979
ân@@	332966
natur@@	332884
رف	332745
kening	332699
slo@@	332573
ство	332564
pod	332155
mik@@	332120
one@@	332042
муж@@	331908
để	331883
craft	331860
تع@@	331858
лю@@	331844
klo@@	331812
jak	331543
tes@@	331505
sum	331478
vai	331433
sot@@	331124
мер	331045
сум@@	330796
vara	330762
wit@@	330734
yal@@	330723
chap@@	330630
his@@	330394
leopard	330393
bebe	330377
تم@@	330342
ť@@	330046
aqu@@	329946
高@@	329890
най@@	329801
эле@@	329731
दि@@	329514
lama	329339
sama	329275
mah	329252
ោ	329228
ፓ@@	329216
ipod	329185
spot	329116
imit@@	329087
tot	329081
temper@@	328809
tr	328741
ڙ	328695
ista	328607
this	328518
esta	328491
prov@@	328361
naf@@	328271
esp@@	328229
пред@@	328062
ago	328036
zapatos	327927
बिक्री	327901
fabric@@	327867
knitted	327837
@	327640
ੂ	327636
tac@@	327615
marka	327569
biz@@	327547
lebih	327441
gom@@	327413
otra	327217
backpack	327214
brown	327186
kontak@@	327132
god@@	327122
rast@@	327111
で@@	327014
ഞ	326994
bok	326981
aid	326969
golf	326726
applique	326697
eur	326679
football	326541
см	326442
vous	326170
גרי@@	326032
mic	325668
ged@@	325658
bit	325426
kot	325327
दु@@	325241
remote	325241
dell	325132
وائ@@	325044
sera	324923
jav@@	324883
luk@@	324821
vul@@	324724
ود	324678
wod@@	324563
cz	324552
seksi	324445
dzi	324399
sü@@	324141
martin	324006
тр@@	323946
jas@@	323940
graf@@	323933
без	323894
vat	323887
bre	323795
omo	323711
xxxl	323597
קיי@@	323472
fes@@	323393
tf	323274
bli	323145
кри@@	323089
chat@@	323049
fl	323042
zil@@	323010
عات	322996
ے@@	322791
ៈ	322778
kolor	322766
ску@@	322563
мар	322501
kleur	322366
pantalon	322362
fire@@	322323
مو	322261
zat@@	322198
本@@	322197
wor@@	322135
uar	322081
maxi	321912
ule	321835
charms	321767
siz	321713
هو@@	321702
akti@@	321683
оро@@	321653
franc@@	321626
jaket	321590
зен@@	321569
book	321527
animal	321476
eks	321394
我@@	321325
rol	321315
רי	321201
disp@@	320837
пан@@	320707
ння	320548
ikh@@	320539
ि@@	320519
vers@@	320432
sou	320372
ним	320337
ը@@	320110
adap@@	320060
sell	319957
aman@@	319796
item	319747
جل@@	319734
sol	319721
alat	319701
night	319624
ड्रेस	319528
किया	319487
קט	319010
rav@@	318959
ё	318958
ធ	318875
alis@@	318828
ге@@	318823
dest@@	318774
телефон	318624
تما@@	318107
फे@@	318082
qq@@	318023
вая	317929
ean@@	317879
kry@@	317805
duk@@	317802
galvan@@	317475
cam	317339
zaj@@	317249
وه	317151
jul@@	317079
ጅ	316961
कार@@	316911
anj@@	316631
kk	316617
ih	316545
lain	316509
نان	316298
từ	316287
bac@@	316014
zab@@	315912
ෆ@@	315806
пласти@@	315651
face	315570
bé@@	315530
ור@@	315489
beste	315403
bij@@	315338
brazil	315201
дер@@	315124
test	314992
kuch@@	314931
pig@@	314876
products	314637
uh	314633
kur	314419
loa	314408
kort	314387
टि@@	314091
ital@@	314075
زي@@	314067
ham	314006
tim	313801
ús	313782
div@@	313676
ෝ	313614
alum@@	313511
máy	313474
hara	313415
дж@@	313348
emas	313304
kwi@@	313300
magnet@@	313173
ped@@	313057
ml@@	313025
झा@@	312937
ኒ@@	312934
india	312860
gay	312540
tren@@	312476
सेट	312462
ה	312216
bol	312037
acer	311955
խ	311748
bio	311699
vand@@	311622
ms@@	311403
aff@@	311006
ack@@	310913
लो@@	310669
tem	310635
फैशन	310612
motorcycle	310455
ລ	310367
bog@@	310108
ick	310082
max@@	310022
love	309851
тон@@	309768
feminino	309532
boleh	309530
jumpsuit	309243
appar@@	309039
ঠ@@	308722
play	308713
meny@@	308688
satu	308588
muda	308579
dom	308539
새로운	308526
nim	308412
sweet	308250
renda	307639
тет	307519
ike@@	307496
лік	307349
пере@@	307302
pop	307300
आप@@	307296
nylon	307271
ret	307237
साथ	307061
aia	306871
redmi	306805
غا@@	306800
を	306646
code	306486
יל	306369
يد	306269
जि@@	306156
lag	306143
leu@@	305982
program@@	305905
makeup	305823
лин@@	305818
manufactur@@	305790
ulo@@	305785
spe@@	305784
wheel	305587
world	305303
「@@	305286
ສ	305169
ೂ	305067
inst@@	305042
мини	305030
сам	305003
cir@@	304988
dapat	304805
shop	304733
obr@@	304645
фар@@	304577
halter	304474
kg	304398
اف@@	304398
רט@@	304397
ath	304358
डा@@	304321
grade	304275
ush	304208
dise@@	304171
ชุด	303918
có@@	303914
קר@@	303881
kitchen	303825
хай@@	303681
uso	303649
lö@@	303607
им	303562
bb@@	303466
چو@@	303408
plant	303395
dot@@	303360
liv@@	303251
wholes@@	303225
rd@@	303216
ሳ	302985
hong@@	302974
cah@@	302963
iran	302770
etta	302710
الت@@	302668
iche	302614
baş@@	302600
grav@@	302537
cake	302349
子@@	302154
sil	302139
capac@@	301988
vap@@	301979
stereo	301979
nav	301977
تق@@	301874
iller	301866
aren	301838
asyon	301800
lampa	301787
gear	301678
cor	301645
月	301540
kra@@	301473
ของ	301461
try@@	301294
ಐ@@	301288
ongan	301144
बी	300958
rhinestones	300716
wet@@	300542
gear@@	300533
nom	300529
ias	300520
mali@@	300432
--@@	300237
abi	300154
ኖ@@	300142
dub@@	299983
ឧ@@	299980
swimsuit	299824
peru@@	299805
sebagai	299598
ants	299577
फि@@	299415
метал@@	299181
human	299151
magic	299069
май@@	299041
tro	298921
пор@@	298760
प्या@@	298743
णी	298711
уда@@	298605
won@@	298600
dal	298501
ါ	298450
koz@@	298436
ڀ@@	298381
industri@@	298343
lai	298316
जी	298254
있습니다	298180
ब्@@	298104
гер@@	298021
rug@@	297989
silk	297926
hello	297907
ture	297903
fs	297834
zy@@	297834
makin@@	297775
produkt@@	297722
aar	297533
fle@@	297511
halte	297387
лка	297386
dou@@	297285
ings@@	297171
الا	297106
lamin@@	297079
hap@@	296853
शा@@	296852
leggings	296634
tutu	296484
ጆ@@	296225
tras@@	296127
yên	296110
eter	295983
მ	295796
printer	295732
ін	295688
sport@@	295531
wek@@	295525
ком	295487
fabric	295479
yl@@	295448
पो@@	295399
რ	295342
bell	295310
hala	295291
liga	295249
వ	295150
eren	295088
тре@@	294830
seben@@	294712
ux	294559
한	294498
yellow	294492
office	294488
hole	294436
शैली	294348
цо@@	294102
عي	294090
نى	293848
ጭ	293817
funny	293722
bolsa	293700
posa	293669
enth@@	293579
enie	293566
abil@@	293283
nog	293231
mant@@	293179
ň@@	292922
dens	292886
い@@	292850
silikon	292699
плюс	292568
ас@@	292487
connector	292348
dü@@	292340
zy	292207
ঞ@@	292179
baru	292114
children	292076
umo	292010
ence	291950
ups	291902
aman	291901
धा@@	291885
flex	291832
lon	291818
يه	291793
nek	291595
mp	291539
ใหม่	291520
ים	291504
bila	291465
نج@@	291460
ën	291375
manga	291374
wave	291167
ffle	290968
fin	290963
bust	290936
watches	290825
jur@@	290817
три@@	290762
sofa	290705
בו@@	290693
ines	290684
oy	290628
【@@	290563
ate@@	290314
rubber	290306
mill	290231
сва@@	290127
stru@@	289915
zal@@	289871
यो	289860
anim@@	289775
blan@@	289764
טו@@	289755
رائ@@	289728
hollow	289560
ре	289535
ჲ@@	289457
бы	289235
toner	289005
origin@@	289002
vé	288900
daha	288754
seda	288738
pak	288667
matte	288407
kara	288400
नो	288192
dere	288026
gon@@	287761
express	287715
cn@@	287701
name	287564
was	287484
тари@@	287473
кам@@	287404
asus	287387
kong	287294
分@@	287185
jil@@	287127
grad@@	287124
google	287055
antique	287022
nur	286890
uo	286761
lana	286758
машин	286599
roller	286516
syn@@	286482
usu	286467
多@@	286430
bahan	286272
ades	286147
мер@@	286073
моби@@	285826
lun@@	285748
бе	285682
platform	285645
rama	285613
water@@	285503
sản	285434
pha	285374
tft	285339
esse	285198
tela	285155
спо@@	285142
طا@@	285113
करने	285056
гор@@	285043
homes	284986
በ	284912
itu@@	284767
lamba	284762
vga	284590
सन	284549
funda	284546
etes	284496
ປ	284443
hing@@	284397
clothing	284370
colors	284363
दी	284304
ਧ	284217
fí@@	284177
קלי@@	284095
ния	284054
ova	283868
ŵ@@	283742
पर्@@	283656
hun	283593
yz@@	283545
ther@@	283460
nab@@	283430
aç@@	283369
gra	283324
antes	283256
גל@@	283056
kang	282863
ders	282861
ós	282709
및	282687
ario	282529
amp	282469
anie	282466
pantalla	282406
нала@@	282312
ipl	282290
स्टील	282244
sandals	282219
ink	282207
hàng	282070
mount	281989
hoodie	281986
ဏ@@	281918
лен	281909
ጅ@@	281887
الا@@	281869
سلا@@	281769
yay@@	281603
pleated	281494
eil	281449
शरद	281442
pai@@	281310
ઝ	281305
عا@@	281296
क्स	281193
สี	281183
twinset	281070
вас	281056
тур@@	281002
נשים	280889
зер@@	280880
jade	280798
eye	280777
fra	280753
фи	280727
juga	280642
night@@	280461
גי@@	280430
हैं।	280289
marca	280248
ville	280232
tung@@	280077
longo	280058
tote	280045
การ	279915
生@@	279875
без@@	279873
alam@@	279858
ن،	279778
lol@@	279693
our	279681
romper	279592
bro	279526
badan	279510
шки	279307
duc@@	279215
عمال	279192
creative	278982
ï@@	278957
eki	278838
itan	278714
silicon	278546
earring	278538
city	278502
צו@@	278103
will	278037
pump	278017
від@@	277818
fitness	277799
eiro	277623
alis	277585
alar@@	277523
٪	277483
גן	277448
brit@@	277373
tracker	277360
تج@@	277227
vibr@@	277167
transparent	277145
ګ	277112
uf@@	277109
dor	276904
пера@@	276785
mr@@	276767
pes	276663
ches	276639
tub	276582
pand@@	276537
heil@@	276509
टा	276446
хар@@	276207
과	276168
monitor	276045
ager	276043
мас@@	276000
push	275916
dant@@	275874
сек@@	275701
simple	275585
مر	275545
ே	275513
ዳ	275496
sac@@	275390
asti	275389
pabrik	275344
oso	275302
ቱ@@	275259
सू@@	275196
शू@@	275151
lou@@	275130
angle	275104
day	274947
iv	274931
يار@@	274905
desig@@	274895
harajuku	274850
ars	274768
iss@@	274753
pocket	274748
khi@@	274725
ஐ@@	274642
ي،	274556
ces	274448
сай@@	274435
iki@@	274156
ኩ@@	274144
metall	274120
ማ	274072
ച	274025
priv@@	274018
arg@@	273944
projek@@	273886
arian	273819
య	273799
koop	273786
eny	273782
zione	273737
anu@@	273602
डे@@	273548
atik	273542
यर	273463
module	273383
street	273359
סטי@@	273307
бро@@	273235
service	273171
לינג	273022
ven	273011
ching	272997
ප	272922
ਝ@@	272875
inj@@	272863
hanya	272759
iq@@	272691
произ@@	272681
yu	272551
fy	272547
мод@@	272382
maid	272358
нер@@	272328
cry@@	272308
boy@@	272105
चे@@	271998
ked	271990
ፒ@@	271907
दर	271860
ppy	271818
ils	271802
etc	271783
ert	271664
iron	271643
print@@	271623
שן	271591
inter	271587
ular	271504
мож@@	271487
sheet	271235
кли@@	271160
vou	271134
は	271086
uje	270950
ibu	270867
cher	270861
tec@@	270856
shoulder	270834
сре@@	270821
이@@	270815
tare	270814
iem	270631
علا@@	270497
mao	270353
ank	270327
automatic	270274
थोक	270266
produ@@	270247
ൂ	270186
tengo	270174
uld	270141
stan	270121
לד@@	270066
lom@@	270041
रे	270033
기	269834
genuine	269782
wigs	269731
buru	269579
ax	269512
lin	269475
ango	269426
дизайн	269381
패션	269346
lit	269248
logi@@	269081
ౖ	268995
lil@@	268839
buckle	268807
alia	268738
stil@@	268549
your	268524
она@@	268477
vali@@	268281
खाना	268206
nel@@	268197
פט	268176
szer@@	268172
child	268155
ვ	267972
magnetic	267828
ඩ	267790
soccer	267747
шер@@	267486
caixa	267448
brica	267396
وري	267394
दार	267331
aju@@	267306
ük	267128
ril@@	267124
canon	267085
性@@	267078
mail	267019
chte	266998
slip	266990
zas@@	266882
nad	266866
roo@@	266795
vom	266751
mate	266739
için	266579
bn	266533
fishing	266151
bez	266143
kamp@@	266140
osa	265999
ضا@@	265982
ď	265873
windows	265844
cape	265832
evo@@	265805
فو@@	265739
rings	265729
punt@@	265675
tle	265662
सो@@	265640
кори@@	265630
amento	265584
aal	265559
ott	265496
osi	265482
seal	265269
mereka	265163
ባ	265155
skr@@	265060
lona	265004
ೌ@@	264989
وز@@	264936
speed	264899
ада@@	264567
sky	264511
tel	264187
פע@@	264173
प्रा@@	264134
gon	264110
cutter	264077
stit@@	264039
parts	263779
murah	263509
bateria	263468
קלא@@	263192
lie	263179
aban	263168
wind@@	263156
ман	263067
oj@@	262982
casa	262976
business	262971
tiv@@	262896
بار	262852
panties	262641
atas	262602
noi	262584
مق@@	262573
daripada	262559
пло@@	262484
kant	262475
gang	262314
já	262266
ม@@	262249
spi@@	262104
зар@@	261993
下@@	261955
sham@@	261926
դ	261924
pied@@	261888
truck	261860
play@@	261823
più	261770
angg@@	261553
colorful	261400
clutch	261389
selling	261305
แฟชั่น	261290
prez@@	261241
kira	261168
indu@@	261163
भा@@	261096
atan	260953
uş@@	260938
عن	260875
gs@@	260807
ở	260804
ઇ	260776
mark	260717
ൈ	260676
deal@@	260616
cie	260574
iph@@	260505
ем@@	260438
waist	260332
rei@@	260324
hooded	260216
вре@@	260066
само	260033
uto	259993
decor@@	259965
जो	259911
اري	259855
של@@	259638
mirror	259616
нова@@	259560
лё@@	259505
yon@@	259398
ien	259300
lim@@	259257
गा	259225
peri@@	259207
טל	259054
кур@@	259015
سر	258991
ró@@	258968
luz	258943
wax	258887
ultr@@	258841
nó	258595
armband	258587
accessory	258579
hope	258555
तु@@	258553
ız@@	258538
Д	258511
fig@@	258505
orange	258482
pl	258282
paj@@	258182
from	258094
shar@@	257917
imi@@	257767
ones	257758
aming	257737
sir	257680
ሬ@@	257629
camisa	257574
mouse	257560
зя@@	257524
pattern	257443
な@@	257414
الي	257356
đến	257213
слу@@	257128
mini@@	257105
رين	256956
ö	256927
yal	256813
מו@@	256782
fly@@	256695
mati@@	256401
bt	256218
ode	256167
tid@@	256127
נק	256123
rock	256063
oto@@	256030
swe@@	255919
saw	255887
нов	255871
jual	255845
עד	255790
dist@@	255758
kant@@	255631
izi	255615
גו@@	255572
bum@@	255550
авто@@	255463
рд	255209
家@@	255181
fel	255174
wide	255003
univer@@	254797
engine	254552
cina	254095
ጦ@@	253902
кой	253860
行@@	253840
त्र	253675
princ@@	253658
टी@@	253461
polka	253447
फ्र@@	253364
paling	253363
deep	253105
japan	253098
khu@@	253095
бур@@	253093
тай@@	253030
ス@@	252987
kru@@	252972
dian	252832
that	252820
match	252711
hook	252689
cht@@	252676
purple	252610
kart@@	252563
yü@@	252373
essa	252356
قل	252350
ध	252342
please	252240
ço@@	252203
女@@	252092
pure	252067
hed@@	251924
raw@@	251918
؛	251860
ਖ	251809
dap@@	251790
picture	251778
чна	251732
परि@@	251455
make	251286
dụng	251286
trend	251213
ix	251210
suzuki	251185
colour	251171
kers	251156
sut@@	251048
atur	251023
music	250906
сті	250581
quad@@	250475
ký	250395
cara	250299
park	250184
sre@@	250159
amar@@	250142
orang	250083
gia	249997
computer	249856
नी@@	249828
eh	249762
الو@@	249751
tua	249658
इन	249650
чар@@	249602
डिजाइन	249552
А	249346
package	249321
garden	249178
nec@@	249151
rang	249147
anal	249085
arom@@	249073
اص@@	249006
ति@@	248940
storage	248832
ingo	248819
لن	248767
काम	248701
snapback	248691
refer@@	248641
entes	248600
inci	248455
att@@	248393
app	248239
big@@	248016
अपने	247997
zik	247991
capa	247835
hoody	247681
cher@@	247589
high@@	247503
여성	247500
قد@@	247493
royal	247377
here	247357
ruffles	247270
פרי@@	247191
hele	247187
rim	247092
天@@	247028
về	246977
chim@@	246875
omet@@	246826
ните	246826
دوست@@	246696
femininas	246671
ሃ@@	246654
ጓ@@	246591
bohem@@	246554
مع	246497
iyi	246470
kac@@	246343
कू@@	246287
ogr@@	246174
upe	246166
scarf	246144
lumin@@	246090
पर@@	246038
сле@@	246036
дно	245923
ጫ	245796
br	245793
ass	245724
show	245705
pris@@	245700
чая	245616
kag@@	245589
lè@@	245545
pili@@	245542
disk	245444
kata	245410
जे@@	245388
wrist@@	245356
pil	245315
keyboard	245166
ਢ@@	245160
moder@@	245158
gar	245123
тери@@	245107
ű@@	245087
rot@@	245066
ब्रा@@	245026
rivet	245015
oth@@	244990
blouse	244947
испо@@	244945
ory	244852
intl	244847
यु@@	244844
bron@@	244728
ंत	244691
ген@@	244484
fili@@	244470
वे	244448
ness	244441
राम@@	244420
zip	244404
git@@	244326
खे@@	244279
sala	244247
chu	244229
jacquard	244184
europa	244169
ጃ@@	244149
avan@@	244145
utan	244049
olla	244023
kali	244001
موا@@	243892
yoga	243871
sequins	243789
tari@@	243783
tape	243780
kid	243742
ız	243690
aux	243671
fli@@	243667
gran	243636
ሮ	243626
pis	243608
spa	243485
team	243411
automat@@	243357
â	243325
porta	243319
था	243268
ก@@	243201
ış@@	243070
press	242970
underwear	242917
esti@@	242884
हान	242875
пол@@	242852
medium	242834
тек@@	242724
годи@@	242722
retail	242699
papel	242645
neckline	242641
arm	242635
قي	242605
rí@@	242602
dang@@	242566
到@@	242541
ся@@	242398
لان@@	242390
ès	242330
nak	242319
iu	242312
beauty	242304
ок@@	242297
list@@	242283
mh	242256
read@@	242207
inform@@	242184
certific@@	242132
גר@@	242079
בן	241982
ૂ	241904
तर	241871
cop@@	241827
neu@@	241800
lut@@	241791
گو@@	241759
tori	241750
stella	241732
caw@@	241708
hen	241672
dus	241624
tattoo	241493
ૈ@@	241435
fish	241366
ሶ@@	241195
ቱ	240951
وق@@	240881
pren@@	240785
intas	240764
lim	240736
zal	240673
telefono	240643
tali	240640
nel	240612
arte	240522
masa	240507
vision	240475
gal	240464
בל@@	240404
uas	240234
ç	240173
unt	240148
кер@@	240130
lv@@	240124
stal@@	240102
sẽ	240091
swar@@	240060
hai	240011
ѓ@@	239984
onic	239953
azione	239864
مست@@	239810
ضر@@	239799
ली@@	239778
】	239743
extension	239725
its@@	239724
ຟ	239721
uda	239695
lux	239580
ative	239551
עכ@@	239524
heng@@	239517
와	239447
ধ	239378
gambar	239367
jako	239366
gü@@	239287
embroidery	239208
ultras@@	239160
aby	239115
लेट	239104
manu@@	239102
मशीन	239084
wang	239072
bó@@	239036
لس	239020
pole	238961
कम	238919
elektro@@	238901
volt	238798
تف@@	238711
vs	238631
transpor@@	238621
छो@@	238547
squ@@	238525
تون@@	238483
化@@	238417
ඳ	238331
ů	238301
lt	238277
Ч@@	238252
sic@@	238248
seri@@	238238
ॉ@@	238237
sni@@	238098
amo@@	238078
jika	238058
rand@@	238035
main	238000
@@@	237982
mig@@	237966
औ@@	237936
की@@	237936
fier	237873
юн@@	237853
так@@	237783
kapas@@	237775
ير	237772
john	237771
gli@@	237724
pon	237714
чай	237511
भि@@	237484
Ш@@	237436
paket	237367
emp@@	237309
ever@@	237309
zaf@@	237216
С	237215
butterfly	237117
hao	237096
бір	237068
ጎ@@	236990
elite	236988
ŭ	236982
ун@@	236926
brazilian	236919
tum	236866
זו@@	236816
الي@@	236801
ኢ@@	236351
ood	236327
ция	236298
ឱ@@	236285
enza	236219
premium	236079
site	236074
broek	236050
hình	236044
rek@@	236003
ឺ@@	235997
kepada	235989
isan	235972
kwaliteit	235944
ब्र@@	235883
blazer	235829
web@@	235776
ผู้หญิง	235757
ose	235749
decal	235743
mais	235737
تور	235650
birthday	235626
pati@@	235544
colo@@	235513
ຝ@@	235465
sd@@	235368
naz@@	235338
rosa	235319
േ	235316
bun	235282
बल	235210
मुक्त	235181
masculino	235165
stic@@	235162
unto	235144
nev@@	235119
mere	235117
parti	235099
jep@@	235050
support	235037
inger	235025
energy	234969
mili@@	234948
kod	234930
tus@@	234832
قر@@	234822
chen	234733
cl	234722
vic@@	234694
regul@@	234592
robe	234582
etan	234566
сон@@	234561
шар@@	234529
цен@@	234506
part@@	234497
ceramic	234430
ಂ	234391
dong@@	234369
sec@@	234368
hir@@	234294
nik@@	234231
buil@@	234145
hon	234115
ံ	234114
lat	233975
york	233955
ница	233906
tech	233880
shan	233795
edge	233789
ഖ@@	233732
ון	233716
нам	233651
пак@@	233630
pat	233609
cs	233507
तू@@	233447
ovo	233441
ania	233406
камера	233288
mine	233259
ਬ	233232
cpu	233223
sci@@	233173
ом	233172
bú@@	233149
rr	233085
mono@@	233058
там	232993
store	232959
hong	232918
shipp@@	232910
ቻ@@	232897
bağ@@	232746
heid	232723
indian	232662
գ	232640
scr@@	232601
này	232534
enc@@	232529
úl@@	232528
диза@@	232337
가@@	232208
ષ	232115
pint@@	232089
anh	232012
मूल्य	231987
ሩ@@	231957
मध्य@@	231930
hit	231907
יו@@	231892
三@@	231802
sal	231759
color@@	231683
unan	231596
cheongsam	231592
ਠ@@	231511
ape	231479
atom@@	231442
чу	231352
jedno@@	231300
mt	231268
mdf	231221
ures	231192
centr@@	231148
דר@@	231072
డ	231006
अधिक	231005
nast@@	230764
hus@@	230741
ande	230587
mö@@	230483
ams	230438
ઠ@@	230393
sgs	230342
आगमन	230320
डी@@	230316
eil@@	230265
speaker	230265
minim@@	230218
чет@@	230210
smartphone	230134
verkoop	230003
lighting	229955
elastic	229846
supplier	229837
ally	229817
dul@@	229754
mass@@	229734
etas	229693
elektron@@	229560
مج@@	229550
infor@@	229546
phẩm	229499
ray@@	229489
bowknot	229450
tive	229270
мон@@	229156
mama	229054
sea	229005
goed@@	229004
dropshipping	228923
фон	228875
sm	228860
school	228854
面@@	228831
elegante	228765
вла@@	228749
tia	228734
audi	228718
|	228681
cream	228614
ंग	228576
shape	228506
eur@@	228454
kand@@	228424
ят	228370
가	228284
alu	228144
version	228036
tahan	227995
ovi	227925
vast@@	227914
जु@@	227907
fcc	227817
anka	227769
dable	227726
unit	227687
उन	227669
leid@@	227620
від	227607
दो@@	227567
ጋ	227552
máquina	227544
tt@@	227531
oon	227378
fed@@	227340
gala@@	227230
نظ@@	227161
shopping	227132
ሥ@@	227119
دم	227023
èn	226991
roupa	226954
aut	226696
ım	226679
प्रदर्शन	226630
оп@@	226611
femin@@	226547
odi@@	226401
yamaha	226371
but	226333
сили@@	226301
lant@@	226242
ım@@	226195
mij@@	226186
rack	226180
mtb	226153
все	226084
ת@@	226068
dans	226043
pum@@	226035
braz@@	226028
người	225899
xr	225875
市@@	225776
machin@@	225674
יי@@	225618
find@@	225605
जर	225413
mall@@	225405
ሩ	225200
fest@@	225191
ا،	225190
printing	225144
woven	225139
тру@@	225102
mr	225098
ewa	225014
全@@	224934
pik@@	224907
buku	224800
cham@@	224789
وس	224782
lev@@	224761
ür@@	224720
ล@@	224684
lagu	224555
طر@@	224468
пы@@	224431
eba	224276
hem	224266
pent@@	224249
وست@@	224240
આ	224232
chin	224179
ots	224115
ሜ	224101
सम@@	223936
cai	223886
ア@@	223878
Č@@	223845
рабо@@	223801
以@@	223797
кро@@	223772
हर	223763
web	223736
arab@@	223601
ด@@	223600
enz@@	223576
بت	223572
dro	223548
ву	223500
putih	223465
ции	223424
ét	223319
pendants	223298
onn@@	223229
câ@@	223212
зе	223109
fres@@	223046
ordin@@	223017
scar@@	222959
khi	222847
skate@@	222767
jiang	222708
japanese	222700
resin	222569
ld@@	222507
ligt	222497
ную	222479
handbags	222455
ą@@	222424
ball@@	222342
kte	222304
slimming	222255
ద	222217
gör@@	222160
hood	222137
ight	222086
外@@	222073
ዜ	222022
mir	221995
hari	221957
\@@	221946
에서	221929
ned	221922
ум@@	221846
хе@@	221798
wit	221758
بان@@	221695
тив@@	221693
×	221604
menta	221542
ň	221522
tassel	221452
elektri@@	221326
sz	221222
ھا@@	221175
التي	221151
công	221081
ही@@	221074
मान	221065
cast@@	221011
हार	220993
beg@@	220992
avec	220958
mold	220905
ឌ@@	220800
tig	220630
ران	220627
vin	220575
nol@@	220480
ೖ	220451
inne	220391
цена	220343
нару@@	220310
成@@	220275
kawasaki	220230
山@@	220207
ül@@	220169
into	220165
nota	220164
ኔ	220123
ફ	220122
mail@@	220074
gol	220007
abu	219989
ють	219982
साय@@	219948
blade	219870
dien@@	219788
зда@@	219743
मत	219725
aria	219666
heels	219623
nissan	219561
ष्@@	219558
ៀ	219515
mim@@	219388
yum@@	219359
svi@@	219339
ної	219329
sunglasses	219218
dekat	219218
suv	219113
cis@@	219103
feminina	219067
nú@@	219014
layar	218838
cocktail	218716
ப	218614
ፎ@@	218567
cm@@	218457
пос@@	218390
nfc	218299
bulb	218254
چار@@	218218
名@@	218194
entr@@	218193
yw@@	218079
ghi@@	218048
gentle@@	218034
Š@@	217957
rat	217826
пли@@	217801
teri	217670
кен@@	217669
дав@@	217652
मिनी	217607
了	217591
oz	217562
dry	217555
electro@@	217422
就@@	217360
cker	217346
ਔ@@	217337
kitty	217325
тон	217303
기@@	217277
point	217274
earphone	217257
할	217239
sign@@	217237
multicolor	217207
ply@@	217164
lio	217146
tic	217120
प्रति@@	217107
фабри@@	217094
eck	217047
bead	217015
wen	216984
ஏ@@	216951
rua	216884
grand	216860
gopro	216846
ça	216753
tun	216700
tent@@	216672
kore	216657
स्त	216626
stitch	216614
сар@@	216556
hak	216518
बो@@	216515
rod@@	216480
chan@@	216476
рука@@	216402
ться	216390
voor@@	216366
como	216340
plu@@	216325
сон	216324
前@@	216311
ဓ@@	216202
Ü@@	216187
ters	216141
bet	216105
ator@@	216056
tand@@	216032
form	216023
trên	215942
thanks	215921
lip@@	215871
vent@@	215781
rh@@	215713
golden	215700
оли@@	215698
ome	215677
ligh@@	215605
usu@@	215596
asia	215566
klu@@	215521
ę@@	215502
ኦ@@	215495
wane	215491
eless	215468
бей@@	215442
loc@@	215431
поли@@	215425
leg	215318
kno@@	215312
tres	215267
elsa	215263
hut@@	215243
dö@@	215230
ية	215206
рак@@	215205
tad@@	215180
人	215091
formal	215075
adjustable	215058
bán	214924
viet@@	214827
làm	214822
peg@@	214763
ډ	214710
aler	214660
bottle	214656
choker	214640
eria	214573
रू@@	214549
และ@@	214504
rd	214201
ming@@	214179
дво@@	214134
probl@@	214106
drop@@	214073
making	214018
hotsale	213997
lengan	213957
stra	213911
жи	213906
quin@@	213892
kem	213836
fire	213762
nhất	213747
headset	213687
oir	213677
子	213611
socket	213597
И	213554
פר@@	213513
mà	213433
too	213415
ct	213411
spl@@	213366
sp	213312
atur@@	213253
ส@@	213226
로	213192
dance	213130
ፀ@@	213064
dok	213052
skó@@	212861
lla@@	212778
santa	212748
zd@@	212707
部@@	212698
edo	212692
sales	212691
прави@@	212655
exten@@	212654
opti@@	212615
ice@@	212604
pell@@	212565
laf@@	212546
جان@@	212538
金@@	212498
những	212465
wie	212411
수@@	212389
टो	212389
kal	212362
pictures	212338
وان@@	212286
等@@	212239
रु@@	212184
kits	212163
bear	212094
part	212039
igen	212030
bai	211963
धी	211945
disk@@	211923
rant@@	211816
chen@@	211792
bes	211727
bany@@	211716
तक	211668
sor	211591
صا@@	211579
grat@@	211567
yer	211539
electr@@	211534
aft	211522
cent@@	211505
titanium	211486
bolsas	211458
fox	211437
gaz@@	211416
fedex	211306
dong	211296
дах	211294
गरम	211219
patch	211173
cion@@	211144
bis	211120
pur	211113
tat	211113
कुछ	211025
packaging	211023
iste	210991
resist@@	210929
ของ@@	210928
asli	210918
функ@@	210907
ग्@@	210840
pir	210769
obj@@	210767
multifunc@@	210704
lovely	210679
נד	210666
ከ	210634
lü@@	210558
гру@@	210531
ern@@	210529
anal@@	210524
гово@@	210445
пара@@	210372
dut@@	210372
batter@@	210360
rö@@	210348
neo@@	210268
mí@@	210241
дей@@	210235
gau@@	210145
ская	210069
美@@	210059
ove	209995
soci@@	209966
window	209961
लर	209744
chat	209737
heim@@	209714
dimen@@	209700
वर्@@	209697
اند@@	209692
ства	209642
тво@@	209636
magn@@	209636
waj@@	209307
מד	209260
可@@	209234
zet@@	209219
вс@@	209211
energi@@	209193
chal@@	209193
media	209186
दे@@	209159
лик	208995
मान@@	208952
aum	208940
спорт	208926
than@@	208831
acti@@	208827
ン@@	208800
kak	208772
semi	208723
versi@@	208687
зон	208589
ха	208545
mikro@@	208532
花@@	208516
owo	208422
yas@@	208414
kaca	208313
biz	208289
ное	208288
टे@@	208276
ذلك	208249
lia	208201
musim	208151
run	208130
ée	208070
kung	207969
тря@@	207939
atio	207760
ley@@	207700
tapa	207634
شار@@	207518
力@@	207515
umin@@	207458
bater@@	207422
lec@@	207372
mula	207359
nhà	207214
вала	207078
beautiful	207073
fancy	206889
fung@@	206881
ص	206841
queen	206796
take	206786
seperti	206725
coque	206697
оби@@	206674
extr@@	206667
stel@@	206635
日	206543
atus	206523
हॉ@@	206485
old	206396
dijual	206364
pus	206363
рок	206289
otte	206281
von@@	206254
איי@@	206155
выра@@	206122
bia	206073
seat	206026
caps	206000
aer@@	205925
kle	205920
eca	205867
ана@@	205827
nov	205810
чор@@	205805
над	205801
bib	205752
બ	205708
dw@@	205671
kasual	205665
фі@@	205456
tekn@@	205420
ඟ@@	205402
sted	205278
ر،	205226
profesi@@	205213
socks	205177
aper@@	205174
tele@@	205155
igi	205148
стандар@@	205089
rambut	205045
act	205008
ında	205006
akh@@	204994
mong	204927
japanned	204902
usan	204864
sul	204807
можете	204621
гре@@	204607
solo	204591
parag@@	204581
пи	204579
laki	204560
mascul@@	204545
adas	204514
not	204506
apro@@	204494
apli@@	204485
aru	204472
нен@@	204394
andel	204393
glitter	204349
brides@@	204323
number	204320
eling	204305
lelaki	204303
א	204289
thin	204266
def@@	204261
ル@@	204246
tree	204238
року	204230
топ	204192
quente	204183
baba	204095
drin@@	204030
produkt	204025
primavera	203970
物@@	203865
sana	203858
лим	203852
ít	203830
oki	203796
यन	203775
anger	203711
bou@@	203707
bulu	203635
איר	203585
сет@@	203570
bey@@	203537
ını	203457
ऑ@@	203419
ayan	203374
kari@@	203352
криста@@	203323
bateri@@	203258
cy	203251
गया	203151
each	203037
कल	203030
нка	203028
उन्@@	203009
ኬ@@	203007
bec@@	202939
hyundai	202910
spir@@	202852
سان@@	202822
trang	202809
ow	202784
nika	202765
ಡ	202756
bright	202747
مات	202716
ڍ@@	202649
string	202624
хол@@	202589
े@@	202581
sell@@	202487
ए	202418
kaj@@	202353
сур@@	202347
शुल्क	202303
кре@@	202242
пы	202189
pode	202135
ów	202122
тич@@	202111
शी@@	202096
cel	202082
cell@@	202081
ċ	202050
pau@@	202002
تش@@	201966
지@@	201957
نىڭ	201947
regi@@	201947
eben@@	201942
industrial	201902
studio	201894
bandage	201852
pillow	201843
raj@@	201832
бас@@	201723
િ	201721
ै@@	201663
rak	201619
zat	201511
kli	201475
ual	201463
kus	201450
dies	201425
экран	201409
रन	201352
要@@	201319
リ@@	201270
street@@	201248
ਅ	201223
вели@@	201187
kout	201175
tek	201115
ंड@@	201109
कन	200995
eel	200930
така	200761
pé@@	200755
ien@@	200621
прав@@	200609
ૃ@@	200578
事@@	200537
interior	200534
ace@@	200516
पू@@	200489
lange	200472
gag@@	200448
europe	200350
bine	200339
色@@	200333
hia	200308
abiye	200302
مان@@	200301
खु@@	200186
ಷ	200110
cio	200088
obi@@	200055
pool	200048
ща@@	199986
stripe	199945
notebook	199881
элек@@	199859
hes@@	199834
zima	199805
tout	199722
baik	199589
дро@@	199571
dov@@	199505
della	199476
тот	199453
合@@	199416
kaya	199370
did	199334
leer	199328
เด็ก	199293
も@@	199218
plac@@	199192
وقت	199191
kanak	199166
स्त@@	199082
tail	198989
ਿ	198913
kuy@@	198903
ката@@	198806
adver@@	198782
उप@@	198765
לי	198701
гал@@	198694
shang@@	198652
dai	198615
rho@@	198470
जो@@	198467
mare	198405
рам@@	198351
buy	198342
الح@@	198274
ця	198269
之@@	198248
brid@@	198227
tino	198184
bodysuit	198154
法@@	198151
camping	198137
kasus	198132
iser	198114
ৌ@@	198072
बै	198070
会@@	198067
tinggi	198037
ação	197991
breast@@	197974
guar@@	197926
sent@@	197881
thom@@	197819
cou@@	197772
ّ@@	197769
goo@@	197638
cutting	197582
zio	197577
izing	197575
ථ	197542
tik@@	197500
kato@@	197452
log	197429
ေ	197292
ungu	197237
น@@	197219
чен	197066
bry@@	197040
bap@@	197035
xin	196962
się	196890
cket	196822
lau	196774
hombre	196759
xl@@	196659
eso	196649
zioni	196629
benz	196490
powder	196468
ူ	196358
шка@@	196312
fine	196310
grande	196226
gio	196161
styling	196138
сво@@	196137
bak	196059
prime	196025
сумка	196006
ใน	195931
heel	195901
nil@@	195883
mio	195846
sleeves	195806
sit	195739
zom@@	195706
ваш	195637
fr	195327
grooth@@	195325
щ@@	195287
каль@@	195264
baz@@	195202
eps	195167
united	195041
cos@@	194912
blusas	194879
主@@	194814
uit	194806
kamar	194770
bran@@	194763
album	194718
руч@@	194689
wil	194612
bla@@	194605
ఖ@@	194585
headband	194561
avali@@	194559
salon	194415
ये	194360
nos@@	194355
कॉ@@	194272
ៃ@@	194240
shaw@@	194175
detal@@	194159
pom	194044
hydro@@	193989
relogio	193980
sang	193967
тна	193953
controller	193908
нас	193809
иска@@	193808
את	193757
auf@@	193633
yap@@	193565
رت	193550
लु@@	193522
gola	193451
bow@@	193427
ности	193394
emer@@	193354
بش@@	193322
iso@@	193308
dach@@	193261
ші	193246
god	193220
ekonom@@	192994
seng@@	192975
isu	192932
्य	192866
desktop	192846
hó@@	192821
gli	192815
sangat	192808
cep@@	192801
special	192774
同@@	192763
auf	192625
asy	192602
對@@	192585
海@@	192528
grey	192518
buy@@	192517
الن@@	192457
सर	192414
드레스	192379
cena	192343
ชิ้น	192262
african	192227
direct	192176
ة،	192149
случа@@	192134
नर	192121
스@@	192115
西@@	192103
ear	192077
vita	191960
spot@@	191817
hr	191814
kor	191791
रू	191791
manik	191782
glas@@	191779
jest@@	191768
вли@@	191767
жі@@	191754
бал@@	191730
шко@@	191721
adult	191707
मी@@	191617
ه؟	191558
elu@@	191530
absor@@	191502
أنا	191468
tet	191466
life	191458
olog@@	191428
oris	191365
tiga	191217
باش@@	191207
maxim@@	191190
ű	191182
trad@@	191036
dige	190996
ח	190936
hub	190911
word	190878
ट्@@	190871
ン	190866
ነ	190850
ника	190834
ribbon	190724
ঙ	190681
mercedes	190665
wom@@	190634
dak	190621
tifi@@	190481
allo	190459
garanti@@	190453
sepatu	190306
market	190291
visi@@	190285
tera	190272
boho	190199
mala	190063
rist@@	190059
~	190055
осо@@	190046
lê	190000
लाई	189907
україни	189836
starter	189775
mc	189771
стан	189749
anting	189674
öz@@	189640
ється	189619
им@@	189596
agen@@	189498
aber@@	189496
ዩ@@	189486
ingi	189462
kolor@@	189375
metros	189338
入@@	189276
rä@@	189250
esz@@	189145
bom	189104
बाद	188975
वह	188958
tima	188916
coche	188903
bad	188896
opp	188866
bụ@@	188859
tira	188848
food	188836
ቡ@@	188832
واست@@	188782
gall@@	188695
ниц@@	188691
kontrol	188659
dire@@	188596
रहे	188592
trum@@	188551
snow	188545
limited	188517
вых	188448
đã	188403
mich@@	188362
dc@@	188281
гур@@	188272
він	188183
europe@@	188156
mac	188139
little	188126
bayi	188107
עד@@	188026
ใน@@	187860
celebr@@	187855
stä@@	187854
ht	187768
bride	187593
طو@@	187570
bikin@@	187554
nic	187535
bot	187503
naw@@	187486
pran@@	187476
sc	187470
smo@@	187466
kecil	187429
fä@@	187421
マ@@	187404
فر	187390
घर	187304
tors	187278
光@@	187256
eyi	187183
ometer	187079
ude	187030
тет@@	187020
neon	186998
чно	186974
gang@@	186966
beliau	186916
kraft	186870
शी	186859
swi@@	186821
plic@@	186696
твор@@	186662
फा@@	186552
hdd	186520
printed	186496
dana	186483
ips	186465
just	186440
dj	186438
sobre	186436
alam	186392
stel	186323
ى	186280
bands	186248
대한	186247
scrapbooking	186246
റ	186162
гло@@	186154
macbook	186046
cycling	186009
тки	185984
В	185949
trat@@	185948
ความ@@	185937
тол@@	185891
omen@@	185820
文@@	185792
एलईडी	185779
ader	185768
ontwerp	185763
ей	185722
ток	185628
בל	185626
кожа	185616
рун@@	185579
ጽ@@	185569
غير	185563
mess@@	185440
dip	185411
你@@	185403
bohemian	185385
ism	185379
ठा	185327
baj@@	185314
how	185263
إ@@	185250
stra@@	185240
جه@@	185195
hanger	185145
riv@@	185139
ата@@	185074
ዊ@@	185049
strass	185047
sistem	185037
هذه	185000
وب	184985
अनु@@	184975
rod	184971
cao	184877
原@@	184827
ऊ	184752
ee@@	184751
zod@@	184741
fotograf@@	184721
automo@@	184705
donna	184690
ñ@@	184681
ño	184663
aris	184650
situ@@	184573
公@@	184518
نې	184446
ሐ@@	184440
teng@@	184420
alumin@@	184412
femininos	184374
բ	184353
semua	184300
प्लास्टिक	184283
طف@@	184272
nay@@	184237
ית	184198
hoy	184195
бу	184026
معا@@	184009
kain	184004
wand@@	184003
об	183969
direc@@	183895
wach@@	183882
mist@@	183744
із	183691
hitam	183642
يت@@	183574
tile	183574
дис@@	183522
ağ@@	183517
зі	183491
memory	183487
自@@	183445
techn@@	183401
特@@	183393
cn	183376
hou@@	183343
blu	183312
គ	183296
פו@@	183255
każ@@	183175
fant@@	183140
تل@@	183137
ות	182854
cz@@	182852
pei	182728
eit@@	182709
तम	182699
리@@	182681
alab@@	182631
eye@@	182627
fda	182527
sat	182515
dome	182504
intel	182457
spandex	182431
ack	182412
got	182391
着@@	182369
trim	182331
ቻ	182243
ค@@	182223
yaj	182221
mask	182134
eff@@	182056
akad@@	181990
far	181981
り@@	181930
magnet	181875
дам	181839
ped	181823
ئا@@	181810
קן	181777
diamant	181773
ظا@@	181730
pali@@	181700
पी	181538
bá@@	181491
lagi	181491
dra@@	181474
ביי@@	181447
pers	181402
kawaii	181399
dark	181378
impin	181342
及@@	181247
тно	181209
qual@@	181178
지	181087
zol@@	181072
barato	180981
iler	180967
ña	180938
foi	180928
epson	180896
करते	180845
peter	180844
קור@@	180837
hl	180823
���@@	180811
tại	180800
pati	180783
integ@@	180657
जन	180612
gle	180566
قط@@	180516
pio	180515
वी@@	180496
ış	180495
زن	180481
ሱ@@	180353
gis	180347
קטי@@	180340
slot	180295
encia	180290
mudah	180283
apk	180266
tone	180259
wallpaper	180257
compet@@	180239
بط@@	180212
lám@@	180151
owe	180148
ncia	180144
長@@	180144
ôn	180041
ሻ	180021
brake	179997
eş@@	179987
kos@@	179977
هل	179961
心@@	179960
адап@@	179950
bahawa	179950
process@@	179944
ám@@	179942
това@@	179936
work@@	179870
sma	179863
ksi@@	179837
алма@@	179826
vem	179826
انا	179774
قو@@	179757
ዮ@@	179746
好@@	179726
dragon	179710
lid	179707
при	179693
rear	179685
ól@@	179673
تخ@@	179650
roman@@	179650
sts	179613
lav	179610
dea	179482
rotary	179473
kare	179342
botas	179316
oran	179283
file	179278
qui	179259
ा@@	179211
עי@@	179194
دون@@	179154
fly	179138
sequ@@	179124
flowers	179123
coil	179002
дет@@	178993
еди@@	178992
geri@@	178988
eres	178939
manual	178912
زي	178816
superior	178806
בלו@@	178804
bicycle	178776
շ	178711
snap	178689
суа@@	178647
ore@@	178636
romant@@	178613
xxx	178598
टो@@	178492
spesi@@	178470
ind	178452
الأ@@	178445
ቴ@@	178439
motorola	178289
uro@@	178196
높은	178161
bm@@	178154
нер	178139
者@@	178131
utama	177969
west@@	177917
क्रिस्टल	177899
ー@@	177883
эт@@	177856
atv	177776
الب@@	177771
diesel	177729
د،	177681
bord	177675
mä	177644
dok@@	177613
yaf@@	177575
thank	177574
ρ	177558
mina	177488
會@@	177360
rumah	177325
ника@@	177301
út	177278
fus@@	177241
eler	177229
df@@	177228
vera	177219
стан@@	177167
fie	177147
ction	177100
定@@	177078
स्ट@@	177060
都@@	177057
ቂ@@	176992
rian	176828
mb	176736
kolye	176667
tige	176559
ön	176517
prima	176426
turt@@	176423
wol	176390
beg	176385
rou@@	176349
コ@@	176204
tane	176148
grup@@	176073
action	176065
ኔ@@	176039
所@@	176039
रहा	176004
ሱ	175980
toddler	175950
බ	175940
пер	175923
बर	175907
บ@@	175834
sml	175778
ラ@@	175745
пас@@	175496
panda	175467
scooter	175461
shanghai	175451
ã@@	175418
の	175361
owa	175359
jurk	175311
nut@@	175279
poster	175263
dam	175249
jest	175231
ፕ	175229
кам	175098
sed@@	175094
gara	175016
ок	174997
жер@@	174985
ति	174967
buck	174953
方@@	174902
oth	174792
мно@@	174783
rim@@	174760
пов@@	174756
pouch	174729
screw	174662
ân	174551
เครื่อง@@	174543
моде@@	174540
pair	174523
बी@@	174448
rij@@	174405
น	174386
मुला@@	174377
waar@@	174310
bud@@	174257
אופנה	174253
कोई	174242
بور@@	174240
phil@@	174183
chun@@	174111
दक	174110
лага@@	174107
clas@@	174103
seti	174020
yaz@@	174004
כי@@	173992
스	173980
ord	173902
hc	173887
लित	173877
לק@@	173872
impres@@	173868
tou	173788
מעט@@	173770
pie	173758
ռ	173715
الع@@	173646
это	173607
util@@	173562
ت،	173545
kamu	173533
пка	173526
lente	173521
ido	173481
uran	173410
आप	173386
lei	173334
chang@@	173331
زار	173299
হ	173286
ဤ@@	173232
crossbody	173232
ency	173215
त्र@@	173175
scri@@	173163
chúng	173162
אנ@@	173159
cinta	173138
ں@@	173137
ഏ@@	173092
poko@@	173092
ઊ@@	173061
internet	173059
ekt	173015
lok@@	172877
mom@@	172833
चु@@	172828
zoom	172825
تى@@	172819
organiz@@	172783
تول@@	172737
sup@@	172668
pena	172632
wrap	172606
компа@@	172539
esen	172471
sleeved	172417
wn@@	172417
aks	172376
нія	172369
शे@@	172339
رات	172300
massage	172253
лай@@	172229
west	172210
aco	172199
มี	172149
ult	172139
plata	172124
rota	172113
magaz@@	172016
komple@@	171998
У	171962
ც	171960
sistem@@	171940
шен@@	171914
рі	171893
terbaik	171797
mento	171787
вати	171738
मू@@	171701
cua	171685
пле@@	171676
ਊ	171655
ධ	171604
diki@@	171529
मेरा	171510
ян	171504
ful	171495
bö@@	171441
ян@@	171439
hoe	171404
خل@@	171313
que@@	171261
international	171251
fc	171198
profesional	171163
bn@@	171158
кир@@	171143
quan	171131
+@@	171017
ус@@	171000
ule@@	170961
homme	170942
hoo@@	170921
tipo	170854
лам	170827
british	170751
ній	170693
سل	170643
area	170620
defin@@	170550
ght	170545
rex	170528
हट	170517
لت@@	170466
ус	170433
werk	170430
self	170417
भू@@	170351
kombin@@	170314
tiếng	170307
như	170304
dear	170303
unha	170212
peny@@	170210
katoen	170179
onder@@	170129
bolo	170107
suspen@@	170094
dial	170090
fast@@	170083
ым	170064
atr@@	170056
ओ	170003
bug	169982
cane	169955
scre@@	169949
cambridge	169930
lic@@	169902
clock	169886
धे@@	169785
بت@@	169744
сно	169744
وله	169705
가방	169682
hol	169670
villa	169656
rum@@	169615
मोबाइल	169591
много	169545
finger	169541
加@@	169498
ม	169462
vrou@@	169457
heli@@	169441
ंब@@	169422
उत्@@	169372
alle@@	169354
cad	169312
بخ@@	169305
inin	169264
صف@@	169238
national	169138
gil	169074
कहा	169065
也@@	169038
чен@@	169025
mè@@	168983
diri	168979
خص@@	168960
ጃ	168953
ize	168949
ंड	168910
suas	168890
sample	168884
бренд	168869
spek@@	168830
ağı	168799
inverno	168752
boot	168747
bali@@	168739
बाल	168603
מיני	168488
رج@@	168478
вой	168470
french	168433
рии	168393
מ	168368
сен	168366
ão	168353
alarm	168347
ـ@@	168285
супер	168267
ዣ	168203
running	168135
qing@@	168095
अर्@@	168085
月@@	168083
kasi	168060
ሕ@@	168017
hockey	168009
игра@@	167991
สูง	167972
ét@@	167968
тен	167967
kotak	167947
机@@	167933
보@@	167931
イ@@	167917
avi	167818
国@@	167812
ঢ@@	167778
gue	167744
kni@@	167743
sint@@	167713
ل،	167692
shap@@	167676
zah@@	167649
seks	167646
zig@@	167643
рам	167569
lá	167563
valve	167556
chips	167518
jec@@	167490
pla	167458
ansi	167440
дево@@	167416
اري@@	167390
ኝ@@	167371
seu	167369
aras	167339
gray	167269
bra@@	167261
ዴ@@	167218
але	167207
त्या@@	167200
사@@	167166
փ	167125
рова@@	167073
transport	167026
eira	167006
aun	166977
sos	166976
्य@@	166966
home@@	166949
servi@@	166949
guitar	166946
мени@@	166894
телефо@@	166863
एस	166847
tte	166794
cet@@	166783
עור	166683
dame	166678
latest	166672
tere	166658
ڃ@@	166618
レ@@	166577
pli	166564
mean@@	166543
crochet	166524
outsole	166519
南@@	166508
austr@@	166466
ety	166423
مرا@@	166393
teach@@	166377
pieces	166276
ሠ@@	166259
हा	166236
ege	166223
tempat	166208
диа@@	166198
need	166181
दिन	166159
body@@	166037
futbol	165988
vec@@	165964
eer@@	165898
sisi	165891
الق@@	165875
drawstring	165858
เสื้อ	165857
tou@@	165856
kota	165843
ליק	165801
кая	165761
حص@@	165721
कृ@@	165652
його	165643
منا@@	165607
stof	165587
स्तर	165564
або	165537
hid@@	165484
neoprene	165460
samp@@	165458
moz@@	165448
mos@@	165424
كان	165415
fashion@@	165405
kinder@@	165384
mitsubishi	165383
cd@@	165381
pping	165371
deli@@	165368
ईं	165311
डर	165308
機@@	165295
ekran@@	165268
бор	165227
ク@@	165156
lila	165103
ឋ@@	165099
paillette	165080
ቲ	165037
enci@@	165032
رد	165032
bint@@	165012
mickey	164994
того	164967
клу@@	164946
às	164905
áo	164883
ві	164879
foot	164851
стру@@	164838
продаж	164686
كل	164672
cashmere	164642
安@@	164605
тии	164568
अस@@	164559
電@@	164504
шин	164445
عه	164439
kast@@	164396
ją	164386
пен@@	164385
нова	164382
कता	164291
eder	164286
fleece	164266
回@@	164260
mano	164229
dice	164210
stylish	164200
бри@@	164183
ቪ@@	164072
用	164052
chất	163978
ճ	163967
मैं	163965
bela	163933
edil@@	163922
ond	163858
đi	163774
vape	163769
ضد	163729
内@@	163729
kol	163594
ments	163590
shiping	163589
rik	163537
num	163517
cot	163472
tig@@	163425
hey@@	163412
lte	163405
bé	163312
ဲ	163269
bira	163231
sou@@	163230
wek	163191
ள	163149
ঘ	163135
obu@@	163091
ric	163040
син@@	163003
стри@@	163001
instal@@	162999
vac@@	162977
ड्र@@	162973
amer@@	162931
mempunyai	162926
вер	162881
hay	162843
stak@@	162840
пове@@	162795
sifat	162782
सा	162761
uri@@	162757
лам@@	162744
他@@	162736
problem@@	162733
kapas	162730
ठा@@	162730
under	162726
split	162665
नि	162658
agu@@	162656
“	162650
उत्पा@@	162596
समय	162595
اح@@	162579
оз@@	162567
الإ@@	162563
digit@@	162556
styl	162548
orig@@	162547
明@@	162543
üz@@	162531
converter	162521
пет@@	162435
pel	162428
期@@	162414
vlo@@	162410
arre@@	162386
hio	162385
मुद्र@@	162372
дат@@	162342
後@@	162336
nie@@	162321
ام	162204
Ц	162074
学@@	162066
comp@@	162025
ستان	162020
ित	161964
सन्@@	161901
vendi@@	161887
layer	161876
ፃ@@	161874
live	161850
multifun@@	161823
lep@@	161782
ater	161778
curly	161758
angel	161755
banyak	161694
kind@@	161691
tubo	161675
ран	161649
ł@@	161608
aco@@	161585
最@@	161467
мент	161466
cé@@	161455
ျ	161443
яр@@	161433
вали	161421
ester@@	161367
ninja	161302
box@@	161257
torba	161255
能@@	161210
زم	161182
lı@@	161164
trak@@	161128
уби@@	161128
bü@@	161078
drill	161058
flas@@	161055
ൺ@@	161041
ının	160976
ख	160930
onan	160923
xx	160894
लेकिन	160854
लग@@	160833
qu	160822
дода@@	160798
]@@	160796
chơi	160796
tour@@	160748
company	160706
mak	160691
groot	160664
وص@@	160614
blackberry	160539
स्टेनलेस	160534
university	160491
нет@@	160490
olan	160465
bird	160462
ח@@	160442
edu@@	160429
ड्@@	160417
комп@@	160343
bieg@@	160327
modi@@	160318
ins@@	160317
ely	160285
specific@@	160242
tkan@@	160221
ced@@	160213
ท@@	160163
thông	160154
zia	160142
diff@@	160121
sola	160110
joy@@	160095
potr@@	160080
عام	160004
hose	159977
luar	159905
ո	159869
стер@@	159863
स्क्रीन	159862
води	159841
hant@@	159840
шну@@	159821
pandora	159797
防@@	159786
чин@@	159773
bumper	159744
कार्ड	159742
cases	159719
living	159691
водо@@	159683
lumia	159653
пля@@	159648
driver	159643
guang@@	159642
cost@@	159604
hard@@	159584
hex@@	159575
watt	159516
か@@	159488
لات	159483
тов@@	159457
ď@@	159445
stop@@	159431
feng	159420
ром	159416
футбо@@	159368
skinny	159308
menjadi	159299
ators	159275
pia	159176
protec@@	159075
só@@	159074
став@@	159058
inoxidable	159018
mazda	158975
tio	158955
adora	158949
車@@	158944
cmos	158898
zte	158862
ски@@	158804
network	158734
foldable	158697
vista	158674
они	158668
तर@@	158635
ww@@	158614
yes@@	158613
otomatis	158585
बैग	158578
อ@@	158565
tay	158551
brand@@	158546
रूप	158492
бесплат@@	158480
track@@	158463
fication	158458
rob@@	158417
टेबल	158406
长@@	158375
inti@@	158358
zirconia	158351
ayer	158289
валь@@	158281
clar@@	158252
aje	158234
berry	158226
ornam@@	158198
abal@@	158168
קרי@@	158119
bahasa	158109
bv@@	157995
ход@@	157953
rey@@	157906
gros@@	157903
सजावट	157894
upa	157887
eman	157882
mint	157841
spre@@	157762
mou@@	157760
copper	157661
器@@	157650
afri@@	157576
station	157445
ロ@@	157373
yük@@	157320
iş	157308
luna	157288
uzun	157281
ayi	157276
mon	157259
الج@@	157247
fall	157225
mega	157200
ún	157198
shel@@	157197
жда@@	157189
रै	157076
fen	157076
jef@@	157044
bracelets	157023
niet	157019
전@@	156922
ណ	156908
त्रि@@	156870
itali	156869
тр	156757
حر@@	156704
զ	156685
лич@@	156666
foot@@	156659
प्रयोग	156634
aling	156634
south	156591
rabbit	156586
体@@	156509
larga	156507
וע	156452
otr@@	156431
اخ@@	156430
inas	156423
рка	156421
equi@@	156406
ners	156397
بلو@@	156390
cristal	156382
與@@	156379
bio@@	156319
lượng	156293
बार	156218
الس@@	156197
hk	156191
кс	156189
шан@@	156173
pura	156164
lif@@	156094
wooden	156064
copter	156025
eder@@	155937
cdma	155931
sử	155826
wikipedia	155579
وال	155558
лон@@	155550
ಧ	155538
packing	155537
awak	155525
analog	155520
理@@	155513
nut	155480
số	155467
हम	155458
parte	155445
рав@@	155444
lear@@	155429
stein@@	155405
تائ@@	155385
dobr@@	155357
vian	155351
lip	155284
unta	155237
电@@	155219
ph	155215
ccd	155200
мини@@	155186
technology	155143
ਓ	155119
वै@@	155107
điện	155083
ጂ@@	155034
сни@@	154965
cer	154953
kaki	154908
rgb@@	154877
ради@@	154864
ย@@	154834
uhi	154817
кана@@	154816
stri	154798
boat	154790
most	154786
ische	154771
ต@@	154754
नियम	154739
कपास	154700
добре	154633
label	154617
atura	154567
ater@@	154523
heal@@	154515
ъ	154514
email	154439
डो@@	154426
generator	154407
道@@	154403
ıcı	154348
uns	154330
ኑ	154288
رى@@	154237
cabelo	154237
arc	154220
swit@@	154170
ขนาด	154161
為@@	154158
america	154133
бара@@	154106
eten	154029
日本@@	154009
정@@	154008
ഘ@@	153998
mom	153996
теле@@	153984
seas@@	153984
hero	153975
xen@@	153954
volo	153928
win	153886
nok@@	153865
고	153849
दी@@	153814
بعد	153770
profession@@	153722
く@@	153692
bul	153690
брази@@	153669
wes@@	153619
направ@@	153610
маши@@	153606
klas@@	153605
redu@@	153596
인@@	153593
ree	153496
बना@@	153494
رز	153438
pf@@	153431
lul@@	153377
yor	153372
тех@@	153369
ظر	153322
access@@	153303
mec@@	153268
letter	153242
astm	153241
esto	153238
шу	153211
vot@@	153188
送料無料	153141
دل	153070
pm	153053
его	153035
sequin	153009
матери@@	152978
아@@	152956
rig@@	152950
रिक	152939
ích	152924
平@@	152817
ules	152791
bamboo	152757
два	152738
्यु@@	152701
camiseta	152680
lion	152680
foil	152656
لاست@@	152655
الر@@	152632
бен@@	152607
moist@@	152577
гну@@	152565
нови@@	152547
gebruik	152500
cau@@	152467
시@@	152441
features	152430
لقد	152396
siri	152349
أو	152313
ة	152303
zaw@@	152272
hos	152214
ebe	152175
what	152136
고@@	152086
نت@@	152036
工@@	152030
plá@@	151998
separ@@	151983
beach@@	151982
ví	151961
eine	151956
ender	151953
ції	151938
igo	151920
而@@	151860
お@@	151857
форма@@	151855
trendy	151836
वो@@	151833
क्या	151794
metro	151649
देख@@	151596
нав@@	151552
nous	151544
тя@@	151523
зем@@	151505
sini	151503
器	151494
oval	151485
put	151414
स्लिम	151398
amen@@	151355
чер@@	151325
supplies	151279
」	151228
dä@@	151183
يش@@	151102
www	151057
emi@@	151044
주@@	151024
नाम	150958
fang@@	150932
headphone	150924
bung@@	150893
车@@	150874
microfiber	150856
olahraga	150847
تار@@	150844
式@@	150812
ню	150800
bob	150721
hid	150708
जब	150678
kinky	150673
над@@	150658
маг@@	150653
тура	150638
tốt	150588
oksi@@	150579
каза@@	150575
द्@@	150547
стер	150533
kuku	150524
パ@@	150499
bach	150447
center	150445
sata	150426
ض	150415
प्रकार	150409
ór	150407
चित्र@@	150405
مة	150405
相@@	150374
gai	150357
pear@@	150357
cushion	150350
khách	150307
حل	150301
photo@@	150290
kind	150254
fix@@	150220
يار	150188
fluor@@	150165
mikro	150155
بين	150147
serv@@	150128
ខ	150121
negro	150113
型@@	150104
fix	150084
plat	149981
lay	149960
genu@@	149953
caj	149927
خي@@	149908
рен	149897
struk@@	149876
є@@	149835
κ	149818
sex@@	149790
ym	149780
продажу	149746
निर्@@	149746
живо@@	149730
gem	149684
bomba	149673
어	149672
conver@@	149665
druk	149562
disc	149550
tempo	149489
ऋ@@	149469
beur@@	149464
pelo	149402
mati	149402
टिक	149392
cấp	149381
necklaces	149381
يس	149377
זכר	149371
מב@@	149356
אינ@@	149335
ጽ	149318
prodot@@	149274
elektrik	149267
กับ	149263
आस्तीन	149173
rest	149119
кін	149066
hiasan	149052
about	149044
dụ	148989
rio	148966
zijn	148945
ኋ@@	148937
час	148897
baja	148890
alı	148885
ekt@@	148791
folding	148725
ۋە	148714
ум	148683
सेक्सी	148681
stre	148642
arbe@@	148634
insul@@	148603
stop	148587
arı	148578
eja	148542
gün@@	148500
rem	148430
eig@@	148370
ety@@	148352
{@@	148350
bur	148290
phones	148261
epo@@	148257
infantil	148202
重@@	148193
itation	148183
자@@	148164
hall@@	148130
mag	148107
किसी	148107
harem	148096
laser@@	148076
فت@@	148074
جر	148050
stal	148040
tij@@	148037
mad	148018
דע	147995
으로	147975
الذي	147971
воз@@	147969
bab	147967
bentuk	147927
اب@@	147921
fundo	147883
very	147872
tính	147868
lej@@	147856
רק@@	147817
oled	147763
weg@@	147742
автомоби@@	147701
пош@@	147650
які	147633
قت	147588
ingan	147487
jab@@	147485
volkswagen	147484
contac@@	147465
立@@	147441
סוו@@	147404
kosmet@@	147392
chir@@	147373
tetapi	147354
katun	147345
aster	147338
issa	147331
ką	147294
eum	147285
abstr@@	147278
hold	147238
ঠ	147226
ком@@	147215
kam	147205
لار@@	147202
oxford	147193
dada	147131
thiết	147129
karak@@	147080
difer@@	147025
ु	147000
heat	146998
endo	146971
來@@	146944
来@@	146941
come	146934
kop	146932
마@@	146925
anz@@	146921
ına	146874
leaf	146860
neu	146804
anni	146759
зии	146751
mond	146747
мне	146739
थी	146732
aio	146672
ã	146645
得@@	146599
ог@@	146593
restaurant	146593
pero	146553
seri	146548
पार्टी	146543
آس@@	146489
ઠ	146438
чтобы	146427
leds	146376
guard	146344
adores	146314
filtr@@	146282
ніч@@	146275
や@@	146252
suede	146242
чим	146235
veri@@	146224
puff	146224
provi@@	146196
flat@@	146169
çi	146050
س،	146045
mhz	146036
ዙ	146031
एस@@	146029
subli@@	146028
dent@@	146002
विवाह	145974
libre	145972
صول	145945
लाल	145905
」@@	145839
liz@@	145813
ook	145784
xy	145761
pass@@	145730
шту@@	145730
bles	145672
hed	145655
orio	145648
teen	145646
iye	145620
فقط	145615
리	145599
py	145574
木@@	145544
anos	145511
zek@@	145504
गर्मी	145467
friendly	145444
manufac@@	145442
uter	145433
біль@@	145420
sua	145415
ums	145397
טרי@@	145371
カ@@	145371
する@@	145368
ง@@	145362
polish	145356
onde	145332
לה@@	145325
oid	145307
coin	145294
mink	145240
mari	145146
kaos	145137
pra	145135
口@@	145133
masculina	145120
decals	145108
вед@@	145087
ור	145049
इ	145042
fing@@	144997
इन्@@	144992
ः@@	144970
coffee	144955
sf@@	144939
afrika	144896
saat	144876
소@@	144875
開@@	144860
jung@@	144850
nữ	144836
sandal@@	144818
अब	144778
grain	144753
enia	144725
ся	144631
पानी	144613
لى@@	144570
discount	144564
gua	144529
зад@@	144517
спи@@	144454
fundas	144434
capacitive	144412
pol	144394
slippers	144392
عت	144391
ग्र@@	144382
白@@	144373
termin@@	144369
חתונה	144294
дом	144273
kaw	144238
jus	144145
три	144144
boo@@	144143
аль@@	144074
ɗ@@	144047
edition	144042
дюй@@	144026
meer	144022
مد@@	143988
דרו@@	143910
ङ@@	143892
user	143877
indoor	143852
ఐ@@	143840
ሚ	143835
ኳ@@	143831
метр	143819
thermal	143805
высокая	143744
software	143720
בי	143673
ঝ@@	143673
ऋतु	143639
carton	143638
dao	143638
isce	143636
作@@	143590
пала@@	143532
traduc@@	143503
fiesta	143439
vij@@	143412
bộ	143402
अव@@	143398
acio	143331
पं@@	143320
ede@@	143294
हुए	143273
sind	143264
ছ	143213
입니다	143168
euro	143167
druk@@	143098
australia	143080
engi	143060
chandelier	143036
simul@@	143028
mica	143008
perhiasan	142870
temperatura	142856
quinc@@	142784
包@@	142782
लॉ@@	142738
роб@@	142732
גל	142708
heb	142677
батарея	142673
track	142640
kl	142626
pó@@	142565
sms	142565
し@@	142531
law	142487
รองเท้า	142468
oc	142376
พ@@	142368
gin	142347
بۇ	142346
женщин	142308
сто	142297
व्य@@	142290
guan	142282
lux@@	142278
segu@@	142273
adv@@	142258
kong@@	142252
động	142234
cheg@@	142216
energia	142168
perf@@	142162
अपनी	142149
eda	142124
ving	142078
る@@	142070
renault	142016
लेस	142006
футболка	142005
sebel@@	142002
ox	142002
robot	142001
هر@@	141966
बच्चा	141942
kontak	141938
сна	141892
cartridge	141889
शीर्ष	141883
制@@	141867
pic	141863
produtos	141790
يس@@	141787
just@@	141782
racing	141757
тов	141750
gre	141693
dress@@	141634
agen	141612
bintang	141577
aqua	141551
мина@@	141524
τ	141468
pert@@	141443
mixer	141396
hne	141368
kör@@	141324
कार्@@	141318
ont	141283
cabochon	141270
ๆ	141268
chand@@	141221
क्ष@@	141220
kasut	141213
ጣ	141195
clubwear	141177
vali	141150
шифон	141134
ஞ@@	141133
rojo	141130
mountain	141112
нау@@	141109
gare	141087
flan@@	141079
‌@@	141031
vacuum	141011
です	141010
sper@@	140983
selle	140956
ód@@	140919
foam	140900
nir@@	140846
ليس	140818
വ	140797
general	140742
יר@@	140736
secara	140691
պ	140680
bana	140641
кло@@	140631
lee	140593
peugeot	140561
रही	140515
oph@@	140511
lene	140431
एल@@	140429
مې@@	140415
боль@@	140380
нк@@	140365
zin	140301
ಏ@@	140263
zag@@	140259
печа@@	140202
tabel	140162
gym	140159
ventil@@	140144
xia	140136
beli	140080
logo@@	140041
ஓ@@	140020
верх@@	140004
बात	139958
vibrator	139900
видео	139878
twe@@	139876
kafa	139848
soft@@	139822
dium	139776
量@@	139774
blok	139746
ڄ@@	139728
лки	139706
last	139688
хва@@	139686
rata	139676
タ@@	139673
ombre	139662
oci@@	139660
моды	139640
flag	139615
turbo	139612
通@@	139603
sink	139602
ким	139572
modelo	139559
enas	139524
व्याव@@	139508
fob	139471
wrist	139460
תיק	139458
lithium	139433
unda	139426
«@@	139419
description	139408
disco	139386
spray	139348
中	139247
iva	139206
linen	139165
drum	139143
shand@@	139080
ఘ	139074
produkte	139032
логи@@	138997
elem@@	138986
iling	138923
sono	138909
powered	138901
дор	138894
الف@@	138886
вах	138834
gos	138815
лення	138813
idade	138783
eag@@	138762
lui	138726
lle	138692
alto	138667
दिया	138662
mình	138655
onia	138653
意@@	138644
ष्ट	138623
rainbow	138601
algodón	138567
ಹ	138558
snow@@	138531
itali@@	138462
corset	138455
now	138446
download	138427
થ	138399
vào	138371
राज@@	138364
nano	138349
流@@	138349
ഐ@@	138308
collar@@	138300
έ	138251
форма	138210
बहुत	138207
artikel	138194
кей@@	138167
rompers	138137
pare	138116
nai	138095
Н	138064
paris	138024
hadi@@	138004
kok	137995
pall@@	137987
blanc	137981
inde	137937
도	137855
bass	137845
feu@@	137828
сель@@	137806
stretch	137777
нем	137691
하@@	137652
نش@@	137630
john@@	137589
दू@@	137525
ам	137524
бло@@	137470
mel	137444
ston	137365
crown	137348
ному	137342
ря@@	137320
syl@@	137313
वस्@@	137313
midi	137235
went@@	137227
машины	137193
tang	137162
하고	137160
сна@@	137156
fort@@	137103
beanie	137097
resi	137083
دان	137069
span@@	137062
מינ@@	137041
로@@	137029
union	137019
сви@@	137012
ool	137011
합니다	136991
भे@@	136990
meno	136976
detail	136976
హ	136964
göz@@	136942
tini	136905
dip@@	136898
iden	136870
thời	136867
ル	136852
рин@@	136793
gul	136739
proc@@	136730
deur	136702
mera	136675
лица	136657
isen	136656
ඟ	136604
pier@@	136602
она	136601
hola	136588
сты	136587
ld	136584
nhiều	136539
global	136534
मन	136520
ares	136506
interes@@	136501
aggio	136491
yah@@	136473
dei	136459
shower	136449
女	136433
シ@@	136420
ولي	136355
erkek	136307
fondant	136270
elasti@@	136235
hing	136233
fits	136231
americ@@	136220
вь@@	136141
emos	136121
кабе@@	136114
dildo	136103
धा	136101
بع@@	136096
많은	136095
aise	136093
vide@@	136053
色	136043
tions	136038
बू@@	136014
ಪ	135985
azul	135941
نق@@	135932
đồ	135914
pins	135868
nur@@	135864
وه@@	135860
channel	135812
кру@@	135800
field	135775
ካ	135756
problem	135720
fake	135706
спе@@	135694
unit@@	135690
actu@@	135688
대@@	135684
sự	135672
प्लस	135634
basic	135632
ቢ	135619
महिला@@	135578
度@@	135537
kris@@	135507
flor@@	135503
contr@@	135500
chỉ	135499
ذ	135472
sandal	135452
bayan	135427
duvet	135424
ted@@	135416
illing	135402
פן	135351
tablet@@	135349
هد@@	135304
pola	135289
पै@@	135267
ं	135263
fono	135256
reka	135250
straight	135223
hydraulic	135206
bah	135174
skull	135170
delivery	135153
фика@@	135132
ว@@	135059
maker	135016
baby@@	134990
利@@	134943
elt	134939
шок	134939
appliqu@@	134899
थे	134898
stol@@	134881
ско	134869
sno@@	134855
चार्@@	134844
ção	134717
sung@@	134714
urs	134707
आई@@	134693
вих	134615
jac@@	134601
баво@@	134597
ჲ	134593
dati	134575
ство@@	134546
direk@@	134456
kişi	134454
ඹ@@	134443
पार@@	134401
merke@@	134353
suku	134342
mug	134330
apan	134296
अं@@	134286
ก	134251
상@@	134242
ಇ	134227
tester	134165
cintura	134155
mochila	134153
performance	134129
एक@@	134112
sei	134112
quil@@	134105
chod@@	134103
alne	134065
raf	134039
signal	134026
mural	134014
был	134014
cart@@	133992
laciness	133962
rib@@	133943
กระเป๋า	133925
reader	133899
све@@	133862
hadiah	133834
तरह	133822
если	133818
शक	133784
trin@@	133772
alan@@	133764
rej@@	133750
cuff	133743
potenti@@	133733
時@@	133718
भाग	133706
केट	133704
wood@@	133604
servo	133599
指@@	133594
عمل	133570
लू	133556
hiphop	133552
whatsapp	133524
offer	133490
beige	133472
stelling	133469
כן	133465
perlu	133453
ël	133429
papier	133404
essi@@	133395
ilikeyou	133296
shamballa	133295
jing@@	133275
uf	133274
okol@@	133263
rul@@	133257
обра@@	133245
品@@	133216
honor	133215
під@@	133195
bail@@	133157
城@@	133058
被@@	133019
amente	132979
uang	132944
также	132904
erie	132898
cool@@	132889
ece	132885
pr	132874
regalo	132849
ឃ@@	132839
ado@@	132835
ekip@@	132831
equ@@	132797
род@@	132744
조@@	132675
bijou	132670
коли@@	132670
easy	132655
看@@	132650
glasses	132640
degree	132620
vn	132596
cube	132569
medic@@	132569
bị	132569
어@@	132546
nikon	132543
शो@@	132541
klar	132538
لې@@	132537
optimus	132523
بې@@	132475
endi@@	132470
eden	132468
antik	132414
無@@	132408
coco@@	132386
正@@	132355
hex	132354
आधुनिक	132331
ლ	132320
ثر	132319
serie	132313
समा@@	132302
रो	132288
ector	132256
ป@@	132242
nka	132217
خبر@@	132198
ís	132186
身@@	132179
milit@@	132158
ém	132128
down@@	132128
diver@@	132084
विशेष	132078
رة	132060
mặt	132053
ною	132006
state	131956
shoe	131940
femen@@	131930
france	131916
بع	131913
مختلف	131875
heavy	131832
sole	131799
tech@@	131797
aluminio	131797
black@@	131795
yok	131786
pack@@	131781
shock@@	131781
रण	131777
юбка	131747
shan@@	131745
vrij@@	131744
сери@@	131720
cla@@	131668
holiday	131646
حق@@	131635
jau@@	131619
embal@@	131590
ığ@@	131587
court	131584
boutique	131569
यो@@	131564
bath	131531
sio	131509
kwar@@	131502
ukan	131498
रात	131474
၏	131456
quick	131396
пакет	131383
ев@@	131363
đa	131349
loại	131337
सै@@	131328
دىن	131320
strand	131292
газ@@	131276
security	131252
рукавом	131243
sear@@	131213
luch@@	131196
adat	131136
तेल	131109
оста@@	131091
트	131061
व्या@@	131043
phí	130985
rer	130982
ander	130946
df	130881
lampe	130852
पोर्@@	130803
jun	130788
た@@	130784
stap@@	130781
jean	130773
จ@@	130747
ща	130718
сті@@	130707
pulseras	130705
gemak@@	130679
थ	130671
تور@@	130651
нім	130635
уз@@	130619
western	130600
कमी	130583
мак@@	130528
면	130528
واق@@	130494
ቋ@@	130484
sac	130478
lipo	130418
motherboard	130413
لة	130404
caso	130346
space	130335
etto	130299
kap	130298
इं@@	130275
mg	130243
мам	130228
wristband	130228
부@@	130218
trac@@	130216
bile	130202
가죽	130199
xenon	130186
ciclismo	130153
नवीनतम	130132
कला	130128
tiger	130103
phr@@	130088
sant@@	130069
bant@@	130014
gian	129956
fat	129951
ult@@	129923
facial	129916
sonra	129905
bust@@	129876
staal	129872
تى	129856
seam@@	129841
عن@@	129832
सेवा	129815
michael	129813
class	129808
princi@@	129808
jap@@	129798
ඛ@@	129760
plc	129757
akses@@	129698
alice	129643
tao	129632
chro@@	129596
hm	129585
theo	129573
पीसी	129478
jamas	129465
фт	129464
logam	129463
ಗ	129456
Ù@@	129431
traf@@	129391
बॉक्स	129379
ains	129332
ısı	129329
crane	129328
stä	129315
เป็น	129308
лазер@@	129306
미@@	129283
barat	129240
gast@@	129232
parka	129226
треба	129220
tradi@@	129205
खेल	129194
хай	129139
public@@	129132
gie	129131
opar@@	129112
terminal	129090
inos	129072
adan	129046
ети@@	129014
hidr@@	128982
क्ष	128979
faucet	128969
קטן	128944
tamaño	128867
bod	128865
חי@@	128828
chevrolet	128772
kken	128767
مې	128678
basketball	128559
arki	128556
fotos	128532
heid@@	128523
تب@@	128500
स्वेटर	128486
路@@	128481
peta	128478
zza	128475
mum	128460
proto@@	128456
مز@@	128439
owy	128427
vant@@	128392
ث	128372
unge	128363
figure	128335
ان،	128319
hotels	128304
유@@	128300
normal	128264
ferro	128243
miş@@	128236
देश	128236
held	128232
độ	128202
ying	128177
uw	128156
odo	128154
klein	128131
ых	128068
オ@@	128063
ikan	128032
오@@	128010
eis@@	128006
aplic@@	128003
tê@@	127959
butang	127916
windproof	127905
huah@@	127899
ѕ@@	127872
class@@	127815
saco	127801
бли@@	127790
פלי@@	127704
fibra	127671
lapis	127671
лук	127654
finan@@	127651
đó	127649
ged	127632
стиль	127617
daf@@	127605
доставка	127603
超@@	127600
남성	127572
anto@@	127572
tong@@	127557
organ@@	127539
vv	127480
dle	127421
klam@@	127389
လ	127359
cing	127357
infrared	127307
zhen	127305
하는	127269
berg	127267
george	127260
पट्टा	127245
plain	127184
еле@@	127127
hơn	127118
એ	127117
元@@	127079
agam	127048
parede	127022
send	127003
энер@@	126999
mixed	126987
goed	126976
dew@@	126962
שמלת	126952
наль@@	126943
штаны	126920
】@@	126894
फो@@	126886
jog@@	126870
hoi	126839
rea	126823
ketting	126821
آب	126798
צבע	126775
き@@	126756
lus@@	126735
ด	126724
two	126686
deal	126678
stoc@@	126674
ー	126619
voltage	126589
sieraden	126504
cepat	126482
suz	126455
curta	126363
ブ@@	126342
ते@@	126333
power@@	126315
도매	126216
cip@@	126197
фор@@	126179
mog@@	126168
ім@@	126166
सम्@@	126159
gim@@	126155
лем	126148
opl@@	126122
шам@@	126105
bagi	126009
david	125930
quant@@	125922
selfie	125911
lek	125902
сний	125863
च्@@	125856
體@@	125841
個@@	125824
nych	125800
want	125786
novia	125786
geomet@@	125776
меха@@	125752
blouses	125739
owl	125701
jadi	125670
لست@@	125668
вся	125637
lem	125636
гах	125632
द्वारा	125631
動@@	125630
bone	125625
branco	125615
hip@@	125580
elka	125546
gis@@	125496
商@@	125485
мато@@	125478
check	125469
stage	125467
brincos	125424
पाल	125423
tema	125406
jama	125400
pintura	125379
प्रे@@	125313
प्रो@@	125309
gn	125307
قد	125283
vere	125283
гри@@	125243
bili@@	125236
ван	125233
वाले	125227
eco@@	125223
الص@@	125150
beberapa	125125
पोशाक	125103
mới	125096
tentang	125094
reb@@	125032
ibi@@	125001
function	124989
digunakan	124968
מיי@@	124948
що@@	124936
liner	124900
connec@@	124891
sweatshirts	124881
watch@@	124877
wurde	124866
також	124848
एम	124838
דס	124822
modul	124807
row	124724
二@@	124712
clips	124679
nike	124629
qui@@	124614
很@@	124612
prodotti	124611
unique	124610
biru	124600
لام	124543
add	124535
boc@@	124534
đầu	124527
half	124440
fog	124438
zul@@	124406
mor	124401
тів	124399
toer@@	124371
cách	124346
iner	124327
bản	124323
लक	124318
ス	124311
аку@@	124289
точ@@	124245
جون	124240
protection	124142
master	124141
હ	124112
rep@@	124107
èm	124096
shin@@	124072
hab	124060
db	124057
ady	124016
range	124009
dekorasyon	123996
door@@	123982
ages	123910
مقا@@	123880
xia@@	123852
fashi@@	123829
furniture	123821
pam	123786
стро@@	123780
dare	123768
segur@@	123714
ठ	123701
ких	123694
vr	123689
נעלי	123670
情@@	123646
stylus	123634
ૌ@@	123604
mechanical	123597
эта	123570
seni	123568
output	123543
州@@	123526
рад@@	123525
mont@@	123517
ఛ@@	123500
eon	123499
mers	123478
сталі	123442
vent	123433
sali@@	123410
rain@@	123406
luxe	123345
غل@@	123342
peru	123274
нки	123270
ஊ@@	123255
ሲ	123244
ère	123244
jinal	123190
list	123165
plum@@	123151
london	123145
лей	123138
diag@@	123119
botol	123111
aden	123066
bij	123064
ciu	123045
بة	123038
interface	123006
مى@@	122994
行	122989
开@@	122964
navig@@	122963
пода@@	122948
aplikasi	122938
вин@@	122916
uss	122914
ฟรี	122897
ৎ	122896
deri	122886
otg	122877
оде@@	122873
aly@@	122853
tips	122852
גודל	122828
cup@@	122801
ム@@	122770
kamer@@	122765
màu	122750
आकस्मिक	122740
公司@@	122719
eer	122672
ij	122668
lead	122657
רג@@	122639
thai	122577
рах	122572
hà	122569
евро@@	122548
cour@@	122517
right	122517
prak@@	122511
क्रि@@	122494
james	122465
बन	122411
第	122386
λ	122350
时@@	122343
סק@@	122333
נקו@@	122325
对@@	122324
ขายส่ง	122315
נש@@	122284
beam	122266
histor@@	122259
भर@@	122215
nama	122200
dmx	122170
помо@@	122145
leit@@	122144
purse	122114
блок	122084
مجمو@@	122083
kualit@@	122023
equipment	121981
形@@	121972
inge	121966
trung	121958
building	121950
geri	121946
ensi@@	121943
품질	121937
edi	121933
punta	121885
itos	121834
só	121829
lại	121796
retro@@	121784
pilihan	121784
dubai	121784
mix@@	121735
feder@@	121733
ât	121708
bong	121704
chop@@	121681
plex	121672
term@@	121669
uman	121650
pads	121650
비@@	121648
位@@	121622
zona	121618
ڏ	121616
boa	121604
está	121588
odi	121587
lies	121583
ফ	121562
gust@@	121553
gir	121551
counter	121495
prof@@	121493
رس	121429
мор@@	121417
horse	121397
ging	121385
бес@@	121378
uali	121350
バ@@	121326
replacement	121317
âm	121285
当@@	121253
chet	121246
compressor	121231
opel	121227
ዱ	121208
تل	121135
đẹp	121115
drl	121072
уни@@	121071
trou@@	121029
bedroom	121024
дисплей	121014
alli	121014
graphic	120966
غا	120955
kayu	120951
도@@	120943
pró@@	120936
lind@@	120909
ется	120900
vaar@@	120895
eis	120895
فور@@	120892
поч@@	120834
ร@@	120830
europ@@	120819
duro	120803
ינו@@	120798
lent@@	120789
balo	120788
коре@@	120787
可以@@	120776
ети	120772
щи@@	120720
elev@@	120717
ayn@@	120683
trui	120668
男@@	120655
טה	120651
taiwan	120633
cả	120623
dura	120617
klip	120604
borsa	120593
tanpa	120586
प्रकरण	120574
去@@	120571
optical	120542
nicht	120525
saint	120515
navy	120443
接@@	120421
пу	120420
langsung	120383
просто	120361
يد@@	120316
כל	120286
गुला@@	120277
ızı	120254
kiş@@	120228
धक	120215
брен@@	120214
grosir	120197
usia	120178
ảnh	120172
instru@@	120160
kasar	120136
老@@	120116
reput@@	120108
turn	120095
орга@@	120093
paul	120085
ditambah	120075
mann	120057
slag	119980
为@@	119963
té	119963
imper@@	119952
stabil@@	119945
stics	119944
गुण@@	119936
материал	119911
hier@@	119853
active	119831
brasil	119822
баш@@	119782
จำนวนมาก	119776
flor	119773
点@@	119751
nego@@	119751
dino@@	119737
piac@@	119720
kontakt	119719
jenis	119710
ilia	119687
教@@	119685
visi	119678
safety	119672
chính	119653
đồng	119621
vino	119609
geen	119608
hợp	119592
спор@@	119532
า	119520
مث@@	119494
代@@	119493
ır	119475
skor	119471
pop@@	119465
우리는	119443
bait	119434
ers@@	119405
tica	119398
uch	119397
ዱ@@	119385
fron@@	119370
צן	119368
मं@@	119363
perl@@	119333
ഥ	119304
ליין	119299
shield	119296
शरीर	119283
ሀ@@	119281
geg@@	119280
mente	119278
发@@	119270
بات	119257
estate	119237
beu@@	119230
سې	119189
fü@@	119188
कर्@@	119165
نف@@	119148
spor	119144
rel	119134
try	119128
ologi@@	119123
mount@@	119114
aim	119111
trousers	119106
kee	119059
表@@	119056
latex	119018
ורה	119007
pixel	118952
पत्र	118936
laş@@	118911
pit	118907
сс	118905
신발	118897
não	118868
סי	118864
سى	118851
group	118847
pencil	118819
obo@@	118809
gado	118797
сма@@	118754
sens@@	118751
пане@@	118743
tags	118742
lazada	118734
spon@@	118713
สำหรับ@@	118683
gry@@	118679
بق	118677
ట	118669
sound	118657
сор@@	118635
管理@@	118634
êm	118567
لىق	118566
بح@@	118550
ջ	118548
дат	118535
andro@@	118534
टु@@	118524
ских	118523
mia	118516
moderne	118499
weave	118484
slide	118459
ствен@@	118454
ogi	118435
石@@	118407
nico	118393
kapal	118380
versi	118368
毛@@	118343
argent@@	118325
splitter	118323
allen	118312
uhf	118307
klassi@@	118299
straps	118272
modu@@	118268
wir	118265
ffy	118265
mary	118259
вого	118243
า@@	118225
dapatkan	118212
kabel@@	118205
پا	118195
rupa	118157
kiri	118149
кова@@	118140
кабель	118122
inc	118117
רים	118116
जर्सी	118111
thành	118090
stab@@	118067
covers	118067
ція	118046
teur	118013
चित्र	117994
rut@@	117977
she	117948
buttons	117941
пя@@	117937
само@@	117925
उपहार	117921
eksi	117867
вен	117860
与@@	117859
لام@@	117819
artificial	117817
ester	117810
anel	117789
pesca	117780
liu	117779
тип	117779
baga	117767
костюм	117720
контро@@	117713
發@@	117712
निर्माता	117696
טל@@	117693
доби@@	117671
ห@@	117661
asy@@	117636
ateur	117624
cks	117622
kleding	117614
informasi	117608
qc	117547
spacer	117532
хра@@	117520
から@@	117517
دور	117484
moon	117484
qin	117480
bim@@	117463
مەن	117455
ඒ@@	117446
सह@@	117441
экра@@	117413
paw@@	117362
无@@	117358
хала@@	117352
ُ@@	117343
éri@@	117328
glaz@@	117313
trolley	117308
batang	117303
няя	117299
lotus	117292
aci	117291
جر@@	117282
次@@	117277
pakaian	117244
menti	117219
leder	117214
ankle	117198
ዙ@@	117138
ඕ@@	117136
गत	117126
prat@@	117112
aları	117109
karton	117044
duo	117011
produto	116978
пру@@	116975
más	116972
cional	116932
कों	116879
enne	116775
чная	116765
вод	116753
bolt	116744
ෂ	116741
قى@@	116738
production	116724
thermo@@	116720
sebuah	116711
ят@@	116664
jelly	116649
adres@@	116630
contact	116616
लू@@	116615
टरी	116592
elles	116591
weit@@	116588
ल्ट	116578
leri	116570
fru@@	116553
essed	116552
دور@@	116550
gé@@	116497
integr@@	116457
metall@@	116425
mandi	116410
省@@	116406
abe	116385
мин	116367
vez	116354
Ö@@	116309
atie	116288
yat	116274
تار	116251
ミ@@	116214
customer	116195
ذا@@	116188
يون@@	116160
mart	116152
boya	116148
авто	116144
perfect	116111
quar@@	116093
cul	116052
vida	116024
dik	116020
ङ	115996
thong	115992
xem	115954
rock@@	115949
न्	115926
دة	115923
menggunakan	115916
blusa	115906
дома	115876
first	115864
rẻ	115859
לט@@	115859
elas	115856
bing	115849
solu@@	115837
сау@@	115831
王@@	115784
pabri@@	115756
staf@@	115749
רד	115730
पां@@	115713
plant@@	115704
pv@@	115702
viol@@	115697
sl	115684
दो	115673
ං	115653
yakin	115653
لس@@	115651
מנ@@	115628
ंट	115624
מס@@	115602
ejo	115574
gifts	115565
anto	115556
服@@	115525
plástico	115521
ender@@	115510
ឬ	115494
salah	115460
accesorios	115448
zar	115416
ювелі@@	115408
สีดำ	115404
дете	115400
систе@@	115389
usion	115376
йте	115333
negara	115330
rica	115326
取@@	115313
джа@@	115290
demokr@@	115243
पहले	115238
pertama	115215
打@@	115202
pho@@	115193
sub	115172
atl@@	115164
quet	115154
enf@@	115152
пита@@	115129
malay@@	115122
lg@@	115119
ום	115106
ware@@	115101
syarikat	115091
ables	115075
्रा@@	115075
트@@	115065
chic	115063
grid	115058
temp@@	115017
sne@@	115014
tx	115011
爲@@	114977
rope	114968
abri@@	114968
oras	114952
volvo	114914
cord@@	114909
ektor	114905
acci@@	114901
изо@@	114887
धन	114878
र्ड	114849
oder	114848
учи@@	114830
bathroom	114812
transpar@@	114811
used	114792
ian@@	114782
ज्@@	114722
komer@@	114656
होने	114605
좋은	114589
各@@	114587
nach@@	114581
动@@	114537
zep@@	114516
tail@@	114505
футбол	114504
banda	114458
saat@@	114402
«	114376
dekor	114375
total	114365
四@@	114350
ebi@@	114348
clin@@	114288
dow@@	114275
iliz@@	114269
вод@@	114267
केबल	114261
ками	114261
管@@	114240
ماي@@	114239
repar@@	114232
projector	114226
xbox	114225
elegan	114194
ăm	114167
lake	114156
faire	114136
acon@@	114126
प्रणाली	114106
punt	114106
завод	114100
دى	114048
मार्@@	114031
المتحدة	114017
pron@@	114015
чко	113993
мин@@	113970
whitening	113946
năng	113928
ский	113928
エ@@	113920
corn	113898
ፊ	113894
itar@@	113890
charge	113869
visa	113868
kalung	113837
пе	113817
rattan	113805
вка	113804
amas	113797
estu@@	113777
قه	113753
真@@	113743
тин	113737
जाता	113718
minnie	113706
limit@@	113674
rz@@	113645
दे	113630
jalan	113604
crafts	113580
maak	113571
nexus	113562
look	113547
resistant	113545
بىر	113544
gprs	113541
platinum	113521
tao@@	113521
light@@	113454
cair@@	113408
ney@@	113350
ඝ@@	113338
ჰ@@	113317
noch	113317
ск	113314
üt@@	113297
일	113285
wine	113284
shaft	113268
enge	113263
yol@@	113258
posit@@	113246
рубашка	113242
tivi	113230
लास	113185
रों	113182
colo	113170
thread	113168
ಘ@@	113163
कारण	113117
kje	113094
iten@@	113053
ление	113036
flexible	113017
domin@@	113005
lij@@	113002
khác	112966
mosaic	112964
duke	112962
sach@@	112955
tax	112946
йо@@	112936
后@@	112918
coral	112899
flashlight	112898
sels	112867
holo@@	112867
chel@@	112853
кап@@	112829
मै@@	112824
zas	112806
bicicleta	112804
做@@	112796
ໆ	112793
dream	112732
cord	112729
meas@@	112708
ках	112691
ikl@@	112643
الما@@	112627
感@@	112594
wind	112578
中国@@	112560
econom@@	112541
bronze	112527
कं@@	112519
scale	112516
years	112510
тому	112508
екран	112450
bilik	112434
北@@	112411
evi@@	112406
copi@@	112386
cupcake	112382
建@@	112351
ų@@	112344
miş	112334
phi@@	112310
diamante	112294
shor@@	112281
उस	112252
เป็น@@	112215
diagno@@	112166
שיער	112159
лена	112127
states	112126
גברים	112100
achi@@	112095
起@@	112077
wei	112074
ald@@	112019
алюми@@	112015
moo@@	111999
pelu@@	111993
писа@@	111988
ют	111985
рай@@	111975
fungsi	111892
trap@@	111885
muốn	111825
bracket	111824
rai	111821
sev@@	111816
cooler	111812
wid@@	111810
كا@@	111793
ዩ	111789
etr@@	111784
布@@	111773
perla	111771
agoda	111738
unk	111731
painted	111709
ethernet	111709
shad@@	111680
bele	111679
low@@	111671
sai	111663
зер	111661
tire	111640
أن@@	111639
details	111626
abito	111609
國@@	111607
wool	111587
favor	111587
liquid	111571
चौ@@	111570
suk@@	111543
accessoires	111438
mey@@	111370
heater	111361
цу	111348
alles	111345
prata	111315
dollar@@	111311
ئە@@	111284
ях	111260
two@@	111255
ఘ@@	111249
могу	111212
toko	111175
lego	111139
cần	111099
М	111097
вий	111084
cleaner	111084
अल	111083
గ	111073
тем@@	111054
بول@@	111021
christ@@	110994
tex	110989
रंग@@	110983
ays	110979
klasik	110971
kertas	110960
tutup	110959
फ	110956
ቹ	110936
ቁ	110933
laun@@	110921
טיי@@	110918
नै	110898
зай@@	110873
סטר@@	110863
قت@@	110826
нах	110825
先@@	110731
ຈ	110720
doku@@	110698
रचना	110674
merk	110639
prakti@@	110619
leo	110577
trailer	110549
तीन	110515
ト@@	110500
topl@@	110481
مري@@	110473
teléfono	110468
bä@@	110466
import@@	110457
було	110436
heer@@	110428
aker	110416
medical	110377
pal	110370
드	110368
bee	110347
ive	110335
信@@	110304
isol@@	110283
मामला	110266
Т	110260
pain@@	110254
Б	110236
الك@@	110211
田@@	110184
ета	110132
bên	110090
向@@	110074
ौ@@	110072
dental	110068
rear@@	110066
bijoux	110064
paz@@	110061
ники	110049
reci@@	110046
ሣ@@	110025
لات@@	110024
stuk	110018
protective	109949
tiva	109931
điều	109904
wei@@	109898
ຕ	109868
tip@@	109842
оку@@	109834
kür	109807
escent	109789
集@@	109787
mur	109745
था।	109724
moi	109719
cigarette	109710
ナ@@	109685
סטיק	109677
bowl	109660
loop	109603
nati@@	109594
ሃ	109581
babydoll	109575
days	109569
सीडी	109565
कै@@	109557
brass	109552
bbq	109528
तल	109507
sumber	109482
вол@@	109472
coming	109427
مين	109416
sneaker	109411
gp	109393
oyun@@	109388
bka	109370
чний	109366
mee	109362
circuit	109333
cost	109308
adhesive	109303
хол	109300
well@@	109260
ئى@@	109229
между	109226
bằng	109214
ंगा@@	109210
ук@@	109203
кат	109202
moon@@	109167
lier	109161
긴	109161
сол@@	109146
bau@@	109132
सुरक्षा	109126
java	109122
сад	109118
sara	109101
eyeshadow	109098
unicorn	109089
jai	109087
burg	109069
під	109069
yaka	109037
éal	109035
crazy	109033
thế	108998
اع@@	108991
rca	108982
cant@@	108964
โ@@	108960
map	108958
उपकरण	108939
라@@	108931
sendo	108918
reduc@@	108908
teddy	108892
motion	108881
дой	108881
kanvas	108851
тим	108842
hardware	108832
cover@@	108820
sorry	108772
outfit	108716
chicago	108698
тик	108687
چى@@	108685
数@@	108669
收@@	108668
hiện	108657
intel@@	108641
더	108628
lanyard	108618
lm	108595
sian	108572
عة	108568
ability	108560
bulk	108543
ጤ@@	108542
ples	108540
част@@	108535
판매	108530
иг@@	108528
нице	108477
หนัง	108469
ϊ@@	108469
amer	108467
רה	108464
ними	108457
antenna	108449
लिका	108444
manicure	108421
great	108417
hei@@	108400
rf@@	108379
ま@@	108375
cbr	108372
tren	108372
רק	108369
サ@@	108359
rail	108346
pü@@	108321
stampa	108279
shock	108276
लन	108274
poe	108273
भारत	108245
סנ@@	108162
headlight	108160
рек@@	108152
개	108128
ради	108118
basket	108114
amatir	108086
наф@@	108084
автомобиль	108075
repair	108069
доба@@	108056
angka	108031
stell@@	108005
oculos	107987
שרוול	107986
call	107978
зав@@	107977
ों	107968
adel@@	107962
quer@@	107959
profile	107957
brooch	107949
knife	107944
ава@@	107937
olina	107930
保@@	107925
кую	107903
exter@@	107895
#@@	107856
bottom	107843
ül	107831
erd	107811
מק@@	107811
東@@	107808
سى@@	107805
ดี	107799
bahagian	107795
dv	107793
лой	107770
hals	107765
ather@@	107764
حي@@	107762
touch@@	107748
पॉ@@	107732
cow@@	107725
fici@@	107700
igh@@	107695
лето	107685
iniz	107667
nếu	107643
axi@@	107626
tb@@	107570
стен@@	107554
מי	107544
trò	107535
गे@@	107532
mechan@@	107525
cari	107519
дали	107507
格@@	107486
quốc	107477
अन्य	107460
ชุด@@	107447
वर्ष	107442
인	107418
う@@	107417
上	107417
个@@	107416
した@@	107368
kartun	107362
ځ	107348
ölç@@	107342
flow	107332
емо	107326
kraj@@	107319
cus	107318
antara	107301
agent	107291
струк@@	107285
book@@	107254
हक	107233
घो@@	107224
shut@@	107219
тора	107213
ीय	107179
ppen	107171
निर्माण	107162
Е	107120
आर@@	107117
民@@	107107
стре@@	107095
dna	107091
silicona	107021
होता	107012
isch	107011
age@@	107004
него	106989
ứng	106989
ઢ@@	106949
matt	106922
aspir@@	106912
wic@@	106884
elen	106869
fesyen	106867
toshiba	106858
پى@@	106852
gratu@@	106850
focus	106847
nij	106838
想@@	106805
qua	106800
ily	106793
lie@@	106774
dm	106774
tart@@	106762
peppa	106752
illo	106751
衣@@	106727
дя@@	106723
न्स	106707
нал	106672
enter@@	106670
lisa	106669
plak@@	106667
бере@@	106644
直@@	106620
kompl@@	106597
hist@@	106597
brushless	106592
strai@@	106581
रत	106560
eau	106548
aquarium	106546
висока	106545
دد	106543
lounge	106541
일@@	106488
ney	106439
кет@@	106434
حت	106398
tray	106386
famous	106384
vill@@	106380
celular	106379
टोपी	106370
नों	106350
quette	106344
wd	106315
english	106311
يج@@	106240
north	106218
zach@@	106215
sarung	106215
збо@@	106211
fied	106205
brief@@	106194
mind	106178
differ@@	106168
Л	106164
вки	106160
auch	106159
соб@@	106138
champagne	106135
combo	106086
ssi@@	106075
ئو@@	106037
सेल	106030
masi	105976
asc@@	105958
azy	105943
voile	105939
canada	105928
офи@@	105923
circa	105917
iç@@	105900
эта@@	105896
japan@@	105894
laba	105890
yes	105879
रक	105875
目@@	105864
tìm	105847
מה	105835
ፃ	105832
mez@@	105814
て@@	105807
roc@@	105791
paint	105763
sug@@	105759
ீ	105750
lalu	105738
vt	105715
دع@@	105710
ਥ	105702
graph@@	105697
۾@@	105695
pov	105680
소매	105676
universit@@	105598
צע@@	105589
sao	105588
çi@@	105581
メ@@	105570
casamento	105568
onge@@	105561
fio	105531
сов@@	105512
passat	105505
gugur	105504
ngày	105496
색상	105492
again@@	105490
nhưng	105485
ె	105475
place	105464
फिर	105462
יש@@	105460
כו@@	105459
विद्य@@	105457
kut	105435
ール@@	105432
line@@	105413
ungen	105412
ولا	105409
marine	105381
न्या@@	105344
gate	105322
welcome	105315
أنت	105291
carbon@@	105285
الد@@	105271
디자인	105250
ї@@	105224
flam@@	105222
лан	105206
hie	105187
mung@@	105140
kasa	105130
erta	105127
ขาย	105119
هنا	105103
past	105100
evo	105033
thomas	105032
bawah	105018
pria	105012
membuat	104993
roupas	104982
osc@@	104971
блу@@	104962
ें	104921
roh@@	104872
supr@@	104869
kir	104866
mot	104844
ृ@@	104839
embo@@	104790
chev@@	104785
एल	104784
เล@@	104774
ฟ@@	104767
ไฟ	104749
giz@@	104746
لار	104733
房@@	104715
टन	104713
ського	104709
بن	104687
phuk@@	104620
キ@@	104610
ность	104598
神@@	104590
רת	104584
основ@@	104576
आज	104560
вые	104552
cũng	104545
आ	104544
relo@@	104542
stati@@	104541
мет	104528
alumini@@	104520
нок	104512
precision	104511
him	104497
tc	104497
anni@@	104493
cera	104462
sica	104443
ald	104396
ยาว	104394
organis@@	104377
نص@@	104374
modal	104354
маль@@	104283
porcel@@	104280
rent@@	104266
хла@@	104263
rek	104194
खा	104175
phải	104173
nego	104171
ение	104158
cast	104126
atten@@	104125
منظ@@	104110
खो@@	104095
عد@@	104085
лю	104051
pej@@	104037
italia	104006
装@@	103990
ورات	103982
chet@@	103981
लोगों	103969
лог	103966
लिंग	103963
ych	103955
prest@@	103955
tric@@	103931
इन@@	103928
निय@@	103927
ڑ	103911
hanging	103882
newborn	103880
reli@@	103866
更@@	103845
omi@@	103814
ニ@@	103769
problema	103760
ries	103755
кун@@	103741
제@@	103736
stro	103729
拉@@	103692
pressure	103691
बोर्ड	103690
horlo@@	103646
دى@@	103642
케이스	103630
здра@@	103602
लोकप्रिय	103598
pedal	103594
ఏ@@	103576
гаран@@	103572
pulseira	103571
lukisan	103547
هاء	103545
потре@@	103519
dolls	103516
工作@@	103508
색	103500
पह@@	103457
dust	103424
中國@@	103412
swing	103402
फ्रे@@	103395
↑	103364
ral@@	103356
atis	103353
тель	103343
format@@	103339
比@@	103314
льная	103304
علي	103298
cyr@@	103254
illes	103250
compact	103244
社@@	103229
gg	103228
ዬ	103209
feed	103196
ቃ	103179
पन	103152
tory	103143
ፋ	103121
постав@@	103115
च्छ@@	103099
vivo	103081
amen	103077
tenden@@	103063
ှ	103047
gladi@@	103036
chron@@	103029
вода	103003
sich	102980
anne	102963
termasuk	102960
ril	102959
dus@@	102948
county	102940
condi@@	102934
madeira	102927
交@@	102914
pajamas	102907
jad@@	102869
ส	102847
kij@@	102847
đang	102810
program	102762
dating	102737
ート@@	102735
indonesia	102698
heat@@	102674
zie	102618
発@@	102615
wayar	102609
reloj	102603
тку	102602
pine	102580
ков	102558
atore	102556
bret@@	102547
укра@@	102543
глу@@	102509
kompon@@	102503
infant@@	102484
town	102452
малы@@	102448
iss	102447
gó@@	102444
ビ@@	102436
ınız	102422
icul@@	102406
olim@@	102405
الش@@	102341
bisi@@	102339
pula	102316
ספורט	102305
puzzle	102283
ट्यूब	102282
supp@@	102272
wag@@	102271
rate	102268
sind@@	102250
скры@@	102240
风@@	102237
deng@@	102232
साइ@@	102231
णा	102218
вав	102205
normal@@	102198
tall@@	102189
والم@@	102164
delle	102149
清@@	102141
permainan	102140
ኘ@@	102140
محا@@	102139
you@@	102134
pix@@	102127
音@@	102060
गह@@	102055
open@@	102040
बद@@	102037
itin@@	102024
поло@@	102009
kolek@@	101992
попу@@	101969
lara	101968
humidi@@	101944
lich@@	101922
клю@@	101907
agem	101895
lucky	101894
zion@@	101859
גבוהה	101850
ズ@@	101850
ref@@	101833
크기	101825
ഇ	101817
dash	101806
erg@@	101802
لې	101782
nal	101778
し	101775
टू@@	101774
ocean	101757
pay	101741
ッ@@	101724
tour	101713
ド@@	101705
года	101698
受@@	101688
leopar@@	101672
dunia	101666
gav@@	101655
шим	101627
twist	101627
將@@	101602
систем	101597
микро@@	101555
verde	101549
אפ@@	101547
barra	101546
jepang	101503
вач	101498
모든	101472
rada	101447
៍@@	101445
тите	101438
los@@	101414
短@@	101405
college	101403
sym@@	101400
그@@	101380
aliment@@	101369
egu@@	101365
amaz@@	101353
精@@	101352
embroidered	101334
austria	101322
עג@@	101316
學@@	101305
minut@@	101292
eas@@	101279
doble	101274
стар@@	101256
lista	101207
ಘ	101205
melihat	101188
пвх	101184
vidro	101172
beri	101158
ژ	101150
abel	101130
paci@@	101127
tey@@	101126
थि	101122
dil	101115
ido@@	101079
rasmi	101057
ect	101036
luc@@	101032
ения	101000
мери@@	100990
قبل	100981
yj@@	100959
times	100955
бага@@	100947
bunga	100926
tg@@	100918
원@@	100912
bảo	100910
hout	100902
這@@	100899
माल	100895
unic@@	100870
badge	100869
пери@@	100869
निक	100868
ными	100846
vol	100825
nostra	100820
jeep	100799
epad	100784
ใช้	100766
或@@	100728
ване	100711
angel@@	100682
ร้อน	100681
transporte	100671
ਫ	100667
dl	100664
gek@@	100654
quan@@	100629
suite	100603
に	100603
tenis	100591
سا	100563
स्था@@	100541
telefonu	100541
ince	100530
जिन	100526
карта	100478
शक्ति	100450
لك	100447
ssd	100428
tennis	100417
гно@@	100393
kä	100388
deluxe	100385
cloth	100365
Р	100352
úa	100346
naar	100344
ên@@	100321
fs@@	100317
õi	100304
科@@	100297
shot	100284
皮@@	100265
blau	100255
其@@	100252
ዲ	100239
bagian	100237
자동차	100229
etik	100226
성	100215
tian@@	100209
bs@@	100198
cp	100192
ต	100186
awi@@	100173
五@@	100170
оди@@	100166
hydr@@	100159
ску	100154
silic@@	100150
lihat	100145
bga	100132
автома@@	100117
thì	100098
روس	100096
ሄ@@	100072
через	100061
cü	100014
zak	100004
podr@@	100000
者	99996
ror	99986
axial	99945
клі@@	99944
пари@@	99931
नल	99926
selepas	99906
pneumat@@	99892
etiket@@	99878
restoran	99878
َ	99866
новая	99833
рези@@	99801
microsoft	99780
rus	99773
सर@@	99757
น้ำ	99743
אל@@	99730
aron	99726
onder	99723
ads	99699
प्रका@@	99695
goma	99690
gsxr	99678
सकता	99670
يز@@	99666
stamp@@	99666
miễn	99659
otong	99648
stitu@@	99639
especific@@	99634
infl@@	99622
peza	99616
ах	99606
тя	99587
धान	99581
khu	99575
क्षा@@	99575
inda	99563
ሂ@@	99555
ulang	99545
מכנסיים	99541
квар@@	99538
roku	99510
compr@@	99500
jaar	99494
डिंग	99490
修@@	99487
pita	99483
olet	99478
zna	99476
klu	99453
kum	99449
cober@@	99400
plaf@@	99399
тися	99396
ś@@	99382
буд@@	99376
rie	99372
дати	99366
gema@@	99363
anth@@	99343
گە	99343
공@@	99339
Ā@@	99329
油@@	99321
roy@@	99318
ء،	99317
naci@@	99314
網@@	99313
ये@@	99290
velcro	99274
ريد	99274
jiang@@	99273
אור	99273
mike	99203
레@@	99129
haust	99125
distribu@@	99119
دائ@@	99117
bien	99099
nào	99092
minyak	99075
haba	99066
zara	99065
movie	99065
jaqueta	99046
tora	99027
orta	98977
xp	98918
alli@@	98910
आव@@	98902
लम	98878
lý	98860
ילד	98828
बं@@	98824
real@@	98821
توس@@	98816
dent	98807
broo@@	98791
र्ट	98777
zoo@@	98776
inver@@	98772
pela	98768
dering	98746
kaart	98745
ekte	98742
קה	98723
esc@@	98710
تان	98697
tent	98676
pist@@	98657
फूल	98656
кер	98649
تم	98642
mani	98631
moderna	98624
army	98590
цвет	98588
lift	98585
лого@@	98550
лик@@	98550
後	98542
ской	98539
date	98536
andre@@	98534
خط@@	98500
antar@@	98490
台@@	98479
รถ	98458
lazer	98430
image	98409
waktu	98409
бран@@	98401
>@@	98380
unde	98366
дов@@	98296
ність	98289
內@@	98282
amor@@	98275
nước	98272
ウ@@	98254
izz@@	98248
ghz	98246
eter@@	98246
माण@@	98240
مثل	98226
transfer	98218
individu@@	98218
新	98216
භ	98203
rated	98192
bebé	98178
batu	98167
tipe	98144
bandar	98136
konstruk@@	98135
كى@@	98133
oria	98128
yun@@	98116
setiap	98058
positi@@	98057
kej@@	98023
チ@@	98021
dich	98018
atri@@	98017
ڇ	98006
डिजिटल	98004
trek	97997
lover	97994
лета	97987
audi@@	97984
קי	97969
hiking	97940
лак@@	97916
空@@	97897
บ	97890
ров	97879
бата@@	97877
मुख्य	97864
blac@@	97861
提@@	97856
ском	97852
मूल	97847
kw	97843
леж@@	97833
đây	97826
पूर	97802
風@@	97802
unik	97792
numer@@	97789
finger@@	97778
連@@	97774
उनके	97752
dslr	97746
shade	97743
चांदी	97725
ığı	97702
ması	97698
vra@@	97694
ismo	97678
jackets	97619
duty	97610
ُ	97597
bulan	97594
زو@@	97567
joy	97511
sok	97496
nang	97493
çı@@	97493
tore	97477
зор	97474
هار@@	97451
년	97442
inum	97435
研究@@	97422
那@@	97396
จะ@@	97393
lam	97382
ఈ	97371
мена	97368
veste	97355
fili	97353
halaman	97342
нь@@	97330
ب،	97301
น้ำ@@	97297
prost@@	97253
çanta	97252
cabinet	97221
industri	97215
mario	97176
フ@@	97176
कोट	97173
مال	97135
bast@@	97128
sigara	97122
frequ@@	97115
sé	97092
gün	97076
ré	97045
тори@@	97008
pry@@	97006
장@@	96998
lian	96990
шах@@	96978
अत्य@@	96967
them@@	96953
גוף	96948
pose	96933
grad	96926
adaptador	96922
turn@@	96909
ogni	96903
laut@@	96886
jd	96886
порт	96852
بلا@@	96828
용	96820
вони	96766
구@@	96754
mannen	96719
เรา	96709
disney	96669
heren	96653
性	96628
flops	96606
cb	96605
міні	96604
family	96578
latin	96545
act@@	96539
perle	96526
بس@@	96497
ucu	96482
заряд@@	96468
лег@@	96451
alik	96441
kof@@	96438
element@@	96436
invest@@	96409
panasonic	96368
offic@@	96367
모@@	96362
ature	96336
enen	96323
ово@@	96317
force	96304
هناك	96283
一個@@	96272
区@@	96262
ट्स	96259
hind@@	96259
द्र@@	96258
носи@@	96255
៌@@	96248
cung	96245
ष्ट@@	96230
шор@@	96223
вал	96197
kurang	96193
amera	96185
ارد	96183
chọn	96173
elastik	96150
esis	96142
モ@@	96114
リー@@	96077
sand	96072
ء@@	96072
ново@@	96072
xuất	96065
був	96052
triangle	96050
vig@@	96040
плей	96039
بې	96036
estr@@	96006
עני@@	95990
pieza	95988
ador@@	95976
り	95955
commercial	95955
nc	95949
धातु	95943
xing	95932
放@@	95923
canbus	95922
लिप	95921
зы	95914
wre@@	95912
る	95891
umge@@	95886
prote@@	95882
уча@@	95878
ഈ	95873
реа@@	95864
fort	95852
moul@@	95803
ग्रा@@	95800
volle	95770
gets	95739
inding	95719
tự	95714
presi@@	95705
tracking	95697
kosmetik	95695
organizer	95684
kec@@	95680
urus	95670
bina	95668
тран@@	95666
rez	95653
pré@@	95653
acid	95637
circle	95635
strat@@	95629
oppo	95612
點@@	95600
chocolate	95600
langsing	95587
基@@	95575
rag	95565
adu@@	95561
cuffl@@	95522
kleur@@	95512
لق@@	95510
nên	95490
designs	95478
ської	95474
bear@@	95470
분@@	95424
配@@	95407
如@@	95403
dek	95401
ंस	95381
पुरा@@	95341
information	95341
स्प@@	95317
chc@@	95313
pok@@	95312
dokum@@	95310
tibet@@	95298
हुआ	95296
ण्@@	95291
enamel	95279
sendiri	95274
זה	95272
iten	95246
ורי@@	95235
mest@@	95233
preci@@	95224
posi@@	95207
üş@@	95202
zhe@@	95168
機	95159
gula	95132
хі@@	95128
cr	95114
telepon	95104
包	95063
кова	95059
chair	95049
tinta	95042
ら@@	95035
knee	95008
atori	95002
stem@@	94995
…	94979
מש@@	94978
zhong@@	94971
ориги@@	94922
mungkin	94921
สี@@	94920
trek@@	94918
ኃ@@	94906
timer	94901
рукава	94896
очи@@	94889
dryer	94873
È@@	94872
सुपर	94852
で	94845
lung@@	94840
технологи@@	94827
plan	94822
phen@@	94809
cand@@	94805
करण	94786
fairy	94778
camouflage	94771
उन्होंने	94766
lands@@	94760
於@@	94754
гон@@	94746
allah	94734
контак@@	94734
olta	94713
ids	94686
festival	94685
män@@	94683
जे	94677
ंक	94677
кож@@	94644
вом	94610
teri@@	94606
أي	94603
mous@@	94581
тако@@	94581
cahaya	94573
周@@	94549
bubble	94547
buff@@	94535
力	94525
À@@	94522
चाह@@	94515
são	94511
hybrid	94510
wolf	94505
kerana	94502
ಈ	94497
सरकार	94470
зима	94466
bere@@	94459
swiss	94431
ються	94414
leisure	94413
pantyhose	94407
kurt@@	94406
物	94399
ڦ@@	94389
plataforma	94383
داد	94367
лл	94355
enzi@@	94348
الأمم	94346
achi	94316
cic@@	94265
fresh	94254
다@@	94250
poch@@	94250
aten	94246
แสง	94239
ෙ	94237
وجود	94226
فع@@	94212
पा	94210
merah	94207
女性@@	94198
photos	94186
改@@	94169
carro	94155
clamp	94147
ıl	94115
ِ	94098
mation	94079
міні@@	94056
лом	94044
жу	94029
ഹ	94021
кош@@	94017
klin@@	94016
iptv	94016
tampilan	94016
green@@	94006
cela	93999
؟@@	93974
tutti	93970
नो@@	93947
cores	93930
ський	93915
volume	93910
rain	93907
ני	93903
chuyển	93902
江@@	93886
feather	93874
knit	93850
astr@@	93828
пока@@	93819
puri@@	93768
ô	93754
pig	93744
jant@@	93731
тия	93663
किंग	93649
фа	93646
سط@@	93638
kartu	93631
need@@	93631
ผม	93630
stik	93629
अनुकू@@	93626
ungan	93601
fec@@	93598
hats	93592
arn@@	93577
input	93574
ज़@@	93570
після	93568
टे	93568
यी	93531
十@@	93528
cran@@	93522
russian	93505
welding	93485
再@@	93458
ี@@	93446
krit@@	93426
mú@@	93419
hoặc	93400
ності	93396
eks@@	93386
هد	93380
खाली	93334
give	93324
сер	93280
sommer	93251
блі@@	93250
away	93237
coats	93209
tipi	93202
tl	93195
ляр@@	93193
fiat	93173
hf	93163
၌@@	93153
К	93137
मारी	93098
cama	93085
スト@@	93068
快@@	93044
ساع@@	93039
tecido	92998
layanan	92994
cosmetic	92992
ריק@@	92988
bpa	92984
aft@@	92968
線@@	92952
horizont@@	92944
flatback	92940
juk	92924
나@@	92921
ჱ@@	92911
nillkin	92899
apo@@	92897
pass	92896
zzi	92875
لت	92858
uy	92850
ผ้า	92834
counter@@	92792
hs	92782
agar	92781
onale	92737
पट्टी	92734
nordic	92721
tempor@@	92719
gere	92713
部	92712
ків	92709
жена	92700
utam@@	92696
polar	92670
द्य@@	92657
tap	92656
wild	92642
イン@@	92600
लगा@@	92584
sof@@	92580
สีขาว	92541
cổ	92540
연@@	92533
khus@@	92522
ോ@@	92467
hall	92447
ඡ@@	92445
зни@@	92443
titan	92430
反@@	92417
глав@@	92360
lod@@	92353
therapy	92340
sesuai	92327
gee	92325
brief	92320
מים	92288
ements	92251
prix	92210
ंदा	92187
velo	92166
quat@@	92166
seç@@	92165
central	92159
ления	92156
yl	92151
бой@@	92150
pdf	92133
rất	92126
стави@@	92121
春@@	92121
लाइन	92067
ép	92058
つ@@	92036
pretty	91998
უ	91993
pv	91983
наш	91973
william	91971
profess@@	91960
stam@@	91945
decorative	91939
deo	91939
dul	91935
saman	91935
gothic	91927
захи@@	91921
kế	91919
동@@	91909
przy@@	91906
maternity	91903
meu	91900
akces@@	91899
timo	91879
एम@@	91829
йде	91823
家	91814
them	91810
過@@	91806
working	91800
назад	91787
azioni	91768
महा@@	91764
мой	91752
àn	91734
實@@	91707
phot@@	91702
count@@	91697
श्@@	91687
his	91686
rick	91670
الخ@@	91642
бре@@	91630
dispenser	91612
bau	91601
aplik@@	91601
зим@@	91597
swim@@	91592
цю@@	91535
мс	91502
буде	91497
pangg@@	91487
опи@@	91485
pneum@@	91485
mış	91483
remover	91465
바@@	91464
fruit	91456
rolling	91420
ভ	91417
merk@@	91415
senza	91379
crim@@	91374
east	91369
website	91365
星@@	91364
специ@@	91340
chiban	91331
stret@@	91328
arch@@	91323
东@@	91322
portátil	91306
year	91252
materiaal	91211
시	91203
使用@@	91196
tuo	91171
kamer	91169
alist	91165
тем	91158
टल	91149
cag@@	91136
fino	91134
sungl@@	91132
gradi@@	91131
rip	91127
baar	91123
persoon@@	91122
entre	91085
edor	91077
куртка	91070
заказ	91065
ward	91065
בגדי	91056
accep@@	91045
ኪ	91037
malaysia	90991
моду@@	90980
були	90954
ข@@	90911
cking	90909
ښ	90905
collection	90895
जीवन	90830
bahag@@	90821
ە	90791
fantast@@	90758
iet@@	90757
liệu	90757
joh@@	90752
जाने	90748
ativa	90740
гада@@	90727
ital	90719
क्षमता	90672
você	90668
towel	90664
itive	90662
件@@	90660
ların	90654
apr@@	90654
pamuk	90642
hora	90638
dilakukan	90609
jump@@	90603
cosa	90603
解@@	90580
blank	90559
區@@	90547
жина	90542
خد@@	90515
มี@@	90513
शील	90498
тра	90460
chain@@	90456
ቶ	90441
यम	90441
ഷ	90432
asp@@	90431
rent	90430
ريل	90417
bean	90398
miss	90382
opal	90381
cada	90378
مط@@	90370
analy@@	90364
huis	90354
ריק	90349
女性	90322
own	90314
가격	90309
etui	90288
arta	90284
kup	90282
π	90257
ኩ	90244
dock	90238
ense	90237
xt	90236
ouro	90229
तार	90227
trí	90220
वसंत	90219
ral	90214
project	90205
publi@@	90186
суаль@@	90172
公司	90111
شيء	90108
vri@@	90107
بم@@	90077
под	90039
ulasan	90030
め@@	90019
หญิง	90012
फुट@@	90008
เสื้อผ้า	89991
bert	89985
ック@@	89981
bracel@@	89974
won	89966
beer	89963
था@@	89954
eld	89951
aksesoris	89908
العا@@	89907
boh@@	89891
門@@	89890
доро@@	89883
lure	89877
handel	89853
куп@@	89850
板@@	89837
ተ	89829
شى@@	89828
लोग	89780
fiets	89769
ජ	89755
बै@@	89753
breaker	89724
todo	89710
بري@@	89683
folio	89675
iras	89674
banner	89672
chị	89669
account	89660
头@@	89656
شخص@@	89633
amata	89625
كېرەك	89624
त्व	89588
zw@@	89566
從@@	89565
rei	89559
gues	89532
foo@@	89527
kết	89524
자	89523
зву@@	89513
foc@@	89507
пору@@	89499
jou@@	89499
jig@@	89478
uzu	89472
카@@	89468
harley	89454
udi	89449
nazi@@	89428
bath@@	89421
熱@@	89416
स्ट	89381
fuel	89370
генера@@	89359
sg	89345
קריסט@@	89342
kuda	89341
み@@	89338
ጌ	89334
papan	89326
spod@@	89312
raw	89298
دود	89285
know	89249
‹@@	89249
трен@@	89241
कार्य@@	89238
ग्रे@@	89229
atan@@	89223
import	89219
ambi@@	89178
sla@@	89148
tide	89144
секс	89137
בינ@@	89135
ພ	89133
тори	89130
stein	89126
提供@@	89106
зва@@	89083
aver	89073
सभी	89063
araba	89062
lap	89041
việc	88982
fris@@	88974
تصا@@	88966
pant	88946
phi	88940
dish	88939
تك@@	88936
step@@	88911
頭@@	88905
amos	88904
إن@@	88899
flash@@	88877
ガ@@	88854
спі@@	88850
书@@	88820
यू@@	88819
năm	88802
skoda	88796
citroen	88736
extensions	88730
говори@@	88729
कई	88700
say	88683
元	88665
amy	88664
extra	88660
может	88633
बीच	88632
कवर	88620
muro	88611
百@@	88602
camo	88586
arc@@	88581
धु@@	88567
وع	88552
pric@@	88533
profil@@	88528
सामान	88514
производ@@	88509
veel	88499
buk	88497
camisetas	88489
divi@@	88451
پې@@	88444
ظ	88424
panto@@	88414
חדש	88387
сам@@	88380
حال	88375
我們@@	88367
bc	88352
業@@	88307
outlet	88301
ıs@@	88298
haus	88265
đen	88264
יר	88253
station@@	88221
представ@@	88211
בד	88189
بان	88179
yelp	88175
straw@@	88169
stica	88152
عي@@	88145
يې	88140
salt	88126
thailand	88108
ери@@	88090
pub	88088
liên	88072
फर	88069
ड़@@	88044
ซ@@	88021
ง	88003
実@@	87998
onna	87991
cross@@	87989
saia	87989
acion	87985
transport@@	87971
다	87942
לא	87936
aros	87934
dale	87925
retrac@@	87922
青@@	87921
रिंग	87918
artic@@	87914
lever	87913
matri@@	87909
款@@	87906
दीपक	87903
शुद्ध	87885
military	87874
jaz@@	87860
tiy@@	87847
客@@	87843
allo@@	87843
ступ@@	87828
გ	87747
proses@@	87745
inox	87729
័	87727
cose	87726
ِ@@	87714
acket	87706
montre	87695
eting	87681
ዥ@@	87679
adapt@@	87677
кого	87667
обу@@	87660
生	87645
cle	87639
necess@@	87619
क्टर	87599
字@@	87592
드@@	87575
tong	87571
ٿ	87555
ofer@@	87546
tatu@@	87542
ember	87530
porno	87525
مۇ@@	87521
fish@@	87509
beni	87497
使@@	87490
اسم@@	87477
chec@@	87474
gelang	87463
lycra	87458
品	87457
дре@@	87452
spiral	87438
rub@@	87418
яв@@	87373
цю	87338
сь	87312
високо@@	87308
fora	87307
grap@@	87296
fais	87285
ժ	87275
mins	87248
đặt	87233
bill	87227
ड़	87222
近@@	87214
rice	87193
lp	87175
фан@@	87166
ruangan	87141
ports	87133
asian	87132
photography	87128
ん@@	87110
उसे	87092
ganda	87083
klar@@	87054
kerja	87052
इस्@@	87039
teen@@	87038
кси@@	87037
дата	87011
мони@@	86985
लिया	86982
أس@@	86967
ዮ	86931
год@@	86927
但@@	86914
또는	86909
قب@@	86908
ونا	86887
há	86879
archi@@	86873
effici@@	86869
送@@	86863
lantern	86857
बल्@@	86857
ory@@	86855
وف@@	86854
ites	86842
container	86834
°	86828
דה	86826
ارا@@	86814
سىز	86769
स्	86735
бора@@	86707
gay@@	86705
نى@@	86702
export	86697
eles	86696
wand	86693
mostra	86664
دې@@	86660
فت	86658
ช@@	86630
دىكى	86621
device	86588
guna	86586
milli@@	86584
hast@@	86583
常@@	86576
ез@@	86569
ינס	86536
tà	86500
modul@@	86498
德@@	86478
isto	86477
סטרי@@	86469
menu	86467
skir@@	86463
пта@@	86459
internet@@	86453
obraz@@	86452
sür@@	86434
neo	86402
grá@@	86378
iter	86377
dera	86368
থ	86365
edel@@	86357
rar	86356
בעי@@	86345
മ	86340
proj@@	86335
教育@@	86332
клиен@@	86319
अन्@@	86318
ogen	86316
desk	86314
كم	86310
imag@@	86280
disposable	86259
пти@@	86246
surface	86236
student	86231
infin@@	86224
valentine	86206
مض@@	86187
neh@@	86170
смо@@	86163
ไม่@@	86154
impresi@@	86117
dzo	86114
ник@@	86111
лися	86076
사	86074
фак@@	86054
ýt	86053
oral	86051
書@@	86036
adhesi@@	86029
して@@	86021
初@@	86017
nl	86007
tripod	86000
bf	85996
disse	85991
camisas	85965
eway	85959
वर@@	85950
тере@@	85947
jack@@	85945
zt	85920
resol@@	85892
evi	85884
يى@@	85881
मिश्र@@	85841
керами@@	85838
वो	85829
hidro@@	85826
robert	85824
nhận	85817
eos	85811
מקרה	85799
تت@@	85772
机	85765
esem@@	85764
sweaters	85747
prova	85747
ल्ड	85739
त्री	85727
yard	85721
स्टि@@	85715
bonnet	85711
luci@@	85697
wel	85694
bombil@@	85692
بق@@	85667
brazili@@	85658
火@@	85651
hammer	85647
hü@@	85624
川@@	85599
अल्@@	85583
muka	85564
ingin	85560
trực	85552
cosm@@	85547
jej	85519
תינוק	85506
道	85504
gospo@@	85501
pik	85501
大	85499
ред@@	85459
파@@	85456
sila	85443
полі@@	85440
प्राप्त	85438
пальто	85398
core@@	85397
uomo	85352
bearing	85327
який	85315
коль@@	85308
مسا@@	85305
стен	85283
터	85261
tigt	85248
sweat@@	85239
hier	85228
dp	85220
scu@@	85187
hoo	85175
स्पर्@@	85170
bullet	85162
natal	85162
tower	85150
recep@@	85117
нні	85114
tage	85099
ship@@	85099
mengenai	85098
emen	85096
batman	85095
лия	85085
код	85078
raum	85064
isy	85052
важ@@	85051
cảm	85011
pped	84977
แบบ	84964
kate	84941
agi@@	84941
aine	84939
thêm	84902
pras@@	84898
maan	84898
करना	84892
ब्ल@@	84892
ノ@@	84891
プ@@	84889
ement@@	84886
ジ@@	84864
ශ	84863
बंद	84859
umbrella	84845
фек@@	84843
פינ@@	84840
smart@@	84837
paper@@	84819
cola	84810
vert	84806
dos@@	84801
harry	84795
lich	84794
провер@@	84793
gold@@	84775
เซ็กซี่	84738
מל@@	84738
deco	84714
उसके	84702
marr@@	84699
ıc@@	84695
studi@@	84675
ボ@@	84664
arth@@	84660
斯@@	84643
twin	84640
lebi@@	84629
england	84623
skate	84597
त्	84595
than	84575
apartment	84572
vind@@	84570
caf@@	84570
ئۇ	84564
लोगो	84560
mang	84555
ధ	84553
ách	84547
decoración	84539
ета@@	84518
kereta	84516
airport	84507
aş	84479
eral	84465
ৎ@@	84462
сме@@	84458
ベ@@	84446
食@@	84443
diffuser	84439
бут@@	84418
ува@@	84414
vermel@@	84402
मुझे	84399
investing	84398
rest@@	84393
ique	84390
米@@	84379
chim	84375
mesa	84374
exterior	84356
صد	84319
وض@@	84316
गी	84311
О	84269
kili@@	84256
giúp	84247
करा	84245
gand@@	84241
zel	84235
quo	84209
atte	84208
ماس@@	84194
яз@@	84193
성@@	84189
jaj@@	84176
интер@@	84172
رى	84148
展@@	84127
过@@	84109
fund	84104
ethy@@	84103
चर	84100
madrid	84100
susu	84094
качество	84084
ماذا	84083
maillot	84067
shiny	84065
trước	84055
цей	84045
км	84041
pompa	84036
डबल	84034
позна@@	83999
تها	83994
resort	83978
phòng	83944
tn	83929
ору@@	83925
تز@@	83917
inten	83894
의@@	83886
vot	83881
also	83840
buka	83830
(	83805
dont	83799
์	83792
pog@@	83758
torch	83756
ark	83753
experi@@	83724
piano	83715
ቂ	83669
ձ	83667
мене	83665
zero	83656
أنه	83652
einen	83622
konum@@	83617
mariage	83612
jewel@@	83611
bebek	83610
fang	83601
式	83598
eras	83597
uten	83593
haben	83592
menj@@	83591
里@@	83589
dali	83552
gren@@	83550
ité	83550
خاص	83541
refires	83531
roma	83526
element	83492
ي؟	83490
афри@@	83489
古@@	83455
bric@@	83437
arma	83428
המ@@	83427
μ	83425
ไ@@	83416
teh	83410
два@@	83406
regl@@	83399
vint@@	83389
यों	83380
uses	83367
centre	83366
zes	83343
decorations	83342
tast@@	83319
table@@	83314
preg@@	83311
votre	83309
apor@@	83305
палі@@	83292
dodat@@	83280
sse	83267
fav@@	83263
func@@	83249
óg@@	83248
чехол	83243
xiang	83240
dex	83228
esu@@	83219
ሬ	83208
анти@@	83187
ṅ@@	83157
chic@@	83144
pusat	83141
bota	83125
xus	83117
чі	83106
片@@	83095
éra	83081
sensor@@	83075
पीएस	83059
anci@@	83039
واحد	82991
amazing	82976
›	82961
спец@@	82958
nails	82957
charles	82942
terr@@	82913
stars	82890
заво@@	82885
الل@@	82885
مني	82875
раз	82874
personaliz@@	82871
セ@@	82864
dou	82862
aton	82845
лин	82844
卡@@	82802
ఓ@@	82799
물	82789
tier	82786
野@@	82783
ł	82783
жка	82780
chy	82780
गई	82767
todos	82740
they	82718
grip	82709
सकते	82694
pull	82677
industria	82651
чне	82646
단@@	82641
alter@@	82602
ऊर्जा	82600
dynam@@	82591
פול	82587
कप	82582
batar@@	82577
authent@@	82575
engraving	82571
ملا@@	82557
figura	82552
urt	82549
세트	82545
sup	82541
fler	82520
brac@@	82520
mono	82506
prac@@	82471
ឃ	82460
educ@@	82441
室@@	82437
colar	82430
impor@@	82430
dand@@	82427
sr	82424
lên	82424
경@@	82350
نائ@@	82347
dır	82343
gram@@	82335
टॉप	82296
senti@@	82291
belle	82285
ถุง	82274
מעיל	82263
тв	82256
balik	82247
חו@@	82241
colgante	82216
太@@	82201
bhin@@	82200
์@@	82194
ќ	82188
серти@@	82150
carpet	82140
karbon	82138
газ	82096
odu	82093
vier@@	82071
장	82071
buz@@	82053
uki	82051
bras	82046
pick	82045
gloss	82045
काले	82038
promosi	82028
punk@@	82000
aksesuarları	81997
ضو@@	81995
noc@@	81992
oes	81981
कारी	81973
miner@@	81972
克@@	81967
happy	81964
вать	81951
iteit	81940
ット@@	81936
ational	81933
нення	81916
पार्@@	81910
把@@	81907
ंत्र@@	81906
ľ	81866
記@@	81862
ול	81840
syst@@	81838
بى@@	81812
visor	81812
scanner	81805
digitale	81804
يم@@	81795
usb@@	81785
גז	81771
покри@@	81764
मह@@	81761
सौर	81737
kimono	81737
нку	81736
sekolah	81735
quale	81733
could	81725
appro@@	81693
horn	81687
fos@@	81672
ћ	81650
merupakan	81647
eler@@	81647
мали	81612
เครื่อง	81611
ፅ@@	81602
song	81592
нен	81590
dùng	81572
compatible	81568
考@@	81565
inha	81557
collec@@	81544
فة	81544
著@@	81539
vall@@	81529
नई	81525
idad	81520
評論	81513
doek	81479
ласка	81479
aves	81472
세@@	81465
tombol	81445
ผู้ชาย	81413
selec@@	81412
ៅ@@	81408
רוק	81395
بىلەن	81392
장식	81391
ූ	81386
tentera	81368
onen	81355
下	81332
http	81330
मोती	81326
cing@@	81321
stud@@	81321
धि@@	81316
louis	81290
tif	81289
ори@@	81287
agua	81285
ိ	81279
bain	81278
clean@@	81276
сси@@	81267
적	81267
ern	81266
ferr@@	81254
рина	81210
perfec@@	81202
зд@@	81160
ون،	81157
tron@@	81155
sock	81155
apol@@	81115
sour@@	81085
球@@	81082
udo	81067
ular@@	81067
שול@@	81065
üm@@	81041
كنت	81035
exem@@	81029
thực	81024
brasil@@	81021
lipstick	81021
inclu@@	80997
נ	80985
page	80963
batería	80951
กางเกง	80947
compon@@	80917
قة	80909
props	80904
addi@@	80900
infr@@	80887
ones@@	80854
balloon	80849
almente	80849
knitting	80847
laborat@@	80846
ión	80843
phy@@	80841
aber	80801
版@@	80800
donne	80796
drone	80795
drag	80792
пом@@	80792
ज्या@@	80781
ainer	80750
सबसे	80731
beijing	80728
मॉ@@	80715
organic	80708
신@@	80708
yaş@@	80701
свети@@	80700
laur@@	80694
院@@	80678
xu	80669
पूर्@@	80644
april	80635
sue	80620
kelas	80617
hoop	80617
young	80592
bridge	80584
parça	80580
inya	80573
tempered	80572
mongol@@	80563
erde	80557
ceram@@	80548
קל@@	80542
ppe	80541
obd	80541
idas	80537
regular	80525
इसके	80515
loft	80489
kies	80482
porte	80481
ology	80473
бира@@	80472
müş@@	80470
jah	80461
тели	80453
phan@@	80452
коло@@	80450
лено	80437
ache	80436
تە@@	80431
recor@@	80418
ening	80398
gr	80373
فظ	80371
cleaning	80370
ट्रा@@	80347
рук	80339
бір@@	80328
아기	80315
maar	80313
spare	80313
меди@@	80310
amplifier	80300
system@@	80288
доста@@	80249
inks	80248
srebr@@	80246
해@@	80245
зра@@	80235
bê	80231
長	80230
east@@	80203
stamping	80194
वत	80193
ዜ@@	80187
林@@	80175
keramik	80159
broad@@	80150
lir	80134
求@@	80127
उन्हें	80127
kristall	80124
быть	80117
elektronik	80112
okay	80071
esh	80060
低@@	80050
what@@	80038
giri@@	80013
साहित्य	80004
ረ	79988
店@@	79987
が	79982
sible	79968
striped	79958
piercing	79933
dash@@	79924
『@@	79902
бле@@	79898
rot	79885
ycle	79874
mẫu	79871
định	79868
त्मक	79852
egg	79846
स्टे@@	79834
डिस्@@	79825
luminous	79823
lolita	79820
의류	79798
車	79795
лей@@	79793
け@@	79771
seat@@	79746
nozzle	79730
walker	79724
diameter	79721
money	79708
conduc@@	79702
bene	79695
laut	79687
言@@	79681
lex@@	79678
بين@@	79677
vang@@	79649
تې@@	79643
jata	79643
dollar	79593
กร@@	79571
лку	79560
pozn@@	79553
tras	79548
học	79537
mont	79527
ళ	79521
演@@	79521
washer	79515
скла@@	79472
स्वि@@	79469
kedua	79469
तो@@	79458
application	79433
лиза@@	79406
muff@@	79392
гол@@	79390
окру@@	79382
centro	79367
assembly	79360
त्ता	79358
lyn@@	79357
sempre	79349
सिक	79338
sar	79338
स्ट्र@@	79336
wiki	79333
viel@@	79330
thro@@	79299
monster	79298
زى@@	79295
َ@@	79291
membr@@	79284
תו@@	79281
inten@@	79276
grinder	79272
ple	79271
คุณภาพ	79269
病@@	79256
training	79242
चार	79239
navigation	79238
cust@@	79215
enos	79188
स्ता	79165
наша	79149
sione	79123
stig	79123
giy@@	79110
elec@@	79108
今@@	79104
fold	79092
chas@@	79087
carta	79084
eran	79077
curtain	79057
ष	79056
zenfone	79032
petit	79032
rü@@	78990
लिक	78984
после	78978
benar	78976
tunggal	78948
recorder	78940
ving@@	78939
送料無料@@	78932
xy@@	78928
mats	78927
nym	78924
pf	78920
реш@@	78918
波@@	78871
inov@@	78869
penis	78835
æ	78815
proses	78788
lü	78773
електри@@	78770
shine	78713
impermeable	78701
washington	78680
yp@@	78679
tnt	78650
ሺ	78620
स्टर	78603
produksi	78586
फर्@@	78569
info	78551
कार्टू@@	78548
проек@@	78540
ّ	78534
tez	78520
ู@@	78504
切@@	78497
quần	78495
jewell@@	78490
世界@@	78484
لىك	78467
शा	78459
aanse	78455
sud	78434
آخ@@	78423
cargo	78404
mekan@@	78390
业@@	78380
ڭ	78369
馬@@	78348
करता	78344
bonjour	78326
由@@	78319
boxer	78317
يت	78311
вил@@	78304
duck	78299
even	78283
खि@@	78267
nude	78266
分	78264
nero	78243
кан	78243
वॉ@@	78231
antena	78231
pú@@	78214
kost	78214
สามารถ	78212
фра@@	78189
思@@	78184
wash@@	78177
планш@@	78150
gaz	78149
дола@@	78147
bella	78147
여@@	78146
angk@@	78136
dịch	78129
tất	78119
запа@@	78110
れ@@	78108
tibet	78099
pendrive	78089
there	78075
italian	78073
році	78072
akin	78065
ông	78065
recy@@	78049
талия	78048
cal	78036
ഔ@@	78036
ям	78026
thấy	78018
अप	77999
定	77991
타@@	77987
dagen	77962
กับ@@	77957
stun@@	77952
cards	77947
jus@@	77945
curto	77937
gram	77922
нержаве@@	77917
vice	77915
üh@@	77907
lager	77907
bent	77903
engag@@	77891
דל	77886
aero@@	77876
קל	77852
كو@@	77843
ลิ@@	77842
ander@@	77834
走@@	77803
vela	77799
aver@@	77796
anche	77790
ארוך	77769
इल	77762
愛@@	77757
引@@	77752
komputer	77751
ilumin@@	77721
وأ@@	77699
ኑ@@	77698
बारे	77685
ኒ	77657
perfor@@	77650
素@@	77649
exist@@	77647
detector	77639
enter	77636
jaw@@	77629
онлайн	77623
silver@@	77622
चन	77612
pumps	77608
ಈ@@	77602
أع@@	77567
ፔ@@	77562
supaya	77539
báo	77530
fte	77529
calor	77528
enfant	77518
read	77512
सिंह	77510
رون	77462
網	77459
iting	77424
ጡ@@	77421
нин	77421
acces@@	77411
grill	77393
eux	77376
aring	77366
ጡ	77342
wenn	77330
說@@	77324
buc@@	77322
ська	77313
behand@@	77301
undang	77289
ght@@	77280
셔츠	77273
اني@@	77268
लौ@@	77258
dvb	77250
प्रि@@	77228
深@@	77222
kami@@	77212
رار	77205
cardi@@	77203
ها،	77175
جرا@@	77144
ூ	77127
무@@	77125
години	77107
enam	77091
время	77088
लों	77088
favor@@	77085
दल	77082
draw@@	77066
brill@@	77050
teil@@	77043
يست@@	77025
nte	77021
khusus	77016
headphones	77013
名	77012
format	77001
equip@@	76993
stur@@	76987
four@@	76982
background	76956
還@@	76955
listrik	76945
apabila	76944
md	76936
قا	76916
一	76916
件	76914
moc	76904
mx	76900
world@@	76894
cherry	76873
regar@@	76867
malam	76850
hasil	76840
भूत	76836
đổi	76829
夏@@	76829
בע	76810
чув@@	76781
один	76768
mop	76767
बन@@	76764
iec	76753
naj	76751
gloves	76741
games	76730
cac@@	76723
couple	76716
ढा@@	76715
flexi@@	76709
injec@@	76708
control@@	76706
तथा	76694
termo@@	76683
บาง	76682
企業@@	76673
inner	76673
russia	76666
ctr@@	76665
П	76664
lanc@@	76654
विस्तार	76653
jazz	76635
aura	76633
природ@@	76627
joe	76601
شار	76580
यार	76580
우@@	76579
รองเท้า@@	76566
thr@@	76564
sexo	76562
stelle	76555
ofic@@	76546
طي@@	76542
doğ@@	76510
mağ@@	76507
коли	76502
atı	76502
ciri	76490
trade	76478
ترا@@	76461
фото	76457
מותג	76455
амери@@	76454
यात	76451
進@@	76447
üs@@	76444
בה	76437
base@@	76433
الآن	76424
banana	76417
schoenen	76415
lokal@@	76407
ption	76394
пози@@	76385
اخت@@	76362
साल	76337
рей@@	76337
sanit@@	76331
scope	76330
moc@@	76321
plum	76313
שחור	76309
mall	76298
buddha	76295
stek@@	76280
drap@@	76279
cà	76277
כותנה	76269
에@@	76264
рік	76251
фла@@	76240
ፅ	76212
belly	76208
้@@	76199
тке	76198
मन@@	76194
ından	76184
profes@@	76178
usable	76169
ะ	76164
strong	76163
फु@@	76133
gratuit	76128
lengkap	76111
kö	76091
haar@@	76089
局@@	76087
tz@@	76081
anden	76064
chry@@	76064
cars	76063
首@@	76061
工程@@	76035
أخ@@	76031
envío	76014
eropah	76012
enkel@@	76010
ahl@@	75982
уро@@	75982
icio	75981
сбо@@	75977
combin@@	75976
ков@@	75965
ソ@@	75961
linear	75954
penj@@	75944
अन@@	75940
điểm	75936
innov@@	75928
luas	75904
커버	75904
sharp	75888
والت@@	75885
ない@@	75879
于@@	75870
poliester	75864
ury	75862
acağ@@	75856
أجل	75850
smith	75849
vorm	75825
村@@	75823
presid@@	75820
वायर@@	75795
buah	75777
eleganti	75776
กรณี	75766
còn	75757
posta	75754
тие	75752
योग्य	75742
落@@	75728
zast@@	75727
garis	75718
meccan@@	75714
dn	75706
clav@@	75702
ultraf@@	75699
її	75694
save	75688
теп@@	75682
africa	75661
ского	75653
mira	75649
प्रदान	75647
scan@@	75647
bly@@	75642
спорт@@	75637
oline	75632
asz@@	75613
פונ@@	75610
आपूर्ति	75609
petang	75595
ality	75593
ご@@	75589
axis	75586
éis	75575
ху	75572
भारतीय	75564
حقي@@	75547
cf	75546
вый	75542
डियो	75533
सुंदर	75532
กล@@	75525
קיץ	75522
unc@@	75504
fone	75498
вари@@	75467
zone	75450
junt@@	75449
fre	75448
ballet	75446
oty	75439
士@@	75436
haut@@	75426
nr	75421
utiliz@@	75411
bisnis	75401
spesifikasi	75398
entos	75378
bandung	75375
fog@@	75373
wash	75367
bers	75366
眼@@	75364
氣@@	75342
ኞ@@	75334
алю@@	75333
itar	75325
saiz	75324
вже	75314
אנג	75292
種@@	75290
tải	75287
titik	75277
baixo	75253
دە	75253
dela	75250
бери@@	75237
geometric	75231
적인	75208
unter@@	75198
corolla	75195
him@@	75170
illos	75167
zob@@	75163
basi	75153
seorang	75153
шар	75153
يتي	75140
angeles	75135
enger	75129
安全@@	75124
sä	75116
chaqueta	75115
deze	75110
db@@	75104
thị	75095
набор	75085
料@@	75073
рів	75061
ची@@	75034
작은	75033
ستا@@	75021
вечер@@	74990
telefoon	74989
нет	74983
alls	74965
хро@@	74962
telesco@@	74954
пен	74953
tamu	74946
snap@@	74919
cca	74918
klik	74885
當@@	74876
क्षेत्र	74871
тика	74852
casting	74824
vậy	74811
sır@@	74804
thanh	74798
连@@	74795
ओं	74793
pim@@	74791
gende	74788
기계	74783
방@@	74757
bias@@	74753
}	74750
голо@@	74741
gent@@	74735
場@@	74727
цього	74723
projec@@	74721
чем	74717
жил	74714
элеган@@	74707
ಓ@@	74703
bandana	74682
นำ	74670
сша	74648
付@@	74647
इंच	74641
swimming	74635
cold	74633
qing	74633
現@@	74628
respir@@	74628
pesawat	74625
ಖ	74619
উ	74613
معلومات	74599
legen@@	74594
modè@@	74589
zh	74577
punto	74569
ಶ	74567
שרי@@	74557
ekstr@@	74554
시계	74549
membantu	74547
sual	74539
thick	74532
气@@	74528
مك@@	74515
бю@@	74513
bebas	74492
then	74476
essen	74459
гали@@	74451
cage	74448
транс@@	74436
ጄ@@	74434
piet@@	74421
שרשרת	74416
baking	74409
candle	74396
saç	74387
又@@	74385
मीटर	74357
गए	74353
رات@@	74339
monit@@	74335
꽃	74320
sión	74313
gec@@	74307
caja	74298
نظام	74291
absol@@	74277
前	74251
دين	74231
nada	74229
вым	74221
nhau	74202
студен@@	74188
إذا	74182
biết	74176
선@@	74168
alih	74162
像@@	74155
roll@@	74154
ਏ@@	74154
耳@@	74151
eit	74143
強@@	74143
블랙	74141
bie	74129
solar@@	74121
proz@@	74111
çiz@@	74088
·	74073
ваше	74071
банк	74071
arma@@	74054
%@@	74051
dvi	74028
vie	74015
kart	74012
werk@@	73982
flores	73977
feed@@	73971
लग	73969
知@@	73961
pizza	73958
endo@@	73950
vip@@	73947
tener	73931
万@@	73922
инте@@	73921
especi@@	73908
suction	73901
半@@	73892
انت	73878
lato	73867
英@@	73838
дите	73821
alas	73812
цію	73810
house@@	73783
선물	73765
будет	73736
rover	73733
accessori	73732
тин@@	73724
فا	73719
aang@@	73696
ayu	73669
igu@@	73657
dari@@	73646
pler	73644
strap@@	73634
smit@@	73608
עיצוב	73607
stof@@	73594
право@@	73574
купи@@	73571
ceiling	73569
fpv	73560
باب	73557
Љ@@	73538
điển	73538
ettes	73530
香@@	73500
र्म	73478
nome	73462
чай@@	73456
gus@@	73437
fibre	73432
обо@@	73430
tref@@	73417
chten	73408
chas	73408
графи@@	73406
سن	73401
fica	73367
verpak@@	73361
lc	73354
reel	73345
parking	73343
ผ้า@@	73342
気@@	73339
load	73339
compan@@	73321
diper@@	73317
الاست@@	73292
出	73277
complete	73265
युक्त	73222
yun	73215
diret@@	73207
आभूषण	73203
built	73196
multimedia	73187
आर	73170
phần	73157
global@@	73153
friend	73146
пора@@	73138
meizu	73128
adop@@	73114
dijital	73100
kow@@	73100
tiết	73087
מצ@@	73082
वाला	73053
nac@@	73044
راي@@	73034
госпо@@	73030
trig@@	73026
advanced	73025
дне@@	73020
only	72997
شرا@@	72980
yle	72972
lina	72971
ого	72966
темпера@@	72957
わ@@	72950
kopi	72945
amor	72939
dekorasi	72934
chel	72918
две	72906
brushes	72887
lf	72880
thoại	72876
duur@@	72867
taille	72866
rich@@	72865
clay	72864
큰	72853
tên	72848
struc@@	72827
福@@	72824
助@@	72822
ด้วย	72807
ласти@@	72806
화	72804
အ	72802
trường	72801
सॉ@@	72799
स्कर्ट	72792
สาย	72790
preto	72784
फोटो	72758
zebra	72752
họ	72747
總@@	72744
styles	72737
eken	72720
curl	72703
tian	72689
보석	72678
ඒ	72678
ダ@@	72674
軍@@	72671
corpor@@	72662
الص	72645
чных	72642
pasangan	72630
क्त	72596
фер@@	72592
alem@@	72590
kret@@	72585
подарок	72554
roy	72518
blue@@	72502
unis@@	72498
بدون	72498
거@@	72497
ани@@	72495
काम@@	72489
아	72486
можна	72482
гна@@	72482
yg	72471
見@@	72470
гля@@	72464
perlindungan	72457
بنا	72439
באיכות	72426
jne	72422
ills	72419
über	72419
forme	72417
hent@@	72403
化	72397
排@@	72388
度	72380
indo	72370
كما	72358
rc@@	72355
щен@@	72353
वास	72353
मर्@@	72351
ال،	72342
elik	72337
sek	72337
резер@@	72331
ฤดูร้อน	72314
ዌ@@	72273
cem@@	72254
giảm	72238
machines	72237
фіка@@	72236
gio@@	72230
kabinet	72223
applic@@	72223
aten@@	72205
ठोस	72203
ister	72194
sign	72177
пря@@	72164
đối	72163
zaba@@	72159
रोक	72147
erd@@	72141
col	72140
sont	72123
pill@@	72120
ăn	72115
ティ@@	72111
aller@@	72106
ولي@@	72095
komp@@	72093
類@@	72089
pantaloni	72082
має	72081
respon@@	72078
housing	72067
实@@	72065
helmet	72060
服	72051
ड्राइ@@	72050
таж	72034
rev@@	72031
muk@@	72027
коми@@	72026
anten	72016
zyon	72010
بيا	71992
disponi@@	71992
hamp@@	71983
щоб	71981
stati	71972
level	71972
تس@@	71955
lampara	71950
woon@@	71949
cafe	71945
हाइ@@	71929
сть	71927
치@@	71911
вир@@	71911
melalui	71906
cô	71899
niki	71899
ถ@@	71897
kawasan	71896
boxes	71889
ลูกไม้	71871
dah	71862
patro@@	71860
associ@@	71860
film@@	71852
ministr@@	71811
urat	71808
ጆ	71807
производи@@	71791
ней	71774
кою	71773
住@@	71772
amai	71757
рекла@@	71748
crist@@	71739
free@@	71711
solutions	71710
anza	71704
фото@@	71702
zaman	71697
स्त्री	71697
ध्या@@	71689
bnc	71685
aż@@	71682
vì	71682
тах	71672
сп@@	71657
gl	71624
kler	71620
语	71612
ılar	71603
कभी	71593
grandes	71586
*@@	71576
weight	71567
พิมพ์	71565
कार्य	71555
포@@	71536
ider@@	71517
将@@	71512
نت	71507
لى	71501
理	71489
vehicle	71487
คุณ	71484
princesa	71464
zum	71458
video@@	71456
級@@	71451
deu@@	71441
telefoon@@	71433
मेरे	71413
профе@@	71383
र्म@@	71382
costumes	71378
бки	71358
tersebut	71356
все@@	71342
eyelash	71330
होती	71322
meis@@	71319
jana	71312
парамет@@	71306
sive	71302
بشأن	71299
hệ	71293
물@@	71285
ૉ@@	71273
間@@	71267
sung	71261
olie	71252
ڳ	71247
화@@	71208
دي،	71200
модели	71196
tant	71185
위해	71172
revol@@	71171
武@@	71168
utar	71166
atif	71136
എ	71133
amat	71133
saan	71130
день	71123
опера@@	71114
maqu@@	71091
вид	71083
ۋ@@	71066
чита@@	71062
ที่มีคุณภาพสูง	71058
sewing	71054
cek@@	71039
크@@	71034
kafe	71033
лася	71025
ความ	71023
评论	71022
え@@	71014
ส่ง	71013
아이	71000
ดอกไม้	70995
ще@@	70965
हन	70961
ਭ	70942
figur@@	70922
ਠ	70911
дирек@@	70900
ชาย	70892
bisog@@	70884
vídeo	70872
ได้	70864
fim	70856
土@@	70854
נה	70835
לה	70828
фран@@	70824
kiem	70819
паль@@	70817
pk	70808
hexag@@	70808
nhân	70801
פי	70794
ठे@@	70793
कृत	70789
vendita	70778
our@@	70765
houston	70765
времен@@	70755
فق@@	70754
datang	70749
האופנה	70746
kadın	70741
atic	70734
って@@	70731
makan	70725
ктор	70720
قى	70716
ፌ@@	70698
ağ	70670
लाइट	70664
كانت	70661
stock@@	70654
อ	70647
整@@	70643
סל	70640
デ@@	70623
عت@@	70607
subaru	70593
orden@@	70583
handlebar	70580
量	70576
boston	70575
sere	70554
najlep@@	70553
पचा@@	70553
taman	70552
yet	70546
wired	70532
ቫ@@	70530
微@@	70526
czy	70504
kemudian	70502
wich	70502
бикини	70481
任@@	70480
guide	70473
여름	70471
pillowcase	70466
未@@	70457
הק@@	70442
зага@@	70433
每@@	70421
नै@@	70408
server	70400
вор@@	70389
马@@	70389
river	70385
alen	70375
że	70371
dalla	70334
uts	70332
テ@@	70329
когда	70322
start	70301
final	70297
ciò	70289
caj@@	70278
此@@	70277
용@@	70243
час@@	70231
лли@@	70218
स्पष्ट	70212
ليل	70204
amber	70201
จะ	70199
okan	70196
pers@@	70186
لكن	70182
裝@@	70173
teles@@	70166
bı@@	70164
работа	70160
ประ@@	70156
wels	70140
maju	70139
tung	70138
siniz	70136
एन@@	70124
ฟรีค่าจัดส่ง	70121
бла@@	70119
ratu	70100
bout@@	70096
impri@@	70092
kontol	70088
uniform	70080
hend@@	70076
lớn	70065
قرر	70064
camis@@	70061
siyon	70060
çant@@	70055
นี้	70050
ጉ	70050
गी@@	70039
esco@@	70029
аж	70024
מח@@	70018
私@@	70012
wii	70008
luxo	69992
исто@@	69991
影@@	69988
balls	69976
materiale	69974
redi@@	69972
क्रे@@	69970
нами	69963
вона	69957
arab	69942
tiş@@	69938
घु@@	69931
dining	69924
abrigo	69919
门@@	69919
pendek	69918
bosch	69912
brick	69910
लट@@	69904
muzi@@	69904
见@@	69893
trit@@	69890
polarized	69885
tiếp	69884
berg@@	69884
backup	69883
سة	69860
ener	69857
報@@	69841
лого	69833
서	69831
河@@	69789
cheng@@	69786
лии	69781
ෛ@@	69781
intro@@	69781
lä	69774
ቤ	69773
woo@@	69767
worden	69761
ندا	69747
giant	69745
дело@@	69741
gris	69738
when	69732
hiệu	69729
共@@	69727
werden	69721
कां@@	69717
った@@	69713
personal	69705
وين@@	69697
seller	69693
ネ@@	69687
biasa	69656
пови@@	69650
ous@@	69648
gm	69646
aat	69638
inal	69633
attr@@	69631
ũ@@	69620
系@@	69604
maat	69600
victoria	69573
frozen	69564
esper@@	69563
коле@@	69559
palette	69552
бизнес	69546
dây	69543
şir@@	69530
टर@@	69525
клад@@	69505
ваку@@	69489
estra	69481
पक्ष	69478
чих	69474
bonsai	69465
उपलब्ध	69461
tale	69454
רות	69432
sors	69431
nintendo	69417
pow@@	69415
עבור	69413
}@@	69410
perso@@	69398
sebelum	69396
mastur@@	69392
kablo	69388
eding	69374
other	69350
يە@@	69338
ści@@	69327
הר@@	69316
jeden	69305
kanada	69305
atki	69301
फिल्@@	69293
पास	69283
sson	69261
моло@@	69245
cken	69243
натураль@@	69236
套@@	69224
tekst@@	69222
раб@@	69218
masalah	69201
tm@@	69197
จาก	69185
shen@@	69183
قان@@	69178
ቡ	69166
anı	69164
ออก	69157
kent@@	69155
ዴ	69139
न्न	69131
компью@@	69123
एच@@	69112
awai	69104
sling	69104
naam	69098
muur	69097
penting	69091
场@@	69069
अभि@@	69061
间@@	69058
أح@@	69058
acks	69056
كي@@	69048
cơ	69025
قل@@	69020
اللجنة	69013
נים	69007
ryn@@	69005
reflec@@	68987
ев	68986
tp	68967
inv@@	68964
кем@@	68959
elos	68957
квадра@@	68949
cùng	68938
जैसे	68928
인쇄	68917
personalizado	68916
cere	68916
第一@@	68903
jur	68896
credit	68880
umum	68878
జ	68878
plasma	68869
must@@	68868
विभिन्न	68855
رب	68817
ретро	68811
ock	68810
ground	68807
bp	68804
amazon	68804
sehingga	68801
stir@@	68799
ø	68799
adam	68790
جار@@	68784
slr	68783
assem@@	68777
जन@@	68773
wp	68772
ให้@@	68734
polic@@	68733
sukan	68708
gì	68707
コン@@	68701
transmitter	68677
olas	68673
grafik	68656
เม@@	68655
texas	68651
presa	68643
habe	68626
ские	68612
natura	68608
เครื่องประดับ	68605
sher@@	68597
laman	68572
agricul@@	68566
少@@	68566
आवश्यक	68564
产@@	68562
trimmer	68535
jauh	68529
समर्थन	68528
rotat@@	68509
aust@@	68498
ඞ@@	68498
американ@@	68479
校@@	68468
제품	68467
finder	68453
вай@@	68453
ever	68451
damen	68451
seluar	68447
قرار	68438
袋	68435
eyeliner	68433
ilan	68429
Г	68417
gers	68411
porto@@	68401
chr@@	68391
bamb@@	68387
digan	68385
जाते	68380
dung	68371
hart	68371
सफेद	68342
شى	68326
piston	68325
mouwen	68325
ار،	68314
fest	68310
dẫn	68288
लगा	68269
pun	68269
бам@@	68260
transformer	68260
크	68249
法	68235
право	68234
除@@	68232
giu@@	68229
大学@@	68227
auth@@	68220
етка	68212
कान	68190
าน@@	68186
partido	68183
stones	68178
puppy	68169
进@@	68165
सामान्य	68156
bd@@	68138
нього	68136
मिल	68135
tok@@	68134
fizi@@	68107
एकल	68105
茶@@	68101
冷@@	68100
並@@	68096
कृपया	68088
서@@	68082
भो@@	68051
ת	68041
toilet	68039
मे	68039
imperi@@	68023
gái	68021
skor@@	68010
полови@@	68003
makanan	67994
instit@@	67988
线@@	67988
yast@@	67980
abor@@	67978
دول@@	67976
हुई	67973
एवं	67964
แ@@	67959
мей@@	67954
four	67954
distri@@	67950
או	67949
начи@@	67935
ราคา	67921
nde	67918
yarn	67918
news	67912
খ	67895
cart	67893
وجه	67891
يش	67877
knob	67869
มือ	67868
lor	67821
bum	67815
cambi@@	67806
detail@@	67805
яка	67797
czy@@	67788
प्त	67776
ronde	67753
市	67751
awat	67739
סינ@@	67727
ution	67723
بول	67712
natuur@@	67697
hast	67697
vip	67675
annya	67674
衣	67666
fare	67664
cái	67655
tengah	67646
aktu@@	67643
çok	67634
wc	67623
дол	67619
fter	67616
mineral	67609
portu@@	67603
peralatan	67595
đi@@	67586
ቷ@@	67582
blaz@@	67579
woofer	67579
มา@@	67576
ंबर	67570
لك@@	67563
피@@	67540
devi@@	67522
stabili@@	67516
링	67501
كې@@	67499
дами	67486
vinil	67484
ort@@	67476
يان	67475
corpo	67453
metaal	67452
prefer@@	67448
gafas	67446
presente	67441
collins	67433
hati	67424
maria	67416
单@@	67389
tori@@	67379
waf@@	67375
tec	67367
ඍ@@	67359
smar@@	67356
bing@@	67355
вес@@	67354
ี	67347
autor@@	67347
satis@@	67341
ауди@@	67330
porte@@	67330
መ	67320
pn	67316
הוא	67293
чека@@	67289
धू@@	67283
вим	67279
hát	67276
لاح@@	67275
hey	67267
उनकी	67255
ideal	67255
kne@@	67245
面	67231
мотоцикл	67223
ange@@	67215
תי	67201
ahli	67191
bob@@	67185
します	67184
butt	67176
japon@@	67167
яти	67145
裙	67130
นิ@@	67105
ноутбу@@	67105
empresa	67103
स्थि@@	67101
illas	67099
您@@	67098
ጠ	67098
cine	67096
прес@@	67083
trum	67081
против	67076
cotone	67075
黑@@	67062
registr@@	67039
pg	67036
طل@@	67030
viv@@	67012
सामने	67012
кін@@	67001
يجب	67000
سأ@@	66999
鞋@@	66996
які@@	66995
лье	66965
якщо	66958
teknologi	66946
グ@@	66932
stad@@	66930
ผ้าฝ้าย	66926
idor	66884
vụ	66858
цвет@@	66845
रत@@	66814
سې@@	66812
良@@	66805
टिंग	66804
show@@	66797
राज्य	66782
pegatinas	66777
ули@@	66775
disi@@	66773
roda	66770
nella	66769
ฤดูใบไม้ร่วง	66763
wars	66759
spro@@	66757
чный	66746
ديل	66726
ліка@@	66720
stamp	66717
condu@@	66716
nm	66716
hell@@	66714
ый	66708
çelik	66705
קצי@@	66695
impi@@	66690
jumper	66684
dog@@	66660
viên	66657
sey@@	66606
terra	66597
temps	66591
платье	66590
abili	66589
brinquedos	66579
biqu@@	66574
tings	66557
onto	66556
визи@@	66555
crop	66553
영@@	66545
lapisan	66541
стра	66540
host@@	66539
бка	66531
product@@	66530
instrument	66527
uff@@	66523
레이스	66521
ツ@@	66504
health	66498
tol	66497
гли@@	66496
มาก	66495
mexico	66463
sert	66457
้า	66447
ब्रे@@	66443
הח@@	66438
nhật	66434
isme	66430
สามารถ@@	66409
pelanggan	66402
удоб@@	66383
secon@@	66369
段@@	66368
gadis	66365
gam	66363
סתיו	66361
çar@@	66360
ෑ	66352
kles	66333
receiver	66333
الط@@	66329
전화	66326
verse	66323
thor@@	66298
same	66292
hava	66277
speelgoed	66274
island	66264
trä@@	66242
底@@	66241
apping	66235
पूर्व	66232
ดี@@	66228
حق	66222
치	66220
daily	66219
richard	66208
हमारे	66196
arts	66188
सल	66171
pens@@	66150
この@@	66145
evol@@	66124
famili@@	66122
经@@	66121
grafi@@	66116
snake	66111
kommen	66103
bler	66102
escal@@	66099
memoria	66073
फ्ट	66062
型	66061
ෞ@@	66058
мети@@	66050
带@@	66038
поз@@	66028
لته	66027
lò	66024
버@@	66017
juan	66006
comb	65974
orecchini	65968
tracksuit	65964
spider	65961
iel@@	65960
polar@@	65946
戦@@	65941
nós	65941
니@@	65937
interess@@	65935
especial	65923
ників	65921
rif@@	65908
интере@@	65908
диспле@@	65902
мир	65897
ント@@	65879
categ@@	65875
आरामदायक	65861
коман@@	65861
個	65850
바지	65842
hes	65839
lembut	65838
synthetic	65829
ign@@	65820
abile	65817
طة	65816
plana	65814
mangas	65787
цій	65784
maat@@	65779
hành	65776
अगर	65761
اله	65756
क्षक	65754
غان	65752
damskie	65741
就是@@	65733
便@@	65730
psy@@	65729
енер@@	65723
xay	65719
ensi	65716
ungi	65715
minut	65701
cej	65690
anah@@	65686
करा@@	65681
ений	65681
nio	65674
только	65668
ឯ@@	65661
магни@@	65658
phụ	65657
новый	65641
even@@	65639
anse	65632
hac@@	65616
记@@	65615
simpl@@	65610
لان	65607
coo@@	65604
בים	65600
rame	65587
대	65585
much@@	65584
charac@@	65582
案@@	65577
这@@	65577
phát	65577
ecu@@	65573
кампа@@	65571
कस्टम	65564
shadow	65562
pinggang	65562
minimum	65561
mandala	65541
סג@@	65525
่@@	65513
eléctr@@	65499
hör@@	65491
圖@@	65487
應@@	65479
مە@@	65468
装	65449
रुचि@@	65446
sement	65444
біля	65443
ivo	65442
trag@@	65434
pling	65425
aé@@	65419
etu@@	65416
tivo	65415
germany	65415
alian	65410
islam@@	65402
אי	65401
paste	65398
drawing	65396
élé@@	65394
وفي	65388
caus@@	65384
श्रृंखला	65381
सब@@	65372
gala	65372
ኖ	65350
awal	65349
華@@	65340
зам@@	65332
ruang	65331
sandalias	65327
paz	65326
थे।	65323
घट@@	65318
trak	65301
कालीन	65287
自己@@	65284
tâm	65281
wiper	65278
publ@@	65277
在	65246
वर्ष@@	65233
dé	65213
licht	65206
california	65196
คุณ@@	65173
лись	65172
dav	65166
套	65153
perfume	65152
تلك	65151
טור@@	65149
iniz@@	65143
stim@@	65143
chine	65138
tights	65136
acu@@	65129
riman	65128
gaun	65121
hada	65118
ides	65115
미니	65115
ait	65103
skon@@	65100
ഈ@@	65097
वाली	65094
mil	65091
лая	65091
сама	65082
ellen	65079
تعل@@	65075
playa	65067
perru@@	65060
rado	65049
gaming	65045
स्मा@@	65027
метри@@	65026
более	65024
marble	65007
уч@@	65004
多	64989
reis@@	64966
tony	64962
biểu	64948
beli@@	64941
ھە@@	64934
ล	64929
chor@@	64925
吸@@	64923
вле@@	64896
onom@@	64894
يات	64886
tata	64873
dian@@	64861
perusahaan	64847
可能@@	64845
ิ@@	64835
ским	64826
鞋	64819
класси@@	64817
ride	64813
gwar@@	64808
等	64806
ंद@@	64786
велосипед	64764
amd	64751
다른	64750
joker	64749
非@@	64749
रह@@	64746
إن	64742
been	64740
फिल्म	64731
depil@@	64729
uning	64725
उन@@	64697
meisjes	64689
क्ला@@	64688
eyes	64668
eid	64651
pelbagai	64649
дон@@	64641
차	64641
reser@@	64637
pendientes	64636
호@@	64631
增@@	64619
cámara	64618
विरोधी	64615
करी@@	64608
كن@@	64604
draag@@	64602
việt	64601
راف	64599
zapatillas	64586
carregador	64576
gauge	64575
भर	64575
послед@@	64574
прин@@	64567
fitur	64564
nay	64564
swarovski	64560
klub	64555
רגי@@	64552
вна	64548
बॉल	64539
يع@@	64536
теля	64536
好	64531
eyelashes	64505
henry	64493
مار	64465
valent@@	64462
स्टो@@	64459
install@@	64458
中心	64455
개@@	64437
ungs@@	64434
「	64425
يا،	64423
คู่	64420
вої	64417
חם	64377
ее	64376
consul@@	64371
lane	64363
reali@@	64357
cay@@	64355
르@@	64324
cetakan	64289
alna	64285
можно	64280
八@@	64277
иде@@	64274
הש@@	64253
فى	64252
turquoise	64236
крас@@	64236
eerde	64231
வ	64229
primer	64223
經@@	64215
дове@@	64209
astra	64205
วัสดุ	64202
dễ	64201
brus@@	64201
asis	64198
antas	64196
kek	64170
relay	64166
goud	64163
थी।	64157
feb	64152
elimin@@	64148
suhu	64136
glow	64132
優@@	64117
pari@@	64110
anjing	64107
ตกแต่ง	64095
vietnam	64079
raya	64076
روع	64045
одно@@	64040
precis@@	64036
хо	64026
jelas	63991
shift	63979
आदेश	63978
网@@	63972
мін	63971
aven@@	63958
willi@@	63954
מד@@	63948
ဌ@@	63939
pour@@	63936
мужчин	63934
ню@@	63915
千@@	63908
jah@@	63898
ulan	63892
дов	63883
계@@	63874
率@@	63871
safe	63864
cil	63855
акри@@	63845
їх	63838
grund@@	63832
לו	63827
vase	63782
aram	63775
coco	63773
배@@	63772
›@@	63753
twi@@	63748
ık	63746
distr@@	63741
血@@	63733
corret@@	63726
piel@@	63718
ਓ@@	63718
propor@@	63716
host	63710
tool@@	63701
dien	63698
талі@@	63692
£	63685
兩@@	63681
หมวก	63673
गे	63661
menarik	63653
आई	63617
лив	63602
版	63592
入	63583
remaja	63576
ധ	63574
дж	63574
vern@@	63566
giờ	63563
ável	63562
पण	63556
console	63549
mek	63537
baño	63535
edes	63535
moti@@	63521
тся	63516
hub@@	63509
jane	63502
ञ@@	63501
beho@@	63498
ggy	63497
popol@@	63455
atter@@	63452
kinder	63442
elke	63429
teraz	63427
sud@@	63409
מת	63404
xing@@	63385
す@@	63365
hotel@@	63358
sauna	63357
שמלות	63357
ót	63354
讓@@	63340
vertical	63331
foundation	63330
위@@	63324
some	63318
jej@@	63315
рын@@	63305
skirts	63304
зада@@	63300
ipad@@	63292
dewasa	63292
đu@@	63287
items	63285
carr@@	63283
ជ	63271
einem	63270
ются	63266
которые	63262
중@@	63255
pengguna	63238
ump@@	63230
बच@@	63217
trình	63216
наз@@	63206
本	63205
tete	63195
emis@@	63191
services	63183
pelle	63177
gä@@	63170
פה	63166
संपर्क	63158
ئۆ@@	63148
يف@@	63143
heeft	63142
ahkan	63138
sized	63134
explo@@	63119
çantası	63117
時	63099
sq@@	63099
access	63091
bec	63084
具@@	63080
cantik	63055
fred	63055
igt	63055
變@@	63044
arduino	63043
حة	63043
кий	63037
labor@@	63032
mouth	63026
puer@@	63023
tün	63021
صحيح	63008
הד@@	63005
ження	63002
وز	63002
sạn	62981
स्वय@@	62980
ऐ@@	62972
節@@	62963
libro	62961
דק	62943
ес	62937
bank@@	62935
descri@@	62933
cookie	62930
持@@	62927
administr@@	62918
داش@@	62911
pais@@	62907
發展@@	62906
她@@	62897
schi@@	62891
ทำ	62882
gửi	62875
表	62866
sı	62862
σ	62846
rein@@	62833
ських	62821
мень	62815
naruto	62814
лов	62806
linea	62801
philips	62799
لىرى	62792
造@@	62790
ップ@@	62786
abad	62785
प्रक्रिया	62783
eros	62773
нува@@	62755
abı	62754
בר	62746
джер@@	62739
pequeno	62732
bukan	62727
된	62722
lagen	62718
каж@@	62706
pihak	62702
vamp@@	62702
ła	62696
bril@@	62685
地	62683
служ@@	62676
बटन	62671
ቨ@@	62658
чник	62649
roman	62648
ロー@@	62640
lâ@@	62616
ऐसे	62614
sans	62611
ሴ	62607
разли@@	62603
shaped	62600
い	62595
ዶ	62585
음@@	62583
suc@@	62574
transmis@@	62561
соро@@	62555
सब	62555
램프	62554
อุปกรณ์	62554
sein	62553
給@@	62537
ther	62535
Ү@@	62532
тым	62529
место	62529
เงิน	62526
מכ@@	62522
발@@	62519
toon	62518
услу@@	62517
мии	62514
達@@	62507
estar	62506
lic	62495
ней@@	62489
ア	62486
tér@@	62486
aging	62476
tambahan	62461
geria	62452
german	62451
เ@@	62451
ered	62446
قائ@@	62441
логі@@	62438
comfort	62431
ที่มี	62429
पाठ@@	62429
lamps	62420
condition@@	62413
stad	62386
ール	62383
çün@@	62378
ших	62373
गण@@	62372
ไม่	62370
然@@	62370
ів	62363
wet	62359
nite	62358
חולצה	62355
สีแดง	62355
tw	62351
adet	62348
uhan	62330
boek	62309
सो	62301
제	62299
đơn	62290
gusto	62286
ँ	62285
вт	62262
ディ@@	62253
तों	62238
是	62229
tạo	62225
tür@@	62224
식	62198
corte	62196
ожере@@	62195
тий	62193
ഛ@@	62190
stroller	62183
optik	62179
महिलाओं	62162
sami	62153
elde	62131
категорія	62126
extrac@@	62119
кора@@	62117
帶@@	62104
hart@@	62091
عندما	62088
热@@	62083
oxy@@	62080
mayo	62073
ック	62057
кола@@	62054
gina	62050
meu@@	62045
머리	62040
etten	62040
หรือ	62031
jul	62030
acja	62024
양@@	62000
لب	61995
موض@@	61990
цт@@	61987
stimul@@	61987
jp	61973
fitting	61961
virtu@@	61953
elit@@	61940
dawanda	61932
webcam	61930
ਏ	61930
мла@@	61926
facebook	61908
isse	61896
플라스틱	61892
cargador	61889
एल्यू@@	61888
ход	61885
าย	61880
opener	61879
jumlah	61878
sey	61877
compos@@	61874
现@@	61873
yêu	61863
ões	61857
voir	61846
मज@@	61842
води@@	61841
soporte	61840
уста@@	61833
nghĩa	61829
карти@@	61816
гай@@	61815
ube	61797
男	61795
專@@	61787
intellig@@	61783
reflek@@	61776
होते	61771
已@@	61770
lol	61767
bateri	61765
види@@	61760
線	61759
claus	61757
сенсор@@	61756
推@@	61746
сумки	61739
еним	61738
hồ	61737
व्यापार	61735
суд@@	61735
סדר	61716
قات	61712
asal	61708
afric@@	61694
kole@@	61692
animals	61685
serat	61662
さ@@	61653
상	61646
م؟	61639
вот	61638
bagaimana	61617
женские	61615
coklat	61614
bulbs	61613
construc@@	61611
лит@@	61609
vise	61606
contin@@	61604
akala	61595
punch	61580
ಎ	61560
harmon@@	61559
поль@@	61557
haar	61541
आदि	61539
चू@@	61536
luft@@	61535
ży@@	61525
حت@@	61522
placa	61517
وغ@@	61507
minist@@	61503
hyper@@	61496
glue	61490
शु@@	61488
관@@	61476
програ@@	61473
tight	61471
語@@	61460
тами	61453
상자	61434
toàn	61428
県@@	61422
cole	61418
konsum@@	61414
לבן	61409
水	61383
else	61374
isko	61373
plas@@	61366
chon	61362
לש@@	61362
यक	61356
leon@@	61354
standar	61349
單@@	61346
bond	61344
بعض	61340
carav@@	61339
nyaman	61332
tamp@@	61331
кто	61321
노@@	61310
park@@	61305
status	61298
店	61296
koper	61280
ندو@@	61280
早@@	61280
чок	61273
fans	61265
esan	61255
ऐसा	61253
matrimonio	61252
xm	61242
jetta	61240
suis	61239
रूप@@	61239
प्रिंट	61232
brau@@	61231
себе	61230
memiliki	61228
semasa	61222
bour@@	61210
eniu	61196
коно@@	61187
gim	61185
reading	61178
полиэ@@	61159
ols	61150
abili@@	61144
실@@	61131
板	61128
lata	61108
मिश्र	61098
leta	61096
sui	61083
років	61083
voiture	61082
हित	61078
شر	61061
жки	61059
sui@@	61056
мето@@	61054
dzieci	61051
khaki	61050
质@@	61033
نة	61033
دام	61018
аген@@	61016
粉@@	61010
अमेरिका	60998
energie	60988
겨울	60983
واس@@	60975
ಛ@@	60947
ód	60946
гро@@	60943
זהב	60942
bawa	60941
mental	60936
beta	60930
віль@@	60928
캐주얼	60925
ध्यम	60916
अप@@	60903
basket@@	60894
син	60885
simp@@	60875
suka	60873
kembali	60867
sette	60857
लेकर	60853
requir@@	60836
continu@@	60834
ย	60826
查@@	60812
pok	60805
blocks	60800
màn	60785
dictionary	60783
景@@	60779
合	60777
جز@@	60773
arriv@@	60772
зелен@@	60770
الات	60768
สาว	60767
ポ@@	60756
diad@@	60755
会	60751
אחת	60747
filem	60741
konfer@@	60729
생@@	60727
дета@@	60720
वार्@@	60719
dji	60716
regel@@	60714
數@@	60710
ماد@@	60707
टम	60702
жите	60700
edin@@	60692
mk	60688
运@@	60681
сигна@@	60672
cone	60666
marvel	60664
شنى	60656
ــ@@	60651
дка	60648
flamingo	60647
tb	60642
palm	60642
pian@@	60622
स्क	60620
सां@@	60619
نجا@@	60618
kuat	60613
洗@@	60612
remov@@	60608
रण@@	60604
bangan	60603
പ	60559
列@@	60555
ornament	60553
indah	60549
企业@@	60547
模@@	60542
ees	60541
外	60535
daje	60524
aties	60523
作	60520
alcatel	60515
材@@	60506
camisola	60503
vc	60485
印@@	60481
กัน@@	60474
роди@@	60468
ाई	60458
const@@	60457
etic	60456
bull	60456
aps	60446
мало	60441
دە@@	60435
italy	60428
sv	60419
תחרה	60416
сок	60416
talon	60416
chai	60409
рез@@	60405
poi	60401
뜨거운	60387
etro	60378
กล่อง	60362
sb	60361
typ	60353
生活@@	60351
ंडा	60343
도착	60306
mobili@@	60286
scen@@	60284
यात्रा	60281
disco@@	60274
уні@@	60268
giới	60267
حتى	60265
prints	60255
adem@@	60245
available	60236
transfer@@	60198
ภาพ	60187
due	60186
לב	60175
cylinder	60174
quin	60171
новых	60163
sponge	60160
мом	60152
調@@	60144
bluza	60139
لح@@	60133
була	60129
wij@@	60101
ilk	60101
nói	60101
即@@	60091
temperature	60087
tind@@	60085
强@@	60068
maz	60065
pies	60053
гія	60049
teknik	60049
anus	60045
प्रमुख	60042
сени	60039
ļ	60039
парта@@	60036
questo	60033
產品@@	60028
ног@@	60024
abl@@	60022
फी	60019
minh	60008
רזי	59993
нача@@	59991
gerne	59982
Ө@@	59979
yaz	59974
च्च@@	59962
اله@@	59959
दर@@	59949
sizin	59948
psi@@	59947
結@@	59943
ඵ@@	59940
intelig@@	59932
dka	59932
simil@@	59923
ִ@@	59917
tuyến	59914
ඊ	59910
keras	59910
чного	59908
diz	59894
zes@@	59887
文化@@	59877
opy	59867
colored	59865
घे@@	59859
alg@@	59854
мину@@	59844
konf@@	59841
áp	59817
quete	59813
dasar	59810
cubic	59805
طلب	59805
תי@@	59797
tactical	59794
เอ@@	59793
olduğunu	59785
magni@@	59778
стой@@	59766
架	59762
puli@@	59761
bande	59734
terdapat	59734
彩@@	59721
pog	59712
코@@	59704
ं।	59700
क्रम	59684
식@@	59683
षक	59673
तः	59669
luk	59660
質@@	59651
tz	59648
جميع	59642
antar	59640
afro	59634
phoenix	59624
celana	59624
сій@@	59615
pantai	59597
kosti@@	59584
สไตล์	59584
nature	59578
hifi	59577
ities	59576
حل@@	59569
语@@	59559
hic@@	59556
partic@@	59555
paar	59553
bero	59542
说@@	59538
ברו@@	59530
साध@@	59525
clean	59508
mengambil	59472
ês	59466
pedra	59461
一个@@	59460
volt@@	59459
dompet	59458
ที่มี@@	59446
onton	59445
길이	59443
noite	59420
mam	59408
desire	59403
ppi	59386
conce@@	59382
muş	59368
bibli@@	59356
कोर	59353
pels	59353
стали	59347
models	59347
ición	59346
akumul@@	59344
nha	59343
利用@@	59341
щи	59331
่ง	59315
foli@@	59312
музи@@	59310
lık	59308
ሌ	59306
bathing	59305
atos	59299
بىز	59290
filtre	59279
otomatik	59277
لين	59272
док	59271
감@@	59256
dita	59245
पृ@@	59236
للم@@	59229
九@@	59225
concr@@	59225
enkele	59215
kins	59211
embossing	59205
비	59202
selatan	59195
[...]
